#include "network_data.h"

ai_handle ai_network_data_weights_get(void)
{

  AI_ALIGNED(4)
  static const ai_u8 s_network_weights[ 8792 ] = {
    0x75, 0xe5, 0x10, 0xbe, 0x6e, 0x16, 0x4f, 0x3e, 0x69, 0x41,
    0x02, 0x3f, 0x17, 0x85, 0xbe, 0xbe, 0x5f, 0x38, 0xa7, 0xbd,
    0x54, 0x46, 0x03, 0x3b, 0x56, 0x88, 0x44, 0xbe, 0x14, 0x06,
    0x99, 0x3e, 0xa3, 0x1c, 0x22, 0x3e, 0x89, 0x43, 0xa5, 0xbe,
    0x5a, 0x5a, 0x87, 0x3e, 0x51, 0xaa, 0xcd, 0x3e, 0xb4, 0x5c,
    0xeb, 0xbd, 0x90, 0xcc, 0x32, 0xbe, 0x2b, 0x08, 0xb8, 0xbe,
    0x3e, 0x4a, 0xd0, 0xbe, 0xe1, 0x00, 0xc3, 0xbe, 0xd5, 0xf4,
    0x4c, 0xbd, 0x7b, 0xc2, 0x17, 0x3e, 0xee, 0x8b, 0x85, 0xbe,
    0x54, 0xbb, 0x92, 0x3a, 0x11, 0xb4, 0xeb, 0x3e, 0x0d, 0xc6,
    0x27, 0x3a, 0xf2, 0x32, 0xdb, 0xbe, 0x3a, 0xa1, 0x66, 0x3e,
    0xe0, 0x2c, 0xcc, 0x3e, 0xb1, 0x2b, 0xb5, 0x3e, 0x17, 0x63,
    0xae, 0x3c, 0x50, 0xb1, 0x6f, 0xbb, 0x9b, 0x90, 0x8b, 0x3e,
    0x05, 0x63, 0x04, 0x3f, 0x81, 0x02, 0xe1, 0x3e, 0xca, 0x77,
    0x54, 0x3d, 0x87, 0x6b, 0xc3, 0x3e, 0xa2, 0x5c, 0xed, 0x3e,
    0x17, 0x77, 0x7b, 0x3e, 0x7d, 0x69, 0xc4, 0x3d, 0x24, 0xaf,
    0x07, 0x3e, 0xbe, 0x03, 0x45, 0x3d, 0x70, 0xf9, 0x9d, 0x3d,
    0x9e, 0xc8, 0x35, 0x3e, 0x7d, 0xc3, 0xda, 0xbb, 0xfc, 0xbf,
    0xc5, 0x3c, 0x1e, 0xb6, 0xbf, 0x3d, 0x50, 0x3e, 0x52, 0xbd,
    0x59, 0x4c, 0x91, 0x3e, 0xb9, 0x5d, 0x02, 0x3e, 0x83, 0xab,
    0x2d, 0xbe, 0xac, 0xea, 0x6e, 0xbe, 0xb4, 0xcc, 0xf4, 0xbd,
    0x9f, 0x0f, 0x1e, 0x3d, 0x40, 0xd1, 0x05, 0xbe, 0xfc, 0x3a,
    0x26, 0xbe, 0x8d, 0x5b, 0x85, 0xbd, 0x4e, 0xd7, 0x7a, 0x3e,
    0xe7, 0x70, 0x6a, 0x3e, 0xe6, 0x3a, 0x27, 0x3e, 0x48, 0x3d,
    0x97, 0xbd, 0x6c, 0x67, 0x00, 0xbe, 0xf6, 0x1f, 0x1f, 0xbe,
    0x47, 0xc9, 0xd1, 0x3d, 0x67, 0x9c, 0x4f, 0x3d, 0xf5, 0xc3,
    0x1e, 0x3b, 0x06, 0xb4, 0x78, 0xbe, 0x71, 0xc6, 0x3c, 0x3e,
    0x48, 0xa3, 0xbd, 0x3c, 0x8e, 0xb5, 0x06, 0x3e, 0x9a, 0x3b,
    0x46, 0x3e, 0x97, 0x6a, 0xa9, 0x3c, 0xe5, 0x43, 0xd6, 0xbd,
    0xd9, 0x88, 0x26, 0xbe, 0xcf, 0x4e, 0x4b, 0x3d, 0x23, 0xf5,
    0x45, 0xbe, 0x91, 0x5a, 0xc1, 0xbd, 0x94, 0x65, 0xa1, 0x3d,
    0xcc, 0xea, 0x8c, 0xbe, 0xfb, 0x42, 0x8a, 0x3d, 0x3d, 0xc3,
    0xaa, 0x3e, 0xb5, 0xd5, 0x4e, 0xbe, 0xc2, 0x22, 0xce, 0x3d,
    0x4e, 0xbc, 0x56, 0xbe, 0x75, 0x80, 0x30, 0x3e, 0xc2, 0x92,
    0x56, 0x3e, 0x6f, 0x25, 0x41, 0xbe, 0x3c, 0xce, 0x78, 0x3e,
    0xc6, 0x24, 0x99, 0xbd, 0xf4, 0xef, 0xf2, 0xbb, 0xd5, 0xa0,
    0x0b, 0x3e, 0x51, 0xf0, 0x94, 0x3b, 0xc4, 0xd2, 0x0a, 0x3e,
    0xc3, 0xc9, 0x10, 0x3e, 0x07, 0x83, 0x00, 0x3e, 0x12, 0x67,
    0x1f, 0x3d, 0x37, 0x14, 0x9a, 0x3c, 0xe5, 0x47, 0x3c, 0xbe,
    0x5d, 0xb4, 0xd1, 0x3d, 0xeb, 0x4e, 0x69, 0x3e, 0x72, 0xa7,
    0x5b, 0x3d, 0x38, 0x55, 0x3e, 0xbe, 0xbf, 0x4c, 0xb2, 0x3c,
    0x9e, 0xae, 0x19, 0xbe, 0x32, 0xb0, 0xe7, 0x3c, 0xb3, 0x9c,
    0x52, 0xbe, 0x76, 0xa2, 0xd2, 0xbb, 0x9b, 0x88, 0x2f, 0x3e,
    0xe0, 0xe7, 0x91, 0x3e, 0x74, 0xb4, 0x33, 0x3c, 0x39, 0x6e,
    0x86, 0xbe, 0xfe, 0x9e, 0x0e, 0xbe, 0xe9, 0xd5, 0x46, 0x3e,
    0xc6, 0x8c, 0x08, 0x3e, 0x22, 0x09, 0xd1, 0xbd, 0xbd, 0x41,
    0x8b, 0xbe, 0xfd, 0xd5, 0x70, 0x3e, 0xe8, 0x36, 0x8b, 0x3d,
    0x66, 0xb1, 0x76, 0x3e, 0x89, 0xdd, 0x60, 0xbe, 0x4d, 0xa1,
    0x79, 0x3e, 0x08, 0x4e, 0x07, 0xb9, 0x77, 0x92, 0xa5, 0xbc,
    0xaa, 0x74, 0x45, 0x3c, 0x0c, 0x23, 0x1b, 0xbe, 0x00, 0x53,
    0xc3, 0x3d, 0x88, 0x53, 0x71, 0x3d, 0x39, 0x0c, 0xb4, 0xbd,
    0x85, 0x45, 0x35, 0xbd, 0x75, 0x91, 0x7b, 0x3e, 0x16, 0xa5,
    0x68, 0xbd, 0x03, 0x57, 0x6b, 0xbe, 0x2b, 0x1f, 0xec, 0xbd,
    0x80, 0x50, 0x00, 0xbe, 0x2d, 0x86, 0x31, 0xbe, 0x67, 0x40,
    0xfb, 0x3c, 0x38, 0x41, 0x4f, 0x3e, 0x78, 0x26, 0xeb, 0x3d,
    0x39, 0x7b, 0xaa, 0xbc, 0x7b, 0x1d, 0x73, 0xbe, 0x1e, 0x08,
    0x11, 0xbe, 0x0a, 0x10, 0x09, 0x3e, 0x33, 0x8a, 0x72, 0x3e,
    0x34, 0x0d, 0x92, 0x3d, 0xfd, 0x81, 0x74, 0x3e, 0xbb, 0xbc,
    0x29, 0x3e, 0xe5, 0x8e, 0x05, 0xbe, 0xf5, 0xe2, 0x37, 0xbe,
    0x53, 0x0e, 0x08, 0x3e, 0x09, 0x88, 0x1d, 0xbd, 0x83, 0xc4,
    0xdd, 0xbd, 0x7e, 0xdb, 0x45, 0x3e, 0xbe, 0x6f, 0x80, 0xbe,
    0xa3, 0xf4, 0x71, 0x3e, 0x3d, 0xd6, 0x37, 0x3e, 0xcc, 0x44,
    0x71, 0x3d, 0xba, 0xdc, 0x4a, 0x3e, 0x82, 0xdb, 0xa1, 0xbc,
    0x68, 0x38, 0xd9, 0x3d, 0x0d, 0x0b, 0x17, 0x3e, 0x02, 0xd2,
    0xb6, 0x3d, 0x0c, 0x32, 0x94, 0x3d, 0x39, 0xed, 0xfc, 0x3b,
    0x55, 0xc1, 0x1e, 0x3d, 0x59, 0x9b, 0x87, 0xbc, 0x77, 0x93,
    0xf1, 0x3d, 0x6f, 0x2a, 0x33, 0x3e, 0x89, 0xb5, 0x07, 0x3d,
    0xec, 0xae, 0x66, 0x3e, 0x45, 0x7d, 0x09, 0x3e, 0x25, 0x13,
    0xa6, 0xbd, 0xdc, 0xe0, 0x1f, 0xbd, 0xa3, 0x80, 0xfc, 0xbc,
    0xf3, 0xe6, 0xc0, 0xbd, 0xe0, 0x3d, 0x25, 0xbe, 0x14, 0xca,
    0x80, 0x3e, 0xea, 0xc3, 0x6f, 0xbe, 0x41, 0xe9, 0x7f, 0xbd,
    0xa7, 0x80, 0xed, 0xbc, 0xea, 0xa1, 0x7b, 0xbe, 0xd3, 0x51,
    0xff, 0x3d, 0x9b, 0x79, 0x3f, 0xbd, 0xbe, 0x2a, 0x84, 0xbd,
    0x53, 0x8c, 0x98, 0x3e, 0x77, 0x6a, 0x3e, 0x3e, 0x07, 0xbd,
    0xa4, 0x3d, 0x07, 0x28, 0x1a, 0x3d, 0x71, 0x82, 0x81, 0xbc,
    0x5b, 0x53, 0x44, 0xbe, 0x93, 0x09, 0x17, 0xbe, 0x0e, 0x13,
    0x0b, 0x3d, 0x77, 0x5f, 0xa0, 0xbe, 0x35, 0xb8, 0x20, 0x3c,
    0x7e, 0xb2, 0x97, 0xbb, 0xda, 0xd2, 0x82, 0x3e, 0x6b, 0xb3,
    0xe2, 0xbd, 0x70, 0x11, 0x0d, 0xbe, 0xaa, 0x77, 0x75, 0xbe,
    0x1a, 0x9c, 0x23, 0xbe, 0x70, 0x5c, 0xaf, 0x3d, 0x9b, 0x79,
    0x8b, 0xbd, 0x1e, 0xcf, 0x35, 0x3e, 0xa1, 0x6d, 0x99, 0x3e,
    0xca, 0x48, 0x38, 0xbe, 0xc4, 0x64, 0xc4, 0xbd, 0x94, 0xc4,
    0x93, 0x3e, 0xca, 0x6a, 0xd6, 0xbd, 0x43, 0xfa, 0xc7, 0x3d,
    0xdb, 0xf5, 0x7a, 0x3e, 0x71, 0x92, 0x04, 0xbe, 0x90, 0x7a,
    0x22, 0xbe, 0x2b, 0xfb, 0x5c, 0x3e, 0xd9, 0xeb, 0x64, 0x3e,
    0xee, 0xa6, 0x87, 0x3b, 0x40, 0xef, 0xee, 0x3d, 0x29, 0xc0,
    0x93, 0xbe, 0x73, 0x1d, 0x4c, 0xbe, 0x69, 0xb7, 0xd9, 0xbd,
    0xdc, 0x03, 0x85, 0x3e, 0x7d, 0x57, 0x82, 0x3e, 0x9a, 0x35,
    0xd8, 0xbb, 0x19, 0x25, 0x2e, 0x3d, 0x8f, 0x3f, 0x94, 0xbe,
    0x38, 0x99, 0xce, 0x3d, 0x50, 0xf6, 0x87, 0x3e, 0xb8, 0x29,
    0x13, 0xbe, 0x3b, 0x30, 0x3b, 0x3d, 0xb0, 0x43, 0x11, 0xbd,
    0x51, 0x09, 0x90, 0x3c, 0x4a, 0xbe, 0x9c, 0x3d, 0x19, 0x6f,
    0x66, 0xbe, 0x0e, 0x2c, 0x0a, 0x3e, 0x5e, 0x7b, 0x37, 0x3d,
    0xf5, 0xec, 0xae, 0x3d, 0xb0, 0xbf, 0x5e, 0xbe, 0x07, 0x95,
    0x1b, 0x3d, 0x3d, 0x2c, 0xea, 0xbc, 0x76, 0xd2, 0x84, 0xbe,
    0x10, 0x31, 0xd6, 0xbd, 0xe6, 0xeb, 0x73, 0xbe, 0xca, 0x84,
    0xc1, 0x3d, 0x00, 0xc7, 0x8d, 0xbe, 0xcb, 0xb0, 0x46, 0xbe,
    0x61, 0x9e, 0x88, 0x3e, 0xab, 0xd3, 0x87, 0xbd, 0x97, 0x84,
    0xcc, 0xbd, 0x13, 0x03, 0x5f, 0xbd, 0x5a, 0x9d, 0x53, 0xbe,
    0x4a, 0x28, 0x82, 0x3e, 0x2f, 0x53, 0x9e, 0xbe, 0x1d, 0xdc,
    0x16, 0x3e, 0x20, 0x26, 0x04, 0xbe, 0xee, 0x91, 0xdd, 0xbd,
    0x3e, 0xff, 0xe3, 0x3d, 0x86, 0xcc, 0x20, 0xbe, 0x73, 0xa9,
    0x35, 0xbd, 0x79, 0x89, 0x79, 0xbc, 0x53, 0x63, 0xe6, 0xbd,
    0x2c, 0x8e, 0x2d, 0x3e, 0xa3, 0xcd, 0x85, 0x3e, 0xd4, 0x6f,
    0xe1, 0xbc, 0x99, 0x2b, 0x37, 0x3e, 0x36, 0x5c, 0xf3, 0x3d,
    0x73, 0x7e, 0x0e, 0x3e, 0xa2, 0xab, 0x32, 0x3d, 0x9d, 0xcd,
    0xa9, 0xbd, 0x0c, 0xa9, 0x67, 0x3e, 0xca, 0xd2, 0xbe, 0xbd,
    0xbc, 0x51, 0x87, 0x3d, 0x74, 0x78, 0x1c, 0x3e, 0x36, 0x6d,
    0x32, 0x3e, 0x32, 0x49, 0x87, 0x3e, 0x1d, 0xd1, 0xdb, 0x3d,
    0xde, 0xcc, 0x07, 0x3c, 0xad, 0x2b, 0x82, 0xbe, 0x95, 0xb7,
    0x99, 0xbd, 0x5f, 0xc4, 0xf1, 0x3d, 0x79, 0x19, 0x2f, 0xbd,
    0x7c, 0x4c, 0x5c, 0x3d, 0x24, 0xee, 0x26, 0x3e, 0x15, 0x79,
    0xbc, 0x3d, 0x04, 0xed, 0x35, 0xbd, 0x87, 0x0e, 0x21, 0xbe,
    0x5d, 0x80, 0x0e, 0x3e, 0xc1, 0xd8, 0x1e, 0x3e, 0x30, 0x58,
    0x46, 0x3e, 0xc5, 0xb1, 0x52, 0xbd, 0xd6, 0x78, 0x20, 0xbd,
    0x51, 0xab, 0xa5, 0xbd, 0x75, 0x40, 0x8a, 0x3e, 0x65, 0xe2,
    0x56, 0xbe, 0x73, 0x8d, 0x16, 0x3c, 0x83, 0x86, 0x8e, 0xbe,
    0xd0, 0x83, 0x13, 0xbe, 0xd1, 0xd0, 0x45, 0xbe, 0xae, 0x8d,
    0x1d, 0x3e, 0x55, 0x54, 0x89, 0xbd, 0x98, 0xdc, 0x04, 0x3e,
    0x02, 0x11, 0xac, 0x3e, 0x72, 0x18, 0x1f, 0x3e, 0x1a, 0xcc,
    0x0b, 0xbe, 0x41, 0x92, 0x08, 0x3d, 0xa6, 0xc4, 0x44, 0x3e,
    0xf8, 0x11, 0xb6, 0xbe, 0xd0, 0x58, 0x79, 0xbd, 0xa2, 0xa9,
    0x7a, 0x3e, 0x79, 0x8f, 0x17, 0xbe, 0x6d, 0x05, 0x9c, 0x3e,
    0x1c, 0x30, 0x08, 0xbe, 0x7c, 0xe1, 0x04, 0x3e, 0xf6, 0xd5,
    0xe3, 0x3d, 0x7a, 0xd1, 0x9f, 0x3c, 0xa8, 0x9d, 0x7a, 0xbc,
    0x03, 0xbb, 0xbb, 0x3d, 0x16, 0x16, 0x8f, 0x3e, 0xd2, 0x0d,
    0x7c, 0xbe, 0x0e, 0xe0, 0xb8, 0x3d, 0xc4, 0x42, 0x9d, 0x3b,
    0xfb, 0x06, 0x82, 0xbe, 0x44, 0xb5, 0x06, 0xbe, 0xed, 0xa8,
    0x81, 0x3d, 0x73, 0x32, 0x68, 0xbd, 0x04, 0x94, 0x4e, 0x3e,
    0x91, 0x44, 0x52, 0x3e, 0xb8, 0x5a, 0x0d, 0x3e, 0xf6, 0xc1,
    0xd6, 0xbc, 0x6c, 0x01, 0x0b, 0x3e, 0x11, 0x2b, 0x84, 0x3d,
    0x61, 0xd7, 0xf8, 0x3d, 0x62, 0xe6, 0xa8, 0x3c, 0x13, 0x92,
    0x12, 0x3e, 0x91, 0x81, 0x7f, 0xba, 0x6f, 0x96, 0xb1, 0x3d,
    0x2b, 0x1f, 0x90, 0x3c, 0xc3, 0x8b, 0x40, 0xbd, 0xed, 0x2c,
    0x08, 0x3d, 0x1f, 0x82, 0x1c, 0x3d, 0x32, 0xc7, 0xec, 0x3c,
    0x43, 0x56, 0x1a, 0xbc, 0x7c, 0x3e, 0xc6, 0xbc, 0x2d, 0x56,
    0x3a, 0x3c, 0x73, 0xe8, 0x75, 0x3d, 0xd7, 0x4c, 0x3f, 0xbd,
    0xd8, 0x79, 0xf7, 0xbc, 0xbc, 0x3a, 0x0a, 0x3d, 0xf3, 0x6b,
    0x49, 0xbe, 0x5e, 0xde, 0x1b, 0xbe, 0x44, 0x4e, 0x82, 0x3d,
    0xe0, 0x81, 0xa1, 0xbd, 0xf8, 0x6b, 0xe2, 0xbd, 0x52, 0xe7,
    0x70, 0xbd, 0xfe, 0x79, 0x49, 0xbe, 0xda, 0xdf, 0xe4, 0x3c,
    0xbc, 0x36, 0xfd, 0xbd, 0x69, 0x68, 0xb1, 0xbd, 0xcf, 0xa6,
    0xe9, 0x3c, 0x5b, 0x7f, 0xcd, 0x3d, 0x1f, 0x85, 0xc2, 0x3d,
    0x34, 0xb9, 0x8d, 0xbd, 0x7c, 0x85, 0x02, 0x3e, 0x75, 0x16,
    0x30, 0x3d, 0xf1, 0x09, 0xa9, 0xbd, 0xe3, 0x78, 0x0a, 0x3d,
    0x5e, 0x08, 0xff, 0x3c, 0xf6, 0x63, 0xdb, 0x3c, 0x76, 0x5f,
    0xad, 0x3d, 0xd6, 0xc6, 0xa7, 0xbd, 0x78, 0xa2, 0x5b, 0xbe,
    0x45, 0x31, 0xae, 0x3d, 0x18, 0x23, 0xa1, 0x3c, 0x31, 0x36,
    0x27, 0x3c, 0xec, 0x6d, 0xf0, 0xbc, 0xe5, 0x45, 0x86, 0xbc,
    0x07, 0x24, 0x87, 0xbd, 0xd2, 0xc0, 0x0e, 0xbe, 0x25, 0x0d,
    0xfa, 0xbb, 0xf2, 0x74, 0x73, 0x3e, 0x7d, 0x14, 0x83, 0xbd,
    0xa4, 0x7f, 0x34, 0x3e, 0x46, 0x87, 0x80, 0x3e, 0x5f, 0x63,
    0x38, 0x3e, 0xd1, 0xb1, 0xe2, 0x3d, 0xab, 0x17, 0xc6, 0xbd,
    0x69, 0xfa, 0x0d, 0x3e, 0x5c, 0x67, 0x25, 0xbe, 0x5d, 0x60,
    0x0a, 0x3e, 0x49, 0xd5, 0xd1, 0x3d, 0xc7, 0x11, 0x19, 0xbd,
    0x6d, 0x56, 0x0d, 0xbe, 0x11, 0x43, 0x30, 0x3e, 0xc1, 0x37,
    0x0e, 0x3e, 0x62, 0xfc, 0x68, 0xbe, 0x26, 0xd4, 0x7c, 0xbd,
    0x4b, 0x8d, 0xe4, 0xbd, 0xc0, 0x95, 0x60, 0xbe, 0x78, 0x0b,
    0x2e, 0x3e, 0xaf, 0x83, 0xc3, 0xbd, 0xe7, 0x09, 0x0c, 0x3e,
    0x4b, 0x71, 0x0e, 0x3d, 0x67, 0x62, 0x05, 0x3e, 0x49, 0xe5,
    0x9c, 0x3d, 0xb9, 0x86, 0x1a, 0xbe, 0xe9, 0xde, 0xd0, 0x3d,
    0x6f, 0xe7, 0x31, 0x3d, 0x00, 0xd3, 0x97, 0xbd, 0x85, 0x9b,
    0x2f, 0x3e, 0x07, 0xb6, 0xdc, 0xbd, 0x57, 0x40, 0x8c, 0x3d,
    0x0d, 0xc8, 0x01, 0xbd, 0xf1, 0x25, 0x3f, 0x3e, 0xde, 0x52,
    0x1e, 0x3e, 0xf6, 0x4e, 0x11, 0xbe, 0x4d, 0x21, 0xa4, 0xbd,
    0x9a, 0x8d, 0xd6, 0x3c, 0xa6, 0x15, 0x4e, 0x3b, 0x7f, 0x9d,
    0x08, 0x3c, 0x51, 0x17, 0x20, 0x3d, 0x4e, 0x44, 0x03, 0x3d,
    0xc4, 0x08, 0xd3, 0xbd, 0x10, 0x57, 0x02, 0xbd, 0xf2, 0xef,
    0xd0, 0xbc, 0xf8, 0xae, 0x8e, 0x3d, 0x6e, 0x4a, 0xef, 0xba,
    0xdf, 0xef, 0x0f, 0xbe, 0x0e, 0x56, 0x1d, 0xbe, 0xb9, 0x62,
    0xca, 0xbd, 0x55, 0x92, 0x73, 0x3b, 0xa0, 0x37, 0x23, 0x3d,
    0x5c, 0x5f, 0x0e, 0x3e, 0x22, 0x13, 0xc1, 0xbd, 0x98, 0x1c,
    0xed, 0xba, 0xed, 0x69, 0xab, 0xbd, 0x10, 0xd5, 0xf1, 0x3b,
    0x93, 0xe0, 0x1f, 0x3e, 0x3a, 0x5f, 0xd2, 0xbc, 0x51, 0x70,
    0x1a, 0xbe, 0x39, 0x28, 0xaa, 0xbd, 0x2a, 0xfe, 0x28, 0xbd,
    0x3f, 0xfa, 0x26, 0x3e, 0xb1, 0xf3, 0x9d, 0xbd, 0xa6, 0xa3,
    0xb7, 0xbc, 0x58, 0x67, 0x9e, 0xbd, 0x7d, 0x16, 0x10, 0x3e,
    0xc0, 0x22, 0x49, 0xbe, 0x09, 0x88, 0xc1, 0xbd, 0x86, 0x0a,
    0x6f, 0x3c, 0xe9, 0x68, 0xc2, 0xbd, 0x78, 0xac, 0x71, 0x3d,
    0x29, 0xfa, 0x0e, 0xbe, 0xcc, 0x1e, 0xa7, 0x3d, 0xfc, 0x56,
    0xf6, 0x3c, 0x82, 0x24, 0xa7, 0x3d, 0x8e, 0xff, 0xed, 0x3d,
    0xad, 0xb0, 0xa0, 0x3d, 0x00, 0xa9, 0x75, 0x3d, 0xe8, 0xd9,
    0xe2, 0x3d, 0x9c, 0xb8, 0xca, 0xbd, 0x8f, 0x1e, 0x3f, 0x3e,
    0x86, 0xf6, 0x54, 0xbe, 0xea, 0x57, 0x77, 0xbd, 0xd9, 0x31,
    0x90, 0x3c, 0x0d, 0xf2, 0x90, 0xbd, 0x63, 0x9c, 0x8c, 0xbd,
    0x02, 0x08, 0x3d, 0x3d, 0xe0, 0xb3, 0x3b, 0xbd, 0x35, 0x2c,
    0x83, 0x3d, 0x5d, 0xa6, 0xe1, 0x3d, 0x4e, 0x75, 0xa1, 0x3d,
    0xb5, 0xbb, 0x8d, 0x3c, 0x57, 0xe5, 0x5e, 0xbd, 0x6d, 0x42,
    0x0c, 0xbe, 0x9f, 0x50, 0x88, 0x3d, 0x2d, 0xe9, 0xf5, 0x3c,
    0x69, 0xd5, 0xed, 0x3d, 0x90, 0x48, 0xfa, 0x3d, 0x0f, 0x45,
    0xdc, 0xbd, 0x88, 0x49, 0x64, 0x3d, 0xb3, 0x20, 0xd1, 0x3d,
    0x9c, 0xc4, 0x0e, 0xbb, 0xa5, 0xb1, 0xc8, 0x3d, 0x47, 0xb0,
    0xf8, 0xbd, 0x95, 0xa3, 0x13, 0x3e, 0x5d, 0x77, 0xb4, 0xbc,
    0x04, 0xe0, 0x1d, 0x3d, 0x51, 0x30, 0x9c, 0x3c, 0x03, 0x8f,
    0xca, 0x3d, 0xf9, 0xcc, 0x33, 0xbe, 0xad, 0x42, 0x7e, 0x3c,
    0x63, 0x9b, 0x1d, 0x3e, 0x57, 0x85, 0xf2, 0xbd, 0x89, 0x57,
    0x85, 0xbc, 0x6b, 0x4d, 0x9d, 0x3c, 0xb2, 0x0e, 0x1f, 0x3e,
    0xa5, 0xfc, 0xb2, 0xbd, 0x36, 0x31, 0x1e, 0x3e, 0xa3, 0x81,
    0x89, 0x3d, 0x17, 0x08, 0x92, 0x3e, 0xb4, 0x35, 0xc7, 0xbc,
    0xa3, 0x52, 0xe3, 0x3d, 0x70, 0x35, 0xbc, 0x3d, 0x9f, 0xd7,
    0xc3, 0xbd, 0x92, 0x7e, 0x42, 0x3e, 0x5d, 0x1d, 0x95, 0x3c,
    0x5c, 0xad, 0x6a, 0x3e, 0xa2, 0x8d, 0xfd, 0x3c, 0x4f, 0xa5,
    0x08, 0xbe, 0x8d, 0x5a, 0xb7, 0x3d, 0x43, 0x7e, 0x3d, 0x3d,
    0x76, 0xfc, 0x06, 0xbe, 0x88, 0xd9, 0x1b, 0xbd, 0xbb, 0x7d,
    0x31, 0x3b, 0x73, 0x7d, 0x85, 0xbe, 0x4f, 0x5d, 0xe2, 0x3d,
    0x5f, 0x49, 0x1d, 0xbe, 0x4c, 0xab, 0x3b, 0xbe, 0x1a, 0xf0,
    0x2c, 0x3e, 0xaa, 0xd0, 0x37, 0x3e, 0x49, 0x1b, 0x51, 0x3d,
    0x7e, 0x9a, 0x02, 0xbe, 0x77, 0x16, 0x57, 0x3d, 0x74, 0x10,
    0xbe, 0x3d, 0x9f, 0x43, 0xbe, 0xbd, 0xc6, 0x7f, 0x74, 0xbd,
    0x5c, 0xfe, 0xb3, 0xbc, 0x7b, 0x3f, 0x07, 0xbe, 0xcc, 0xba,
    0x0d, 0x3c, 0x9f, 0x7a, 0xcf, 0x3d, 0xc7, 0xcf, 0x53, 0x3e,
    0xd7, 0xb0, 0xd1, 0xbc, 0xa6, 0x38, 0xb0, 0x3c, 0x56, 0x0d,
    0x48, 0x3a, 0x99, 0xc5, 0xb7, 0xbc, 0x76, 0x7d, 0x26, 0xbe,
    0x3a, 0xcb, 0xc3, 0xbb, 0x8d, 0xaa, 0x58, 0xbb, 0x63, 0x3c,
    0x2d, 0xbe, 0xf0, 0xad, 0xf4, 0x3d, 0x56, 0xfa, 0x69, 0xbe,
    0xeb, 0xec, 0xab, 0xbd, 0x32, 0x23, 0x5e, 0xbb, 0x8a, 0xcf,
    0x88, 0x3d, 0x6e, 0x18, 0xe2, 0xbd, 0xf8, 0xdc, 0xcc, 0x3d,
    0x4c, 0xc2, 0x05, 0xbe, 0x22, 0xd3, 0xb9, 0x3d, 0xce, 0x39,
    0x17, 0xbc, 0xf2, 0x0d, 0x80, 0x3d, 0x72, 0x0c, 0x57, 0x3e,
    0xcb, 0xb4, 0x4c, 0xbe, 0x8d, 0x69, 0xcf, 0xbd, 0xfa, 0x22,
    0x1e, 0x3e, 0x78, 0xed, 0xc7, 0x3d, 0xf1, 0x7b, 0xbf, 0x3d,
    0x41, 0xb1, 0x5c, 0x3c, 0x50, 0xb1, 0x77, 0xbd, 0x61, 0x6d,
    0x86, 0xbe, 0xaa, 0xf2, 0x3a, 0xbe, 0xd0, 0xc6, 0xe6, 0x3c,
    0x6a, 0x0c, 0x33, 0x3b, 0x6e, 0x45, 0x82, 0xbd, 0x0a, 0x0d,
    0x7d, 0xbd, 0x5d, 0x63, 0x8a, 0xbd, 0x80, 0x46, 0x49, 0x3d,
    0xa5, 0xaf, 0x00, 0x3e, 0xbb, 0x9d, 0x72, 0x3d, 0x35, 0x4f,
    0x10, 0x3d, 0x34, 0xbb, 0x04, 0x3d, 0xb5, 0x53, 0x72, 0xbc,
    0x90, 0xb2, 0x19, 0x3e, 0x7f, 0x2c, 0x38, 0xbe, 0x1d, 0x8e,
    0x3a, 0xbd, 0x24, 0x58, 0xc5, 0x3d, 0xd5, 0xaf, 0x3d, 0xbd,
    0xb4, 0x65, 0xe2, 0x3c, 0xd0, 0xae, 0x31, 0x3d, 0x47, 0xa1,
    0xf1, 0x3d, 0x63, 0x04, 0x39, 0x3e, 0x6d, 0x69, 0xa4, 0xbd,
    0xc3, 0xe1, 0x09, 0x3b, 0xcb, 0x87, 0x7b, 0xbe, 0x8a, 0x28,
    0x71, 0xbe, 0xd2, 0x00, 0xec, 0xbd, 0xda, 0x4a, 0x0e, 0x3e,
    0x5b, 0x33, 0x1f, 0xbd, 0x92, 0xf8, 0x9f, 0x3b, 0x38, 0x1e,
    0x40, 0xbd, 0xb4, 0xa5, 0xea, 0xbd, 0x5a, 0x7c, 0x1e, 0x3e,
    0xe4, 0xd6, 0x23, 0x3d, 0xc6, 0x41, 0xa5, 0xbd, 0x0c, 0x67,
    0x8b, 0x3d, 0x35, 0x62, 0xfc, 0x3c, 0x43, 0x29, 0x58, 0x3e,
    0xb0, 0x7e, 0x40, 0xbe, 0xdb, 0x17, 0x3c, 0x3e, 0x6a, 0xb8,
    0x18, 0x3e, 0x16, 0x9f, 0xcc, 0xbd, 0x9f, 0xd4, 0x10, 0x3e,
    0xbc, 0xba, 0x01, 0x3e, 0x2c, 0x34, 0xd7, 0xbb, 0xa0, 0x9f,
    0x3c, 0xbe, 0x37, 0xce, 0x57, 0xbe, 0xef, 0x0b, 0xe5, 0x3d,
    0x1f, 0x7d, 0x74, 0xbe, 0xe2, 0xe7, 0x81, 0x3d, 0xe9, 0x43,
    0x26, 0xbe, 0xca, 0x38, 0x13, 0x3e, 0xc3, 0x4f, 0x34, 0x3d,
    0x3d, 0xb2, 0x1a, 0x3e, 0x20, 0x03, 0x87, 0xbd, 0xae, 0x4c,
    0x96, 0xbd, 0xb4, 0xcb, 0x92, 0x3d, 0xc7, 0xa4, 0x25, 0xbe,
    0xbb, 0x92, 0x28, 0xbe, 0x04, 0xd0, 0xb3, 0xbd, 0xcb, 0x2a,
    0x0f, 0x3e, 0xba, 0x14, 0x27, 0x3d, 0xd6, 0x86, 0x43, 0xbc,
    0xdb, 0xf2, 0x2d, 0x3e, 0xcf, 0xc8, 0x2b, 0x3d, 0x2e, 0x5e,
    0x04, 0xbb, 0x83, 0xc6, 0xc8, 0x3d, 0x2f, 0x80, 0xc6, 0x3d,
    0x53, 0xf1, 0x86, 0x3d, 0x6e, 0xe9, 0x44, 0xbe, 0xff, 0xe5,
    0x2d, 0xbe, 0x06, 0xc6, 0xc0, 0xbd, 0x41, 0x30, 0xeb, 0x3d,
    0x9f, 0x92, 0x92, 0x3d, 0xeb, 0x01, 0xe1, 0x3d, 0xeb, 0xe0,
    0x3b, 0x3d, 0xb6, 0x6c, 0x58, 0xbe, 0xeb, 0x53, 0x98, 0xbd,
    0xd3, 0x56, 0x4c, 0xbe, 0xc4, 0xc6, 0x76, 0xbe, 0xfe, 0x78,
    0x80, 0x3c, 0x12, 0xf1, 0xce, 0x3b, 0x0c, 0x5d, 0x28, 0xbe,
    0x10, 0xe1, 0xd0, 0xbd, 0x24, 0x25, 0x8a, 0xbb, 0x20, 0xc1,
    0x6c, 0x3d, 0x61, 0xc4, 0xa0, 0xbc, 0xdd, 0x00, 0xa7, 0x3c,
    0x02, 0x84, 0x33, 0xbe, 0xa7, 0xd3, 0x28, 0x3e, 0x57, 0x6b,
    0xb8, 0x3d, 0xc4, 0x69, 0x0d, 0x3e, 0x83, 0x41, 0x0b, 0x3c,
    0x14, 0x7d, 0x51, 0x3e, 0xec, 0xcd, 0x09, 0x3d, 0x16, 0xdf,
    0x90, 0x3d, 0x3c, 0x81, 0xdd, 0x3b, 0x86, 0xc2, 0xb1, 0x3d,
    0xa9, 0xc8, 0x2b, 0x3d, 0x87, 0x4d, 0x2e, 0x3d, 0xf5, 0xf5,
    0x37, 0xbe, 0x05, 0xd7, 0xda, 0xbd, 0x9d, 0xfc, 0xc6, 0xbd,
    0x30, 0x6e, 0x46, 0xbe, 0xe2, 0x94, 0x51, 0x3e, 0xdc, 0x14,
    0xd9, 0xbd, 0xd9, 0x1f, 0xa6, 0xbd, 0x1b, 0xe2, 0x4b, 0xbd,
    0xc4, 0x4c, 0xba, 0xbd, 0x3f, 0xed, 0xb2, 0xbd, 0xac, 0x4f,
    0x33, 0xbc, 0xad, 0x7f, 0x57, 0x3e, 0x66, 0x49, 0x32, 0xbe,
    0xec, 0x34, 0x09, 0x3d, 0xef, 0x3f, 0xae, 0x3d, 0xf3, 0xaa,
    0xde, 0x3d, 0x2e, 0x56, 0x66, 0x3d, 0x50, 0xbf, 0xf9, 0x3d,
    0x6d, 0x0a, 0xdc, 0xbd, 0xce, 0xa3, 0xb5, 0x3d, 0x84, 0x2f,
    0x66, 0xbc, 0x74, 0xbf, 0x61, 0xbd, 0x8e, 0x7b, 0x78, 0xbb,
    0xee, 0x85, 0xf5, 0xbc, 0xb4, 0xdc, 0x15, 0xbe, 0x0e, 0x32,
    0x85, 0xbd, 0x63, 0xef, 0xba, 0x3d, 0x05, 0xa0, 0x3c, 0xbe,
    0xa5, 0xb0, 0x45, 0x3c, 0xa8, 0x38, 0x52, 0x3d, 0x1c, 0x37,
    0x5e, 0xbe, 0x2a, 0x93, 0xd8, 0x3d, 0x5d, 0xfa, 0x96, 0xbd,
    0x46, 0x1c, 0x80, 0x3d, 0xa3, 0x1f, 0xa7, 0x3d, 0x96, 0xbd,
    0x25, 0xbc, 0x0c, 0x17, 0x97, 0x3c, 0x9f, 0x28, 0xcc, 0x3c,
    0x5e, 0xf6, 0xf6, 0x3d, 0x54, 0x2d, 0x04, 0x3e, 0x9f, 0x1e,
    0x39, 0xbc, 0x6e, 0xa5, 0xb6, 0xbc, 0x34, 0x47, 0xac, 0xbd,
    0xe3, 0x9b, 0xfe, 0xbc, 0x80, 0xf3, 0x14, 0x3d, 0x48, 0x92,
    0xd5, 0xbd, 0xd3, 0xc5, 0x07, 0xbe, 0x9d, 0x63, 0x33, 0xbe,
    0xc4, 0xb1, 0x29, 0xbe, 0xa6, 0x08, 0x5d, 0x3d, 0xb5, 0x0c,
    0x7f, 0x3d, 0x59, 0xda, 0x9b, 0xbb, 0x81, 0xb8, 0xc0, 0xbd,
    0xe1, 0x5f, 0xa4, 0x3c, 0x64, 0x37, 0xb1, 0xbc, 0x8b, 0xfe,
    0xd9, 0x3d, 0x54, 0x50, 0x7a, 0x3c, 0xc7, 0x1d, 0x82, 0xbd,
    0xe8, 0x4d, 0x20, 0x3e, 0x63, 0xcc, 0xb3, 0x3d, 0xb6, 0xbe,
    0x30, 0xbd, 0x26, 0xfe, 0x16, 0x3e, 0x84, 0x81, 0x0a, 0x3e,
    0xe7, 0x01, 0xe0, 0x3d, 0x8b, 0x60, 0x57, 0x3e, 0x0b, 0x5b,
    0x9f, 0x3d, 0x89, 0x57, 0x02, 0x3e, 0x27, 0x12, 0xd4, 0xbd,
    0x43, 0x95, 0x3a, 0xbe, 0xba, 0xb5, 0x36, 0xbe, 0xf2, 0x22,
    0xbc, 0x3d, 0xf8, 0x34, 0xa1, 0x3d, 0x12, 0x5b, 0x94, 0xbd,
    0x52, 0x6e, 0x22, 0xbe, 0x87, 0x34, 0x4f, 0xbd, 0xbd, 0x38,
    0x54, 0xbe, 0xf1, 0xd5, 0x8f, 0xbd, 0x3c, 0xcc, 0x1c, 0xbe,
    0x52, 0xc3, 0x0d, 0xbd, 0x68, 0x9a, 0x32, 0x3d, 0xb4, 0xaa,
    0xa6, 0x3d, 0x29, 0x6f, 0x90, 0x3d, 0x3f, 0xfa, 0x66, 0xbd,
    0xa4, 0x3c, 0x9a, 0xbc, 0x84, 0xac, 0x04, 0xbe, 0xf9, 0x80,
    0xb7, 0x3d, 0xfd, 0x11, 0xca, 0x3d, 0xbc, 0x3b, 0x26, 0x3e,
    0xb6, 0x2c, 0x54, 0x3e, 0x05, 0x12, 0x5e, 0xbd, 0x04, 0xf5,
    0x03, 0xbe, 0x46, 0x72, 0xfe, 0xbd, 0xf9, 0x2d, 0xe7, 0xbd,
    0x45, 0x1a, 0xbd, 0x3d, 0x18, 0x88, 0xec, 0xbd, 0xc8, 0x9d,
    0x69, 0x3d, 0x36, 0x4f, 0x15, 0xbe, 0xc7, 0x31, 0xfb, 0x3d,
    0x75, 0x3a, 0xeb, 0x3d, 0x0a, 0xe6, 0xcc, 0x3c, 0x30, 0xd1,
    0x44, 0xbe, 0x29, 0xb7, 0x01, 0x3e, 0xc6, 0x29, 0x5c, 0xbe,
    0x7a, 0xf2, 0xe9, 0xbd, 0x15, 0x0f, 0x89, 0xbd, 0x7b, 0x6c,
    0x98, 0x3c, 0xfa, 0x84, 0xef, 0x3d, 0xfe, 0x6d, 0xa8, 0x3d,
    0xaf, 0x57, 0x37, 0xbe, 0xf6, 0xfb, 0x6f, 0xbd, 0xfe, 0xe3,
    0x1e, 0x3d, 0x05, 0xaa, 0x2e, 0x3e, 0x6a, 0x4e, 0x42, 0x3e,
    0x08, 0x44, 0xf3, 0xbd, 0xd3, 0x63, 0x32, 0x3d, 0xe0, 0xcb,
    0x91, 0xbd, 0xa2, 0x8e, 0xb6, 0x3d, 0x66, 0xdd, 0x27, 0xbe,
    0x3a, 0xaf, 0x01, 0x3e, 0xc3, 0x5c, 0x09, 0x3d, 0xfd, 0x91,
    0x11, 0x3e, 0x23, 0xa5, 0xdd, 0x3d, 0x55, 0x30, 0xd1, 0xbc,
    0x75, 0xa2, 0x85, 0xbd, 0xc2, 0xc1, 0x49, 0xbc, 0x4a, 0x3f,
    0xbc, 0xbd, 0xc1, 0x04, 0x19, 0xbe, 0xa2, 0xb4, 0x33, 0xbe,
    0x46, 0x3f, 0x12, 0xbe, 0xd6, 0x5e, 0x61, 0x3e, 0x3b, 0x50,
    0xc8, 0x3c, 0x80, 0x77, 0xd7, 0xbd, 0x96, 0xd1, 0x2a, 0x3e,
    0x03, 0xce, 0x18, 0x3e, 0x82, 0xe8, 0x34, 0x3e, 0x7a, 0x64,
    0x5b, 0x3d, 0x25, 0x47, 0x34, 0x3e, 0x9f, 0xd7, 0x22, 0xbc,
    0x9f, 0x1d, 0xec, 0x3d, 0x09, 0xe7, 0xe1, 0x3d, 0xb3, 0x7a,
    0xd3, 0x3d, 0x19, 0xa2, 0x2e, 0xbe, 0x09, 0xd9, 0x8f, 0xbd,
    0x75, 0x23, 0x1e, 0x3e, 0x67, 0x47, 0x04, 0xbd, 0x67, 0x1b,
    0x37, 0xbd, 0x63, 0xd1, 0xa4, 0xbd, 0x61, 0x09, 0x53, 0x3d,
    0x27, 0xf0, 0x2a, 0xbe, 0x96, 0x62, 0x29, 0x3e, 0xec, 0x80,
    0x03, 0xbd, 0x49, 0xdc, 0xa6, 0xbd, 0xba, 0x3f, 0x34, 0xbe,
    0xa2, 0x06, 0x66, 0x3e, 0xfc, 0x02, 0x1d, 0x3b, 0xfa, 0x37,
    0xba, 0x3d, 0xab, 0x5d, 0x4a, 0xbd, 0xeb, 0x0e, 0xb1, 0xbd,
    0x4e, 0xde, 0xda, 0x3d, 0x76, 0xe0, 0xe1, 0x3c, 0x73, 0x1a,
    0xc4, 0x3d, 0x63, 0xac, 0xa4, 0x3d, 0x27, 0x4d, 0x3a, 0x3e,
    0xc4, 0x2a, 0x9e, 0xbc, 0x31, 0x66, 0x00, 0x3e, 0x84, 0x8f,
    0x2d, 0xbe, 0x1b, 0xae, 0x2b, 0xbe, 0xea, 0x09, 0x14, 0x3e,
    0x57, 0x44, 0x3e, 0x3e, 0x08, 0x6d, 0x83, 0x3c, 0x55, 0xab,
    0xea, 0xbc, 0xda, 0x6a, 0x01, 0xbe, 0x7a, 0xce, 0x9d, 0xbd,
    0xcb, 0x66, 0xfa, 0x3c, 0xda, 0x6d, 0x92, 0xbd, 0x7e, 0x7b,
    0xda, 0xbd, 0x99, 0xf7, 0xc5, 0x3d, 0xc5, 0x11, 0x97, 0xbd,
    0xbd, 0x23, 0x0a, 0xbe, 0x0a, 0x36, 0x3f, 0xbd, 0xb5, 0x3d,
    0x6b, 0xbd, 0x48, 0x60, 0x11, 0x3d, 0x1c, 0xe2, 0x2d, 0x3c,
    0xe9, 0xa9, 0xfe, 0xbd, 0xd1, 0x15, 0xa6, 0x3d, 0x09, 0xb8,
    0xfd, 0xbd, 0x4a, 0x38, 0x37, 0x3e, 0xdd, 0xd5, 0x91, 0x3c,
    0x99, 0xa6, 0x95, 0x3d, 0x59, 0xed, 0x74, 0xbe, 0x64, 0xe6,
    0xed, 0xbd, 0xef, 0xa0, 0x0f, 0x3d, 0xf1, 0xfa, 0x0e, 0x3d,
    0x47, 0x7d, 0xbd, 0x3d, 0xa9, 0x84, 0xe1, 0xbd, 0xde, 0x70,
    0x4e, 0xbc, 0x2a, 0xc6, 0x1a, 0x3e, 0xe1, 0xfa, 0x26, 0xbe,
    0xb9, 0xa6, 0xe8, 0x3d, 0xdd, 0xd1, 0x1f, 0xbe, 0x6a, 0xb2,
    0x1b, 0xbd, 0x06, 0x2b, 0x7d, 0xbd, 0x8c, 0x8b, 0xa6, 0xbd,
    0x16, 0xe8, 0x25, 0x3e, 0x3d, 0xb3, 0x00, 0x3b, 0xc5, 0xc3,
    0x1f, 0x3e, 0x46, 0x43, 0x42, 0x3c, 0x11, 0xae, 0xc0, 0x3d,
    0x55, 0x3a, 0x8b, 0x3d, 0x13, 0xf4, 0xf0, 0x3d, 0xc8, 0x67,
    0x0d, 0xbe, 0xcd, 0x64, 0xb0, 0x3d, 0x6d, 0x7c, 0xef, 0x3d,
    0x3c, 0xde, 0x49, 0xbd, 0xb5, 0x0f, 0x38, 0x3d, 0xb9, 0x41,
    0x15, 0xbe, 0x9e, 0x2c, 0xe6, 0xbd, 0x92, 0x8c, 0x97, 0xbd,
    0x01, 0x19, 0xe0, 0xbc, 0x64, 0x36, 0x31, 0x3e, 0xe8, 0xc1,
    0x9a, 0x3c, 0xb7, 0x86, 0x22, 0x3d, 0xd5, 0x4d, 0xe7, 0x3d,
    0x43, 0x31, 0x10, 0xbe, 0xad, 0x84, 0xd2, 0x3c, 0x52, 0xa6,
    0x9f, 0x3d, 0xce, 0x5e, 0x12, 0x3c, 0xa5, 0x2e, 0x91, 0x3d,
    0xdf, 0xef, 0x6f, 0x3c, 0x47, 0xbb, 0x17, 0xbe, 0xf5, 0x45,
    0xb4, 0xbc, 0x9f, 0x3f, 0x46, 0xbe, 0xe5, 0xb6, 0x9d, 0x3e,
    0xb8, 0xe6, 0xda, 0x3d, 0x69, 0x60, 0x8a, 0xbd, 0xa9, 0x06,
    0x44, 0xbd, 0x09, 0x9e, 0x56, 0xbc, 0x7c, 0x43, 0x26, 0xbd,
    0x6d, 0xa0, 0x93, 0x3d, 0xe6, 0x80, 0x9f, 0xbd, 0xd4, 0x19,
    0xcb, 0x3d, 0x82, 0x52, 0x92, 0xbd, 0x99, 0x23, 0xae, 0x3c,
    0xee, 0x49, 0x4b, 0xbd, 0x4f, 0x04, 0x3a, 0x3e, 0xf3, 0x73,
    0x37, 0xbc, 0x72, 0x24, 0x3b, 0x3d, 0x1a, 0x52, 0x18, 0x3e,
    0x16, 0xf0, 0xce, 0xbc, 0xe3, 0x62, 0x7b, 0xbe, 0xb0, 0xd4,
    0xd6, 0xbd, 0xe9, 0x2f, 0x01, 0x3e, 0x1b, 0x1d, 0x22, 0x3e,
    0xe1, 0xf6, 0x04, 0xbe, 0x05, 0xa5, 0xb1, 0xbb, 0xcb, 0x86,
    0x55, 0xbe, 0x86, 0xdc, 0x95, 0x3e, 0x37, 0x2e, 0x42, 0x3e,
    0x2f, 0x15, 0xee, 0xbd, 0x1c, 0xfc, 0xbb, 0xbd, 0xb8, 0x7d,
    0x6f, 0x3e, 0x65, 0x32, 0xbb, 0xbd, 0x1d, 0x24, 0x2c, 0x3e,
    0xfa, 0xaf, 0x56, 0x3d, 0x4a, 0xb5, 0x3e, 0x3c, 0x7d, 0x89,
    0xf3, 0x3d, 0xa1, 0x18, 0xc8, 0xbd, 0x95, 0x8c, 0x46, 0xbe,
    0xb8, 0xc1, 0x3e, 0xbc, 0x89, 0xf6, 0xf1, 0x3d, 0x49, 0xbd,
    0x71, 0x3d, 0x12, 0x56, 0x2b, 0xbe, 0xbe, 0x5c, 0x4d, 0xbd,
    0x2f, 0x71, 0x2b, 0x3e, 0x6b, 0xbf, 0x80, 0xbd, 0x75, 0x3a,
    0x53, 0x3d, 0xfc, 0xc9, 0xe2, 0xbc, 0x07, 0xda, 0x5a, 0xbc,
    0x4b, 0x28, 0x11, 0x3e, 0x95, 0x80, 0xd8, 0x3b, 0x6a, 0x33,
    0xa6, 0x3d, 0x99, 0xff, 0x64, 0xbe, 0x9a, 0x37, 0x10, 0x3e,
    0xfa, 0xd0, 0x88, 0x3d, 0xdd, 0xab, 0x5b, 0x3e, 0x06, 0x93,
    0x0f, 0xbe, 0x56, 0x77, 0x28, 0xbc, 0x3b, 0xb0, 0xe5, 0x3c,
    0xb1, 0xe7, 0xb1, 0x3c, 0x62, 0x91, 0x2f, 0x3c, 0x31, 0x27,
    0x17, 0xbd, 0x67, 0x3a, 0x5a, 0xbd, 0x38, 0xd0, 0xaf, 0x3b,
    0xe1, 0xf5, 0x38, 0x3e, 0x4d, 0x67, 0x05, 0xbd, 0xd5, 0xf2,
    0x11, 0xbe, 0xd0, 0x82, 0xa2, 0xba, 0x62, 0x14, 0x9d, 0x3c,
    0xe7, 0x0c, 0x15, 0xbe, 0x64, 0xac, 0x9f, 0x3c, 0x51, 0x93,
    0x49, 0xbd, 0xd4, 0x65, 0x8b, 0xbd, 0xf2, 0x6e, 0x4b, 0x3e,
    0x35, 0x6d, 0x2b, 0xbc, 0xb1, 0xd4, 0x28, 0x3e, 0xb4, 0x1e,
    0xea, 0xbd, 0x80, 0x9a, 0x36, 0xbc, 0x2b, 0xea, 0xc5, 0x3d,
    0x5d, 0xfd, 0x9d, 0x3d, 0xf5, 0x99, 0xa7, 0x3d, 0xa4, 0xc5,
    0x66, 0x3c, 0x24, 0xc5, 0x3f, 0x3d, 0x91, 0x43, 0xc8, 0x3d,
    0xbe, 0xb4, 0x9d, 0xbc, 0x99, 0xe2, 0xce, 0xbd, 0x50, 0x4a,
    0x1b, 0xbe, 0x21, 0xa1, 0x2d, 0xbe, 0xc5, 0x3d, 0x60, 0x3d,
    0x5b, 0x70, 0x7e, 0xbd, 0x9b, 0x31, 0x8a, 0x3d, 0xd1, 0x4d,
    0x9e, 0x3c, 0xa0, 0x12, 0xeb, 0x3d, 0x2a, 0x08, 0x01, 0xbe,
    0x59, 0x1b, 0xc3, 0xbd, 0x31, 0x67, 0x32, 0x3e, 0x8c, 0xdb,
    0xda, 0xbd, 0x50, 0x48, 0x70, 0x3d, 0xc2, 0x09, 0x23, 0xbe,
    0x35, 0x13, 0x31, 0xbd, 0x43, 0x0d, 0xc0, 0x3d, 0x98, 0x3e,
    0xaf, 0x3b, 0xee, 0xd7, 0x1f, 0x3e, 0xf1, 0x8b, 0x85, 0x3d,
    0x9a, 0xfe, 0x02, 0x3e, 0xfe, 0x4d, 0x26, 0x3e, 0x28, 0x03,
    0xc8, 0xbd, 0x4e, 0xcb, 0x10, 0x3e, 0x93, 0xaa, 0xd6, 0xbd,
    0xd5, 0xc7, 0xd5, 0xbd, 0xd7, 0x0c, 0x87, 0x3c, 0xd2, 0xe9,
    0xa3, 0x3a, 0x6c, 0x80, 0x08, 0x3d, 0x0e, 0x43, 0xfa, 0xbd,
    0xad, 0x5e, 0xf4, 0x3d, 0xcf, 0x3e, 0x32, 0xbe, 0x81, 0x05,
    0x94, 0xbc, 0x94, 0x3f, 0x12, 0x3e, 0x65, 0xb8, 0x28, 0x3d,
    0x9c, 0xfc, 0x73, 0x3c, 0x82, 0x69, 0x91, 0x3c, 0xa2, 0x8b,
    0x12, 0x3e, 0xdc, 0x49, 0xe9, 0xbd, 0x9d, 0xb9, 0x10, 0x3d,
    0x61, 0x90, 0xe2, 0xbd, 0x56, 0xc3, 0x46, 0xbb, 0x12, 0xbb,
    0xf1, 0xbd, 0xc9, 0x67, 0x58, 0xbd, 0xea, 0xc4, 0x09, 0x3e,
    0xbc, 0x8b, 0x7e, 0xbc, 0x4d, 0xd0, 0x9f, 0x3c, 0x0b, 0x69,
    0x49, 0x3e, 0x9e, 0x81, 0x4c, 0xbe, 0xc3, 0x51, 0x1b, 0x3e,
    0x88, 0xb2, 0xb3, 0xbd, 0x83, 0x66, 0x0a, 0xbd, 0x22, 0x61,
    0x07, 0x3e, 0x2d, 0xb8, 0xb1, 0xbd, 0xa2, 0xdd, 0xee, 0x3d,
    0x88, 0x30, 0xb5, 0xbd, 0x87, 0x5a, 0x5c, 0x3d, 0x0b, 0xa5,
    0xf1, 0x3c, 0x39, 0x0f, 0xe4, 0xbd, 0x35, 0xf0, 0x06, 0xbe,
    0x69, 0x14, 0xf8, 0xbd, 0x34, 0x20, 0xa5, 0x3c, 0xc1, 0xcd,
    0x39, 0xbc, 0x5b, 0xfb, 0x12, 0xbe, 0x5f, 0x0f, 0x83, 0xbc,
    0x43, 0x49, 0x18, 0x3c, 0x8c, 0xc5, 0xaf, 0xbd, 0xf8, 0xca,
    0x40, 0xbd, 0xa5, 0x10, 0xf8, 0xbb, 0x2a, 0x37, 0x2c, 0xbd,
    0xde, 0xe9, 0x00, 0xbc, 0xd8, 0xb6, 0x59, 0xbd, 0xf0, 0xc4,
    0xb5, 0x3c, 0xe8, 0xfb, 0x9c, 0xbd, 0x9f, 0xc2, 0x17, 0xbe,
    0xd0, 0x61, 0xba, 0x3d, 0x0d, 0x5e, 0x21, 0xbd, 0xf6, 0xc7,
    0xb2, 0x3d, 0x9e, 0x6e, 0xad, 0x3d, 0xc3, 0xb6, 0x22, 0x3e,
    0x27, 0x05, 0x9c, 0x3d, 0xad, 0xeb, 0xc5, 0xbc, 0x49, 0xaa,
    0x93, 0x3d, 0x65, 0x6e, 0x51, 0xbe, 0x27, 0x56, 0x64, 0xbd,
    0xe1, 0x1b, 0x1c, 0x3e, 0xc5, 0x47, 0x46, 0x3d, 0x25, 0x14,
    0xc7, 0x3d, 0x80, 0x51, 0xa0, 0xbd, 0x26, 0x11, 0x26, 0x3e,
    0xe1, 0xbe, 0xa7, 0x3d, 0x1c, 0xeb, 0xa3, 0x3c, 0xc3, 0x95,
    0x35, 0xbe, 0x14, 0xcb, 0x62, 0xbe, 0x63, 0xd7, 0x8f, 0x3d,
    0x40, 0x83, 0xd9, 0xbd, 0x4c, 0xdf, 0x6c, 0x3d, 0xe6, 0xb2,
    0x30, 0x3e, 0xb2, 0x43, 0x93, 0xbd, 0x2c, 0xcb, 0x1a, 0xbe,
    0xca, 0x00, 0xe0, 0xbd, 0x1a, 0x6c, 0x4d, 0x3d, 0xd7, 0x31,
    0x4b, 0xbc, 0x65, 0x62, 0x86, 0xbd, 0x0f, 0x55, 0x5e, 0xbe,
    0x25, 0xb3, 0x06, 0x3e, 0x86, 0x8e, 0x85, 0x3a, 0x85, 0x63,
    0xe2, 0xbd, 0x0a, 0xd3, 0x80, 0x3d, 0x0d, 0x73, 0x42, 0xbe,
    0x44, 0x45, 0xf9, 0x3d, 0x1d, 0x55, 0x20, 0x3e, 0x7d, 0x80,
    0x2b, 0xbe, 0xf5, 0xad, 0x31, 0x3e, 0xbc, 0x3b, 0xac, 0xbc,
    0x00, 0x9c, 0xeb, 0xbd, 0x3a, 0xb3, 0x4b, 0xbe, 0x86, 0x09,
    0x54, 0xbe, 0x8d, 0x55, 0x1a, 0x3e, 0xa0, 0x1c, 0x0a, 0x3e,
    0xe8, 0x6a, 0xb7, 0x3d, 0x26, 0xa4, 0xf4, 0xbd, 0xe7, 0xa5,
    0x9d, 0x3d, 0x72, 0x95, 0x57, 0xbd, 0x7f, 0x32, 0x17, 0xbd,
    0x52, 0xe5, 0x4f, 0xbe, 0x32, 0x06, 0x5e, 0xbd, 0xf5, 0x3a,
    0xed, 0x3b, 0xf2, 0xa0, 0xe3, 0xbd, 0xd9, 0x5b, 0xc0, 0x3c,
    0xa0, 0xff, 0xd5, 0x3d, 0x0f, 0x01, 0xca, 0xbc, 0x24, 0x5a,
    0x1c, 0x3e, 0x33, 0x06, 0xcc, 0x3b, 0x62, 0x9a, 0x14, 0xbd,
    0x0b, 0x07, 0x74, 0x3d, 0x41, 0x02, 0x26, 0x3e, 0x8e, 0x7b,
    0x54, 0x3d, 0x01, 0x17, 0x06, 0x3e, 0x94, 0xd3, 0xee, 0xbd,
    0x56, 0xd6, 0x72, 0x3c, 0x32, 0x86, 0xa1, 0x3d, 0x43, 0x00,
    0xec, 0xbd, 0x7c, 0xca, 0x8a, 0x3b, 0xff, 0x10, 0x25, 0x3d,
    0x34, 0x40, 0xf3, 0xbc, 0x57, 0x3e, 0x7b, 0x3d, 0x1b, 0x78,
    0x6d, 0x3c, 0x01, 0xf4, 0x48, 0xbd, 0x70, 0x10, 0x0e, 0x3e,
    0x83, 0x96, 0xe9, 0xbc, 0xf4, 0x47, 0xe8, 0x3d, 0x94, 0x87,
    0x26, 0x3d, 0x60, 0x13, 0x1d, 0x3d, 0x55, 0x75, 0xc5, 0xbd,
    0xe9, 0x3e, 0x32, 0xbe, 0x4b, 0x58, 0x2d, 0xbd, 0x12, 0x2b,
    0x38, 0xbe, 0x77, 0x02, 0xb2, 0x3d, 0x11, 0xd2, 0x90, 0xbc,
    0x8f, 0x76, 0xc9, 0xbd, 0x7b, 0x9c, 0x79, 0xbd, 0x9a, 0x4e,
    0x26, 0xbd, 0x7f, 0xb9, 0xfc, 0x3c, 0xe0, 0x69, 0x22, 0xbd,
    0xe2, 0x67, 0x8a, 0xbe, 0x56, 0xcc, 0xe8, 0x3c, 0xc8, 0xea,
    0xdf, 0xbd, 0x81, 0xc3, 0x54, 0x3c, 0x89, 0xaf, 0x9b, 0xbd,
    0x5f, 0x25, 0x12, 0x3d, 0xee, 0x3d, 0xe0, 0xbd, 0x2e, 0xfa,
    0x16, 0x3d, 0xfc, 0xca, 0xee, 0x3d, 0x98, 0x1b, 0xc3, 0x3d,
    0x06, 0x6f, 0x6a, 0x3d, 0xd6, 0xfb, 0x21, 0xbe, 0xef, 0x7c,
    0x34, 0xbe, 0x8b, 0x12, 0xfd, 0x3d, 0x75, 0xd3, 0x94, 0x3d,
    0x3f, 0xd8, 0x09, 0x3e, 0xf0, 0xbd, 0x0c, 0xbe, 0x7d, 0x08,
    0xfd, 0x3c, 0xd8, 0x22, 0x83, 0x3e, 0x71, 0xf3, 0x0f, 0xbd,
    0x74, 0x92, 0xbe, 0x3c, 0x4a, 0x4c, 0xbe, 0xbc, 0x5b, 0x4d,
    0xbf, 0xbc, 0x8e, 0xbd, 0x8b, 0xbc, 0x91, 0xc0, 0x5e, 0xbd,
    0xc1, 0xd2, 0xd0, 0x3d, 0xa2, 0x7d, 0x8c, 0xbe, 0xdf, 0x25,
    0xef, 0x3d, 0xca, 0xc9, 0x11, 0xbd, 0xa4, 0x22, 0x19, 0xbb,
    0xb4, 0x86, 0x60, 0xbb, 0xd3, 0xc5, 0xbc, 0xbd, 0x52, 0x24,
    0x19, 0x3c, 0x07, 0x48, 0x26, 0xbe, 0xbc, 0x0e, 0x1d, 0xbd,
    0x35, 0x81, 0x44, 0xbe, 0xa4, 0x20, 0x86, 0xbd, 0x86, 0x4c,
    0xcd, 0x3d, 0xef, 0xf8, 0xbe, 0x3d, 0x77, 0x0b, 0x53, 0x3e,
    0x05, 0x9a, 0x1f, 0xbd, 0x24, 0x6d, 0xb5, 0x3d, 0x29, 0x74,
    0xd4, 0x3d, 0x78, 0x96, 0xc8, 0xbd, 0xa7, 0x12, 0xf4, 0xbc,
    0x2a, 0x8a, 0x02, 0xbe, 0x2d, 0x2b, 0x1a, 0xbe, 0x7d, 0x73,
    0x26, 0xbd, 0xb1, 0x6e, 0xb0, 0x3d, 0x2c, 0xb9, 0x0c, 0xbe,
    0x01, 0x12, 0x8f, 0xbe, 0x20, 0x63, 0x30, 0x3d, 0x95, 0x90,
    0x8f, 0xbd, 0x5b, 0xf3, 0x29, 0xbd, 0x75, 0x1f, 0x22, 0x3d,
    0xfb, 0xe9, 0x03, 0x3d, 0x7f, 0xbc, 0xa6, 0x3d, 0x12, 0xa1,
    0xe6, 0xbc, 0x98, 0xec, 0x39, 0xbd, 0xd1, 0x68, 0x94, 0xbd,
    0x4b, 0x2b, 0x2c, 0xbe, 0xc7, 0x40, 0x5f, 0xbc, 0xe5, 0xd6,
    0xdc, 0xbd, 0xcd, 0x72, 0x05, 0x3e, 0xfe, 0xdf, 0x76, 0x3d,
    0x9d, 0xd8, 0xad, 0x3d, 0x63, 0xbb, 0x73, 0x3e, 0xe2, 0x20,
    0x37, 0xbd, 0x05, 0x19, 0x13, 0x3e, 0x10, 0x73, 0xa1, 0x3d,
    0x6f, 0x10, 0xf7, 0xbd, 0x5f, 0xd8, 0xeb, 0x3d, 0x77, 0xd6,
    0x35, 0xbd, 0xbf, 0x3f, 0xc5, 0x3d, 0x24, 0xc1, 0x1d, 0xbe,
    0x11, 0x79, 0x6c, 0x3e, 0x7e, 0xae, 0x08, 0x3d, 0x6f, 0x9e,
    0xb8, 0xbd, 0xeb, 0xd6, 0x99, 0xbd, 0x9d, 0x39, 0xfa, 0x3d,
    0x4a, 0x09, 0xd1, 0xbc, 0x1f, 0xd2, 0xcf, 0xbd, 0x5a, 0xa3,
    0x4e, 0xbe, 0xb5, 0xdf, 0x04, 0xbe, 0x00, 0xef, 0x6e, 0xbd,
    0x3e, 0x14, 0x3c, 0xbe, 0x67, 0xbe, 0xce, 0x3d, 0xc1, 0x3d,
    0xf4, 0x3d, 0x2e, 0x08, 0x00, 0x3d, 0x4e, 0xbd, 0x26, 0xbe,
    0x16, 0xe0, 0x74, 0x3a, 0x7b, 0xca, 0x86, 0x3d, 0xcc, 0x9e,
    0x13, 0xbe, 0x87, 0x1d, 0x1c, 0xbe, 0xad, 0x68, 0x9c, 0x3d,
    0xb6, 0xfd, 0x31, 0x3d, 0x10, 0xee, 0x7a, 0x3c, 0xc2, 0x43,
    0xd3, 0xbd, 0xc6, 0x28, 0xf5, 0xbd, 0xc4, 0xa6, 0x3d, 0x3d,
    0x0c, 0xdb, 0x17, 0x3e, 0xcc, 0xe1, 0xde, 0x3d, 0x99, 0x17,
    0x50, 0x3d, 0x36, 0x36, 0x19, 0xbd, 0x6b, 0x1d, 0x03, 0xbe,
    0xac, 0xae, 0xbb, 0xbc, 0xf1, 0x60, 0x1c, 0x3e, 0x13, 0x74,
    0xe4, 0xbd, 0x28, 0x87, 0x5b, 0x3d, 0xae, 0x95, 0x36, 0x3d,
    0x61, 0xc4, 0x66, 0x3d, 0x64, 0xfd, 0xed, 0x3d, 0x2b, 0x13,
    0xeb, 0xbd, 0x86, 0xce, 0x1c, 0xbe, 0x60, 0xad, 0xf0, 0xbd,
    0x4a, 0x74, 0x9c, 0xbb, 0x0f, 0xb0, 0x82, 0x3d, 0x09, 0xb8,
    0x1e, 0xbe, 0x68, 0x02, 0x30, 0x3e, 0xa6, 0x0a, 0x99, 0x3d,
    0x40, 0xf4, 0xdb, 0x3c, 0xc8, 0x3e, 0x41, 0x3d, 0x03, 0x72,
    0x11, 0x3d, 0x94, 0xe5, 0x58, 0x3e, 0x4c, 0x96, 0xa3, 0x3d,
    0x86, 0xb0, 0xb3, 0x3d, 0x79, 0xb0, 0x4d, 0xbe, 0xad, 0xfe,
    0x42, 0xbe, 0x4b, 0x35, 0x54, 0x3d, 0xd5, 0x4e, 0x9b, 0x3d,
    0xcc, 0x6c, 0xe6, 0xbd, 0x6a, 0x5f, 0xdc, 0x3d, 0x5d, 0x18,
    0xd0, 0xbd, 0x14, 0xa1, 0x3b, 0x3e, 0xd8, 0xd2, 0x86, 0x3d,
    0xb9, 0xcb, 0xb8, 0xbd, 0x4f, 0x6b, 0x8c, 0xbd, 0x42, 0x23,
    0x9a, 0xbd, 0xa6, 0x67, 0x9b, 0x3c, 0x5f, 0x89, 0x89, 0x3d,
    0x56, 0x27, 0x0a, 0xbe, 0xf5, 0xa9, 0x62, 0x3d, 0x82, 0x9b,
    0x31, 0x3e, 0x19, 0x7d, 0xe6, 0x3d, 0xf9, 0xf9, 0x5c, 0x3d,
    0x52, 0x12, 0x06, 0x3d, 0x8f, 0x5f, 0x06, 0xbd, 0xf1, 0x7b,
    0x50, 0x3d, 0x17, 0x89, 0x58, 0xbe, 0x98, 0xde, 0x8e, 0xbd,
    0x76, 0x84, 0x2b, 0xbd, 0xed, 0xd4, 0xdc, 0x3d, 0x76, 0x5c,
    0x4c, 0x3d, 0x62, 0xcf, 0x91, 0xbd, 0xab, 0xb8, 0xe0, 0x3c,
    0x12, 0x07, 0x2a, 0x3e, 0x35, 0xd8, 0x96, 0x3d, 0xbd, 0x5b,
    0x66, 0xbe, 0x4d, 0x8e, 0x72, 0x3c, 0x50, 0x11, 0x05, 0xbe,
    0x0f, 0xae, 0x10, 0x3e, 0xb6, 0x2a, 0x1f, 0xbe, 0x68, 0x3d,
    0x79, 0x3e, 0x6f, 0x97, 0x14, 0xbe, 0x9b, 0xe9, 0x42, 0x3e,
    0x61, 0xc3, 0xdb, 0x3c, 0xbf, 0x2a, 0x17, 0x3d, 0xf6, 0x51,
    0x0f, 0xbe, 0xbe, 0xfe, 0xc5, 0x3c, 0xe2, 0xc0, 0x0a, 0xbe,
    0xd9, 0x3b, 0x09, 0xbe, 0x6e, 0xf7, 0xd5, 0xbd, 0x52, 0xc9,
    0xcf, 0x3d, 0x07, 0xe6, 0xe8, 0xbd, 0x44, 0xb1, 0x98, 0xbd,
    0x29, 0x0c, 0x2c, 0x3e, 0x5e, 0xb8, 0xa5, 0xbd, 0xe5, 0xd9,
    0xa9, 0xbd, 0x22, 0x47, 0x8e, 0x3c, 0x5b, 0x04, 0x3b, 0x3d,
    0xe3, 0x02, 0x79, 0xbe, 0x2f, 0xf7, 0x04, 0xbd, 0xdb, 0x79,
    0xc8, 0x3d, 0x89, 0xdc, 0xb2, 0xbb, 0xa5, 0x9a, 0x42, 0x3d,
    0x9a, 0xa8, 0x92, 0x3d, 0x88, 0x57, 0x07, 0x3e, 0x85, 0xce,
    0x3e, 0x3c, 0x0a, 0xe4, 0xa5, 0x3d, 0x47, 0x9c, 0xf3, 0x3d,
    0x07, 0xc7, 0x98, 0xbc, 0x27, 0x48, 0xf5, 0xbd, 0xb6, 0xc3,
    0x18, 0x3e, 0x5d, 0x90, 0xb1, 0x3d, 0x66, 0xd1, 0x01, 0x3c,
    0x93, 0x46, 0x4a, 0xbe, 0x00, 0xa3, 0xcc, 0xbc, 0x84, 0xc9,
    0x50, 0x3d, 0xd3, 0x54, 0x86, 0xbd, 0x00, 0x10, 0x3e, 0xbd,
    0x3e, 0x7c, 0x1e, 0x3e, 0x66, 0x45, 0xac, 0xbd, 0x08, 0x3a,
    0x22, 0xbe, 0x89, 0x80, 0xa1, 0x3c, 0xea, 0x07, 0x3f, 0xbe,
    0x1c, 0x1d, 0x2b, 0xbe, 0x6a, 0x85, 0x9a, 0x3b, 0xb7, 0x65,
    0x42, 0xbe, 0x26, 0x71, 0x43, 0x3d, 0x51, 0x40, 0xe5, 0x3d,
    0xf8, 0x32, 0xbb, 0x3d, 0x3a, 0xfa, 0x99, 0x3d, 0x82, 0x12,
    0xc8, 0x3c, 0x87, 0xc3, 0xda, 0x3d, 0x39, 0x01, 0x34, 0x3d,
    0x3b, 0x54, 0x19, 0xbe, 0x47, 0x23, 0x4d, 0xbe, 0xf2, 0x18,
    0x56, 0xbd, 0x67, 0x4f, 0x49, 0x3c, 0x03, 0x73, 0x28, 0xbc,
    0x1a, 0x03, 0x4f, 0xbc, 0x3c, 0x04, 0x67, 0xbd, 0xed, 0xf6,
    0x83, 0xbd, 0x74, 0x18, 0x49, 0xbd, 0x79, 0xff, 0x32, 0xbe,
    0x0c, 0x31, 0x6e, 0xbd, 0x51, 0x54, 0xdc, 0x3d, 0x75, 0x86,
    0xfa, 0xbb, 0x25, 0x57, 0x4e, 0x3e, 0xb3, 0xc0, 0xcf, 0x3d,
    0x87, 0x02, 0xa2, 0xbe, 0x07, 0x72, 0x97, 0xbd, 0xca, 0x75,
    0x2b, 0xbe, 0x41, 0x55, 0x2a, 0x3c, 0xc6, 0x14, 0x19, 0x3e,
    0xa2, 0x38, 0x33, 0xbd, 0xfd, 0x33, 0x2b, 0xbd, 0x69, 0x89,
    0x18, 0x3e, 0x2d, 0xe5, 0xdf, 0xbd, 0x7f, 0xc2, 0x1f, 0x3e,
    0x1a, 0x10, 0x4b, 0xbe, 0xf2, 0xaf, 0xfe, 0x3d, 0xde, 0xcc,
    0xe2, 0xbd, 0x8e, 0x5a, 0x9d, 0xbd, 0xc8, 0xd0, 0x17, 0x3e,
    0xdf, 0xad, 0xbc, 0x3d, 0xd7, 0xb7, 0x22, 0xbe, 0x91, 0x82,
    0xae, 0x3d, 0x22, 0x1b, 0x54, 0x3b, 0x1a, 0x68, 0xcd, 0x3d,
    0x92, 0x12, 0x51, 0xbb, 0x36, 0xca, 0x4f, 0x3e, 0xe1, 0x26,
    0x50, 0x3d, 0x21, 0xb9, 0xb8, 0xbd, 0xbb, 0xd1, 0x9b, 0xbe,
    0xd5, 0xec, 0x22, 0xbd, 0x41, 0x55, 0x07, 0x3e, 0xd2, 0x58,
    0x59, 0x3d, 0x79, 0x87, 0xa5, 0x3d, 0xd6, 0x39, 0x12, 0xbe,
    0x79, 0xc5, 0x01, 0xbc, 0x44, 0x1f, 0xfd, 0xbd, 0x2e, 0x0d,
    0x1d, 0xbe, 0x0d, 0x17, 0xc5, 0x3d, 0x03, 0x42, 0x86, 0xbd,
    0x3a, 0xab, 0xb1, 0x3d, 0x40, 0x82, 0x28, 0xbc, 0xaf, 0xbc,
    0x03, 0x3e, 0xed, 0x70, 0x07, 0xbc, 0x38, 0x24, 0x90, 0xbd,
    0x67, 0x4a, 0x47, 0xbe, 0xb8, 0xab, 0x57, 0xbd, 0xb2, 0xc9,
    0x1f, 0xbe, 0x9a, 0xc6, 0xae, 0x3d, 0xaa, 0xe9, 0x06, 0x3e,
    0x05, 0xd5, 0x01, 0xbe, 0x81, 0x62, 0x24, 0x3e, 0x6f, 0x01,
    0x78, 0xbc, 0x08, 0xf8, 0x01, 0xbb, 0x18, 0xbb, 0x55, 0xbd,
    0x15, 0x23, 0xec, 0x3d, 0xb4, 0x2a, 0x9e, 0xbc, 0x8b, 0xd8,
    0x9c, 0x3d, 0x2d, 0xd9, 0x29, 0xbe, 0x65, 0x56, 0x76, 0xbd,
    0x43, 0x08, 0xd6, 0xbd, 0xa9, 0x57, 0x49, 0xbe, 0x8e, 0x95,
    0xab, 0x3c, 0xed, 0x64, 0x6a, 0x3e, 0x79, 0xb0, 0xbd, 0xba,
    0xde, 0xd1, 0xba, 0xbd, 0xf1, 0x43, 0xc9, 0xbd, 0xc6, 0x02,
    0x52, 0xbe, 0xd8, 0xdc, 0x86, 0xbc, 0xee, 0xb1, 0x2e, 0xbd,
    0xa8, 0x2d, 0xfe, 0x3d, 0xbd, 0x3b, 0xd7, 0x3d, 0x7b, 0xd6,
    0xdc, 0xbd, 0xde, 0x4e, 0xef, 0xbd, 0xfe, 0x5c, 0x54, 0x3e,
    0x3d, 0x29, 0x22, 0xbd, 0x89, 0x99, 0x1a, 0xbe, 0x6a, 0x37,
    0xa1, 0xbc, 0xf0, 0x90, 0x4f, 0xbe, 0x99, 0x28, 0x8a, 0x3c,
    0x9b, 0xee, 0x22, 0x3e, 0x94, 0xfd, 0xba, 0x3d, 0x4d, 0x2e,
    0x15, 0x3e, 0x46, 0x7b, 0xbb, 0x3b, 0x99, 0xcc, 0x75, 0x3d,
    0xa0, 0x23, 0x2b, 0x3b, 0x06, 0x05, 0x0e, 0x3e, 0xa2, 0x29,
    0xdf, 0x3d, 0x7d, 0xe5, 0x05, 0xbc, 0xcd, 0xab, 0xed, 0xbd,
    0x8d, 0x7a, 0x41, 0xbc, 0xff, 0x33, 0x0e, 0xbe, 0x4c, 0x63,
    0xba, 0x3d, 0xd9, 0x16, 0x4a, 0xbe, 0x21, 0x0c, 0x00, 0x3c,
    0xe9, 0xdd, 0x7b, 0xbc, 0xb2, 0x19, 0x11, 0x3a, 0x73, 0x05,
    0x09, 0xbe, 0x07, 0x1e, 0x8e, 0x3e, 0x5d, 0x9e, 0xa4, 0x3d,
    0xa1, 0xd6, 0x7d, 0xbe, 0x3e, 0x38, 0x1c, 0x3e, 0xdc, 0xda,
    0x6f, 0xba, 0xeb, 0xc9, 0x2c, 0xbe, 0x38, 0xb2, 0xeb, 0xbd,
    0x06, 0x77, 0x9d, 0x3d, 0xb2, 0x1e, 0xe7, 0xbd, 0x83, 0x6b,
    0xd6, 0xbd, 0x48, 0x67, 0x6e, 0x3d, 0x9b, 0xe5, 0xd3, 0xbd,
    0xc3, 0x61, 0x68, 0xbc, 0xff, 0x31, 0x43, 0x3e, 0x20, 0x3a,
    0x17, 0x3e, 0xc9, 0x93, 0x1c, 0xbe, 0xcd, 0x39, 0x9a, 0x3d,
    0x37, 0x29, 0x49, 0xbe, 0xe6, 0x8e, 0x11, 0xbe, 0xb4, 0x63,
    0x82, 0xbe, 0xb7, 0x2a, 0x45, 0x3e, 0x7a, 0x1c, 0x5c, 0x3e,
    0xda, 0xa1, 0xcb, 0xbd, 0x61, 0x9d, 0x30, 0xbd, 0x37, 0x07,
    0x6f, 0x3e, 0xf4, 0x07, 0xea, 0x3d, 0x69, 0x6a, 0x04, 0x3d,
    0x9e, 0x68, 0x31, 0x3c, 0x6f, 0x11, 0x88, 0xbc, 0xe0, 0xca,
    0x49, 0xbe, 0x58, 0xa7, 0xf1, 0xbd, 0xe9, 0x90, 0x96, 0xbc,
    0x52, 0x57, 0x11, 0x3e, 0x4d, 0x93, 0xf7, 0x3c, 0x61, 0xa8,
    0x89, 0xbd, 0xef, 0xbd, 0x95, 0xbd, 0xda, 0x22, 0x19, 0xbd,
    0xcc, 0x8f, 0x11, 0xbb, 0x86, 0x83, 0x3b, 0xbd, 0x90, 0xfa,
    0x64, 0xbd, 0x33, 0x23, 0xeb, 0xbb, 0x3d, 0x12, 0x5d, 0xbd,
    0x3b, 0x55, 0x53, 0xbd, 0xb6, 0xb4, 0x60, 0xbc, 0x72, 0x29,
    0xc0, 0xbc, 0x58, 0x85, 0x9c, 0xbc, 0x62, 0x44, 0x2f, 0xbd,
    0x62, 0xa0, 0x02, 0x3d, 0xa0, 0xc0, 0x93, 0xbd, 0x0a, 0xdc,
    0x6f, 0x3b, 0xcd, 0x92, 0x40, 0x3d, 0x88, 0xa9, 0x74, 0x7d,
    0xb1, 0xb9, 0x97, 0x77, 0x6b, 0x7b, 0xae, 0x82, 0x6c, 0x9d,
    0x88, 0x3c, 0x9b, 0xaa, 0x72, 0xa4, 0x76, 0x80, 0x72, 0x6e,
    0x63, 0x68, 0x85, 0x91, 0xa9, 0x89, 0x7c, 0x7b, 0x51, 0xa7,
    0x17, 0x6d, 0x47, 0x50, 0x78, 0xa0, 0x54, 0x9b, 0x58, 0x58,
    0x86, 0x64, 0x34, 0x72, 0x87, 0x7f, 0x7e, 0x9a, 0xbb, 0xa1,
    0xaa, 0xa7, 0x8c, 0xab, 0x9f, 0x7c, 0x6c, 0x89, 0x7d, 0x5d,
    0x8f, 0x9c, 0x7b, 0xab, 0x7e, 0x6f, 0x7b, 0xa5, 0x4d, 0x91,
    0x94, 0x9b, 0x83, 0x62, 0xa6, 0x81, 0x54, 0x5f, 0x00, 0x5c,
    0x5a, 0x42, 0x4d, 0x68, 0x4b, 0xa6, 0x8d, 0x18, 0xb4, 0x4a,
    0x5a, 0x79, 0x89, 0x9d, 0x87, 0x7b, 0xa3, 0xb4, 0x76, 0x97,
    0x69, 0xb6, 0xa6, 0x99, 0x61, 0x71, 0x9b, 0x65, 0x9a, 0x83,
    0xb0, 0x8c, 0x54, 0x6d, 0x8a, 0xa6, 0x6b, 0x6b, 0x94, 0x6d,
    0x74, 0x76, 0x81, 0x88, 0x6f, 0x71, 0x5d, 0x41, 0x4f, 0x1b,
    0x4e, 0xa4, 0x8e, 0x70, 0x5e, 0x58, 0x83, 0x54, 0x26, 0xb5,
    0x9b, 0x83, 0xad, 0xb3, 0xb8, 0x90, 0x8e, 0x76, 0x5e, 0xbe,
    0xab, 0x8a, 0x86, 0x9c, 0x80, 0x6c, 0x80, 0x91, 0x73, 0x9c,
    0x6a, 0x74, 0x7c, 0x80, 0x5f, 0x6b, 0xb3, 0x7e, 0x8c, 0x88,
    0x8e, 0x8a, 0x45, 0x99, 0x2a, 0x2d, 0x7e, 0x53, 0x5e, 0x54,
    0x68, 0xaf, 0x62, 0x19, 0xa8, 0x86, 0x80, 0x75, 0xa4, 0x90,
    0x78, 0x87, 0x8d, 0x82, 0x8b, 0x83, 0x59, 0x94, 0x8f, 0x81,
    0x91, 0x6e, 0xa3, 0x7e, 0xab, 0x9f, 0x68, 0x9d, 0x66, 0x82,
    0x9e, 0x64, 0x98, 0x78, 0x72, 0x8b, 0xb5, 0x9a, 0x95, 0x5c,
    0x3e, 0x8c, 0x48, 0x44, 0x56, 0x3d, 0x55, 0x89, 0x3f, 0xa2,
    0x69, 0x4c, 0xac, 0x40, 0x57, 0x74, 0x99, 0x8a, 0x92, 0x73,
    0x96, 0xb0, 0x7c, 0xa2, 0x7b, 0xb0, 0xb7, 0xad, 0x4e, 0x92,
    0x97, 0x62, 0x9d, 0x85, 0x7d, 0xba, 0x62, 0x6b, 0xa3, 0x90,
    0x6c, 0x76, 0xa2, 0x89, 0x85, 0x69, 0x68, 0x87, 0x3b, 0x7c,
    0x3a, 0x33, 0x52, 0x42, 0x7f, 0x92, 0x6a, 0x78, 0x7f, 0x39,
    0x66, 0x64, 0x5c, 0x6d, 0x71, 0x85, 0x35, 0x7f, 0x4e, 0x99,
    0x95, 0x82, 0x1d, 0x7f, 0x84, 0x85, 0x55, 0x73, 0x89, 0x81,
    0xa8, 0x97, 0x8c, 0x74, 0x95, 0x9d, 0xa7, 0x94, 0x7d, 0x93,
    0x9d, 0x71, 0x7d, 0x9f, 0x74, 0x5a, 0x75, 0x4e, 0x6c, 0x89,
    0x6d, 0x83, 0x9f, 0x77, 0xb9, 0xb4, 0x4e, 0x8f, 0x6e, 0x89,
    0x83, 0x95, 0x56, 0xb6, 0x44, 0x8d, 0x7c, 0xa2, 0x9e, 0x91,
    0x45, 0x9f, 0x9c, 0x94, 0x89, 0x79, 0x8c, 0x51, 0xaf, 0x93,
    0x5d, 0x86, 0x69, 0x90, 0xa5, 0x92, 0x78, 0x95, 0x91, 0xa6,
    0xa2, 0x74, 0x76, 0x7f, 0xa4, 0x72, 0x5c, 0x6c, 0x70, 0x8f,
    0x93, 0x6a, 0x9e, 0x8a, 0x78, 0x5e, 0x99, 0x9a, 0x87, 0x86,
    0x4d, 0xad, 0x7b, 0x44, 0x6e, 0x96, 0x64, 0x63, 0x63, 0x9b,
    0xb9, 0xac, 0x50, 0x4c, 0x9d, 0x71, 0x90, 0x87, 0x8c, 0x79,
    0x87, 0x76, 0x8c, 0x7b, 0x7e, 0x9b, 0x8a, 0xa5, 0x79, 0x91,
    0x6b, 0x61, 0x77, 0x57, 0x67, 0x6a, 0x9d, 0x76, 0xae, 0x73,
    0x9d, 0xba, 0x88, 0x72, 0x55, 0x9d, 0x8b, 0xbf, 0x8e, 0xb0,
    0x77, 0x8c, 0xa1, 0x85, 0x61, 0x92, 0x30, 0x89, 0xa3, 0xb7,
    0x7d, 0x7b, 0x9f, 0x5e, 0x6c, 0x97, 0x61, 0x74, 0x91, 0x8a,
    0xa8, 0xa3, 0x6b, 0x66, 0x88, 0x79, 0x64, 0x6e, 0x61, 0x69,
    0x94, 0x74, 0x67, 0x96, 0x7e, 0x94, 0xbb, 0x62, 0xa1, 0xc8,
    0x60, 0x66, 0x9e, 0xb4, 0x90, 0x84, 0x56, 0xbe, 0x76, 0x4c,
    0x66, 0x99, 0x66, 0xa9, 0x4e, 0x9a, 0x90, 0x7e, 0x5c, 0x48,
    0x90, 0x82, 0x76, 0x73, 0x57, 0x71, 0x57, 0x85, 0x93, 0x7a,
    0x83, 0xa5, 0x6a, 0xa2, 0x87, 0x66, 0x7c, 0x61, 0x95, 0x6f,
    0x68, 0x6c, 0x8c, 0x61, 0x8c, 0x60, 0x6b, 0xbd, 0x75, 0x91,
    0x7d, 0xa0, 0xab, 0x90, 0x65, 0x9c, 0x76, 0x7b, 0x70, 0x78,
    0x7d, 0x9b, 0x3d, 0xad, 0x82, 0xa7, 0x61, 0x3d, 0x88, 0x5a,
    0xa0, 0x9c, 0x88, 0xa8, 0x90, 0xa9, 0x98, 0x70, 0x6e, 0x73,
    0x5e, 0x6b, 0x7a, 0xaf, 0x86, 0x69, 0x8c, 0x78, 0xa1, 0x45,
    0x97, 0x88, 0xa7, 0x41, 0xa3, 0x88, 0x56, 0x6c, 0xb5, 0x80,
    0x6f, 0x94, 0x3f, 0x57, 0x36, 0x5b, 0x3f, 0x54, 0x9d, 0x66,
    0x89, 0x69, 0x42, 0x7b, 0x7b, 0x5c, 0x5d, 0x67, 0x55, 0x7c,
    0x6b, 0x61, 0x69, 0x97, 0x56, 0x6d, 0x72, 0x90, 0xa0, 0x9f,
    0x69, 0x70, 0xa5, 0x59, 0x5b, 0xa3, 0x62, 0x8c, 0x78, 0xb3,
    0x81, 0x69, 0x9b, 0x83, 0x8d, 0x78, 0x96, 0x83, 0x84, 0x8b,
    0x7e, 0x6b, 0x53, 0x3b, 0x3a, 0x3c, 0x9e, 0x58, 0x88, 0xa0,
    0x5c, 0x68, 0xb3, 0x79, 0x4c, 0x6e, 0x80, 0x99, 0x57, 0x56,
    0x8e, 0xac, 0x6e, 0x6d, 0x82, 0x73, 0x74, 0x9d, 0x7d, 0x74,
    0x85, 0x65, 0x89, 0xbc, 0x66, 0x7c, 0x98, 0xb5, 0x8c, 0x7e,
    0x72, 0xc3, 0xa8, 0xa1, 0x80, 0x8f, 0x8c, 0xb1, 0x59, 0x7e,
    0x69, 0x82, 0x4f, 0x77, 0xa3, 0x80, 0x77, 0x6c, 0x6d, 0x97,
    0xa2, 0x76, 0xa1, 0x8e, 0x64, 0x91, 0x8e, 0x62, 0xa0, 0x6e,
    0x5f, 0x87, 0x5f, 0x67, 0x6c, 0x8e, 0x8f, 0x46, 0x80, 0x63,
    0x91, 0xa7, 0x88, 0x96, 0x8b, 0x8c, 0x89, 0x82, 0x5d, 0xa7,
    0x9d, 0xa2, 0x9d, 0x8d, 0x9b, 0x6e, 0x4a, 0x7a, 0x70, 0x21,
    0x4e, 0x3f, 0xbd, 0x5a, 0x75, 0x78, 0x72, 0x91, 0x9c, 0x68,
    0x74, 0x8b, 0x70, 0xab, 0x64, 0x56, 0x96, 0xa4, 0x73, 0x53,
    0x9e, 0x66, 0xaa, 0x93, 0x7f, 0x50, 0x9c, 0x57, 0x90, 0x9d,
    0x62, 0x7e, 0x8d, 0x8d, 0x81, 0x80, 0x5e, 0x80, 0xb6, 0xb2,
    0x9e, 0xae, 0xab, 0xa5, 0x66, 0x90, 0x5c, 0x4e, 0x16, 0x61,
    0x8a, 0x31, 0x8f, 0x75, 0x8e, 0x4d, 0xbb, 0x8a, 0x46, 0x71,
    0x58, 0x8f, 0x67, 0x66, 0x9d, 0xb9, 0x98, 0x76, 0x6b, 0x79,
    0x87, 0x74, 0x85, 0x99, 0x96, 0x4d, 0x63, 0x8e, 0x7a, 0x82,
    0xa6, 0xa1, 0x7c, 0x4f, 0x65, 0x9c, 0x7e, 0x97, 0x98, 0x86,
    0x91, 0xa9, 0x4d, 0x54, 0x64, 0x3d, 0x1d, 0x5c, 0xae, 0x75,
    0x82, 0x94, 0x65, 0x73, 0x94, 0x77, 0x7e, 0x71, 0x74, 0x74,
    0x87, 0x7e, 0x66, 0xa7, 0x5c, 0x43, 0x34, 0x98, 0x94, 0x9e,
    0x5e, 0x5e, 0x7a, 0x36, 0x84, 0x89, 0x6a, 0x7a, 0x9d, 0x8e,
    0x85, 0x7e, 0x6e, 0x93, 0x77, 0x91, 0xc7, 0xb5, 0xa7, 0xb1,
    0x8c, 0x83, 0x76, 0x8e, 0x78, 0x9e, 0x48, 0x6d, 0x78, 0x70,
    0x92, 0x69, 0x4f, 0x77, 0xab, 0x75, 0x67, 0x49, 0x67, 0x65,
    0x8d, 0x77, 0x92, 0x7d, 0x6d, 0x53, 0x8c, 0x76, 0x72, 0x57,
    0xac, 0x77, 0x78, 0x74, 0x7c, 0xac, 0x72, 0x8b, 0xa5, 0xc6,
    0x73, 0x5e, 0x97, 0xa9, 0x87, 0x7d, 0x8a, 0x44, 0x64, 0x67,
    0x88, 0x71, 0x8f, 0xa8, 0x5e, 0x5f, 0x71, 0x8a, 0x72, 0x4f,
    0x64, 0x8a, 0x93, 0x7e, 0x5b, 0x7d, 0x74, 0x78, 0x65, 0x7c,
    0x6f, 0x49, 0x69, 0x80, 0x7e, 0x74, 0x77, 0xa0, 0xa7, 0x8f,
    0x8c, 0x9e, 0x92, 0x8c, 0x8c, 0x98, 0x82, 0xa4, 0x6d, 0x66,
    0x7e, 0x93, 0x7c, 0x62, 0x79, 0x61, 0x83, 0x89, 0x84, 0x88,
    0x84, 0x66, 0x6a, 0x9d, 0x75, 0x60, 0x71, 0x74, 0x7d, 0x66,
    0xa1, 0x72, 0x6e, 0x78, 0x8c, 0x65, 0x83, 0x51, 0x6c, 0x4f,
    0x89, 0x5c, 0xa4, 0x5a, 0x7c, 0x80, 0x7e, 0x7f, 0xa9, 0xac,
    0x8e, 0x81, 0x86, 0xa8, 0x62, 0xc5, 0x82, 0x5d, 0x88, 0xb1,
    0x56, 0x66, 0x8f, 0x81, 0x98, 0x93, 0x81, 0x86, 0xab, 0x7a,
    0x8b, 0x7e, 0x7e, 0x95, 0x5d, 0x73, 0x8d, 0x68, 0x93, 0x9b,
    0x5b, 0x4e, 0x92, 0x89, 0x8b, 0x78, 0x84, 0x3a, 0xaa, 0x74,
    0x6e, 0x4d, 0x53, 0xae, 0x91, 0x88, 0xc1, 0x7d, 0xac, 0xad,
    0x79, 0x8e, 0x95, 0xba, 0x70, 0x48, 0xa1, 0xc0, 0xa0, 0x65,
    0x8d, 0x50, 0x6c, 0x69, 0x66, 0x61, 0x87, 0xa5, 0x58, 0x85,
    0x59, 0x84, 0x86, 0x8d, 0x9b, 0x6e, 0x91, 0x7b, 0x60, 0x6e,
    0x99, 0x70, 0x7f, 0x58, 0x86, 0x59, 0x82, 0x93, 0x54, 0x51,
    0x5e, 0x9f, 0x8e, 0xa8, 0xab, 0xa3, 0x8a, 0x99, 0x9e, 0xa2,
    0x7d, 0x9b, 0x9a, 0x71, 0x95, 0xa6, 0x82, 0x8a, 0x76, 0x54,
    0x74, 0x6f, 0xad, 0x78, 0x83, 0xae, 0x8a, 0x70, 0x5e, 0x96,
    0x80, 0x6a, 0x5c, 0x65, 0xad, 0x81, 0x79, 0x50, 0x7f, 0x67,
    0x8f, 0x80, 0x89, 0x36, 0x81, 0x7b, 0xb6, 0x79, 0x42, 0x7d,
    0x9e, 0x81, 0x7c, 0x85, 0x92, 0x9c, 0x8b, 0x9b, 0x9b, 0xd0,
    0x79, 0x2b, 0x9d, 0xb7, 0x6c, 0x8d, 0x5c, 0x80, 0xb1, 0x79,
    0x90, 0x8f, 0x70, 0x66, 0x8e, 0x6f, 0x8e, 0x7a, 0x27, 0x8a,
    0x31, 0xc2, 0x87, 0x8c, 0x98, 0x76, 0x85, 0x79, 0x99, 0x7e,
    0x82, 0xa7, 0x86, 0x61, 0x9c, 0x88, 0x35, 0x76, 0x4d, 0x70,
    0x4e, 0x74, 0x6c, 0x91, 0x3e, 0x67, 0x67, 0x5e, 0x57, 0x78,
    0x82, 0x74, 0x3f, 0x89, 0xaf, 0x2d, 0xb4, 0x58, 0xa4, 0x99,
    0x75, 0x62, 0x74, 0x8a, 0x9c, 0x7e, 0x5a, 0x75, 0x48, 0xb8,
    0x5d, 0x7f, 0x95, 0x81, 0x91, 0x98, 0x8c, 0x97, 0xa7, 0x9b,
    0xb2, 0x8a, 0x6c, 0x80, 0x57, 0x86, 0x68, 0x3f, 0x60, 0x74,
    0x7f, 0x7b, 0x53, 0x79, 0x66, 0x67, 0x42, 0x36, 0x86, 0x81,
    0x57, 0x81, 0xb1, 0x39, 0xaa, 0x3c, 0x91, 0x6b, 0x73, 0x84,
    0x8a, 0x6c, 0x8e, 0x6c, 0x59, 0x60, 0x42, 0xa0, 0x84, 0xab,
    0x8c, 0x67, 0xb0, 0x86, 0x94, 0x73, 0x72, 0xaa, 0x9f, 0x57,
    0x5e, 0xa8, 0x4d, 0xa6, 0x6d, 0x59, 0x55, 0x79, 0x7f, 0x6e,
    0x8c, 0x67, 0x7b, 0xa2, 0x4f, 0x62, 0x5b, 0x8f, 0x4b, 0x8d,
    0x9d, 0x54, 0x86, 0x76, 0xce, 0x7a, 0xa1, 0x84, 0xbc, 0x69,
    0x8b, 0x4b, 0x27, 0x7a, 0x5d, 0xbd, 0x8b, 0x97, 0xa2, 0x55,
    0xaf, 0x6f, 0x91, 0x76, 0x7b, 0xb7, 0x9d, 0x8a, 0x73, 0x75,
    0x4a, 0x83, 0x66, 0x4d, 0x89, 0x54, 0x8a, 0x71, 0x85, 0x9c,
    0x90, 0x8a, 0x52, 0x4a, 0x61, 0x85, 0x50, 0x8d, 0xa2, 0x30,
    0x97, 0x47, 0x7e, 0x9a, 0x6f, 0x88, 0x9b, 0x70, 0x92, 0x49,
    0x6b, 0x81, 0x62, 0x90, 0x50, 0x89, 0x6f, 0x5f, 0x9c, 0x79,
    0x63, 0x8d, 0xa1, 0xa5, 0xb4, 0x8f, 0x96, 0x95, 0x44, 0x75,
    0x6f, 0x82, 0x48, 0x71, 0x7c, 0x88, 0x6c, 0x93, 0x5d, 0x54,
    0x8b, 0x6c, 0x69, 0x94, 0x61, 0x7d, 0x7c, 0x1f, 0x9b, 0x82,
    0xb4, 0x8e, 0x7a, 0x78, 0x7a, 0x9a, 0xc4, 0x87, 0x66, 0xa2,
    0x35, 0xab, 0x49, 0x9b, 0x7d, 0x96, 0xa5, 0x8d, 0x98, 0x6f,
    0x87, 0x84, 0xac, 0x67, 0x70, 0x94, 0x4c, 0xb7, 0x50, 0x53,
    0x52, 0x56, 0x63, 0x6d, 0x71, 0x8f, 0x62, 0x60, 0x90, 0x62,
    0x77, 0x76, 0x58, 0x9a, 0x85, 0x1c, 0x37, 0x33, 0x43, 0x6a,
    0x2e, 0x25, 0x30, 0x53, 0x54, 0x9c, 0x54, 0x41, 0x9e, 0x53,
    0x46, 0xb6, 0x60, 0x2e, 0x48, 0x22, 0x5d, 0x4a, 0x23, 0x18,
    0x91, 0x8c, 0x31, 0x23, 0x9e, 0x6d, 0x6b, 0xb9, 0x96, 0x1f,
    0x61, 0x97, 0x7c, 0x52, 0x1a, 0x5b, 0x71, 0x5d, 0xaa, 0x69,
    0x37, 0x39, 0x6d, 0x47, 0x54, 0x2c, 0x4c, 0x3b, 0x52, 0x1d,
    0x5b, 0x3d, 0xa6, 0xc1, 0x63, 0x2b, 0x97, 0x58, 0x3e, 0xac,
    0x40, 0x20, 0x3e, 0x38, 0x5b, 0x19, 0x0e, 0x54, 0x92, 0xc5,
    0x60, 0x4b, 0xb7, 0x52, 0x5c, 0xff, 0x6d, 0x48, 0x91, 0xa9,
    0xab, 0x4c, 0x42, 0x69, 0x91, 0x7d, 0xb3, 0x93, 0x6f, 0x58,
    0x72, 0x1e, 0x40, 0x6e, 0x7d, 0x26, 0x89, 0x2d, 0x1b, 0x73,
    0x85, 0xb2, 0x51, 0x2d, 0x9e, 0x79, 0x3d, 0x99, 0x18, 0x12,
    0x76, 0x3c, 0x79, 0x20, 0x23, 0x50, 0xae, 0xc9, 0x4a, 0x47,
    0xc7, 0x7d, 0x4b, 0xb5, 0x60, 0x22, 0x6e, 0x8f, 0xbc, 0x58,
    0x13, 0x58, 0x74, 0x7a, 0x83, 0x86, 0x37, 0x18, 0x66, 0x6d,
    0x7f, 0x1c, 0x46, 0x6e, 0x64, 0x62, 0x52, 0x55, 0x63, 0xaf,
    0x52, 0x57, 0xc1, 0x65, 0x60, 0xd4, 0x4a, 0x10, 0x7f, 0x14,
    0xa1, 0x17, 0x58, 0x13, 0x66, 0xc5, 0x2f, 0x33, 0x9f, 0x53,
    0x3d, 0xe1, 0xaa, 0x57, 0x7d, 0xb4, 0x9e, 0x34, 0x11, 0x34,
    0x96, 0x40, 0xb1, 0xa6, 0x66, 0x67, 0x59, 0x5f, 0x38, 0x38,
    0x27, 0x24, 0x3b, 0x60, 0x41, 0x5d, 0x62, 0x89, 0x37, 0x1a,
    0x94, 0x68, 0x67, 0x9a, 0x1c, 0x3f, 0x8d, 0x51, 0x58, 0x68,
    0x4a, 0x65, 0x89, 0x87, 0x44, 0x5a, 0xd5, 0x51, 0x56, 0xd9,
    0x95, 0x50, 0x79, 0xb8, 0xa3, 0x5d, 0x3a, 0x35, 0x5c, 0x30,
    0x9c, 0x94, 0x2e, 0x1e, 0x4d, 0x5f, 0x5b, 0x38, 0x3b, 0x4f,
    0x76, 0x2b, 0x56, 0x26, 0x96, 0xca, 0x56, 0x39, 0x7d, 0x6b,
    0x73, 0xb8, 0x33, 0x4d, 0x35, 0x29, 0x8d, 0x42, 0x57, 0x4d,
    0xb2, 0xac, 0x49, 0x61, 0x9e, 0x5f, 0x7d, 0xb8, 0x5a, 0x5a,
    0x8f, 0x7e, 0xa7, 0x47, 0x29, 0x36, 0x5f, 0x77, 0xa0, 0x85,
    0x5e, 0x3c, 0x70, 0x2a, 0x53, 0xf1, 0xd5, 0xbe, 0x1c, 0x52,
    0xd4, 0xbe, 0xe4, 0xb2, 0xd2, 0xbe, 0xad, 0x13, 0xd1, 0xbe,
    0x75, 0x74, 0xcf, 0xbe, 0x3e, 0xd5, 0xcd, 0xbe, 0x06, 0x36,
    0xcc, 0xbe, 0xcf, 0x96, 0xca, 0xbe, 0x97, 0xf7, 0xc8, 0xbe,
    0x60, 0x58, 0xc7, 0xbe, 0x28, 0xb9, 0xc5, 0xbe, 0xf1, 0x19,
    0xc4, 0xbe, 0xb9, 0x7a, 0xc2, 0xbe, 0x82, 0xdb, 0xc0, 0xbe,
    0x63, 0xa0, 0xbf, 0xbe, 0x13, 0x9d, 0xbd, 0xbe, 0x65, 0x64,
    0xbc, 0xbe, 0x67, 0x1c, 0xbb, 0xbe, 0x22, 0x66, 0xb9, 0xbe,
    0x50, 0x6a, 0xb7, 0xbe, 0xd1, 0x8f, 0xb5, 0xbe, 0xc6, 0xe1,
    0xb3, 0xbe, 0x64, 0xff, 0xb2, 0xbe, 0x6e, 0x16, 0xb1, 0xbe,
    0xf0, 0xa9, 0xae, 0xbe, 0xdf, 0x7d, 0xad, 0xbe, 0x69, 0x83,
    0xac, 0xbe, 0xf6, 0x8c, 0xa9, 0xbe, 0xb9, 0x5b, 0xa8, 0xbe,
    0x51, 0xf8, 0xa6, 0xbe, 0x66, 0xad, 0xa5, 0xbe, 0xc8, 0x8e,
    0xa3, 0xbe, 0xec, 0x2a, 0xa2, 0xbe, 0xfb, 0x11, 0xa0, 0xbe,
    0x4c, 0x8d, 0x9e, 0xbe, 0x39, 0x74, 0x9d, 0xbe, 0xc0, 0x26,
    0x9b, 0xbe, 0xf1, 0xac, 0x99, 0xbe, 0x34, 0xe2, 0x98, 0xbe,
    0x4c, 0xb8, 0x96, 0xbe, 0xa8, 0x10, 0x95, 0xbe, 0xf3, 0x6a,
    0x92, 0xbe, 0x23, 0x47, 0x91, 0xbe, 0xd6, 0x51, 0x90, 0xbe,
    0xca, 0xfd, 0x8d, 0xbe, 0x25, 0x59, 0x8d, 0xbe, 0x2b, 0xd7,
    0x8b, 0xbe, 0x02, 0x25, 0x8a, 0xbe, 0xbb, 0x21, 0x88, 0xbe,
    0xdd, 0xd6, 0x86, 0xbe, 0x7d, 0xd8, 0x84, 0xbe, 0x74, 0x93,
    0x83, 0xbe, 0xf8, 0x70, 0x81, 0xbe, 0xfb, 0x01, 0x80, 0xbe,
    0xe8, 0xbe, 0x7c, 0xbe, 0x76, 0x6c, 0x79, 0xbe, 0xd8, 0x0e,
    0x76, 0xbe, 0xd5, 0xce, 0x72, 0xbe, 0xf4, 0x9d, 0x70, 0xbe,
    0x7a, 0x34, 0x6c, 0xbe, 0x46, 0xb5, 0x69, 0xbe, 0x26, 0x7d,
    0x65, 0xbe, 0xc3, 0x37, 0x63, 0xbe, 0x39, 0x83, 0x60, 0xbe,
    0xd7, 0xfa, 0x5c, 0xbe, 0x2b, 0x09, 0x59, 0xbe, 0x89, 0xd0,
    0x55, 0xbe, 0x9a, 0x92, 0x52, 0xbe, 0xe4, 0xa4, 0x4e, 0xbe,
    0x88, 0xbe, 0x4b, 0xbe, 0x29, 0xe9, 0x48, 0xbe, 0xc4, 0xdb,
    0x45, 0xbe, 0xd0, 0x38, 0x42, 0xbe, 0xc6, 0x90, 0x40, 0xbe,
    0x10, 0x12, 0x3c, 0xbe, 0x86, 0xda, 0x37, 0xbe, 0x20, 0xa8,
    0x35, 0xbe, 0x19, 0xbd, 0x31, 0xbe, 0x40, 0x74, 0x2e, 0xbe,
    0x0b, 0xb3, 0x2b, 0xbe, 0x0d, 0x6c, 0x28, 0xbe, 0x95, 0xd3,
    0x24, 0xbe, 0x3e, 0x10, 0x22, 0xbe, 0x0f, 0x3e, 0x1e, 0xbe,
    0x4e, 0x82, 0x1b, 0xbe, 0xf3, 0x65, 0x18, 0xbe, 0x33, 0x3c,
    0x15, 0xbe, 0x31, 0xaa, 0x11, 0xbe, 0x65, 0x5b, 0x0e, 0xbe,
    0x09, 0x9b, 0x0a, 0xbe, 0xf6, 0x13, 0x08, 0xbe, 0xbb, 0x96,
    0x04, 0xbe, 0x7f, 0x63, 0x01, 0xbe, 0x5f, 0x24, 0xfc, 0xbd,
    0x68, 0xcc, 0xf5, 0xbd, 0x56, 0xe4, 0xed, 0xbd, 0x84, 0xaf,
    0xe7, 0xbd, 0x80, 0xe4, 0xe2, 0xbd, 0x05, 0x1c, 0xdc, 0xbd,
    0xd4, 0x8e, 0xd5, 0xbd, 0xa1, 0x14, 0xcf, 0xbd, 0x24, 0x72,
    0xc7, 0xbd, 0x28, 0x7a, 0xc2, 0xbd, 0xb5, 0x99, 0xbb, 0xbd,
    0x8f, 0x13, 0xb5, 0xbd, 0xd9, 0xb2, 0xae, 0xbd, 0xa3, 0xac,
    0xa8, 0xbd, 0x6d, 0x71, 0xa2, 0xbd, 0x4d, 0x2e, 0x9b, 0xbd,
    0x26, 0x73, 0x94, 0xbd, 0x0c, 0xb6, 0x8d, 0xbd, 0xe9, 0x8b,
    0x87, 0xbd, 0x5b, 0x4f, 0x80, 0xbd, 0xd7, 0x86, 0x76, 0xbd,
    0xc4, 0xad, 0x6a, 0xbd, 0x8d, 0x74, 0x5c, 0xbd, 0xdf, 0x8c,
    0x4f, 0xbd, 0x7c, 0xd8, 0x42, 0xbd, 0xd9, 0x69, 0x33, 0xbd,
    0xbf, 0x84, 0x27, 0xbd, 0x51, 0x8a, 0x1b, 0xbd, 0x7e, 0x0c,
    0x0b, 0xbd, 0x64, 0x69, 0xfe, 0xbc, 0xdd, 0x3f, 0xe9, 0xbc,
    0xfb, 0x17, 0xcf, 0xbc, 0x24, 0xa3, 0xb4, 0xbc, 0xb4, 0x22,
    0x9a, 0xbc, 0xc7, 0x37, 0x7b, 0xbc, 0x74, 0xde, 0x48, 0xbc,
    0xf4, 0x5f, 0x19, 0xbc, 0x22, 0x7e, 0xb3, 0xbb, 0xba, 0x29,
    0x41, 0xbb, 0xf0, 0x75, 0xc3, 0x39, 0x36, 0x06, 0x63, 0x3b,
    0x5f, 0x01, 0xcf, 0x3b, 0x4f, 0x55, 0x1b, 0x3c, 0xb6, 0x9c,
    0x52, 0x3c, 0x84, 0xcf, 0x84, 0x3c, 0xfc, 0xd0, 0x9e, 0x3c,
    0x4e, 0xac, 0xb7, 0x3c, 0x05, 0x12, 0xd1, 0x3c, 0x94, 0x5a,
    0xea, 0x3c, 0x17, 0xcb, 0x02, 0x3d, 0x5d, 0x19, 0x13, 0x3d,
    0x31, 0xe7, 0x1d, 0x3d, 0x00, 0x88, 0x27, 0x3d, 0xc1, 0x19,
    0x35, 0x3d, 0xde, 0xb4, 0x42, 0x3d, 0x2e, 0x72, 0x50, 0x3d,
    0x20, 0x55, 0x5d, 0x3d, 0x0b, 0xcc, 0x6a, 0x3d, 0x13, 0x57,
    0x79, 0x3d, 0xbb, 0xd6, 0x82, 0x3d, 0xb0, 0xbb, 0x87, 0x3d,
    0x7c, 0xfa, 0x8d, 0x3d, 0xfe, 0x62, 0x93, 0x3d, 0xc7, 0x7a,
    0x9b, 0x3d, 0x2f, 0x4c, 0xa3, 0x3d, 0xb6, 0x5c, 0xab, 0x3d,
    0x23, 0x5d, 0xb0, 0x3d, 0x46, 0x79, 0xb5, 0x3d, 0xc3, 0xdc,
    0xbc, 0x3d, 0x10, 0x0a, 0xc2, 0x3d, 0x85, 0x19, 0xc9, 0x3d,
    0x30, 0x3d, 0xcd, 0x3d, 0x88, 0x31, 0xd5, 0x3d, 0xb5, 0xf4,
    0xdc, 0x3d, 0xc1, 0xde, 0xe2, 0x3d, 0xf7, 0x22, 0xea, 0x3d,
    0x37, 0x7b, 0xf2, 0x3d, 0xdc, 0xc2, 0xf7, 0x3d, 0xbb, 0xfd,
    0xfe, 0x3d, 0xbf, 0x9b, 0x02, 0x3e, 0x0a, 0xa3, 0x05, 0x3e,
    0x1d, 0xdf, 0x08, 0x3e, 0xda, 0x11, 0x0c, 0x3e, 0xe3, 0x5f,
    0x0e, 0x3e, 0x96, 0xfb, 0x12, 0x3e, 0xa9, 0x5e, 0x15, 0x3e,
    0x8a, 0x35, 0x19, 0x3e, 0x9c, 0xf9, 0x1b, 0x3e, 0xfb, 0x91,
    0x1f, 0x3e, 0xf6, 0xd4, 0x22, 0x3e, 0xef, 0x1f, 0x26, 0x3e,
    0x50, 0x38, 0x29, 0x3e, 0x2a, 0x79, 0x2b, 0x3e, 0x1d, 0x40,
    0x2e, 0x3e, 0x33, 0xfa, 0x31, 0x3e, 0x11, 0x2c, 0x35, 0x3e,
    0xd0, 0x04, 0x3a, 0x3e, 0xd6, 0x2c, 0x3d, 0x3e, 0x9c, 0xc9,
    0x3f, 0x3e, 0xd9, 0x7d, 0x41, 0x3e, 0xab, 0x18, 0x46, 0x3e,
    0xd2, 0x95, 0x4a, 0x3e, 0xf9, 0xa4, 0x4b, 0x3e, 0xf7, 0x68,
    0x4f, 0x3e, 0x7d, 0xa3, 0x52, 0x3e, 0x6a, 0xce, 0x55, 0x3e,
    0xa5, 0x5a, 0x5a, 0x3e, 0x77, 0xd4, 0x5d, 0x3e, 0x59, 0xdf,
    0x5f, 0x3e, 0x6c, 0x57, 0x62, 0x3e, 0x53, 0x9f, 0x66, 0x3e,
    0xc2, 0xdd, 0x69, 0x3e, 0x31, 0x1c, 0x6d, 0x3e, 0x4e, 0xda,
    0x6f, 0x3e, 0x0f, 0x99, 0x73, 0x3e, 0xce, 0x42, 0x78, 0x3e,
    0xed, 0x15, 0x7a, 0x3e, 0x5c, 0x54, 0x7d, 0x3e, 0x65, 0x49,
    0x80, 0x3e, 0x05, 0xcc, 0x81, 0x3e, 0x64, 0x41, 0x84, 0x3e,
    0x0c, 0x27, 0x85, 0x3e, 0x43, 0xc6, 0x86, 0x3e, 0x7b, 0x65,
    0x88, 0x3e, 0xc7, 0x67, 0x8a, 0x3e, 0xea, 0xa3, 0x8b, 0x3e,
    0x21, 0x43, 0x8d, 0x3e, 0x59, 0xe2, 0x8e, 0x3e, 0x90, 0x81,
    0x90, 0x3e, 0xc7, 0x20, 0x92, 0x3e, 0xff, 0xbf, 0x93, 0x3e,
    0x36, 0x5f, 0x95, 0x3e, 0x0c, 0xb9, 0x97, 0x3e, 0xa5, 0x9d,
    0x98, 0x3e, 0xdd, 0x3c, 0x9a, 0x3e, 0x14, 0xdc, 0x9b, 0x3e,
    0x4c, 0x7b, 0x9d, 0x3e, 0x83, 0x1a, 0x9f, 0x3e, 0xbb, 0xb9,
    0xa0, 0x3e, 0xf2, 0x58, 0xa2, 0x3e, 0x2a, 0xf8, 0xa3, 0x3e,
    0x61, 0x97, 0xa5, 0x3e, 0x99, 0x36, 0xa7, 0x3e, 0xd0, 0xd5,
    0xa8, 0x3e, 0x08, 0x75, 0xaa, 0x3e, 0x3f, 0x14, 0xac, 0x3e,
    0x76, 0xb3, 0xad, 0x3e, 0xae, 0x52, 0xaf, 0x3e, 0xe5, 0xf1,
    0xb0, 0x3e, 0x1d, 0x91, 0xb2, 0x3e, 0x54, 0x30, 0xb4, 0x3e,
    0x8c, 0xcf, 0xb5, 0x3e, 0xc3, 0x6e, 0xb7, 0x3e, 0xfb,
    0x0d, 0xb9, 0x3e, 0x32, 0xad, 0xba, 0x3e, 0x6a, 0x4c,
    0xbc, 0x3e, 0xa1, 0xeb, 0xbd, 0x3e, 0xd9, 0x8a, 0xbf,
    0x3e, 0x10, 0x2a, 0xc1, 0x3e, 0x48, 0xc9, 0xc2, 0x3e,
    0x7f, 0x68, 0xc4, 0x3e, 0xb7, 0x07, 0xc6, 0x3e, 0xee,
    0xa6, 0xc7, 0x3e, 0xa6, 0x6d, 0x0c, 0x3d, 0x87, 0xd6,
    0xc5, 0xbc, 0xc2, 0xff, 0x5f, 0x3d, 0x86, 0x7f, 0x2e,
    0xbd, 0xcd, 0xf4, 0xf2, 0xbd, 0xd7, 0x67, 0x00, 0x3e
  };

  return AI_HANDLE_PTR(s_network_weights);
}

