#include "network_data.h"

ai_handle ai_network_data_weights_get(void)
{

  AI_ALIGNED(4)
  static const ai_u8 s_network_weights[ 9084 ] = {
    0x6c, 0x11, 0x10, 0x3e, 0x89, 0x53, 0xb0, 0x3e, 0x46, 0x06,
    0xb7, 0xbe, 0x8d, 0x26, 0x12, 0x3e, 0x70, 0xd6, 0x8a, 0x3e,
    0x5e, 0x2b, 0x6e, 0xbe, 0x0b, 0x4d, 0xbd, 0x3e, 0xf7, 0xa8,
    0x9c, 0xbc, 0x44, 0x24, 0x86, 0x3e, 0xac, 0x9b, 0x49, 0xbe,
    0x00, 0x8b, 0xbb, 0xbe, 0x13, 0x72, 0xf5, 0x3e, 0xcf, 0x68,
    0xef, 0xbd, 0xa4, 0x77, 0x94, 0xbe, 0x85, 0xe7, 0x60, 0x3d,
    0x5f, 0xe5, 0x69, 0xbd, 0x6e, 0x63, 0xe4, 0xbe, 0x99, 0x02,
    0x94, 0x3e, 0x24, 0xa2, 0x9d, 0x3d, 0x61, 0xc7, 0xe5, 0xbe,
    0xbc, 0x54, 0xb7, 0xbd, 0xc8, 0xae, 0x4a, 0x3d, 0x94, 0x53,
    0x9c, 0xbd, 0xf9, 0xb7, 0x79, 0x3d, 0x91, 0x36, 0x97, 0xbe,
    0xbc, 0x63, 0xd0, 0xbe, 0xe0, 0xd8, 0x5b, 0x3e, 0x01, 0x61,
    0xa3, 0x3e, 0x8a, 0x45, 0x39, 0x3e, 0x1f, 0x06, 0x78, 0x3e,
    0x3d, 0xde, 0x03, 0x3e, 0xbb, 0xbe, 0xc2, 0x3e, 0xbc, 0x5a,
    0x7a, 0xbe, 0x4f, 0xbf, 0x13, 0x3e, 0x47, 0x54, 0xb3, 0xbe,
    0x76, 0x32, 0x1b, 0xbe, 0x99, 0x2b, 0x4c, 0x3e, 0x11, 0x4c,
    0xae, 0x3d, 0x8c, 0x91, 0x64, 0x3d, 0x70, 0x5e, 0x14, 0x3e,
    0x80, 0xb4, 0xa4, 0x3d, 0x85, 0xc6, 0x9a, 0x3e, 0x0f, 0x79,
    0xc3, 0x3e, 0xfa, 0xba, 0xd7, 0x3d, 0x1b, 0xef, 0x24, 0xbe,
    0xf1, 0xde, 0xf1, 0x3d, 0x62, 0xee, 0xcf, 0x3c, 0xd1, 0x26,
    0x04, 0xbe, 0x9c, 0x95, 0xa9, 0xbd, 0x4c, 0x88, 0x86, 0x3d,
    0xaa, 0x1d, 0xcd, 0xbd, 0xaf, 0xf8, 0x23, 0x3e, 0xd9, 0xb0,
    0x10, 0xbe, 0x8c, 0x41, 0xf8, 0x3d, 0x5f, 0x1a, 0x37, 0x3e,
    0xa6, 0xfb, 0xad, 0x3d, 0xd3, 0x55, 0xdd, 0x3d, 0x18, 0x0d,
    0x3f, 0xbb, 0xa6, 0x55, 0x0b, 0xbd, 0xb8, 0x31, 0x9e, 0xbc,
    0xc6, 0x77, 0x24, 0xbd, 0x7a, 0xe0, 0x3e, 0x3e, 0x86, 0x46,
    0x85, 0x3e, 0xf7, 0x09, 0xf5, 0xbc, 0xed, 0x30, 0xe7, 0xbd,
    0x96, 0xc7, 0xe5, 0xbc, 0x3a, 0x1f, 0xa5, 0x3e, 0x04, 0x36,
    0x02, 0x3e, 0x26, 0xca, 0x30, 0xbe, 0x4c, 0x72, 0x58, 0x3e,
    0x3a, 0x54, 0x10, 0xbd, 0x39, 0x15, 0x41, 0x3d, 0x67, 0xed,
    0xa8, 0x3d, 0x53, 0x5e, 0x37, 0x3e, 0xab, 0xd2, 0x23, 0x3e,
    0xee, 0xa8, 0x99, 0xbd, 0xc4, 0x25, 0x05, 0xbe, 0x9b, 0x5c,
    0x45, 0x3e, 0x6a, 0xca, 0xa0, 0x3e, 0x38, 0x33, 0x1b, 0x3e,
    0x7f, 0x15, 0x7c, 0xbe, 0xd2, 0x01, 0x03, 0x3e, 0x41, 0x0a,
    0x0c, 0x3e, 0xc0, 0x28, 0x52, 0x3e, 0xb1, 0xcc, 0xb3, 0xbb,
    0x28, 0xf0, 0x04, 0xbe, 0xda, 0x81, 0x8e, 0xbe, 0x16, 0x0c,
    0x15, 0xbd, 0xbc, 0xab, 0xbb, 0xbd, 0x6d, 0x10, 0x9f, 0x3e,
    0x34, 0xe1, 0xed, 0x3d, 0xa4, 0x6e, 0x22, 0xbe, 0x1e, 0x6f,
    0x12, 0xbe, 0x7d, 0x44, 0x8d, 0x3e, 0x40, 0xcf, 0xe9, 0x3d,
    0xaf, 0x42, 0x13, 0x3e, 0x64, 0x2e, 0x2b, 0x3e, 0xa2, 0xfb,
    0xa9, 0xbc, 0xbf, 0x50, 0xec, 0x3c, 0x76, 0xab, 0x13, 0x3c,
    0x68, 0xb1, 0x07, 0xbe, 0x1c, 0x1c, 0xea, 0x3d, 0x62, 0x5d,
    0xfd, 0x3d, 0x4e, 0xa9, 0x84, 0xba, 0x82, 0x65, 0xd5, 0xbd,
    0x90, 0x31, 0x19, 0x3e, 0x22, 0xbf, 0x6b, 0x3c, 0x6a, 0x8e,
    0x36, 0xbc, 0x5c, 0x9c, 0x9e, 0x3c, 0x68, 0x7e, 0x40, 0xbc,
    0xd7, 0xe1, 0x04, 0x3e, 0x3d, 0x74, 0x6f, 0x3e, 0x31, 0x60,
    0x0d, 0x3d, 0xde, 0x38, 0x6d, 0x3e, 0x1c, 0xf1, 0xaf, 0x3e,
    0x14, 0x3d, 0xbf, 0xbd, 0xde, 0xaa, 0xbb, 0x3d, 0x33, 0xea,
    0xea, 0x3d, 0xac, 0xcc, 0x09, 0x3e, 0xfe, 0xcf, 0x21, 0xbe,
    0xc7, 0x1f, 0x42, 0xbe, 0x20, 0x63, 0xf1, 0x3d, 0x06, 0xbe,
    0x0b, 0xbe, 0x03, 0xcd, 0x43, 0xbd, 0xae, 0xbc, 0xeb, 0x3d,
    0xf3, 0xba, 0x11, 0xbd, 0xac, 0x1a, 0xae, 0x3e, 0xfd, 0xf0,
    0xfc, 0x3d, 0xad, 0xed, 0x93, 0x3c, 0x4a, 0x5f, 0x22, 0xbd,
    0xeb, 0x9e, 0x33, 0x3e, 0x36, 0x3f, 0x40, 0xbc, 0xd0, 0x73,
    0xed, 0xbc, 0x43, 0xbf, 0xa4, 0x3d, 0x9d, 0x29, 0x8c, 0xbc,
    0xb2, 0xf4, 0xf7, 0xbd, 0xc8, 0xb2, 0x45, 0x3d, 0x32, 0xd1,
    0x45, 0x3e, 0x9c, 0xff, 0xe3, 0x3d, 0xf4, 0x1f, 0x02, 0x3e,
    0xb7, 0x6f, 0xf2, 0xbd, 0xdb, 0xc6, 0xa1, 0x3d, 0xd5, 0xe6,
    0x51, 0x3e, 0x41, 0x2f, 0x27, 0x3e, 0x04, 0x45, 0x6d, 0xbd,
    0x0b, 0x4d, 0x94, 0x3e, 0x8d, 0x74, 0xc0, 0x3d, 0x36, 0xbd,
    0xa9, 0xbd, 0x1f, 0xe6, 0xa6, 0xbe, 0x1a, 0x9e, 0x06, 0x3e,
    0x6c, 0xfc, 0x1c, 0xbc, 0x22, 0xf9, 0xb5, 0xbc, 0xf2, 0xb7,
    0x8e, 0xbe, 0xfd, 0xf6, 0x25, 0x3e, 0x2c, 0x5c, 0x12, 0x3d,
    0x33, 0x0f, 0xbd, 0xbe, 0xf8, 0xd2, 0xc9, 0xbe, 0x1a, 0x53,
    0xda, 0xbd, 0x1c, 0xd3, 0x86, 0x3e, 0xfd, 0x2b, 0x7e, 0xbe,
    0x13, 0xf3, 0xaf, 0xbe, 0x94, 0x0c, 0x0f, 0xbc, 0x2f, 0xf9,
    0xf2, 0x3d, 0x40, 0x9c, 0x35, 0xbe, 0xe3, 0x31, 0x16, 0xbe,
    0xf8, 0xc8, 0x6d, 0x3e, 0x77, 0xbb, 0xf5, 0xbd, 0x64, 0xca,
    0x0c, 0x3d, 0x13, 0xa2, 0x38, 0xbe, 0x8f, 0x07, 0x8b, 0xbc,
    0xb0, 0x39, 0x64, 0x3e, 0xb1, 0x1f, 0x3a, 0xbe, 0x17, 0x3c,
    0x04, 0xbd, 0x7c, 0x63, 0x89, 0x3c, 0x77, 0xda, 0x0f, 0x3d,
    0xb8, 0xb3, 0x98, 0xbe, 0x14, 0xf4, 0xb2, 0xbe, 0x07, 0x9e,
    0xe9, 0xbd, 0x08, 0x4d, 0x98, 0x3e, 0xf9, 0x42, 0xb6, 0xbe,
    0x91, 0xb9, 0xad, 0xbe, 0xac, 0xdc, 0xc8, 0xbd, 0x55, 0x15,
    0xef, 0x3c, 0xa1, 0x6a, 0x94, 0x3d, 0x72, 0x7e, 0x61, 0x38,
    0x25, 0x48, 0x3b, 0xbe, 0x02, 0xba, 0xf0, 0x3d, 0x47, 0xe0,
    0x31, 0x3e, 0x09, 0x56, 0xb4, 0xbd, 0x89, 0x5b, 0xdf, 0x3d,
    0x40, 0xd8, 0x32, 0xbe, 0x7f, 0x0c, 0x5a, 0xbe, 0xbf, 0x25,
    0x4e, 0x3d, 0xbf, 0x32, 0x7e, 0x3c, 0xb4, 0xa7, 0x2d, 0xbe,
    0x2f, 0xbd, 0x85, 0x3a, 0xd1, 0x23, 0x97, 0x3d, 0xe1, 0x02,
    0x83, 0x3e, 0x85, 0x8e, 0x65, 0x3e, 0x25, 0x6d, 0xf3, 0xbd,
    0xc4, 0xe5, 0x5d, 0xbe, 0x61, 0x1d, 0x60, 0x3e, 0x6a, 0x66,
    0x03, 0x3e, 0xa6, 0x14, 0x49, 0xbe, 0x9c, 0xf6, 0x17, 0x3d,
    0x5b, 0xdc, 0x01, 0x3e, 0x42, 0x2f, 0x19, 0x3e, 0xed, 0xbf,
    0x92, 0xbd, 0xd3, 0x8e, 0xac, 0xbd, 0xfd, 0xa3, 0x12, 0xbd,
    0x0b, 0x3c, 0xca, 0x3d, 0x5b, 0x87, 0x8a, 0x3e, 0x90, 0xc0,
    0x41, 0xbe, 0x8b, 0xca, 0x88, 0x3e, 0x58, 0x41, 0x52, 0x3e,
    0x84, 0xce, 0x5d, 0x3e, 0x32, 0xdb, 0x0f, 0x3d, 0x69, 0xc7,
    0xe0, 0xbc, 0x18, 0x80, 0xb0, 0x3d, 0x5e, 0x30, 0xc5, 0x3d,
    0x1d, 0xf8, 0x8b, 0xbd, 0x89, 0x0b, 0x18, 0xbe, 0x21, 0x24,
    0x9c, 0x3d, 0x67, 0xa3, 0x37, 0x3d, 0x43, 0x87, 0xc1, 0xbe,
    0x3f, 0x4a, 0xb4, 0x3e, 0xd4, 0x0d, 0x12, 0xbc, 0x26, 0x21,
    0xd4, 0x3d, 0xee, 0xa2, 0x8a, 0xbd, 0xef, 0xae, 0xc9, 0xbd,
    0x27, 0xb6, 0x0f, 0xbc, 0x31, 0x21, 0x88, 0x3c, 0x87, 0x49,
    0x1a, 0x3e, 0x39, 0xd7, 0xb0, 0xbd, 0xb1, 0x78, 0x0b, 0xbe,
    0x4e, 0x4e, 0x0d, 0x3e, 0xa5, 0xa9, 0x81, 0xbe, 0x68, 0x9e,
    0xdc, 0xbc, 0x4a, 0x56, 0xb7, 0x3e, 0xb7, 0xd6, 0x91, 0xbe,
    0xfe, 0xe9, 0x14, 0xbe, 0xc8, 0x1b, 0x60, 0xbe, 0xf8, 0xb4,
    0x38, 0x3d, 0x78, 0x56, 0x3a, 0x3e, 0xc3, 0xc7, 0x03, 0x3e,
    0xf0, 0x29, 0x0a, 0xbe, 0x4a, 0x13, 0x51, 0xbe, 0xae, 0x27,
    0x53, 0x3e, 0x15, 0xbc, 0xc0, 0xbe, 0x56, 0x5f, 0xb6, 0x3e,
    0x47, 0xac, 0x21, 0xbd, 0xe6, 0xb0, 0x87, 0xbe, 0x6d, 0x0d,
    0xc5, 0xbc, 0xbb, 0xf5, 0x00, 0xbe, 0x46, 0x14, 0x8a, 0x3c,
    0x31, 0x7f, 0x32, 0x3d, 0x38, 0xa3, 0xae, 0xbd, 0x39, 0xc3,
    0x49, 0x3e, 0xc5, 0x06, 0x04, 0xbe, 0xc6, 0x87, 0xea, 0x3d,
    0xcf, 0xef, 0x89, 0x3e, 0x23, 0xd1, 0x4e, 0xbe, 0x39, 0x53,
    0x77, 0xbe, 0x63, 0x65, 0x00, 0xbe, 0x0f, 0x11, 0x03, 0x3e,
    0xfc, 0x2a, 0x48, 0xbe, 0xdb, 0x74, 0x21, 0xbe, 0x3d, 0x49,
    0x34, 0xbc, 0x4c, 0x13, 0xa6, 0x3d, 0x56, 0x98, 0x60, 0x3e,
    0x10, 0x60, 0xfe, 0x3d, 0xf0, 0xd7, 0x50, 0xbe, 0xee, 0xdd,
    0x7b, 0x3e, 0x1f, 0xa7, 0x34, 0xbe, 0xaf, 0xec, 0x16, 0x3e,
    0xed, 0xeb, 0x26, 0x3d, 0xa9, 0x67, 0xf5, 0x3d, 0xcc, 0x6e,
    0xb4, 0x3d, 0xd8, 0x88, 0x64, 0x3d, 0x05, 0xe7, 0x29, 0x3d,
    0x71, 0x5b, 0x48, 0x3e, 0x41, 0xa9, 0x43, 0x3e, 0xcb, 0x13,
    0x15, 0x3d, 0x66, 0xe8, 0x0a, 0x3e, 0x44, 0x9b, 0x12, 0x3e,
    0x32, 0x4f, 0x57, 0x3d, 0x0e, 0xdb, 0xeb, 0x3d, 0xad, 0x70,
    0x61, 0x3d, 0xb0, 0x71, 0xda, 0x3d, 0x01, 0x40, 0x0f, 0x3e,
    0x68, 0x0b, 0x01, 0xbe, 0x6d, 0x3a, 0x2b, 0x3e, 0x8f, 0xca,
    0x45, 0x3e, 0x10, 0x03, 0x42, 0xbe, 0x13, 0x54, 0x83, 0x3d,
    0x4b, 0x42, 0x6a, 0x3e, 0xbc, 0x44, 0x24, 0x3e, 0xe8, 0x5f,
    0x6d, 0xbe, 0xc8, 0xa0, 0xeb, 0x3c, 0xc2, 0xa7, 0xb3, 0xbc,
    0x1c, 0xb0, 0x4c, 0xbc, 0xdc, 0x37, 0x57, 0x3e, 0x9c, 0x51,
    0x61, 0xbc, 0x3d, 0x0f, 0x65, 0xbe, 0x2f, 0x2e, 0x71, 0x3e,
    0x30, 0xc9, 0xad, 0xbe, 0x87, 0xb0, 0x20, 0xbc, 0x66, 0x6d,
    0x8b, 0x3e, 0xd6, 0x93, 0x13, 0x3d, 0xcb, 0x73, 0x93, 0x3b,
    0x80, 0x56, 0x2f, 0xbd, 0x73, 0x17, 0x69, 0x3e, 0x23, 0xf4,
    0xc0, 0xbd, 0xf0, 0x02, 0x17, 0xbe, 0x09, 0x90, 0x32, 0xbd,
    0x9e, 0x76, 0xcb, 0x3c, 0x36, 0x2a, 0x80, 0x3e, 0x4c, 0x98,
    0x15, 0xbd, 0x18, 0x2a, 0xaf, 0xbd, 0x22, 0xa5, 0x29, 0x3e,
    0x7e, 0xfb, 0xc1, 0x3d, 0x0b, 0x38, 0x4e, 0xbe, 0xca, 0x7e,
    0x9a, 0x3d, 0x92, 0xb7, 0xe7, 0xbd, 0xf5, 0xde, 0x21, 0xbd,
    0x68, 0x75, 0x92, 0x3d, 0x37, 0x88, 0xea, 0xbd, 0x20, 0xa1,
    0xce, 0xbd, 0x4e, 0x61, 0xb2, 0x3d, 0x0c, 0x0f, 0x31, 0x3c,
    0xc5, 0x97, 0x6c, 0x3c, 0x94, 0xf3, 0xaa, 0x3d, 0x04, 0x23,
    0x92, 0xbd, 0xa7, 0xdb, 0x78, 0x3d, 0xcd, 0x39, 0x4a, 0xbd,
    0x14, 0x4f, 0x84, 0x3d, 0xf0, 0x9b, 0x5a, 0x3e, 0xea, 0x11,
    0xb0, 0x3d, 0x61, 0x6a, 0x3f, 0x3d, 0xf3, 0xcb, 0xdc, 0xbd,
    0x6b, 0x3b, 0x2d, 0x3e, 0xde, 0x54, 0x17, 0xbe, 0x5a, 0x2e,
    0xe7, 0x3c, 0x50, 0x09, 0x91, 0x3c, 0x14, 0xaf, 0x20, 0xbe,
    0x1b, 0xae, 0x7c, 0xbe, 0x8b, 0x4e, 0x42, 0xbe, 0x64, 0x9b,
    0x6f, 0xbe, 0xf9, 0xe8, 0xf5, 0xbc, 0x93, 0x55, 0xe8, 0x3c,
    0x53, 0xb4, 0xf8, 0x3d, 0xc5, 0xcb, 0x1e, 0x3d, 0x3e, 0x6b,
    0x28, 0xbd, 0x91, 0x1a, 0x3a, 0xbd, 0x52, 0x75, 0x46, 0xbd,
    0xca, 0x31, 0xa1, 0x3d, 0x6b, 0x1d, 0xcf, 0x3d, 0x14, 0x54,
    0x6d, 0x3c, 0xbd, 0x5a, 0x2b, 0x3d, 0x6a, 0x08, 0x7e, 0xbc,
    0x3a, 0xe4, 0x62, 0x3e, 0xcd, 0x93, 0x11, 0x3e, 0xf2, 0x54,
    0x1d, 0x3e, 0x7f, 0x18, 0x03, 0xbe, 0x95, 0x0f, 0xbf, 0xbd,
    0x9c, 0x9b, 0x30, 0xbd, 0x7a, 0x3f, 0x6a, 0x3d, 0xc1, 0x4e,
    0x85, 0xbe, 0xf7, 0x74, 0x5c, 0xbd, 0x07, 0x49, 0x2a, 0xbe,
    0x15, 0xa7, 0xad, 0x3d, 0x33, 0xe4, 0x3b, 0xbe, 0x21, 0x08,
    0x62, 0xbe, 0x9d, 0x24, 0x35, 0xbe, 0x83, 0x4a, 0xcf, 0x3d,
    0x76, 0x95, 0xc2, 0x3c, 0xb6, 0x71, 0xc6, 0xbd, 0x41, 0x19,
    0x95, 0x3d, 0x83, 0xab, 0x31, 0xbe, 0x24, 0xd3, 0x0b, 0xbe,
    0xe1, 0xd5, 0xc2, 0xbd, 0x07, 0xea, 0x33, 0x3e, 0x8e, 0x19,
    0x0b, 0x3e, 0xe7, 0xd6, 0x89, 0x3d, 0x98, 0xec, 0x00, 0x3e,
    0xf8, 0xa2, 0x4e, 0x3e, 0xe8, 0x42, 0xbb, 0xbc, 0x4e, 0xa1,
    0x93, 0xbd, 0x16, 0x1e, 0x1b, 0x3d, 0xa3, 0x63, 0x37, 0x3d,
    0x0a, 0x76, 0x9d, 0xbd, 0xa0, 0x99, 0x3e, 0xbe, 0x8d, 0x8c,
    0x02, 0xbe, 0xa2, 0xf9, 0x39, 0xbe, 0xf6, 0xcb, 0x06, 0x3c,
    0x10, 0x77, 0xa3, 0xbd, 0xe3, 0x02, 0xa5, 0xbc, 0x6f, 0x73,
    0x07, 0xbe, 0xda, 0xef, 0x1f, 0xbd, 0xe2, 0xf0, 0x4e, 0x3e,
    0x7e, 0x61, 0x13, 0xbe, 0xb7, 0x71, 0x00, 0x3d, 0xf5, 0xeb,
    0xbb, 0x3d, 0xdc, 0x56, 0x04, 0x3b, 0x74, 0xa7, 0x36, 0x3e,
    0xd9, 0xc5, 0x0c, 0xbd, 0x12, 0xa5, 0x98, 0x3c, 0xc1, 0x63,
    0x42, 0x3d, 0xb0, 0x98, 0x70, 0xbc, 0x40, 0x76, 0x4b, 0xbe,
    0xe1, 0xbb, 0xfd, 0x3c, 0x64, 0xc4, 0x1e, 0xbe, 0x62, 0x6a,
    0x21, 0xbe, 0xa1, 0x76, 0x4e, 0xbc, 0x20, 0xe4, 0x11, 0x3e,
    0xe6, 0xc9, 0xd9, 0x3c, 0xfc, 0xb4, 0xaa, 0x3b, 0x62, 0x4a,
    0x3a, 0x3c, 0xe8, 0x72, 0x1e, 0xbe, 0xe3, 0xf3, 0xab, 0x3c,
    0xd4, 0x8f, 0xd5, 0xbd, 0x27, 0x39, 0x44, 0x3e, 0x4c, 0xbd,
    0xd2, 0xbd, 0xc7, 0x12, 0x32, 0xbe, 0xd2, 0x11, 0xf0, 0xbd,
    0x9f, 0xfc, 0xeb, 0x3d, 0x14, 0x25, 0xb3, 0x3d, 0xad, 0x66,
    0xf9, 0xbd, 0xd3, 0x22, 0x24, 0xbc, 0x99, 0xed, 0xe2, 0x3d,
    0xd7, 0xc2, 0x04, 0x3e, 0x07, 0x3b, 0x0f, 0xbd, 0x7e, 0x27,
    0x1c, 0xbe, 0xdb, 0x11, 0x31, 0x3d, 0x4b, 0x1f, 0xb9, 0x3d,
    0x03, 0xb2, 0xeb, 0xbd, 0x27, 0xe4, 0x25, 0xbe, 0x1d, 0x56,
    0x66, 0xbd, 0xef, 0x9c, 0x13, 0x3c, 0x1c, 0x55, 0x3d, 0x3e,
    0x7d, 0xbe, 0xa3, 0x3d, 0x05, 0xd7, 0xd8, 0xbd, 0x48, 0xa1,
    0xb6, 0xbd, 0x64, 0xe4, 0x17, 0x3e, 0xad, 0xbe, 0x3c, 0xbe,
    0x07, 0x7e, 0x2f, 0x3e, 0x18, 0x42, 0x96, 0x3d, 0x83, 0xfb,
    0xa2, 0x3d, 0x61, 0xf2, 0x25, 0xbe, 0xc0, 0x25, 0x93, 0x3d,
    0x96, 0xff, 0x8f, 0xbd, 0x04, 0x0b, 0xd0, 0xbd, 0xda, 0x6b,
    0x21, 0x3e, 0xc7, 0xff, 0x5f, 0x3e, 0x28, 0x0f, 0x9d, 0x3d,
    0x53, 0xb5, 0x42, 0x3e, 0x8d, 0xcf, 0x89, 0xbd, 0xe5, 0xc5,
    0x8a, 0xbe, 0x8c, 0xc7, 0x97, 0xbd, 0xe8, 0x7b, 0xdf, 0x3d,
    0xa6, 0xf6, 0xc7, 0xbd, 0x42, 0x6f, 0xc2, 0x3d, 0x3b, 0xe1,
    0xe6, 0x3c, 0x89, 0x0e, 0xfb, 0x3d, 0x82, 0xbe, 0x19, 0xbe,
    0x3c, 0x6b, 0xbc, 0x3d, 0x53, 0xeb, 0x6b, 0x3d, 0x91, 0x38,
    0xb9, 0x3d, 0x81, 0x3e, 0x79, 0xbd, 0x7c, 0x16, 0x17, 0xbd,
    0x3b, 0xdb, 0x9f, 0xbd, 0x17, 0x8e, 0x11, 0x3e, 0x06, 0x5b,
    0x7f, 0x3d, 0x81, 0x64, 0xb7, 0xbd, 0xb6, 0x1f, 0xb7, 0x3d,
    0x86, 0xd7, 0x7f, 0xbd, 0x74, 0x45, 0xbc, 0xbd, 0x36, 0x4a,
    0x19, 0x3e, 0xfc, 0x27, 0x5d, 0xbd, 0x68, 0xc5, 0xe2, 0x3d,
    0x9a, 0xa1, 0x38, 0xbe, 0x10, 0x3c, 0x9d, 0x3d, 0xcb, 0x2f,
    0x04, 0x3e, 0xc9, 0x0c, 0xfc, 0x3c, 0x69, 0x5e, 0xd9, 0x3d,
    0x4a, 0xa7, 0x5d, 0x3e, 0x08, 0xa2, 0x7f, 0xbd, 0x83, 0xc6,
    0xc2, 0x3d, 0x05, 0x08, 0x18, 0x3e, 0x13, 0x38, 0x28, 0x3e,
    0x60, 0x6d, 0x4a, 0x3e, 0xf6, 0x99, 0x66, 0x3d, 0xf0, 0x52,
    0x35, 0x3e, 0xd3, 0xbd, 0x8c, 0xbd, 0x12, 0x34, 0xad, 0x3c,
    0x2c, 0x09, 0x97, 0x3d, 0x7b, 0xd1, 0x03, 0xbe, 0xc0, 0xb2,
    0xea, 0x3d, 0xda, 0x11, 0x41, 0xbe, 0x10, 0x40, 0x56, 0xbe,
    0x43, 0x34, 0x15, 0x3c, 0xf8, 0x32, 0xfe, 0x3d, 0x56, 0x12,
    0x23, 0x3e, 0x15, 0x9f, 0xe8, 0x3d, 0x77, 0xe3, 0x98, 0x3c,
    0xee, 0xe9, 0x79, 0xbe, 0x6e, 0x29, 0x00, 0xbe, 0x26, 0xa1,
    0x86, 0xbe, 0xf9, 0x72, 0x7a, 0xbd, 0xa7, 0x67, 0xda, 0x3c,
    0x9b, 0x1e, 0x0b, 0xbe, 0x4e, 0x62, 0x46, 0x3e, 0x6a, 0x4f,
    0xfa, 0xbb, 0xdf, 0xa8, 0x15, 0x3e, 0x3b, 0x2c, 0x09, 0x3e,
    0x92, 0x6a, 0xd6, 0xbd, 0x6f, 0xc1, 0xcf, 0xbd, 0xff, 0x86,
    0x8b, 0x3d, 0x6b, 0xbc, 0x7c, 0xbd, 0x73, 0x37, 0xba, 0x3d,
    0xf4, 0x5f, 0x14, 0xbe, 0xe6, 0x22, 0xa0, 0xbd, 0x02, 0xbc,
    0x28, 0xbe, 0x0c, 0xb3, 0xde, 0xbc, 0x6d, 0xae, 0x30, 0xbe,
    0xa3, 0x11, 0xec, 0x3d, 0x55, 0xa1, 0xe6, 0x3d, 0x7a, 0x7b,
    0x0d, 0xbe, 0x4a, 0x7e, 0x88, 0x3d, 0xf3, 0x4c, 0x41, 0xbe,
    0x27, 0xeb, 0x52, 0x3d, 0x09, 0xe3, 0xd2, 0xbd, 0x09, 0xdd,
    0xc6, 0x3d, 0x0f, 0x42, 0x3e, 0x3d, 0x77, 0x62, 0x39, 0xbc,
    0x36, 0x95, 0xcf, 0xbd, 0x27, 0xb6, 0x2e, 0x3e, 0x3d, 0x9e,
    0x8f, 0x3d, 0x34, 0x47, 0x53, 0xbd, 0xfc, 0x80, 0x06, 0x3e,
    0x73, 0xe6, 0x22, 0x3e, 0xf0, 0x39, 0xc7, 0xbd, 0x1b, 0x04,
    0x34, 0xbe, 0x74, 0xad, 0x92, 0xbd, 0x25, 0x7f, 0x67, 0xbd,
    0x14, 0x95, 0xcd, 0x3d, 0x74, 0x08, 0x62, 0xbe, 0x50, 0xa6,
    0x53, 0xbe, 0x5f, 0x94, 0xb4, 0xbd, 0xa2, 0x2d, 0xa6, 0x3c,
    0xd6, 0x48, 0xd8, 0x3d, 0x99, 0x75, 0xaf, 0x3d, 0xf9, 0x67,
    0xbb, 0x3d, 0xe1, 0x23, 0x10, 0x3e, 0x94, 0xec, 0x43, 0x3e,
    0x35, 0xb0, 0xef, 0xbd, 0xdd, 0x9f, 0x1e, 0xbd, 0x92, 0xd7,
    0x2f, 0xbe, 0x0c, 0xcf, 0x3a, 0x3e, 0xa4, 0x39, 0xd4, 0xbd,
    0x55, 0x62, 0x1d, 0x3e, 0x8f, 0x46, 0xc3, 0xbd, 0x65, 0x41,
    0x41, 0x3e, 0x30, 0xf0, 0x83, 0xbd, 0xa7, 0x27, 0xa3, 0x3d,
    0x77, 0x67, 0xf4, 0x3d, 0x13, 0x5d, 0x02, 0xbe, 0xfb, 0xa2,
    0x7c, 0xbc, 0xd5, 0xa9, 0x24, 0xbe, 0x76, 0x1b, 0x0f, 0x3e,
    0xd1, 0xf9, 0x3f, 0xbe, 0xd2, 0x2a, 0x11, 0xbc, 0x2d, 0x6e,
    0x0d, 0xbe, 0xe9, 0x4b, 0xc0, 0x3c, 0x42, 0x71, 0x58, 0xbc,
    0x50, 0xfe, 0x43, 0xbd, 0x57, 0x90, 0xc9, 0xbc, 0x8f, 0x44,
    0x83, 0x3c, 0xbf, 0x15, 0x1a, 0xbd, 0x35, 0x19, 0xfa, 0xbd,
    0xe4, 0x71, 0x16, 0x3e, 0x77, 0x1e, 0x99, 0xbe, 0xf3, 0x90,
    0x38, 0x3d, 0xcd, 0x3f, 0x30, 0xbe, 0x30, 0x91, 0x00, 0xbe,
    0xe2, 0xd2, 0x0e, 0x3d, 0xe8, 0xe5, 0x4d, 0xbd, 0xb1, 0x08,
    0xe4, 0xbd, 0x61, 0x5e, 0x42, 0x3e, 0xae, 0x98, 0x2b, 0x3e,
    0x48, 0x15, 0x11, 0xbd, 0x03, 0x0a, 0x1a, 0xbe, 0x9e, 0x9e,
    0xc1, 0xbd, 0x9b, 0x93, 0x11, 0xbe, 0x4a, 0x17, 0x32, 0xbe,
    0xc8, 0xa4, 0x34, 0x3d, 0xff, 0x66, 0x60, 0x3d, 0xca, 0x64,
    0xed, 0xbd, 0xbc, 0xb1, 0x8e, 0xbc, 0xd5, 0xf5, 0x1b, 0xbe,
    0x70, 0x56, 0x77, 0x3b, 0x2d, 0x51, 0x5d, 0x3d, 0x80, 0x3e,
    0xe8, 0x3d, 0x4d, 0x3b, 0xf6, 0xbd, 0x42, 0x14, 0x18, 0x3e,
    0x2f, 0x4a, 0x39, 0xbd, 0x99, 0x63, 0x11, 0x3e, 0x06, 0x3e,
    0xf1, 0x3d, 0x11, 0x6a, 0x70, 0x3d, 0x98, 0xd3, 0xaf, 0x3d,
    0x3e, 0xea, 0x18, 0x3e, 0x5e, 0x4f, 0xf5, 0x3d, 0xcc, 0x4e,
    0xef, 0x3d, 0x2d, 0x48, 0x99, 0x3d, 0x46, 0x5c, 0x1f, 0xbe,
    0x7b, 0x36, 0x2a, 0x3d, 0x84, 0xf3, 0x0f, 0xbe, 0x77, 0x2a,
    0xfc, 0xbd, 0x92, 0x41, 0x5f, 0x3d, 0xbe, 0xf9, 0x6e, 0xbe,
    0x01, 0x22, 0xce, 0xbd, 0xb1, 0x05, 0x72, 0xbd, 0xe9, 0x40,
    0xfa, 0xbd, 0x0a, 0x94, 0x00, 0xbe, 0x21, 0x76, 0x16, 0xbe,
    0x12, 0x24, 0xa8, 0xbd, 0x22, 0xe8, 0x3b, 0xbd, 0xf3, 0x01,
    0xc9, 0xbc, 0xf1, 0xe3, 0xae, 0xbd, 0xf8, 0xee, 0x56, 0xbe,
    0xa2, 0xc4, 0xc9, 0x3d, 0x79, 0xc7, 0xb4, 0x3d, 0x02, 0x01,
    0xcd, 0xbd, 0x53, 0x27, 0x97, 0xbd, 0xfa, 0xd9, 0x29, 0xbd,
    0x3c, 0x37, 0xdb, 0xbc, 0x52, 0x68, 0x84, 0xbd, 0x5c, 0x12,
    0x82, 0x3d, 0x28, 0x75, 0x17, 0xbe, 0xc5, 0x27, 0x38, 0x3e,
    0x7f, 0x90, 0x10, 0x3c, 0xc2, 0xc7, 0x04, 0xbe, 0xef, 0x09,
    0x14, 0xbe, 0x11, 0xab, 0xf5, 0x3c, 0xc9, 0x62, 0x49, 0xbd,
    0x44, 0xb8, 0x17, 0x3e, 0xe0, 0xaf, 0x05, 0x3e, 0xa5, 0xee,
    0x4d, 0x3d, 0x54, 0xf4, 0x83, 0x3d, 0x86, 0x6e, 0x54, 0x3d,
    0xc6, 0x93, 0x79, 0xbe, 0x72, 0x3d, 0x19, 0xbe, 0xa2, 0xa2,
    0x8f, 0x3d, 0xc8, 0x2c, 0xbb, 0x3d, 0x88, 0x9d, 0xe6, 0x3d,
    0x5a, 0xc7, 0x19, 0x3e, 0x73, 0x45, 0x5b, 0x3d, 0x33, 0xc2,
    0xa0, 0xbd, 0x35, 0x21, 0xfe, 0x3d, 0x27, 0xb7, 0xc6, 0xbd,
    0x80, 0xdd, 0x32, 0x3d, 0xaa, 0x3c, 0x70, 0x3e, 0x5a, 0xbb,
    0x71, 0xbd, 0xf2, 0xdb, 0xc1, 0x3d, 0x84, 0x11, 0xd2, 0xbd,
    0x8a, 0x4c, 0x1b, 0xbd, 0x0a, 0xee, 0x0d, 0xbd, 0xc4, 0xc8,
    0x86, 0xbd, 0x3c, 0xd1, 0x7e, 0xbd, 0xa8, 0x61, 0x9a, 0xbd,
    0xbd, 0x79, 0x8d, 0xbd, 0xf0, 0x49, 0x85, 0xbd, 0xf4, 0xfa,
    0x36, 0xbe, 0x8a, 0xea, 0xa4, 0xbd, 0x99, 0xfd, 0x2d, 0xbd,
    0xab, 0xd1, 0xee, 0x3d, 0x7f, 0xff, 0xfe, 0x3d, 0x7a, 0xf2,
    0x18, 0xbe, 0x27, 0x07, 0xf6, 0x3c, 0x10, 0x8f, 0x9d, 0xbd,
    0x58, 0xd5, 0x0d, 0x3e, 0xa0, 0xf7, 0x0d, 0x3e, 0x0f, 0xb4,
    0x86, 0xbd, 0xbb, 0x32, 0x73, 0x3d, 0x21, 0x82, 0xaa, 0xbd,
    0x66, 0xa8, 0x5b, 0x3e, 0xbf, 0x30, 0xe1, 0xbd, 0xf9, 0x47,
    0x02, 0x3e, 0x64, 0xd3, 0xf6, 0x3d, 0xf4, 0x3e, 0x88, 0x3d,
    0xbf, 0x11, 0xba, 0x3d, 0x4b, 0xe7, 0x16, 0xbe, 0x7d, 0x1d,
    0x1e, 0x3d, 0x26, 0xfa, 0x0b, 0xbe, 0x3f, 0x15, 0x90, 0x3d,
    0x31, 0x01, 0xd8, 0x3d, 0x4e, 0xd9, 0x56, 0xbd, 0x43, 0xad,
    0xa2, 0xbd, 0xfe, 0x86, 0x21, 0xbe, 0xa8, 0x99, 0x01, 0x3e,
    0x08, 0xd7, 0x32, 0xbe, 0xc0, 0xa2, 0x38, 0xbd, 0x0e, 0xb9,
    0xc2, 0x3d, 0xb3, 0x9d, 0xb0, 0x3d, 0xd6, 0x0a, 0xb2, 0xbd,
    0x35, 0x26, 0xdd, 0x3d, 0x9a, 0xe7, 0x7b, 0xbd, 0x7b, 0x19,
    0x84, 0xbd, 0xfc, 0x05, 0xa8, 0xbd, 0x5f, 0x5e, 0x8b, 0xbc,
    0xe1, 0xa6, 0x10, 0xba, 0x48, 0x71, 0xd0, 0x3c, 0xce, 0xa8,
    0xef, 0x3d, 0x1c, 0x4f, 0x86, 0xbd, 0xfd, 0x80, 0x46, 0xbc,
    0x8b, 0x9d, 0x08, 0xbe, 0x59, 0x8f, 0xaa, 0x3d, 0xc5, 0x70,
    0x2d, 0xbe, 0x75, 0x3c, 0x06, 0x3e, 0x61, 0x4f, 0x21, 0x3e,
    0x32, 0x95, 0x3a, 0xbe, 0x83, 0x45, 0xaf, 0xbd, 0x44, 0xd2,
    0x15, 0xbe, 0x3e, 0x27, 0x81, 0x3d, 0xcc, 0x07, 0xe7, 0x3c,
    0x23, 0x37, 0x9d, 0x3c, 0x5a, 0xe7, 0x4d, 0xbe, 0xad, 0x38,
    0x56, 0x3e, 0x1d, 0xf9, 0xa2, 0xbd, 0x9b, 0x95, 0x39, 0x3e,
    0xfc, 0x0d, 0xe7, 0x3d, 0x80, 0xf5, 0x70, 0x3e, 0x83, 0xff,
    0x0c, 0x3e, 0x19, 0xf6, 0x47, 0x3e, 0xad, 0xe5, 0x5c, 0xbe,
    0xe9, 0x35, 0xdd, 0xbd, 0xa7, 0xe8, 0x56, 0x3e, 0x60, 0x23,
    0x7f, 0x3d, 0xf9, 0x61, 0x29, 0x3d, 0x57, 0x72, 0x2b, 0x3d,
    0xc4, 0x9a, 0xab, 0xbd, 0x2a, 0x2f, 0x5d, 0x3d, 0x7c, 0x6c,
    0x84, 0xbd, 0x0c, 0x84, 0x14, 0x3e, 0x8f, 0xb8, 0x9f, 0xbd,
    0x08, 0x5c, 0x16, 0xbe, 0x17, 0xff, 0x07, 0xbd, 0xe2, 0x76,
    0x0c, 0x3e, 0x1c, 0x3c, 0x9d, 0x3c, 0x61, 0x54, 0x34, 0x3e,
    0x05, 0xef, 0xcf, 0xbd, 0xbe, 0x48, 0x0b, 0xbd, 0x34, 0x12,
    0x0f, 0xbe, 0x8e, 0x74, 0x33, 0x3e, 0x1e, 0x32, 0x9e, 0xbc,
    0x04, 0x14, 0x68, 0x3e, 0x8e, 0x4d, 0x78, 0xbd, 0xbe, 0x81,
    0x28, 0x3e, 0x68, 0x24, 0x5b, 0xbe, 0x52, 0x6d, 0xb1, 0x3d,
    0x96, 0x68, 0xc9, 0x3d, 0x26, 0x9d, 0x20, 0x3e, 0x9c, 0x00,
    0x82, 0xbd, 0x72, 0xb1, 0xbf, 0xbc, 0xb7, 0x9a, 0x18, 0x3e,
    0xd4, 0x84, 0x8e, 0x3d, 0xc8, 0x46, 0x20, 0x3e, 0x61, 0x04,
    0x38, 0x3d, 0x0d, 0x4d, 0xe8, 0xbd, 0x02, 0x76, 0x0f, 0x3e,
    0x2e, 0xd7, 0x66, 0x3c, 0x2b, 0x62, 0x0f, 0x3e, 0xf0, 0x6b,
    0xbb, 0xbb, 0x4d, 0xbf, 0xcd, 0x3c, 0x99, 0xef, 0x57, 0xbe,
    0x4e, 0xb7, 0x91, 0xbd, 0x19, 0x0a, 0xab, 0xbd, 0xce, 0x91,
    0x87, 0xbc, 0x17, 0xe4, 0x3c, 0xbd, 0xb0, 0x8b, 0x5c, 0x3e,
    0xbf, 0xde, 0xb5, 0x3c, 0xf6, 0x81, 0x7a, 0xbe, 0x36, 0x2d,
    0x61, 0xbd, 0x4e, 0x85, 0x07, 0xbe, 0x0c, 0x64, 0xc5, 0x3d,
    0x6a, 0xc3, 0x2a, 0x3e, 0x35, 0xeb, 0x83, 0x3d, 0x46, 0x85,
    0x7a, 0x3d, 0x59, 0x0f, 0x6e, 0xbd, 0x1f, 0xb9, 0x61, 0xbd,
    0xe9, 0xb4, 0x31, 0xbe, 0xae, 0x9f, 0x6e, 0xbd, 0xa5, 0x4a,
    0x00, 0x3e, 0xfb, 0xb7, 0xfd, 0x3c, 0x31, 0x87, 0x23, 0xbc,
    0xc8, 0x3a, 0x84, 0xbd, 0xa8, 0xee, 0x9e, 0x3d, 0xb7, 0x11,
    0x08, 0xbe, 0xe1, 0x12, 0xb3, 0xbc, 0x21, 0xf2, 0x3e, 0xbe,
    0x48, 0x79, 0x06, 0x3e, 0xd3, 0xb2, 0x2c, 0xbd, 0x35, 0xcf,
    0xa1, 0xbd, 0x64, 0x22, 0x7f, 0xbd, 0x97, 0xfd, 0x25, 0xbe,
    0xc2, 0x77, 0x62, 0xbe, 0xee, 0x66, 0x97, 0xbd, 0xec, 0x32,
    0x79, 0xbd, 0x3c, 0xfa, 0x06, 0x3e, 0xce, 0x1f, 0x99, 0xbd,
    0x7b, 0xba, 0xb8, 0x3d, 0x3a, 0xec, 0x5f, 0x3c, 0x7c, 0xea,
    0x7b, 0x3c, 0xcb, 0x26, 0xc3, 0xbd, 0xdd, 0x1b, 0x55, 0xbe,
    0x8f, 0x8f, 0xc1, 0x3d, 0xa8, 0x62, 0x2b, 0x3e, 0x27, 0xdf,
    0xed, 0x3d, 0x4d, 0x02, 0x00, 0x3e, 0xef, 0x19, 0x60, 0x3e,
    0xe7, 0x59, 0xd8, 0x3c, 0xb7, 0xfc, 0xb5, 0xbd, 0x18, 0x09,
    0x1e, 0xbe, 0x22, 0x3b, 0x6b, 0xbd, 0x92, 0x3d, 0xb6, 0x3c,
    0xc6, 0x54, 0x3b, 0x3d, 0x0d, 0x14, 0x38, 0x3d, 0x53, 0xdb,
    0xe2, 0xbd, 0x12, 0x39, 0xb3, 0xbd, 0x7d, 0xad, 0x5e, 0xbe,
    0xc3, 0xb8, 0x91, 0xbd, 0xfb, 0xcf, 0xde, 0x3c, 0xdb, 0xd0,
    0xa5, 0xbc, 0xd0, 0xd2, 0x21, 0x3e, 0xd5, 0x5e, 0xa6, 0x3c,
    0xdd, 0x9e, 0xd8, 0x3d, 0x24, 0x29, 0x06, 0x3e, 0xde, 0x62,
    0xfe, 0xbd, 0xd0, 0xfa, 0x9e, 0x3d, 0x2b, 0x9d, 0x00, 0xbe,
    0xbb, 0x3e, 0x36, 0x3e, 0xd4, 0x31, 0x33, 0xbd, 0x87, 0x90,
    0x0d, 0xbe, 0xda, 0xe6, 0x1d, 0xbe, 0x9b, 0x5d, 0x0b, 0x3e,
    0x70, 0x55, 0x12, 0x3e, 0x2e, 0xdc, 0x43, 0x3d, 0xfd, 0x24,
    0x63, 0xbe, 0xb9, 0xfa, 0xc4, 0x3c, 0xaa, 0x5d, 0xea, 0xbd,
    0x31, 0xb3, 0x61, 0x3d, 0x78, 0x11, 0x3b, 0xbe, 0x46, 0x33,
    0x07, 0x3e, 0x67, 0xcc, 0xa0, 0x3e, 0x83, 0x70, 0xd0, 0x3d,
    0xc9, 0xe5, 0x22, 0x3d, 0xaa, 0x30, 0x0d, 0xbe, 0x49, 0xdd,
    0x0c, 0x3e, 0x5d, 0xe0, 0xee, 0x3d, 0xc3, 0x27, 0x12, 0xbe,
    0x72, 0x0e, 0xa4, 0xbd, 0x39, 0xd4, 0x8e, 0x3c, 0xb4, 0x84,
    0xd6, 0x3d, 0x7c, 0xbe, 0x33, 0xbe, 0x63, 0x1b, 0x03, 0xbe,
    0x5a, 0x15, 0x67, 0x3e, 0xf0, 0x5e, 0xc7, 0x3d, 0xc1, 0x1e,
    0x37, 0xbd, 0x10, 0xa8, 0x6b, 0x3d, 0xcc, 0xea, 0x63, 0x3e,
    0x73, 0x2a, 0x0e, 0x3e, 0xca, 0x16, 0x60, 0xbb, 0xcb, 0xde,
    0x23, 0xbd, 0xc0, 0xbe, 0xaa, 0x3d, 0x23, 0x89, 0x6a, 0xbd,
    0xcf, 0x03, 0xbc, 0xbd, 0x88, 0x75, 0xab, 0xbd, 0x4d, 0x76,
    0x5f, 0x3e, 0x2e, 0xda, 0x94, 0x3c, 0xd5, 0xf7, 0xc9, 0xbd,
    0xd5, 0x9f, 0xfb, 0xbd, 0xc2, 0x28, 0x6e, 0xbd, 0xc2, 0xc0,
    0x08, 0xbe, 0x40, 0xdc, 0xd7, 0x3d, 0xe4, 0xb8, 0x12, 0x3e,
    0x59, 0x21, 0x51, 0xbe, 0x61, 0x1f, 0xd8, 0xbb, 0xc4, 0x15,
    0x59, 0xbd, 0xbb, 0xfa, 0x0c, 0xbd, 0x1b, 0x2b, 0xe5, 0x3c,
    0xfc, 0x37, 0xcb, 0x3d, 0xf2, 0x29, 0x90, 0xbe, 0x0c, 0x45,
    0x4e, 0x3e, 0x8b, 0xdc, 0x08, 0x3e, 0x18, 0xa1, 0x12, 0x3d,
    0x89, 0x43, 0xe0, 0x3c, 0x04, 0xce, 0x7a, 0xbd, 0x5b, 0x86,
    0xbf, 0xbd, 0x3c, 0xce, 0x28, 0xbe, 0xbb, 0x6f, 0xd7, 0xbc,
    0xbb, 0x07, 0x25, 0x3e, 0xf7, 0x98, 0x54, 0x3e, 0xd3, 0x29,
    0xfb, 0x3c, 0x25, 0x9c, 0xd6, 0xbd, 0x2f, 0xf5, 0x3f, 0x3b,
    0x37, 0x80, 0x0d, 0xbe, 0xe4, 0x20, 0xec, 0x3d, 0x19, 0xa2,
    0x34, 0xbe, 0x8a, 0xb5, 0x99, 0xbc, 0x68, 0xb8, 0x23, 0xbd,
    0x6b, 0x06, 0xb0, 0xbd, 0x63, 0x4e, 0xb5, 0x3d, 0xce, 0xaf,
    0xab, 0x3c, 0x00, 0xa7, 0x17, 0x3e, 0x36, 0x28, 0x4d, 0x3e,
    0x53, 0x7e, 0xd5, 0x3d, 0x06, 0xf3, 0x24, 0x3e, 0x18, 0xc0,
    0x09, 0x3b, 0x44, 0xeb, 0x5b, 0x3e, 0xeb, 0x0f, 0x8b, 0xbd,
    0x74, 0xdf, 0x43, 0xbe, 0x09, 0x38, 0x06, 0xbe, 0x06, 0xac,
    0x37, 0xbe, 0x4c, 0x8a, 0xd4, 0x3c, 0x46, 0x6f, 0x18, 0xbd,
    0x7d, 0x44, 0x1e, 0xbd, 0xaa, 0x82, 0xe1, 0xbd, 0x4a, 0x1a,
    0xfe, 0xbd, 0x01, 0xb2, 0x12, 0xbe, 0x26, 0xb2, 0x0c, 0xbe,
    0x16, 0xa2, 0x4a, 0x3d, 0x86, 0x81, 0x0e, 0xbe, 0x79, 0x99,
    0xb3, 0xbd, 0xe2, 0xc7, 0x20, 0xbd, 0xd2, 0xdb, 0x42, 0x3e,
    0xaa, 0x09, 0x7d, 0x3c, 0x5f, 0x3d, 0x4c, 0x3e, 0x0b, 0x21,
    0x24, 0xbd, 0x97, 0x3a, 0x22, 0x3d, 0x54, 0x36, 0xb6, 0xbd,
    0x15, 0xc0, 0x8e, 0xbc, 0x67, 0x2c, 0xbc, 0x3c, 0xd1, 0x3c,
    0x35, 0xbd, 0x27, 0xe1, 0xac, 0xbd, 0x0b, 0x05, 0x32, 0xbe,
    0x43, 0x9b, 0x0c, 0x3e, 0x2c, 0x66, 0x58, 0xbd, 0x25, 0xde,
    0x22, 0x3c, 0x6a, 0x99, 0x0b, 0x3e, 0x46, 0xe5, 0x65, 0x3d,
    0x78, 0x6a, 0x1a, 0xbe, 0x7f, 0x06, 0x10, 0x3e, 0xae, 0x8f,
    0x3a, 0xbe, 0xc3, 0xca, 0x18, 0xbe, 0xd7, 0x9d, 0x25, 0xbe,
    0xe9, 0x9d, 0xec, 0xbd, 0x26, 0xd7, 0x1c, 0xbe, 0x10, 0x4b,
    0xa9, 0x3d, 0x3a, 0x9b, 0x7c, 0x3d, 0x4c, 0xef, 0x00, 0xbe,
    0xb3, 0xf7, 0xc7, 0x3d, 0x2c, 0xb8, 0x40, 0x3e, 0x67, 0xc7,
    0x42, 0x3b, 0xb4, 0x19, 0x8b, 0x3d, 0xe7, 0xb4, 0x07, 0x3b,
    0xfa, 0x12, 0xbf, 0xbc, 0xe7, 0x6f, 0x95, 0xbd, 0xcd, 0x12,
    0x85, 0xbe, 0x5f, 0x47, 0x67, 0x3b, 0xd1, 0x57, 0xc8, 0x3d,
    0x38, 0x8b, 0x8e, 0xbd, 0xc4, 0xdf, 0xca, 0xbc, 0xa7, 0x63,
    0x84, 0xbc, 0x0d, 0xb4, 0xcc, 0x3c, 0x82, 0xe2, 0xee, 0xbc,
    0x3e, 0x27, 0x9e, 0x3d, 0x32, 0xa4, 0xe6, 0xbc, 0xfd, 0xf7,
    0xe5, 0x3d, 0xd3, 0x96, 0xfb, 0xbd, 0x0a, 0x09, 0x75, 0x3c,
    0x63, 0xff, 0x42, 0x3d, 0xf9, 0xa5, 0x49, 0x3e, 0x9d, 0xff,
    0x09, 0x3d, 0xd4, 0x9f, 0x6c, 0x3d, 0x5c, 0x3a, 0x59, 0xbd,
    0xea, 0x92, 0xe1, 0xbd, 0x43, 0xa2, 0x14, 0xbe, 0x2f, 0x90,
    0x50, 0x3d, 0x16, 0x5b, 0x79, 0xbd, 0x79, 0x7f, 0xc1, 0x3d,
    0xf4, 0xaf, 0x17, 0xbe, 0x7b, 0x40, 0x2e, 0xbd, 0x5c, 0x3d,
    0xe1, 0x3c, 0x7b, 0x99, 0xa6, 0xbc, 0x43, 0xd5, 0x02, 0x3e,
    0x6d, 0x56, 0x28, 0xbe, 0x1d, 0x63, 0x18, 0x3e, 0x66, 0x26,
    0xd5, 0xbd, 0x74, 0x3e, 0x25, 0xbe, 0xc0, 0x0a, 0xa5, 0x3d,
    0x12, 0x90, 0xe5, 0xbc, 0x65, 0x4f, 0x24, 0xbe, 0x3e, 0x33,
    0x29, 0xbe, 0x29, 0xff, 0xd6, 0x3d, 0x80, 0x85, 0x88, 0xbd,
    0x23, 0xc1, 0x06, 0xbe, 0x30, 0x12, 0x02, 0x3d, 0x9f, 0x0a,
    0xc8, 0xbd, 0x27, 0xbb, 0x51, 0xbd, 0xe0, 0x30, 0xe2, 0x3b,
    0x16, 0x99, 0x2f, 0x3d, 0x19, 0x1d, 0xe8, 0xbd, 0x67, 0xd1,
    0xd7, 0x3d, 0xd4, 0x24, 0x24, 0xbd, 0xc3, 0xb6, 0x28, 0xbe,
    0x08, 0xdd, 0x19, 0x3e, 0x06, 0x07, 0xa1, 0x3d, 0xe3, 0x45,
    0xdf, 0x3d, 0xba, 0x9c, 0x48, 0xbd, 0xc2, 0xd4, 0xce, 0xbd,
    0x22, 0xd3, 0x17, 0xbe, 0x86, 0x99, 0x9c, 0x3d, 0x5a, 0x72,
    0x98, 0x3d, 0xc0, 0x4e, 0x7a, 0x3c, 0xca, 0xa5, 0xd6, 0xbc,
    0xc9, 0x5a, 0xda, 0xbd, 0x9e, 0x65, 0xa9, 0x3d, 0x55, 0x07,
    0x04, 0x3e, 0x3c, 0xc9, 0xd1, 0xbd, 0x13, 0x4c, 0x25, 0x3e,
    0x4e, 0x1e, 0xa8, 0xbd, 0x80, 0x68, 0x58, 0xbd, 0xad, 0x4e,
    0x0e, 0xbe, 0x3e, 0x7e, 0x13, 0x3e, 0x9a, 0x74, 0xc3, 0xbc,
    0x7b, 0x48, 0x29, 0x3d, 0xb3, 0x49, 0xd3, 0xbc, 0x00, 0x3e,
    0x83, 0xbd, 0x96, 0x27, 0x95, 0x3d, 0x40, 0xea, 0x70, 0xbd,
    0xf9, 0x94, 0x2a, 0xbe, 0x67, 0x53, 0x00, 0x3e, 0x16, 0xb8,
    0xf5, 0x3c, 0x5e, 0x17, 0x60, 0xbd, 0x20, 0xd6, 0xff, 0x3d,
    0xfa, 0xf5, 0xb1, 0x3d, 0x99, 0x93, 0x68, 0x3d, 0x8d, 0x98,
    0x26, 0xbd, 0xdf, 0x75, 0x21, 0xbc, 0x16, 0xc2, 0x62, 0xbd,
    0x28, 0x3c, 0x76, 0x3d, 0x00, 0x4c, 0xbd, 0xbc, 0x94, 0xa8,
    0x26, 0xbe, 0xa9, 0x12, 0x18, 0x3e, 0x7d, 0xf5, 0x24, 0xbe,
    0x48, 0xe0, 0xc4, 0xbd, 0x92, 0x2c, 0x07, 0xbc, 0x34, 0xc7,
    0x2e, 0x3e, 0x71, 0xe6, 0x1d, 0x3d, 0x86, 0xa1, 0xd3, 0x3c,
    0xe8, 0xc8, 0x95, 0x3d, 0xaa, 0x80, 0xc2, 0xbd, 0x46, 0xcc,
    0xd1, 0x3b, 0x8d, 0x45, 0xf3, 0x3d, 0x7b, 0xd9, 0xbb, 0xbb,
    0x38, 0xd6, 0xfc, 0x3b, 0x59, 0xcc, 0x3f, 0xbe, 0x75, 0x6e,
    0xd3, 0x3d, 0x7c, 0x56, 0xff, 0xbd, 0x12, 0xf6, 0xdd, 0xbd,
    0xb4, 0x65, 0xe8, 0x3d, 0x24, 0xf6, 0x2c, 0xbd, 0x62, 0xd5,
    0x40, 0x3e, 0x6c, 0x83, 0x3b, 0xbd, 0x50, 0xa3, 0x03, 0xbe,
    0xd6, 0x6f, 0x68, 0xbc, 0xa7, 0xea, 0xe9, 0xbd, 0x0f, 0x2a,
    0xbf, 0x3d, 0xe2, 0xab, 0xdb, 0xbd, 0x38, 0x66, 0x4a, 0x3e,
    0x41, 0x32, 0xbb, 0x3d, 0x11, 0xe3, 0x43, 0x3d, 0xcd, 0xa5,
    0xcd, 0xbd, 0xe5, 0x3a, 0x36, 0x3e, 0x9b, 0xbc, 0x26, 0xbe,
    0x02, 0x19, 0xc0, 0x3d, 0x65, 0x3a, 0xe6, 0x3d, 0x7b, 0xba,
    0x84, 0x3d, 0x9c, 0x12, 0x4c, 0xbd, 0x3c, 0xfa, 0x4d, 0xbd,
    0x6a, 0xb8, 0x7d, 0xbd, 0x9f, 0xc7, 0x2d, 0xbd, 0x8e, 0xba,
    0x29, 0xbe, 0xda, 0x45, 0x9b, 0x3d, 0x51, 0x58, 0x06, 0x3e,
    0x5b, 0x65, 0x11, 0x3e, 0x79, 0x81, 0x56, 0xbd, 0xa9, 0x0e,
    0x3d, 0xbb, 0x9d, 0x6a, 0x03, 0xbd, 0xe8, 0x8a, 0xb3, 0x3c,
    0x45, 0xf8, 0x03, 0xbe, 0xa0, 0xea, 0x6b, 0x3e, 0x02, 0xc5,
    0xc0, 0x3c, 0xb8, 0xd7, 0xd8, 0x3c, 0x10, 0x15, 0xd6, 0x3c,
    0x3e, 0x87, 0xfa, 0xbd, 0x79, 0x7c, 0x84, 0xbd, 0x44, 0xb5,
    0x22, 0x3e, 0xf0, 0xd1, 0x19, 0x3d, 0xf0, 0x64, 0x0d, 0x3e,
    0x58, 0xf3, 0xf6, 0xbd, 0x68, 0x3f, 0x10, 0xbe, 0xdc, 0xf0,
    0x26, 0xbe, 0xe5, 0xff, 0x40, 0xbe, 0x8c, 0xb6, 0xce, 0xbd,
    0x81, 0x2a, 0xcb, 0x3d, 0x56, 0x52, 0x1d, 0xbe, 0x44, 0x3b,
    0x71, 0xbe, 0x25, 0xde, 0xde, 0xbd, 0x6a, 0x85, 0x0c, 0x3e,
    0x48, 0x2f, 0x3f, 0xbe, 0xec, 0x69, 0x03, 0x3e, 0x3a, 0x2c,
    0xc3, 0xbc, 0x1c, 0xaf, 0x9d, 0x3c, 0xa8, 0x06, 0xf3, 0x3d,
    0x28, 0x31, 0x4c, 0x3e, 0xd5, 0x9b, 0x06, 0x3e, 0x6c, 0xe6,
    0x1f, 0x3d, 0xfa, 0x1a, 0xce, 0xbd, 0x65, 0x21, 0xd7, 0x3d,
    0x6a, 0x92, 0xd8, 0x3c, 0x8f, 0xab, 0x33, 0x3e, 0xff, 0x10,
    0x85, 0xbd, 0x72, 0x92, 0x20, 0xbe, 0xf2, 0x0c, 0xeb, 0x3c,
    0x3e, 0x88, 0x7b, 0x3d, 0xdd, 0xd7, 0x23, 0x3c, 0x31, 0xb0,
    0x42, 0x3d, 0x2c, 0x96, 0xda, 0xbd, 0x9f, 0xd7, 0xf1, 0x3d,
    0xee, 0x95, 0xe2, 0x3d, 0x17, 0x85, 0xe2, 0x3d, 0x20, 0x75,
    0x6a, 0xbe, 0x5f, 0x2c, 0xfc, 0xba, 0xaa, 0x83, 0x8a, 0xbd,
    0x11, 0x03, 0xc3, 0xbd, 0x8d, 0x61, 0x09, 0x3e, 0x05, 0xd2,
    0x5a, 0x3d, 0x92, 0x83, 0x21, 0xbd, 0xad, 0x8c, 0x7e, 0xbd,
    0x89, 0xe7, 0x5c, 0xbd, 0xdd, 0xa5, 0x97, 0xbb, 0x05, 0x3f,
    0x88, 0x3c, 0xbd, 0xad, 0xe4, 0xbd, 0x6f, 0x5d, 0x17, 0xbe,
    0x0f, 0x52, 0x8f, 0x3e, 0xf4, 0x91, 0x96, 0x3d, 0x74, 0x67,
    0xe6, 0xbd, 0x94, 0xe7, 0xe9, 0xbd, 0x71, 0x7a, 0x04, 0x3e,
    0x45, 0x12, 0x00, 0x3e, 0x4b, 0x8b, 0x2a, 0x3e, 0x6b, 0x1a,
    0xcf, 0x3d, 0x7f, 0x6e, 0x5c, 0xbd, 0x69, 0x05, 0x23, 0x3e,
    0x47, 0xa5, 0x98, 0x3d, 0xab, 0x8a, 0x59, 0xbe, 0x0b, 0x33,
    0x1c, 0x3e, 0xc1, 0x74, 0x18, 0x3e, 0xc8, 0x45, 0x58, 0xbd,
    0x0a, 0xc7, 0xdc, 0x3b, 0xfb, 0x8b, 0xab, 0xbd, 0x29, 0x11,
    0xd3, 0xbd, 0xd8, 0xde, 0xfd, 0x3b, 0x59, 0x7a, 0xdd, 0x3d,
    0xca, 0xe9, 0x05, 0x3d, 0xde, 0x85, 0x1b, 0xbe, 0x42, 0xa0,
    0xef, 0xbd, 0x55, 0xfb, 0x3e, 0xbe, 0xee, 0x7d, 0x03, 0x3e,
    0x06, 0x4f, 0x7e, 0xbe, 0x51, 0x2d, 0xdf, 0x3d, 0x01, 0x2a,
    0x0c, 0xbc, 0x25, 0xa6, 0x02, 0x3e, 0x0e, 0x58, 0xeb, 0xbd,
    0xaf, 0x60, 0x74, 0x3b, 0x8d, 0x62, 0x98, 0x3d, 0x61, 0xcf,
    0x3c, 0x3e, 0xcc, 0x86, 0xaf, 0xbd, 0xfa, 0xcd, 0x7e, 0x3d,
    0xcb, 0x55, 0x9f, 0x3d, 0xf9, 0x38, 0xa5, 0xbb, 0x40, 0x22,
    0x11, 0xbc, 0x69, 0x66, 0x79, 0xbc, 0x41, 0x5b, 0x4d, 0x3e,
    0x67, 0x4a, 0xc4, 0x3b, 0xbd, 0x85, 0xb9, 0x3b, 0x8e, 0x14,
    0x3d, 0xbe, 0x41, 0x53, 0xa0, 0x3c, 0xe9, 0x27, 0xcb, 0xbd,
    0x54, 0x37, 0x94, 0x3d, 0xde, 0xa8, 0x71, 0xbd, 0x83, 0x56,
    0x94, 0xbd, 0x1d, 0x46, 0x14, 0x3e, 0x29, 0x84, 0xcb, 0xbd,
    0x1a, 0xa3, 0x5e, 0x3e, 0x96, 0x05, 0x14, 0xbe, 0x2b, 0x19,
    0x9a, 0xbd, 0x1f, 0xac, 0xb0, 0xbb, 0x5f, 0xef, 0x0c, 0x3e,
    0x50, 0xed, 0x11, 0x3e, 0x61, 0x89, 0xc2, 0x3c, 0x92, 0xc1,
    0x19, 0x3e, 0x2d, 0x9f, 0x54, 0xbd, 0x4a, 0x64, 0x5f, 0x3d,
    0x49, 0x74, 0x19, 0xbe, 0x01, 0xcc, 0x65, 0xbd, 0x48, 0xe1,
    0xa4, 0xbd, 0x38, 0xc3, 0x4e, 0xbd, 0xc5, 0x5d, 0x2c, 0x3e,
    0x30, 0xa2, 0x73, 0x3d, 0xf9, 0xc9, 0xd9, 0xbb, 0x54, 0x0b,
    0xd6, 0x3d, 0x78, 0x44, 0xc6, 0x3d, 0xd2, 0x89, 0xe6, 0x3b,
    0x4a, 0x7b, 0x94, 0x3b, 0x74, 0x2b, 0x10, 0xbe, 0xee, 0xd4,
    0x1a, 0x3e, 0x2d, 0xfb, 0xb3, 0xbd, 0x6b, 0x24, 0x09, 0x3e,
    0xf1, 0x86, 0x80, 0xbd, 0xce, 0x9f, 0x4c, 0x3e, 0x00, 0x05,
    0x03, 0x3e, 0x7f, 0x6b, 0xa6, 0x3d, 0x71, 0xc1, 0xc1, 0xbd,
    0x7f, 0x08, 0x03, 0x3d, 0x78, 0xd3, 0x35, 0x3d, 0x05, 0x45,
    0x35, 0x3e, 0x50, 0x6c, 0x79, 0xbd, 0x0d, 0xe8, 0xb9, 0x3d,
    0x93, 0x7d, 0xa6, 0xbd, 0x57, 0xa8, 0x26, 0x3c, 0xe1, 0x75,
    0x8b, 0xbd, 0xcc, 0x3f, 0x19, 0x3e, 0x1e, 0xdb, 0x0a, 0x3e,
    0xab, 0xc8, 0x81, 0x3d, 0x94, 0xa3, 0x4d, 0x3d, 0x61, 0x47,
    0x19, 0xbd, 0x3e, 0x9a, 0x36, 0x3d, 0x79, 0x3d, 0xe7, 0x3c,
    0xf8, 0x75, 0xd2, 0x3d, 0xfc, 0x0d, 0xdf, 0xbd, 0xe8, 0xfa,
    0xda, 0xbc, 0x02, 0x93, 0x4d, 0xbd, 0x50, 0xc2, 0x7e, 0xbd,
    0xc3, 0xf4, 0x37, 0xbc, 0xc5, 0xc2, 0xf9, 0xbd, 0x79, 0x0d,
    0xf6, 0xbd, 0x5f, 0xf3, 0xaf, 0x3b, 0x71, 0x56, 0x17, 0x3e,
    0x91, 0x9d, 0x68, 0xbd, 0xb8, 0x41, 0x7c, 0x3d, 0x67, 0x21,
    0xec, 0xbd, 0x9e, 0x24, 0x34, 0xbe, 0x80, 0xae, 0x99, 0x3d,
    0x2f, 0x07, 0xd5, 0xbd, 0x1a, 0x7e, 0xab, 0x3d, 0xc9, 0x65,
    0x07, 0xbe, 0xc6, 0xad, 0xac, 0xbd, 0x50, 0xd6, 0x8a, 0xbd,
    0x1e, 0xf5, 0x9c, 0xbd, 0x8b, 0x3f, 0x23, 0x3e, 0x3a, 0x14,
    0x6a, 0xbd, 0xef, 0x1a, 0xe1, 0xbd, 0xac, 0xb8, 0x05, 0xbe,
    0xd5, 0x45, 0x06, 0xbe, 0x78, 0x74, 0x30, 0xbd, 0xf2, 0x9f,
    0xa6, 0x3e, 0x69, 0xf1, 0x04, 0xbe, 0xbe, 0xe7, 0x9c, 0xbd,
    0x64, 0x08, 0x93, 0x3d, 0x6b, 0x50, 0x92, 0x3d, 0xbc, 0x70,
    0x10, 0xbe, 0xc3, 0xd1, 0x02, 0xbe, 0x4b, 0x21, 0x94, 0xbd,
    0x4e, 0xe6, 0x0d, 0xbe, 0x96, 0x19, 0xf0, 0xbd, 0xce, 0x55,
    0x5d, 0xbe, 0x04, 0xb5, 0x0f, 0x3e, 0xe0, 0x75, 0x4c, 0x3d,
    0xf8, 0xe8, 0x5d, 0xbd, 0xca, 0x3a, 0x08, 0xbe, 0x3b, 0xcb,
    0x85, 0xbd, 0xfa, 0xfd, 0xde, 0xbd, 0xe2, 0x49, 0x83, 0xbc,
    0xc8, 0xe4, 0xe6, 0xbd, 0x9a, 0xcc, 0xf3, 0xbd, 0xfd, 0x9d,
    0x44, 0xbd, 0x16, 0x62, 0x09, 0xbb, 0x11, 0x46, 0x37, 0xbe,
    0x21, 0xb3, 0x56, 0x3e, 0x13, 0xaf, 0x8b, 0x3e, 0xcb, 0xc3,
    0xad, 0x3d, 0x02, 0x4c, 0x5a, 0x3c, 0xed, 0xec, 0xe3, 0xbd,
    0xad, 0xa2, 0x07, 0x3d, 0x0e, 0x15, 0x5c, 0x3d, 0x50, 0x0c,
    0x30, 0x3d, 0x5d, 0x84, 0x69, 0x3d, 0x16, 0x62, 0xfd, 0x3d,
    0x53, 0x3a, 0xcd, 0x3b, 0x65, 0x77, 0x31, 0xbd, 0xe4, 0x95,
    0xf8, 0xbb, 0x77, 0x64, 0x06, 0x3e, 0x85, 0x63, 0x00, 0xbe,
    0x2a, 0x18, 0x38, 0xbe, 0xb6, 0x1d, 0x4a, 0x3d, 0x1a, 0xaa,
    0x91, 0xbd, 0x92, 0x8b, 0xb9, 0x3d, 0x85, 0xa8, 0xfc, 0xbd,
    0x98, 0x2d, 0x9c, 0xbb, 0x42, 0x6e, 0x00, 0x3e, 0x6d, 0x2f,
    0xd9, 0x3d, 0xc3, 0xfe, 0x27, 0xbd, 0x80, 0x12, 0xc1, 0x3d,
    0x4f, 0x2c, 0xb1, 0x3e, 0x7b, 0x16, 0x32, 0x3d, 0x79, 0x39,
    0x62, 0x3d, 0xb5, 0x42, 0x7b, 0xbc, 0xfb, 0xb6, 0x98, 0x3d,
    0xfb, 0xc3, 0x9d, 0x3d, 0x55, 0x67, 0xd9, 0xbd, 0x02, 0xd1,
    0x78, 0x3d, 0x30, 0x44, 0x0a, 0x3d, 0x45, 0x78, 0x4f, 0x3a,
    0xcc, 0x90, 0x98, 0xbc, 0x34, 0x3d, 0x66, 0x3d, 0xea, 0x73,
    0x6c, 0x3d, 0x85, 0xb3, 0xc5, 0x3c, 0x15, 0xf7, 0xae, 0xbd,
    0xbf, 0xcc, 0xdc, 0xba, 0xea, 0x63, 0xb0, 0xbd, 0xfc, 0x87,
    0x23, 0x3e, 0x16, 0xd7, 0xa5, 0x3d, 0x53, 0xb9, 0x0b, 0xbe,
    0x5a, 0xfb, 0x1d, 0xbe, 0xec, 0xea, 0xa5, 0xbd, 0x00, 0x87,
    0xad, 0xbb, 0xc9, 0x6d, 0x28, 0xbe, 0x9b, 0xa7, 0x3f, 0x3d,
    0xef, 0x4c, 0x09, 0xbc, 0x49, 0xde, 0xa3, 0x3c, 0xda, 0x8f,
    0xc3, 0x3d, 0xac, 0x7c, 0x00, 0xbe, 0x93, 0x9b, 0xac, 0x3d,
    0x22, 0xcb, 0x1d, 0xbe, 0x3a, 0x11, 0xab, 0xbd, 0x37, 0x86,
    0xc0, 0xbc, 0xd6, 0x8d, 0x99, 0x3c, 0x33, 0xce, 0x31, 0xbe,
    0xce, 0xf5, 0xb1, 0xbd, 0xb5, 0x19, 0x01, 0xbe, 0xa7, 0xde,
    0x0d, 0x3e, 0xe7, 0x67, 0xbd, 0x3d, 0xbb, 0xec, 0xd9, 0xbd,
    0xd2, 0x7f, 0x07, 0x3e, 0x71, 0x6d, 0x11, 0x3e, 0xe8, 0xe2,
    0xcf, 0xbd, 0xdb, 0x8d, 0xc0, 0xbd, 0x62, 0xe7, 0xec, 0xbb,
    0xe4, 0xc2, 0x1b, 0xbe, 0x28, 0x6f, 0xde, 0x3c, 0x6a, 0x96,
    0x0f, 0xbe, 0x59, 0xa6, 0x00, 0x3d, 0x54, 0x12, 0x4e, 0xbb,
    0x0c, 0xc6, 0xbb, 0xbb, 0xcc, 0xd5, 0xec, 0x3d, 0x76, 0x2a,
    0xfd, 0xbd, 0xa3, 0xe4, 0x0d, 0x3e, 0xb4, 0x6d, 0x27, 0xbe,
    0x1e, 0x65, 0x23, 0x3c, 0x56, 0x70, 0x1e, 0xbe, 0x65, 0xdf,
    0xc8, 0xbd, 0xde, 0x21, 0xa6, 0x3b, 0x8a, 0x6c, 0xa9, 0x3d,
    0xb4, 0xd7, 0xe3, 0xbd, 0x3e, 0x22, 0xfc, 0x3c, 0x8f, 0x25,
    0x07, 0x3d, 0x76, 0x14, 0x9e, 0xbd, 0x38, 0x47, 0xe0, 0x39,
    0x4b, 0x84, 0xe8, 0xbd, 0x7f, 0x54, 0x11, 0x3e, 0xc0, 0x0c,
    0x86, 0xbc, 0x95, 0xf5, 0x19, 0xbe, 0x2b, 0x7b, 0x0c, 0x3e,
    0x00, 0x8d, 0x5e, 0x3a, 0x1c, 0xf9, 0x34, 0xbd, 0xfb, 0x97,
    0x03, 0x3e, 0xae, 0x0f, 0x89, 0x3d, 0xc7, 0xfa, 0x03, 0x3c,
    0xfe, 0x2a, 0x23, 0x3d, 0x98, 0x95, 0x84, 0xbc, 0xdc, 0x8c,
    0xb6, 0xbd, 0xe8, 0xc5, 0x99, 0x3c, 0x4a, 0x93, 0xcf, 0x3c,
    0xf4, 0x71, 0x2a, 0xbe, 0xac, 0x44, 0x8d, 0xbd, 0xa8, 0x20,
    0x5f, 0xbd, 0x87, 0xb6, 0x21, 0xbe, 0x27, 0x11, 0xf0, 0x3c,
    0xac, 0xe4, 0x7a, 0xbd, 0x6c, 0x5d, 0xc9, 0x3d, 0xe3, 0xa5,
    0x01, 0x3e, 0x8b, 0xef, 0xd0, 0xbd, 0x71, 0xd7, 0x78, 0xbd,
    0x05, 0x9f, 0xc9, 0xbd, 0xbf, 0x24, 0xfe, 0xbd, 0x25, 0x1a,
    0xc5, 0x3d, 0x71, 0xf3, 0x84, 0x3d, 0x8c, 0xd9, 0xe4, 0xbd,
    0xbc, 0x00, 0xc3, 0x3d, 0x4c, 0x3b, 0xe2, 0xbd, 0x89, 0xe6,
    0x17, 0x3e, 0x8b, 0xe0, 0x35, 0xbd, 0xab, 0x5a, 0x85, 0xbd,
    0xf0, 0xc6, 0xb8, 0x3d, 0xee, 0x27, 0x4d, 0xbe, 0x0f, 0x36,
    0xdd, 0x3c, 0x46, 0x13, 0x9b, 0x3d, 0x10, 0xb6, 0xb6, 0xbd,
    0x3f, 0x13, 0x63, 0x3d, 0xbd, 0x4f, 0x3d, 0x3d, 0x9d, 0xec,
    0x93, 0xbb, 0x3b, 0x86, 0x9a, 0x3d, 0x38, 0x81, 0x03, 0x3e,
    0xf9, 0x52, 0x06, 0x3e, 0x71, 0x95, 0x79, 0xbd, 0x82, 0x50,
    0xa3, 0xbc, 0xf1, 0xca, 0x3c, 0xbe, 0xda, 0xe8, 0x37, 0xbc,
    0x69, 0xd6, 0xe6, 0x3c, 0xfd, 0xab, 0xc1, 0xbd, 0xb5, 0xb4,
    0x27, 0x3e, 0x28, 0x38, 0x30, 0x3d, 0x77, 0x7e, 0x08, 0xbc,
    0x0f, 0xfb, 0x8a, 0xbe, 0x53, 0xb4, 0xcf, 0xbd, 0x37, 0xf2,
    0xee, 0xbd, 0x5d, 0x21, 0xe0, 0x3d, 0xb9, 0xa5, 0xf7, 0xba,
    0x3c, 0x9f, 0x99, 0x3d, 0x3e, 0xce, 0xcb, 0xbc, 0x6e, 0xe4,
    0x04, 0xbe, 0xb5, 0x49, 0xb2, 0x3d, 0x2d, 0xd2, 0x81, 0xbb,
    0x96, 0x57, 0x0f, 0xbd, 0x1f, 0x37, 0x35, 0x3d, 0xee, 0x32,
    0x81, 0x3d, 0x40, 0x4c, 0xc1, 0xbd, 0xcc, 0x7c, 0x7a, 0xbd,
    0x07, 0x9c, 0xaf, 0xbb, 0x8f, 0x8d, 0x0e, 0x3d, 0xd5, 0x86,
    0x3d, 0xbe, 0x92, 0x64, 0xa2, 0x3d, 0x8b, 0x4e, 0xe8, 0x3d,
    0xc5, 0xc5, 0x13, 0x3e, 0x07, 0x34, 0x46, 0x3e, 0x45, 0xff,
    0x88, 0x3c, 0xb6, 0xe4, 0x56, 0xbb, 0x80, 0x00, 0xf1, 0x3b,
    0x21, 0xcc, 0xd0, 0x3d, 0x7e, 0x3e, 0x53, 0x3d, 0x07, 0x8f,
    0x2e, 0x3d, 0xb6, 0xdb, 0x3b, 0x3e, 0x0c, 0xf6, 0x67, 0xbd,
    0x30, 0x26, 0xfd, 0x3d, 0x1a, 0xfc, 0x28, 0x3e, 0x60, 0x57,
    0x0a, 0x3e, 0x4c, 0x2e, 0x25, 0xbe, 0x39, 0xed, 0x08, 0xbe,
    0x41, 0xda, 0x1b, 0xbe, 0x4f, 0x37, 0x6d, 0xbd, 0x7d, 0x8f,
    0xfb, 0xbc, 0x4c, 0x07, 0xee, 0x3c, 0xeb, 0xdb, 0x52, 0xbc,
    0x94, 0x8b, 0x5f, 0x3e, 0x14, 0x5b, 0xb2, 0xbc, 0xa8, 0xc0,
    0xd3, 0xbd, 0x5c, 0x58, 0xf3, 0x3c, 0x39, 0x22, 0x1c, 0x3d,
    0x87, 0xf4, 0x7a, 0xbd, 0x2c, 0x21, 0x4d, 0xbd, 0xc9, 0xaf,
    0x15, 0x3d, 0x7e, 0x4e, 0x37, 0x3d, 0xb4, 0x41, 0x42, 0x3c,
    0xd8, 0x41, 0xb9, 0xbd, 0xcd, 0x73, 0xad, 0x3c, 0x18, 0x53,
    0x88, 0xbb, 0x83, 0x31, 0x82, 0x3d, 0x13, 0xe3, 0x13, 0x3d,
    0x73, 0xf0, 0x60, 0x3c, 0xd3, 0x0e, 0x5b, 0xbc, 0x9c, 0x22,
    0x38, 0xbc, 0x8c, 0xec, 0x9a, 0x3c, 0x7d, 0x49, 0x6a, 0xbf,
    0x62, 0x90, 0xd5, 0x33, 0x51, 0xb2, 0x3c, 0x61, 0xd3, 0x85,
    0xdb, 0xc4, 0xd3, 0x71, 0xc7, 0xd5, 0x3c, 0x4a, 0xe3, 0x81,
    0xb6, 0xd1, 0x47, 0x37, 0xc7, 0xa1, 0x8a, 0xdf, 0xcf, 0xd3,
    0x71, 0x6a, 0x9d, 0xae, 0x4c, 0xb1, 0x91, 0xe0, 0xd3, 0x4d,
    0xd3, 0x9f, 0x88, 0x97, 0x28, 0x93, 0x7e, 0xd4, 0x6a, 0x56,
    0xd9, 0x6a, 0x54, 0x91, 0x3a, 0xa1, 0xa8, 0x81, 0xa7, 0xb1,
    0xd5, 0x47, 0x90, 0xea, 0xa2, 0x2c, 0xf1, 0xa8, 0xbb, 0x92,
    0x66, 0x54, 0x87, 0x9c, 0x7f, 0xbf, 0x8d, 0xbe, 0x87, 0x7b,
    0xa2, 0x7f, 0x72, 0xcc, 0xb6, 0x87, 0xe6, 0x56, 0xcb, 0xa4,
    0xac, 0x46, 0x28, 0x37, 0x8d, 0xbc, 0x8a, 0x83, 0xf7, 0x7f,
    0x92, 0xa1, 0x41, 0x69, 0xba, 0x98, 0xad, 0xd3, 0xda, 0x48,
    0x7f, 0xd3, 0x66, 0x6d, 0xd3, 0x73, 0xd6, 0xbe, 0x64, 0x2b,
    0xc4, 0x83, 0x7b, 0xdd, 0xb7, 0xb0, 0x6d, 0x7f, 0xbb, 0x89,
    0x83, 0x7e, 0xa2, 0xca, 0xeb, 0x5e, 0x6c, 0x85, 0xb8, 0x55,
    0x27, 0x59, 0x7c, 0xbf, 0x5d, 0x6a, 0xe5, 0x58, 0x97, 0xd6,
    0x56, 0xa4, 0xcc, 0x75, 0x77, 0xa8, 0xa8, 0x95, 0x90, 0xc5,
    0x9e, 0x2c, 0xe7, 0x88, 0xc6, 0x7f, 0x96, 0x56, 0xab, 0x81,
    0x7c, 0xe0, 0xd3, 0xca, 0xb3, 0x99, 0xdc, 0x88, 0x43, 0xbf,
    0x95, 0xcf, 0xba, 0x4a, 0x94, 0x5e, 0x9d, 0x43, 0x55, 0x77,
    0x76, 0x9d, 0x78, 0x89, 0xde, 0x24, 0x74, 0xcb, 0x61, 0x61,
    0xa1, 0x4e, 0xa7, 0xc0, 0x9f, 0x6d, 0xbd, 0xc9, 0x94, 0x56,
    0xde, 0x7a, 0xc7, 0x7f, 0x72, 0x86, 0xaf, 0x63, 0xa9, 0xe3,
    0xcb, 0xef, 0x86, 0xa1, 0xc2, 0x67, 0x86, 0xbf, 0x7c, 0x95,
    0xa5, 0x3f, 0xbc, 0x49, 0xde, 0x5d, 0x40, 0x39, 0x90, 0xd6,
    0x4e, 0x95, 0xba, 0x75, 0x5d, 0x96, 0x8e, 0x58, 0xc7, 0x87,
    0xbd, 0xa7, 0xf0, 0x53, 0xa1, 0xdd, 0x75, 0x27, 0xac, 0x9d,
    0xe0, 0xa7, 0x97, 0x51, 0xd4, 0x8a, 0xcb, 0xcd, 0xc4, 0xd8,
    0xab, 0x51, 0xf5, 0x99, 0x7e, 0x88, 0xaa, 0x79, 0xba, 0x97,
    0x60, 0x3f, 0xa7, 0x57, 0xb0, 0xdc, 0xd0, 0x76, 0xb2, 0x8c,
    0x7e, 0x8e, 0x85, 0xcb, 0xdb, 0xba, 0xa0, 0x72, 0xb3, 0xa7,
    0x7e, 0xaa, 0xaf, 0xcd, 0xdd, 0xd7, 0x50, 0xb3, 0x99, 0xbd,
    0xb6, 0x9e, 0x9d, 0x9b, 0x85, 0x9f, 0xce, 0x71, 0x9a, 0x79,
    0xb2, 0xbc, 0x8b, 0xa6, 0xaf, 0xa9, 0x88, 0x88, 0xca, 0x8c,
    0x7e, 0xb5, 0xb3, 0xbb, 0xee, 0xac, 0xbc, 0xaa, 0xc5, 0x85,
    0x76, 0xdf, 0xbe, 0x55, 0xe1, 0x85, 0xa3, 0xc8, 0x5f, 0xec,
    0xc4, 0xab, 0xe2, 0xbc, 0x51, 0xdc, 0xc3, 0x90, 0xca, 0xa7,
    0x9f, 0xa1, 0xae, 0x9d, 0xbf, 0x7b, 0x9c, 0x8a, 0x50, 0xae,
    0x9c, 0xb1, 0xa8, 0x82, 0x8f, 0xd5, 0xdd, 0xc4, 0xaa, 0x86,
    0xaf, 0xa9, 0x94, 0xbb, 0x8d, 0x9c, 0xa1, 0x89, 0x63, 0x79,
    0xa0, 0x93, 0xc4, 0x9d, 0xce, 0xb4, 0x85, 0xe2, 0xbd, 0xc6,
    0xb1, 0xb4, 0x5a, 0xd2, 0x94, 0x97, 0x99, 0xc9, 0xd7, 0xb6,
    0xd4, 0xd9, 0x99, 0x77, 0x9f, 0xae, 0x84, 0x9b, 0x9e, 0xb7,
    0xc8, 0x8c, 0xa3, 0xab, 0xbc, 0x9f, 0x88, 0xc3, 0xaa, 0xa1,
    0xa2, 0x8a, 0xbd, 0xb2, 0xee, 0xb9, 0x6a, 0xc7, 0xd6, 0x66,
    0xe7, 0xc4, 0xd3, 0x91, 0x67, 0xe6, 0xb1, 0x94, 0xc6, 0xc3,
    0x74, 0xce, 0x9b, 0xba, 0x92, 0x97, 0xa9, 0xb1, 0xb6, 0xb7,
    0x97, 0x85, 0x8f, 0x87, 0x98, 0xb1, 0xb1, 0xa4, 0xce, 0x86,
    0x8d, 0xab, 0xdd, 0xc8, 0xbb, 0x97, 0xb5, 0xba, 0xd1, 0xa6,
    0xbb, 0xb3, 0xa7, 0xad, 0x8c, 0xba, 0xab, 0xad, 0xe6, 0xc4,
    0x8f, 0x97, 0x46, 0xdc, 0xd3, 0xaa, 0xab, 0xc8, 0x7a, 0xaa,
    0x99, 0x9c, 0xa9, 0x98, 0xad, 0xde, 0xd2, 0x8c, 0xc3, 0xba,
    0x83, 0x82, 0x71, 0xd9, 0x96, 0xbe, 0x87, 0xb4, 0xb2, 0xe3,
    0xa2, 0x98, 0xd0, 0x89, 0x9d, 0x98, 0xdd, 0x84, 0x9e, 0x9e,
    0xcc, 0x7d, 0x4e, 0x81, 0xc7, 0x6a, 0xe5, 0xcf, 0xaf, 0x9c,
    0xa0, 0xcb, 0xc9, 0xa6, 0xde, 0xca, 0x92, 0xc5, 0xad, 0x9a,
    0xb5, 0x9a, 0xdc, 0x9e, 0x96, 0xac, 0xdd, 0xa0, 0x85, 0x87,
    0xa3, 0xe2, 0xb7, 0xad, 0x90, 0x91, 0xb6, 0x9e, 0x86, 0xbc,
    0x94, 0xb8, 0xcf, 0xc7, 0x8f, 0xc7, 0x8c, 0x33, 0x52, 0xf0,
    0xe7, 0x7a, 0xcb, 0x82, 0xd5, 0xa8, 0xc2, 0x9a, 0x90, 0xa0,
    0x4e, 0x47, 0xc0, 0xaf, 0xb9, 0xa8, 0x55, 0xc0, 0xaf, 0x9e,
    0xd0, 0x74, 0x79, 0x4b, 0x7f, 0xaa, 0xab, 0xd6, 0xa5, 0x8b,
    0x92, 0xc8, 0x92, 0xb3, 0x89, 0xb0, 0xd6, 0x89, 0xbb, 0xb1,
    0xd6, 0xbc, 0xa5, 0x86, 0xb1, 0x55, 0x7c, 0xd2, 0xb8, 0xae,
    0xcf, 0x97, 0xa7, 0xc0, 0xc5, 0xa5, 0xb8, 0xee, 0x82, 0x23,
    0xcd, 0xb8, 0x8e, 0x8e, 0x85, 0xcd, 0xda, 0xab, 0xbf, 0x90,
    0xa6, 0x31, 0xb3, 0xaa, 0xca, 0xbb, 0xc6, 0xcc, 0x92, 0x98,
    0x93, 0x75, 0xea, 0x9c, 0x9c, 0xc5, 0xa7, 0x7e, 0xb4, 0xbc,
    0x97, 0x9e, 0xa6, 0x89, 0x8e, 0xbd, 0xb1, 0xcf, 0xa3, 0x38,
    0x8b, 0xbd, 0xc0, 0x58, 0x96, 0xea, 0x67, 0x25, 0xa6, 0x97,
    0x54, 0xad, 0x1b, 0xc2, 0xb0, 0xbc, 0x95, 0x57, 0x7e, 0x54,
    0x8f, 0xb8, 0xc5, 0xc9, 0xca, 0xc1, 0x76, 0x90, 0x8f, 0xb6,
    0x8a, 0x9e, 0x98, 0xba, 0x79, 0xb1, 0xbc, 0xa7, 0x99, 0xb5,
    0xa6, 0x8e, 0x57, 0xe1, 0xf2, 0xd2, 0xdd, 0x6c, 0x9d, 0xa5,
    0xb9, 0x42, 0x8d, 0xef, 0x7b, 0x57, 0xaf, 0xa3, 0x73, 0xaa,
    0x4c, 0xaa, 0xba, 0x94, 0x86, 0x6c, 0xb4, 0x61, 0x6f, 0x7f,
    0xa7, 0xbb, 0xbe, 0xbb, 0xa5, 0x69, 0xbf, 0xde, 0x67, 0xb4,
    0x94, 0xc4, 0xa8, 0x8e, 0xe2, 0xa5, 0x86, 0x9e, 0x9d, 0x52,
    0x1c, 0xec, 0xc6, 0x9b, 0xb1, 0x51, 0x8c, 0xc7, 0xbd, 0x81,
    0x8d, 0xf4, 0x55, 0x20, 0xbd, 0xba, 0x87, 0xaa, 0x58, 0x9d,
    0xd3, 0xa1, 0xb4, 0x65, 0x9a, 0x42, 0x7a, 0xbb, 0x9a, 0xc2,
    0xa9, 0xe3, 0xa7, 0x6a, 0x71, 0x9b, 0x7b, 0x8c, 0xc4, 0xc3,
    0xc4, 0x94, 0xc7, 0x8e, 0xb4, 0x94, 0x82, 0x90, 0x75, 0xea,
    0xc4, 0xc6, 0xb9, 0x38, 0xc9, 0x81, 0xce, 0x54, 0xb2, 0xc7,
    0x62, 0x37, 0xcf, 0xc6, 0x63, 0x83, 0x37, 0x93, 0xcf, 0xda,
    0x95, 0x47, 0xc9, 0x78, 0x38, 0x93, 0x95, 0xa2, 0xa2, 0xa5,
    0xaf, 0x4e, 0x79, 0x7f, 0x8a, 0xbf, 0xd7, 0xad, 0xb1, 0xae,
    0xb0, 0x57, 0x90, 0xdc, 0x39, 0x8a, 0xbd, 0xcb, 0xb8, 0xdf,
    0x78, 0x51, 0xca, 0xa4, 0x74, 0xae, 0xe1, 0x92, 0x8e, 0x86,
    0x96, 0x87, 0x86, 0xc7, 0x8f, 0x9b, 0x97, 0x9a, 0xa7, 0xbc,
    0x85, 0xb2, 0xa7, 0xde, 0xb1, 0x65, 0x8a, 0x8c, 0x4f, 0xb6,
    0x8c, 0xbe, 0x8c, 0x9e, 0x79, 0xf4, 0x8d, 0xaa, 0xcb, 0x7e,
    0xaf, 0xd3, 0x48, 0x89, 0xac, 0xb8, 0xb4, 0xa9, 0xa9, 0x67,
    0x95, 0x92, 0xce, 0xbc, 0xe5, 0xcd, 0x92, 0xb7, 0xbc, 0x64,
    0x77, 0xdd, 0x8a, 0xd8, 0x83, 0x7a, 0x79, 0x87, 0xd7, 0xb5,
    0x89, 0x79, 0x9d, 0x7f, 0x8c, 0x9d, 0x93, 0x87, 0xa3, 0xd2,
    0xa0, 0xaa, 0x86, 0xdf, 0xaf, 0x62, 0xbf, 0x9c, 0x91, 0xb7,
    0x44, 0x54, 0xd5, 0xb1, 0xe0, 0xbb, 0x81, 0x83, 0x91, 0xe2,
    0x96, 0xc7, 0xc4, 0x9b, 0x90, 0x98, 0x9e, 0x79, 0x83, 0xc3,
    0xc3, 0x82, 0xd2, 0x94, 0xb9, 0xcf, 0xd9, 0xb8, 0xc0, 0xb0,
    0xdc, 0x74, 0x83, 0x83, 0x46, 0xd3, 0x93, 0xb9, 0xd3, 0xbf,
    0xc5, 0xd8, 0x81, 0x97, 0xaa, 0x79, 0xcd, 0xe4, 0x3e, 0x5b,
    0xc6, 0xeb, 0xe6, 0x77, 0x72, 0x48, 0x82, 0xa7, 0x9a, 0xa7,
    0xc8, 0xcc, 0x78, 0xab, 0x8e, 0xa0, 0x9e, 0xfc, 0x8a, 0xb7,
    0xdd, 0xaf, 0xa7, 0xcd, 0x88, 0x9a, 0xc1, 0x97, 0xc5, 0xbf,
    0xca, 0x99, 0x88, 0xca, 0x92, 0x78, 0xbc, 0x92, 0x7e, 0xbe,
    0x9f, 0x65, 0xe1, 0x64, 0xbb, 0xcc, 0x2c, 0x8e, 0xb3, 0xc0,
    0xae, 0xb7, 0xc5, 0x9c, 0xa9, 0xd8, 0x93, 0xd6, 0xa0, 0xb1,
    0x97, 0x98, 0xae, 0x83, 0xae, 0xa3, 0x9a, 0xae, 0xac, 0x9c,
    0x64, 0xca, 0xa6, 0xa5, 0xa5, 0xcb, 0xd2, 0x94, 0x9f, 0xe4,
    0x7a, 0x97, 0xb4, 0xcf, 0xb1, 0xb6, 0x6c, 0xd6, 0x87, 0x89,
    0xa4, 0x6e, 0xca, 0xdc, 0x62, 0x71, 0x90, 0x9c, 0xf5, 0xd8,
    0xa9, 0x71, 0xa8, 0x8f, 0x79, 0xc1, 0xef, 0xcb, 0x99, 0x74,
    0xa1, 0x8a, 0x8a, 0xf2, 0xbf, 0xa7, 0xce, 0x7c, 0x96, 0xa7,
    0xc5, 0x78, 0xc3, 0xd5, 0xc0, 0x84, 0xa1, 0xd1, 0x9b, 0xae,
    0x88, 0x86, 0x7c, 0x76, 0x82, 0xc6, 0xb7, 0x77, 0xbf, 0xbd,
    0x7f, 0x5c, 0x70, 0xa7, 0x63, 0xb7, 0x83, 0xd8, 0xc5, 0xdc,
    0x87, 0x5b, 0x80, 0x92, 0x73, 0x4a, 0xd0, 0xd1, 0x7b, 0xa9,
    0xce, 0x73, 0x9b, 0x81, 0x00, 0xbc, 0xa9, 0xcb, 0xb0, 0x9c,
    0xc9, 0x79, 0xa2, 0xac, 0xb7, 0x4b, 0x9f, 0x9d, 0xa4, 0x82,
    0x76, 0x68, 0x7d, 0x89, 0xa4, 0xce, 0xd3, 0x96, 0x87, 0x8e,
    0x81, 0x90, 0x63, 0xa3, 0x88, 0x85, 0xbb, 0x87, 0x5e, 0x5c,
    0xad, 0x7d, 0x80, 0x9e, 0xef, 0xbe, 0x67, 0xaf, 0x92, 0xbf,
    0x76, 0xba, 0x72, 0x9b, 0x92, 0xda, 0x73, 0x8c, 0xb0, 0xa0,
    0x9f, 0xc9, 0xf2, 0x5f, 0xb5, 0xe0, 0xd2, 0xa9, 0xb7, 0xb6,
    0x86, 0x55, 0xac, 0xb1, 0xda, 0xb6, 0x41, 0x41, 0x86, 0xa9,
    0x7f, 0xcb, 0xbf, 0xb5, 0xc1, 0xaa, 0x60, 0x7f, 0xa2, 0x6b,
    0x69, 0x52, 0xf0, 0xd0, 0x64, 0x9f, 0x91, 0x9b, 0xc2, 0x9d,
    0x98, 0x8c, 0xc6, 0xd3, 0xb7, 0xb6, 0xa5, 0x83, 0xaf, 0xa1,
    0xff, 0x3c, 0x9b, 0xa4, 0xd6, 0xc2, 0x9b, 0x59, 0x7f, 0xa9,
    0xb3, 0xba, 0xd6, 0x8b, 0x5c, 0x90, 0xa8, 0xc4, 0x63, 0xcf,
    0x9e, 0x7f, 0xbd, 0xd1, 0x92, 0x3f, 0x91, 0x7a, 0xa9, 0xa3,
    0xe1, 0xb6, 0x92, 0xa0, 0x93, 0x96, 0x99, 0x83, 0x7a, 0x74,
    0x8f, 0xf3, 0x84, 0x95, 0xdb, 0xc5, 0x81, 0xb1, 0xff, 0x4e,
    0x9e, 0x91, 0xd9, 0xd9, 0x9f, 0x9c, 0x68, 0x8b, 0xb8, 0xc9,
    0xde, 0x91, 0x46, 0x3d, 0x9e, 0xc6, 0x7b, 0xcc, 0xb9, 0x90,
    0xf1, 0xb2, 0xa5, 0x77, 0xd6, 0xa7, 0xa1, 0x5e, 0xcc, 0xce,
    0x86, 0xb6, 0xa5, 0x7a, 0x70, 0x74, 0x3d, 0x93, 0xc9, 0xdc,
    0x9e, 0xc4, 0xae, 0xd6, 0x88, 0x8c, 0xd9, 0x50, 0xc1, 0xbb,
    0xd1, 0xb3, 0xa7, 0x86, 0xb0, 0x5a, 0xab, 0xab, 0xc6, 0x9e,
    0x74, 0x62, 0x94, 0xd9, 0x42, 0x9f, 0x7e, 0x94, 0xa8, 0x9f,
    0x72, 0x97, 0xcc, 0x75, 0x82, 0x61, 0xe0, 0x9e, 0xab, 0xc5,
    0xab, 0xa6, 0xb6, 0x9c, 0x4f, 0x8b, 0x90, 0xc0, 0xd8, 0xa1,
    0xbb, 0xd3, 0xa8, 0xb4, 0xa7, 0x5a, 0x8e, 0xc3, 0x9e, 0xc4,
    0x9b, 0x88, 0x7d, 0x53, 0xbb, 0xca, 0x41, 0xd6, 0x85, 0x6d,
    0xab, 0xad, 0xc6, 0x7b, 0x5e, 0x9e, 0x84, 0xbe, 0xde, 0x79,
    0x9e, 0xb4, 0xe9, 0x53, 0x49, 0x86, 0x93, 0xee, 0xd9, 0x8f,
    0x9b, 0x95, 0x4b, 0xf4, 0x94, 0x80, 0x83, 0xab, 0xaf, 0x1d,
    0xde, 0xdd, 0x46, 0x4f, 0x9b, 0x3d, 0xce, 0xd2, 0x42, 0x49,
    0xc7, 0x8c, 0x83, 0xc7, 0x30, 0x9c, 0xc9, 0x64, 0x96, 0x92,
    0xad, 0x58, 0x71, 0x86, 0x99, 0xbb, 0xcb, 0x88, 0xab, 0xac,
    0xdd, 0x41, 0x5a, 0x93, 0x8a, 0xaa, 0xd2, 0x73, 0x54, 0x78,
    0x3d, 0xde, 0x7d, 0xb0, 0xc1, 0xac, 0x9b, 0x56, 0xdc, 0xb8,
    0x25, 0x5d, 0xba, 0x5d, 0xbc, 0xd4, 0x37, 0x90, 0xc8, 0x85,
    0x89, 0xe0, 0x4a, 0xaf, 0x93, 0x63, 0xa0, 0xbd, 0xc2, 0xad,
    0x5b, 0x95, 0x78, 0xa7, 0x8d, 0x84, 0x7e, 0xe6, 0xce, 0x5e,
    0x8b, 0x73, 0x6d, 0xb1, 0xa9, 0x88, 0x5f, 0x95, 0x39, 0xfc,
    0xc4, 0x9a, 0x9e, 0xd6, 0x91, 0x73, 0xd5, 0xd2, 0x37, 0x5c,
    0xc3, 0x90, 0xdf, 0xa8, 0x6c, 0x91, 0x89, 0x69, 0xc3, 0xcc,
    0x76, 0xa5, 0xb6, 0x7a, 0xbf, 0xa6, 0xeb, 0x86, 0x40, 0x7b,
    0x64, 0xcf, 0xd2, 0x74, 0xa5, 0xc1, 0xc1, 0x22, 0x65, 0x61,
    0x68, 0xe0, 0xab, 0x7e, 0x78, 0xb8, 0x3c, 0xb6, 0xd4, 0xc7,
    0x77, 0xb8, 0x81, 0x8c, 0x8a, 0xc9, 0x53, 0x4e, 0xb3, 0x89,
    0xc6, 0xa5, 0x92, 0x89, 0x71, 0x9b, 0xa9, 0xc2, 0x58, 0xc7,
    0x81, 0x56, 0xaf, 0xb5, 0x94, 0x8f, 0x39, 0x7b, 0x7d, 0xd6,
    0xd4, 0xac, 0x9b, 0xd0, 0xc9, 0x91, 0xab, 0x89, 0xb3, 0xc8,
    0xb4, 0x73, 0x84, 0x7e, 0x33, 0xda, 0xc4, 0xc6, 0x7f, 0xc1,
    0xaf, 0x78, 0x8c, 0xa1, 0x93, 0x20, 0xd2, 0x52, 0xa3, 0xe0,
    0x92, 0x60, 0xae, 0x71, 0x8d, 0xad, 0x3c, 0xb5, 0xce, 0x8e,
    0xcd, 0xd8, 0xb5, 0x64, 0x26, 0xa0, 0x81, 0xcc, 0xc1, 0x78,
    0x74, 0xd5, 0x8a, 0x56, 0x52, 0x6e, 0x73, 0xd5, 0xc0, 0x37,
    0x88, 0xc3, 0x68, 0xdc, 0x9d, 0xbd, 0x9d, 0xb2, 0x86, 0x79,
    0xaf, 0xd1, 0x9b, 0x6c, 0xdc, 0x63, 0xfd, 0xa4, 0x78, 0x37,
    0x82, 0x7f, 0xce, 0xaf, 0x57, 0xda, 0xa8, 0x8e, 0xb5, 0xc8,
    0x42, 0xba, 0x57, 0x87, 0x7d, 0xba, 0x84, 0xf5, 0x7e, 0x6f,
    0x96, 0x81, 0x77, 0xd3, 0x75, 0x76, 0xb1, 0x80, 0xcf, 0x97,
    0x57, 0x6b, 0x99, 0x82, 0xbb, 0xbf, 0x55, 0x39, 0x9f, 0xaa,
    0x78, 0xbd, 0x91, 0x7f, 0x8e, 0xd1, 0x31, 0x8c, 0x8b, 0x87,
    0xa4, 0xcc, 0x5f, 0xb0, 0xad, 0x5a, 0xc8, 0xb0, 0x65, 0xd2,
    0x81, 0xbc, 0x85, 0xc5, 0x9a, 0xc8, 0xd8, 0x3b, 0x92, 0x98,
    0xa8, 0xcc, 0x87, 0x83, 0xc6, 0xbe, 0xca, 0x82, 0x44, 0x87,
    0x7f, 0x86, 0xd8, 0xd8, 0x78, 0xa5, 0x86, 0xa4, 0x62, 0xc2,
    0xb4, 0x7d, 0x5f, 0x98, 0x8c, 0xbd, 0x95, 0x87, 0x93, 0xd5,
    0x30, 0xc5, 0xaa, 0x48, 0xbc, 0xd8, 0x4d, 0xd3, 0x35, 0xb0,
    0xac, 0xb9, 0x8e, 0xb9, 0xd4, 0x6b, 0xbe, 0x97, 0x8f, 0xe6,
    0x99, 0x50, 0xa0, 0x87, 0xb1, 0xc5, 0x8b, 0x50, 0x79, 0x9b,
    0x75, 0xe5, 0x67, 0x7a, 0x96, 0x9b, 0x7e, 0x8f, 0xbf, 0x92,
    0x53, 0x89, 0x9d, 0xc7, 0x86, 0xb5, 0x92, 0xc0, 0x44, 0xaa,
    0xd0, 0x70, 0xda, 0xad, 0x6b, 0xd0, 0x3a, 0xce, 0x8e, 0xde,
    0x76, 0xf8, 0x78, 0x71, 0x72, 0x81, 0xc0, 0xd5, 0x66, 0x98,
    0xc3, 0xd2, 0x84, 0xbf, 0x96, 0x8a, 0x90, 0xa2, 0x96, 0xd4,
    0x68, 0x5f, 0x6e, 0x9e, 0xa0, 0xbb, 0x99, 0x9d, 0x6a, 0xc6,
    0x46, 0xe4, 0x89, 0xd0, 0x99, 0xc9, 0x44, 0xdb, 0x9a, 0x7e,
    0xdd, 0xda, 0x35, 0xbe, 0x51, 0xb0, 0x98, 0xdb, 0xa4, 0xbe,
    0x91, 0x41, 0x7e, 0x80, 0xdb, 0xb9, 0xa4, 0x5e, 0x9d, 0xb2,
    0xa8, 0x97, 0x7d, 0x6f, 0x90, 0xc0, 0x88, 0xd7, 0x97, 0x76,
    0x77, 0xa1, 0x91, 0xc3, 0xcb, 0x7d, 0x7e, 0xc1, 0x6f, 0xc1,
    0x99, 0x8a, 0xdf, 0x9a, 0x64, 0xa3, 0xe7, 0x7b, 0xd2, 0xcc,
    0x74, 0xa5, 0x56, 0x96, 0x7c, 0xb8, 0x6c, 0xc5, 0x97, 0x67,
    0x67, 0x58, 0xae, 0xfb, 0x84, 0x87, 0xa2, 0xdc, 0x90, 0x7a,
    0x5d, 0x42, 0x83, 0x99, 0x96, 0xcd, 0x7c, 0x6f, 0xc5, 0xb0,
    0x83, 0x76, 0xcc, 0x6f, 0x66, 0xd8, 0x78, 0xc3, 0xd4, 0x82,
    0xbe, 0xab, 0x62, 0x02, 0xe4, 0xbe, 0x8f, 0xaa, 0xe2, 0xbe,
    0xbc, 0x52, 0xe1, 0xbe, 0xe9, 0xfa, 0xdf, 0xbe, 0x16, 0xa3,
    0xde, 0xbe, 0x43, 0x4b, 0xdd, 0xbe, 0x70, 0xf3, 0xdb, 0xbe,
    0x9d, 0x9b, 0xda, 0xbe, 0xca, 0x43, 0xd9, 0xbe, 0xf7, 0xeb,
    0xd7, 0xbe, 0x24, 0x94, 0xd6, 0xbe, 0x51, 0x3c, 0xd5, 0xbe,
    0x7e, 0xe4, 0xd3, 0xbe, 0xab, 0x8c, 0xd2, 0xbe, 0xd8, 0x34,
    0xd1, 0xbe, 0x05, 0xdd, 0xcf, 0xbe, 0x32, 0x85, 0xce, 0xbe,
    0x5f, 0x2d, 0xcd, 0xbe, 0x8c, 0xd5, 0xcb, 0xbe, 0xb9, 0x7d,
    0xca, 0xbe, 0xe6, 0x25, 0xc9, 0xbe, 0x13, 0xce, 0xc7, 0xbe,
    0x40, 0x76, 0xc6, 0xbe, 0x6d, 0x1e, 0xc5, 0xbe, 0x9a, 0xc6,
    0xc3, 0xbe, 0xc7, 0x6e, 0xc2, 0xbe, 0xf4, 0x16, 0xc1, 0xbe,
    0xef, 0x60, 0xbf, 0xbe, 0x50, 0x0c, 0xbf, 0xbe, 0xd5, 0xf5,
    0xbc, 0xbe, 0xa8, 0xb7, 0xbb, 0xbe, 0xd5, 0x5f, 0xba, 0xbe,
    0xd6, 0x1d, 0xb9, 0xbe, 0x2f, 0xb0, 0xb7, 0xbe, 0xdc, 0xce,
    0xb5, 0xbe, 0xe5, 0x25, 0xb5, 0xbe, 0x41, 0xfa, 0xb3, 0xbe,
    0x6a, 0xe6, 0xb1, 0xbe, 0x4b, 0x27, 0xb1, 0xbe, 0x33, 0x53,
    0xaf, 0xbe, 0x20, 0xd9, 0xae, 0xbe, 0x98, 0xf1, 0xac, 0xbe,
    0xc5, 0x99, 0xab, 0xbe, 0xca, 0xa7, 0xaa, 0xbe, 0xe1, 0xb7,
    0xa8, 0xbe, 0x4c, 0x92, 0xa7, 0xbe, 0x79, 0x3a, 0xa6, 0xbe,
    0xa6, 0xe2, 0xa4, 0xbe, 0x88, 0x97, 0xa3, 0xbe, 0xb4, 0x1d,
    0xa2, 0xbe, 0x2d, 0xdb, 0xa0, 0xbe, 0x0d, 0x76, 0x9f, 0xbe,
    0x87, 0x2b, 0x9e, 0xbe, 0x3a, 0x4b, 0x9d, 0xbe, 0xe1, 0x7b,
    0x9b, 0xbe, 0x2e, 0x3a, 0x9a, 0xbe, 0x83, 0xe6, 0x98, 0xbe,
    0xfd, 0x5e, 0x97, 0xbe, 0x37, 0xd7, 0x95, 0xbe, 0xb1, 0x3c,
    0x95, 0xbe, 0x35, 0x64, 0x93, 0xbe, 0x81, 0x84, 0x91, 0xbe,
    0xf3, 0x03, 0x91, 0xbe, 0xcd, 0x0f, 0x90, 0xbe, 0xe6, 0xb1,
    0x8e, 0xbe, 0x2a, 0xce, 0x8c, 0xbe, 0x39, 0x9e, 0x8b, 0xbe,
    0x23, 0x72, 0x8a, 0xbe, 0xda, 0xc7, 0x88, 0xbe, 0x84, 0x56,
    0x87, 0xbe, 0x05, 0xf5, 0x85, 0xbe, 0x27, 0x5c, 0x84, 0xbe,
    0xc9, 0x7c, 0x83, 0xbe, 0x2f, 0xfe, 0x81, 0xbe, 0x35, 0x44,
    0x80, 0xbe, 0x41, 0x13, 0x7e, 0xbe, 0x8c, 0xfd, 0x7b, 0xbe,
    0xea, 0x02, 0x7a, 0xbe, 0xa5, 0x6b, 0x74, 0xbe, 0x6b, 0xe0,
    0x72, 0xbe, 0xd2, 0x9c, 0x70, 0xbe, 0x20, 0xc4, 0x6e, 0xbe,
    0x76, 0x44, 0x6b, 0xbe, 0xb6, 0xaa, 0x69, 0xbe, 0x0f, 0x8c,
    0x66, 0xbe, 0x9c, 0xc0, 0x63, 0xbe, 0x8e, 0xc6, 0x60, 0xbe,
    0xdf, 0xe9, 0x5e, 0xbe, 0x8f, 0x6e, 0x5c, 0xbe, 0x5a, 0x72,
    0x59, 0xbe, 0xad, 0xd1, 0x56, 0xbe, 0x85, 0x18, 0x53, 0xbe,
    0x74, 0x40, 0x51, 0xbe, 0x03, 0xf5, 0x4d, 0xbe, 0x87, 0xa3,
    0x4b, 0xbe, 0x6c, 0x46, 0x48, 0xbe, 0x27, 0x88, 0x45, 0xbe,
    0xed, 0x38, 0x43, 0xbe, 0x95, 0x2e, 0x40, 0xbe, 0x8e, 0x15,
    0x3e, 0xbe, 0x9c, 0x0d, 0x3c, 0xbe, 0xae, 0xb7, 0x39, 0xbe,
    0xaa, 0x60, 0x35, 0xbe, 0x91, 0x3c, 0x33, 0xbe, 0xcb, 0xae,
    0x30, 0xbe, 0x8c, 0x42, 0x2d, 0xbe, 0xab, 0x1c, 0x2b, 0xbe,
    0x30, 0xcb, 0x28, 0xbe, 0x35, 0x52, 0x25, 0xbe, 0xe2, 0x2a,
    0x23, 0xbe, 0xa7, 0xa0, 0x20, 0xbe, 0x2e, 0xf8, 0x1e, 0xbe,
    0x4d, 0x7f, 0x1b, 0xbe, 0xb7, 0x44, 0x18, 0xbe, 0x79, 0x29,
    0x15, 0xbe, 0x9d, 0xfe, 0x12, 0xbe, 0xab, 0x68, 0x10, 0xbe,
    0xb0, 0xb9, 0x0d, 0xbe, 0x03, 0x19, 0x0b, 0xbe, 0x04, 0x1f,
    0x08, 0xbe, 0x24, 0x3c, 0x05, 0xbe, 0x48, 0x1d, 0x03, 0xbe,
    0xc7, 0x17, 0x00, 0xbe, 0x13, 0xf3, 0xf9, 0xbd, 0xa8, 0x39,
    0xf5, 0xbd, 0x4f, 0x3c, 0xf0, 0xbd, 0x07, 0xaa, 0xea, 0xbd,
    0xf0, 0x88, 0xe4, 0xbd, 0x86, 0x24, 0xdf, 0xbd, 0x80, 0x2d,
    0xdb, 0xbd, 0x01, 0x21, 0xd6, 0xbd, 0x6a, 0xeb, 0xd0, 0xbd,
    0x16, 0x57, 0xcc, 0xbd, 0xa0, 0x75, 0xc7, 0xbd, 0x9b, 0x67,
    0xc1, 0xbd, 0x36, 0x14, 0xbb, 0xbd, 0x2b, 0xcb, 0xb4, 0xbd,
    0xf4, 0xe9, 0xaf, 0xbd, 0x54, 0x6c, 0xaa, 0xbd, 0x53, 0xe3,
    0xa3, 0xbd, 0x6b, 0xf6, 0x9e, 0xbd, 0x78, 0xbf, 0x98, 0xbd,
    0xbf, 0x40, 0x94, 0xbd, 0x31, 0x7d, 0x90, 0xbd, 0x1c, 0x33,
    0x8c, 0xbd, 0xd7, 0xcb, 0x85, 0xbd, 0xca, 0x6c, 0x7e, 0xbd,
    0x9a, 0x37, 0x75, 0xbd, 0x77, 0x87, 0x6a, 0xbd, 0xbc, 0xc5,
    0x5e, 0xbd, 0x3e, 0xfc, 0x52, 0xbd, 0x1c, 0xe0, 0x47, 0xbd,
    0x21, 0xaf, 0x3e, 0xbd, 0xb0, 0x53, 0x35, 0xbd, 0xe1, 0xe3,
    0x2a, 0xbd, 0xe9, 0x34, 0x1f, 0xbd, 0x06, 0x4f, 0x13, 0xbd,
    0x38, 0xc2, 0x06, 0xbd, 0x19, 0x38, 0xf8, 0xbc, 0x11, 0x7e,
    0xe4, 0xbc, 0x33, 0xa0, 0xd0, 0xbc, 0x0c, 0x52, 0xbe, 0xbc,
    0x5d, 0xbb, 0xa5, 0xbc, 0x5e, 0x2a, 0x94, 0xbc, 0x5a, 0xfc,
    0x80, 0xbc, 0x42, 0x24, 0x57, 0xbc, 0x85, 0x8a, 0x31, 0xbc,
    0x17, 0xb9, 0x03, 0xbc, 0x95, 0x66, 0xa3, 0xbb, 0x66, 0x7a,
    0x25, 0xbb, 0x7b, 0xd9, 0x8c, 0x39, 0x4a, 0x11, 0x50, 0x3b,
    0xa5, 0x5a, 0xc1, 0x3b, 0x01, 0x56, 0x0d, 0x3c, 0x97, 0x74,
    0x35, 0x3c, 0xfb, 0x89, 0x60, 0x3c, 0xf4, 0xe7, 0x86, 0x3c,
    0x81, 0xd6, 0x9a, 0x3c, 0x2c, 0xd4, 0xad, 0x3c, 0xe3, 0xae,
    0xc7, 0x3c, 0x96, 0xf3, 0xda, 0x3c, 0x75, 0x53, 0xf0, 0x3c,
    0x56, 0xcb, 0x04, 0x3d, 0xe2, 0x83, 0x0e, 0x3d, 0x06, 0xe0,
    0x18, 0x3d, 0xf2, 0x70, 0x22, 0x3d, 0x9c, 0x26, 0x2d, 0x3d,
    0x55, 0xef, 0x3a, 0x3d, 0x8f, 0x8c, 0x45, 0x3d, 0x84, 0x04,
    0x4f, 0x3d, 0xc2, 0xd7, 0x58, 0x3d, 0x55, 0x9e, 0x64, 0x3d,
    0x5a, 0x50, 0x71, 0x3d, 0xe5, 0xa0, 0x7c, 0x3d, 0x5e, 0xec,
    0x82, 0x3d, 0x13, 0xfa, 0x87, 0x3d, 0x02, 0x31, 0x8c, 0x3d,
    0xb1, 0xc3, 0x91, 0x3d, 0xbd, 0x14, 0x98, 0x3d, 0x1c, 0x1e,
    0x9d, 0x3d, 0x6f, 0xcf, 0xa1, 0x3d, 0xaa, 0x65, 0xa8, 0x3d,
    0x4e, 0x71, 0xad, 0x3d, 0x61, 0x95, 0xb3, 0x3d, 0x21, 0x95,
    0xb8, 0x3d, 0xdf, 0xb9, 0xbd, 0x3d, 0x00, 0x54, 0xc2, 0x3d,
    0x96, 0xb4, 0xc7, 0x3d, 0x10, 0x54, 0xcf, 0x3d, 0xed, 0x29,
    0xd3, 0x3d, 0xf4, 0xc8, 0xd6, 0x3d, 0x5d, 0x90, 0xdc, 0x3d,
    0x95, 0xec, 0xe3, 0x3d, 0x87, 0xa3, 0xe9, 0x3d, 0x5f, 0xc7,
    0xee, 0x3d, 0x26, 0xcb, 0xf1, 0x3d, 0x99, 0x8b, 0xf8, 0x3d,
    0x44, 0x8f, 0xfd, 0x3d, 0x45, 0xaf, 0x01, 0x3e, 0xb7, 0x8a,
    0x04, 0x3e, 0x78, 0xb2, 0x06, 0x3e, 0xca, 0x48, 0x09, 0x3e,
    0x0c, 0x3b, 0x0b, 0x3e, 0x94, 0x43, 0x0f, 0x3e, 0xb1, 0x76,
    0x11, 0x3e, 0x76, 0x04, 0x15, 0x3e, 0x08, 0x25, 0x17, 0x3e,
    0xd5, 0xaf, 0x1a, 0x3e, 0x64, 0xed, 0x1c, 0x3e, 0xaf, 0xe8,
    0x1e, 0x3e, 0x5f, 0xaa, 0x21, 0x3e, 0x22, 0x33, 0x25, 0x3e,
    0xa6, 0x29, 0x27, 0x3e, 0x44, 0x91, 0x29, 0x3e, 0x18, 0xb6,
    0x2b, 0x3e, 0x20, 0x81, 0x2e, 0x3e, 0xfd, 0xf9, 0x31, 0x3e,
    0xe3, 0x97, 0x34, 0x3e, 0x47, 0x1e, 0x37, 0x3e, 0xdc, 0x69,
    0x39, 0x3e, 0x8b, 0x04, 0x3d, 0x3e, 0x4c, 0xe9, 0x3f, 0x3e,
    0x9c, 0x8c, 0x41, 0x3e, 0x3d, 0xd7, 0x43, 0x3e, 0x94, 0x6a,
    0x47, 0x3e, 0xff, 0xd3, 0x4a, 0x3e, 0xb9, 0xc4, 0x4c, 0x3e,
    0xcc, 0x1c, 0x4f, 0x3e, 0x3d, 0x79, 0x52, 0x3e, 0xab, 0xd3,
    0x54, 0x3e, 0x51, 0x83, 0x57, 0x3e, 0x74, 0xd6, 0x59,
    0x3e, 0x34, 0xb1, 0x5c, 0x3e, 0xbf, 0xa2, 0x5e, 0x3e,
    0xe9, 0x41, 0x62, 0x3e, 0x8e, 0x65, 0x64, 0x3e, 0x9b,
    0xf5, 0x03, 0xbb, 0x50, 0x9a, 0x94, 0x3d, 0x38, 0xaf,
    0x04, 0xbd, 0x66, 0xc1, 0x77, 0xbd, 0x46, 0x09, 0x8d,
    0xbd, 0x76, 0xfa, 0x81, 0x3c, 0x47, 0xe1, 0xdb, 0x3c
  };

  return AI_HANDLE_PTR(s_network_weights);
}

