#include "network_data.h"

ai_handle ai_network_data_weights_get(void)
{

  AI_ALIGNED(4)
  static const ai_u8 s_network_weights[ 8500 ] = {
    0xf3, 0x36, 0x3b, 0xbe, 0x04, 0xfe, 0xa6, 0xbe, 0xb3, 0x58,
    0xcb, 0xbe, 0xbe, 0xa5, 0x49, 0x3e, 0xf4, 0xce, 0x58, 0xbe,
    0xed, 0x83, 0x25, 0x3e, 0xfa, 0x47, 0xfe, 0xbe, 0x88, 0x47,
    0xa1, 0xbe, 0x60, 0xee, 0x74, 0xbe, 0x51, 0x9f, 0xc3, 0x3e,
    0x53, 0x0d, 0x64, 0x3e, 0x99, 0x15, 0x37, 0x3f, 0xc8, 0xb1,
    0xee, 0x3e, 0x22, 0x4e, 0x47, 0x3f, 0xed, 0x96, 0xf7, 0x3e,
    0xd2, 0x03, 0x00, 0x3f, 0x82, 0xe0, 0x54, 0x3f, 0x8f, 0x15,
    0x25, 0x3f, 0xe9, 0x56, 0xe1, 0x3e, 0x12, 0xda, 0x06, 0x3f,
    0x35, 0xba, 0x6f, 0xbd, 0x0f, 0xcc, 0x10, 0x3f, 0x87, 0x19,
    0x02, 0x3f, 0x2d, 0xca, 0x87, 0x3c, 0xde, 0x64, 0xaa, 0x3e,
    0x40, 0x05, 0xf3, 0x3e, 0xf6, 0x0f, 0xe3, 0xbd, 0x19, 0x4e,
    0x69, 0xbd, 0xae, 0x68, 0xc3, 0x3a, 0x42, 0x7f, 0x99, 0x3e,
    0xc8, 0xfa, 0x10, 0xbf, 0x93, 0x56, 0xef, 0xbe, 0x3b, 0xea,
    0xc9, 0xbe, 0x37, 0x57, 0xae, 0xbe, 0xfd, 0xa2, 0x13, 0xbf,
    0x30, 0x45, 0x60, 0xbe, 0x66, 0xe5, 0x2a, 0x3e, 0xc1, 0xd4,
    0x58, 0x3d, 0x46, 0xda, 0x28, 0x3e, 0x87, 0xe7, 0x85, 0xbc,
    0x98, 0x64, 0x0e, 0x3d, 0xdd, 0x09, 0x95, 0xbe, 0x52, 0x05,
    0x28, 0x3d, 0x52, 0x41, 0x5b, 0x3e, 0x48, 0x87, 0x2b, 0x3d,
    0xe6, 0x44, 0xa9, 0xbd, 0x9b, 0x00, 0x81, 0x3d, 0xf1, 0x7b,
    0x72, 0x3e, 0x94, 0xc9, 0xf8, 0xbc, 0x21, 0x81, 0xe9, 0x3d,
    0xd5, 0xd7, 0x41, 0xbe, 0xbb, 0x87, 0x4e, 0xbd, 0x2e, 0x36,
    0x24, 0xbd, 0xbb, 0x6f, 0x43, 0x3e, 0x0b, 0x1b, 0x54, 0xbc,
    0x3e, 0x3b, 0x4b, 0xbe, 0xc5, 0x94, 0x60, 0x3e, 0x8b, 0x4e,
    0x15, 0xbe, 0x8d, 0x69, 0x1c, 0xbe, 0x7f, 0x34, 0x80, 0x3e,
    0x6c, 0xda, 0xdd, 0xbd, 0xd3, 0x9c, 0x91, 0xbe, 0x6e, 0x5e,
    0xd0, 0xbe, 0xe2, 0x1c, 0x5e, 0x3d, 0x9b, 0x87, 0x1f, 0x3d,
    0x08, 0x28, 0xaf, 0x3e, 0xdb, 0x13, 0xef, 0x3d, 0xd0, 0x08,
    0x1e, 0xbc, 0x70, 0x2c, 0x5f, 0x3d, 0xed, 0x3f, 0xf0, 0xbb,
    0xe4, 0x5c, 0x1d, 0xbd, 0x4f, 0x78, 0xc0, 0x3c, 0x20, 0x91,
    0x79, 0x3d, 0xc4, 0xd2, 0xe5, 0xbd, 0xf5, 0x3f, 0x8c, 0xbe,
    0xd7, 0x7e, 0x54, 0xbd, 0xfd, 0xf9, 0x31, 0x3e, 0xe5, 0x37,
    0xd5, 0xbc, 0xa3, 0xcb, 0xa0, 0x3d, 0xa0, 0xc8, 0x05, 0x3e,
    0x49, 0x67, 0x2f, 0x3e, 0x5d, 0x29, 0x80, 0xbd, 0x59, 0x5a,
    0x59, 0xbe, 0x82, 0xc8, 0xa2, 0xbd, 0xc8, 0x25, 0x6a, 0xbe,
    0xf9, 0xee, 0xe6, 0xbd, 0x69, 0xf3, 0x0a, 0xbe, 0xf4, 0xef,
    0xbe, 0xbc, 0xb8, 0x49, 0xcd, 0xbd, 0xb8, 0x9e, 0x67, 0xbe,
    0xd9, 0x0d, 0xf1, 0x3a, 0x6f, 0x58, 0x32, 0xbe, 0x4a, 0x6b,
    0xcd, 0xbc, 0xf9, 0x9b, 0x46, 0xbe, 0xbb, 0x2c, 0x64, 0x3c,
    0x88, 0xf9, 0x2f, 0xbe, 0x99, 0x7d, 0x06, 0xbc, 0x43, 0x0e,
    0x8e, 0x3e, 0x77, 0x8f, 0x4f, 0x3e, 0xaf, 0x0d, 0xc6, 0x3d,
    0xc4, 0xe8, 0x25, 0x3e, 0x52, 0x70, 0x6e, 0xbe, 0xb7, 0x8d,
    0x53, 0x3e, 0x3f, 0x97, 0x7f, 0x3e, 0xcb, 0xde, 0x65, 0x3c,
    0x17, 0x97, 0xea, 0xbd, 0x98, 0x56, 0x04, 0x3e, 0x87, 0x7a,
    0x3a, 0xbe, 0xdd, 0x78, 0x57, 0xbe, 0x0d, 0x36, 0xbf, 0x3b,
    0xeb, 0x46, 0x12, 0x3e, 0x25, 0xf2, 0x49, 0x3e, 0x73, 0xaf,
    0xa5, 0xbd, 0xcd, 0x5d, 0x32, 0x3d, 0x81, 0x3d, 0x07, 0xbe,
    0x8f, 0xed, 0xa8, 0xbd, 0xc0, 0x38, 0x67, 0xbc, 0xe4, 0xa4,
    0xef, 0x3d, 0xc0, 0xe1, 0x53, 0x3e, 0x09, 0xd4, 0xd0, 0x3c,
    0xaf, 0x6e, 0xa4, 0xbc, 0x1c, 0x5b, 0x08, 0xbe, 0x9e, 0xe0,
    0x00, 0xbe, 0x7d, 0xca, 0x8b, 0x3d, 0x7a, 0x01, 0x34, 0x3e,
    0x33, 0xae, 0x86, 0x3e, 0xd7, 0xdb, 0x01, 0xbd, 0x50, 0x40,
    0x0a, 0x3e, 0x72, 0x76, 0x2a, 0xbe, 0xa6, 0xf9, 0x78, 0x3e,
    0x59, 0x54, 0x71, 0x3e, 0x39, 0xef, 0xe7, 0xbe, 0xff, 0x8e,
    0x5e, 0xbe, 0x91, 0x85, 0x59, 0xbd, 0x16, 0x5d, 0x12, 0x3e,
    0xb7, 0xd3, 0x4c, 0x3d, 0x7a, 0x65, 0x09, 0x3e, 0x5d, 0xdd,
    0xad, 0x3e, 0x75, 0x3d, 0xac, 0xbd, 0x6b, 0xa7, 0x51, 0x3d,
    0x78, 0x87, 0xdf, 0x3d, 0x5c, 0xc8, 0x7a, 0x3e, 0x58, 0x96,
    0x79, 0x3e, 0xc5, 0x10, 0x23, 0xbe, 0xf9, 0x3d, 0x93, 0xbd,
    0xc8, 0x46, 0x1c, 0x3e, 0xca, 0xb7, 0x8e, 0x3e, 0xff, 0x9d,
    0xd5, 0x3d, 0xcd, 0xa7, 0xbe, 0xbe, 0xc8, 0x2b, 0x6d, 0x3d,
    0x86, 0xde, 0x8a, 0x3d, 0x74, 0x1c, 0x03, 0xbe, 0x27, 0x98,
    0xc2, 0xbe, 0xc4, 0x97, 0x4d, 0x3d, 0xbb, 0x15, 0x13, 0x3e,
    0x8e, 0x1f, 0x98, 0x3c, 0x76, 0x02, 0x99, 0xbe, 0xd6, 0x34,
    0x2c, 0x3e, 0xc9, 0xdf, 0xe0, 0xbd, 0x2c, 0xda, 0x05, 0xbe,
    0x79, 0x28, 0xd3, 0x3d, 0x6f, 0x92, 0xe5, 0x3d, 0x38, 0x3c,
    0xe6, 0xbd, 0x78, 0x91, 0x39, 0x3e, 0xd4, 0x3a, 0xe5, 0x3a,
    0xf4, 0xad, 0x57, 0x3e, 0x2c, 0x95, 0x4e, 0xbe, 0x5a, 0x4a,
    0x4b, 0x3e, 0x93, 0x77, 0x02, 0xbe, 0x3a, 0x99, 0xd1, 0xbd,
    0xc9, 0xd9, 0x8f, 0xbd, 0xf7, 0xb3, 0x9c, 0xbc, 0xe0, 0xe4,
    0xef, 0xba, 0x29, 0x9f, 0xdd, 0xbd, 0x93, 0x67, 0xa1, 0x3d,
    0x41, 0x0f, 0x82, 0xbc, 0xf3, 0x5b, 0x0b, 0x3d, 0x22, 0x28,
    0x08, 0x3e, 0xb4, 0x51, 0x33, 0x3e, 0x17, 0x40, 0x83, 0x3e,
    0x55, 0x35, 0x75, 0x3d, 0x75, 0x05, 0xa3, 0x3d, 0x3b, 0x9c,
    0x63, 0x3e, 0x42, 0xd0, 0x80, 0x3d, 0xca, 0x79, 0x7b, 0x3d,
    0x6e, 0x91, 0xa6, 0x3d, 0x92, 0x46, 0x6a, 0x3d, 0xe9, 0xb3,
    0x23, 0x3d, 0x34, 0xb3, 0x0d, 0xbc, 0xa2, 0xd0, 0xe0, 0xbd,
    0x62, 0x4d, 0xa7, 0xbe, 0x03, 0x6e, 0x90, 0xbc, 0xf1, 0x06,
    0xb0, 0xbd, 0x9c, 0x7b, 0xb2, 0xbc, 0xe6, 0xab, 0x2a, 0xbe,
    0x17, 0x74, 0x2b, 0x3e, 0x05, 0x35, 0xd7, 0xbd, 0x82, 0x3d,
    0x57, 0x3d, 0x38, 0x8d, 0x50, 0x3d, 0x4c, 0xa6, 0x1b, 0x3d,
    0x0c, 0x67, 0xc0, 0x3d, 0x8a, 0xdc, 0xaf, 0xbe, 0x09, 0xa6,
    0xfb, 0xbd, 0x45, 0xf7, 0x14, 0xbb, 0x6b, 0x7d, 0x53, 0x3e,
    0xdf, 0xc0, 0x85, 0x3e, 0x09, 0x89, 0x8b, 0x3e, 0x1e, 0x5d,
    0x31, 0xbe, 0x87, 0x40, 0x27, 0xbe, 0xa8, 0x8c, 0x26, 0xbd,
    0x38, 0x1a, 0xc0, 0x3e, 0x3d, 0xa8, 0x84, 0xbe, 0xd1, 0x3c,
    0x14, 0x3e, 0x4b, 0x72, 0x6f, 0xbe, 0xf9, 0x8d, 0x18, 0xbe,
    0x1d, 0xae, 0x82, 0xbc, 0x89, 0xb6, 0x06, 0xbe, 0x9b, 0x3d,
    0x77, 0x3e, 0xf1, 0x1b, 0x81, 0x3e, 0xb2, 0x01, 0x3b, 0x3e,
    0xbf, 0xae, 0x12, 0xbe, 0xd9, 0xb6, 0x90, 0xbd, 0x73, 0xdd,
    0x13, 0xbd, 0xb6, 0xdd, 0x71, 0xbd, 0x5b, 0x3c, 0x80, 0xbe,
    0xe8, 0x3c, 0xb8, 0x3e, 0xab, 0x77, 0xf9, 0x3d, 0x8a, 0xbc,
    0x4d, 0xbe, 0xc2, 0x2e, 0x0e, 0x3c, 0x5f, 0x70, 0x87, 0x3e,
    0x1a, 0x3a, 0xa1, 0x3d, 0x5d, 0x6d, 0xa1, 0x3d, 0x15, 0x7b,
    0x09, 0xbe, 0xf0, 0xa6, 0x28, 0xbe, 0xe5, 0x93, 0xff, 0x3c,
    0x2f, 0x07, 0xb0, 0x3b, 0xc9, 0x43, 0x23, 0x3e, 0xa8, 0xeb,
    0xbd, 0x3d, 0x97, 0x0c, 0xb3, 0xbd, 0xcc, 0x25, 0x8d, 0x3d,
    0xc6, 0x57, 0x26, 0x3e, 0xd5, 0xa7, 0x25, 0xbe, 0xab, 0x97,
    0x11, 0x3e, 0x64, 0xfd, 0x7f, 0xbd, 0x66, 0xd0, 0xba, 0xbd,
    0x39, 0xa1, 0x09, 0x3d, 0x9e, 0x2b, 0x1e, 0x3e, 0xf2, 0xd3,
    0xcd, 0xbd, 0xc2, 0x58, 0x6e, 0x3c, 0xa3, 0x34, 0x21, 0xbe,
    0xf8, 0x06, 0x3a, 0xbd, 0xa5, 0xf5, 0x86, 0x3e, 0x69, 0x7a,
    0x38, 0x3d, 0x35, 0x6f, 0x11, 0x3e, 0x41, 0xcc, 0x87, 0x3e,
    0xac, 0xd9, 0x3c, 0x3e, 0x96, 0x85, 0xbd, 0xbb, 0x85, 0xd6,
    0xea, 0x3d, 0xe2, 0x3f, 0x61, 0xbe, 0x74, 0x8c, 0xc6, 0x3c,
    0xa0, 0xcf, 0x8e, 0x3d, 0x5a, 0x1f, 0x27, 0x3d, 0x69, 0x4d,
    0x21, 0x3e, 0x73, 0x4e, 0xa0, 0x3d, 0xb9, 0xa4, 0xa6, 0x3e,
    0xd9, 0x19, 0x8b, 0xbe, 0x20, 0x97, 0x4c, 0xbd, 0x16, 0xde,
    0xa0, 0x3e, 0x5b, 0x44, 0x3f, 0x3e, 0x30, 0x5f, 0x71, 0xbe,
    0x4f, 0x10, 0xe7, 0x3d, 0x4f, 0x10, 0x3c, 0xbe, 0xe7, 0x9f,
    0x4a, 0x3e, 0xae, 0x76, 0x93, 0xbe, 0x5c, 0xcf, 0x3f, 0xbe,
    0x19, 0xcb, 0x9b, 0x3d, 0xdb, 0x51, 0x4c, 0x3e, 0x43, 0xb7,
    0x45, 0xbe, 0x35, 0xe5, 0x79, 0xbe, 0x88, 0x7c, 0x65, 0xbd,
    0xea, 0x50, 0x82, 0xbd, 0x28, 0xaf, 0x2c, 0xbe, 0xad, 0xfb,
    0x8b, 0xbe, 0xfe, 0x83, 0x42, 0xbe, 0x80, 0xd8, 0x83, 0x3e,
    0x94, 0x67, 0x78, 0xbe, 0xcd, 0x2f, 0xde, 0xbe, 0xc7, 0x91,
    0x60, 0x3e, 0x27, 0x82, 0x9c, 0x3e, 0xb7, 0xcf, 0x5b, 0xbe,
    0xbc, 0x21, 0xd7, 0xbd, 0x5f, 0x0a, 0x2a, 0xbe, 0x71, 0x47,
    0xf6, 0xbd, 0xbf, 0x53, 0xa3, 0x3e, 0x1f, 0x5e, 0x37, 0x3e,
    0x3f, 0x56, 0xa4, 0xbd, 0x84, 0x53, 0x24, 0x3e, 0xa6, 0xcb,
    0x4c, 0x3e, 0x40, 0x5e, 0x33, 0x3e, 0xe5, 0x31, 0x50, 0x3e,
    0x50, 0x91, 0x1e, 0xbe, 0x2f, 0x7d, 0x41, 0x3e, 0x94, 0x6c,
    0x21, 0xbc, 0xac, 0x9c, 0x57, 0xbe, 0x27, 0xc3, 0x5b, 0x3e,
    0x27, 0xba, 0x67, 0xbd, 0x32, 0x0b, 0xa7, 0x3e, 0x92, 0x78,
    0x35, 0x3d, 0x49, 0x82, 0x29, 0xbd, 0x88, 0x83, 0x1d, 0xbe,
    0x93, 0x9c, 0x0a, 0xbe, 0xe5, 0xe6, 0xab, 0x3d, 0xe2, 0xad,
    0xaa, 0xbd, 0xe0, 0xa2, 0x02, 0xbe, 0x7a, 0x1c, 0x64, 0xbe,
    0xad, 0xde, 0x5f, 0xbe, 0xcf, 0x36, 0x82, 0x3e, 0x5e, 0xc9,
    0x6e, 0x3e, 0xc4, 0x1a, 0x2d, 0x3e, 0x17, 0x02, 0xc7, 0x3d,
    0x93, 0x9d, 0x5c, 0xbe, 0x40, 0x1f, 0x50, 0xbe, 0x40, 0xb5,
    0x61, 0x3c, 0xcc, 0x41, 0x01, 0xbe, 0x06, 0x72, 0x22, 0xbd,
    0x0c, 0xbd, 0x82, 0xbe, 0x0d, 0x37, 0x80, 0xbe, 0x57, 0xc3,
    0x03, 0xbc, 0xf7, 0xb8, 0x23, 0x3e, 0x38, 0x5e, 0xb5, 0x3d,
    0x1a, 0xdf, 0x5d, 0x3d, 0x01, 0xd3, 0x12, 0xbe, 0x16, 0xa5,
    0x60, 0x3d, 0xd0, 0x29, 0x31, 0xbe, 0xfb, 0x67, 0xe5, 0x3d,
    0x31, 0x4d, 0xa6, 0x3c, 0x84, 0xcd, 0xac, 0xbd, 0xb2, 0xfb,
    0x58, 0x3e, 0x1f, 0x26, 0xf7, 0xbd, 0xa6, 0xf8, 0x87, 0x3d,
    0x8f, 0xe9, 0xe3, 0xbd, 0x97, 0xc7, 0x90, 0x3d, 0x68, 0x48,
    0xbf, 0x3d, 0x87, 0x64, 0x2e, 0xbe, 0xca, 0x93, 0x87, 0x3d,
    0xd2, 0xda, 0xda, 0x3d, 0x65, 0xaa, 0xa9, 0x3c, 0x22, 0xb9,
    0x20, 0x3e, 0xd5, 0xbb, 0xf2, 0xbc, 0x10, 0xd8, 0xf9, 0xbc,
    0x38, 0x37, 0xb1, 0xbd, 0xff, 0xa9, 0x12, 0x3e, 0x0e, 0x82,
    0xd2, 0xbd, 0xb9, 0xdb, 0x08, 0x3e, 0xfa, 0xe5, 0x99, 0xbd,
    0x60, 0x1f, 0x65, 0xbb, 0xc7, 0x97, 0x83, 0x3e, 0x96, 0x78,
    0xd1, 0x3d, 0x14, 0x61, 0x31, 0x3e, 0xf0, 0xdd, 0xea, 0xbd,
    0xe6, 0xfa, 0x6e, 0xbc, 0xcf, 0x9b, 0x92, 0x3e, 0x6c, 0xbf,
    0xf2, 0xbd, 0xdc, 0x3a, 0x4b, 0x3d, 0x4d, 0x62, 0x8b, 0xbe,
    0x9d, 0x87, 0x80, 0x3e, 0x56, 0x4f, 0xe9, 0x3d, 0x93, 0x0a,
    0x33, 0xbd, 0x84, 0x6c, 0x4b, 0xbe, 0x28, 0xe1, 0x5e, 0xbd,
    0x8f, 0xe6, 0x7e, 0x3d, 0x1b, 0x99, 0x66, 0x3d, 0x77, 0xdd,
    0x7f, 0x3d, 0xde, 0x2c, 0x03, 0x3e, 0x39, 0xc1, 0x28, 0xbe,
    0x35, 0x47, 0x81, 0x3e, 0xce, 0xf2, 0x53, 0x3d, 0x5a, 0x6b,
    0xd5, 0x3d, 0x46, 0x2f, 0xc3, 0xbd, 0x73, 0x75, 0x20, 0xbe,
    0x6f, 0xc9, 0x48, 0x3e, 0xcb, 0xa5, 0xd9, 0xbc, 0xe0, 0x47,
    0xd7, 0x3c, 0xb5, 0xbe, 0x00, 0xbd, 0x11, 0x43, 0x29, 0xbd,
    0x94, 0x18, 0x0a, 0x3e, 0xdc, 0x1b, 0x7d, 0x3d, 0x5e, 0x5c,
    0xbb, 0x3d, 0x14, 0x45, 0x78, 0xbe, 0xeb, 0x26, 0x81, 0x3d,
    0xb6, 0x9c, 0x91, 0x3d, 0x33, 0x6d, 0xad, 0x3d, 0x62, 0xa7,
    0xf4, 0xbd, 0x1e, 0x5f, 0x64, 0x3e, 0x50, 0x05, 0xa4, 0x3d,
    0x34, 0x44, 0xbc, 0x3d, 0x69, 0xa5, 0x01, 0x3c, 0x48, 0xce,
    0x0b, 0xbd, 0xe3, 0x41, 0x4e, 0xbe, 0x22, 0xa2, 0x73, 0x3e,
    0xca, 0xd7, 0xd9, 0x3c, 0xb6, 0x14, 0xeb, 0xbd, 0xaa, 0xed,
    0x26, 0xbe, 0x2e, 0x80, 0x27, 0xbe, 0xd4, 0x61, 0xd9, 0x3d,
    0xd6, 0xc3, 0xc9, 0xbd, 0x8c, 0x64, 0x50, 0xbe, 0xed, 0xed,
    0xd8, 0x3d, 0x66, 0x28, 0xc8, 0x3d, 0xfc, 0xdc, 0x68, 0xbc,
    0xe0, 0x3b, 0x1f, 0xbe, 0x8d, 0xf9, 0x18, 0xbe, 0x67, 0x34,
    0x46, 0x3e, 0xa1, 0x74, 0x4e, 0x3e, 0x0b, 0xc9, 0x24, 0xbe,
    0xf8, 0x06, 0x2c, 0xbe, 0x4c, 0x41, 0x85, 0x3d, 0xe7, 0x05,
    0x30, 0x3d, 0x0d, 0x02, 0x0b, 0xbd, 0x28, 0x98, 0xb5, 0xbd,
    0xcc, 0x00, 0xcd, 0xbd, 0x6d, 0xc2, 0x37, 0x3e, 0x11, 0xbe,
    0xce, 0xbb, 0xc2, 0xaf, 0xea, 0xbd, 0x66, 0x21, 0x29, 0x3e,
    0xc7, 0x60, 0x56, 0x3c, 0x4b, 0xec, 0x39, 0x3e, 0x17, 0x7c,
    0x56, 0x3d, 0xcb, 0x78, 0x12, 0xbd, 0xc2, 0x93, 0x08, 0xbe,
    0x02, 0x92, 0xbd, 0x3d, 0x3e, 0xa4, 0x67, 0xbc, 0x9a, 0x71,
    0xb8, 0x3d, 0xaf, 0xe3, 0x57, 0x3d, 0x91, 0x7b, 0x90, 0xbd,
    0x87, 0x7b, 0xe5, 0x3d, 0xbb, 0x01, 0x88, 0x3e, 0xd5, 0xb0,
    0x85, 0x3d, 0x1e, 0x07, 0x74, 0x3d, 0x6f, 0x33, 0xa2, 0xbd,
    0x5c, 0x60, 0x89, 0xbd, 0x28, 0xe5, 0x48, 0xba, 0x60, 0x4a,
    0x8d, 0x3d, 0x06, 0xc2, 0x02, 0x3e, 0xa1, 0x68, 0xb1, 0xbe,
    0x5d, 0x8b, 0xb7, 0xbb, 0xf3, 0xe9, 0x84, 0x3d, 0x90, 0x2d,
    0xb6, 0x3c, 0x11, 0xc5, 0x60, 0xbd, 0xfd, 0xf2, 0x36, 0x3c,
    0x94, 0xbc, 0x0a, 0xbd, 0xe5, 0xfb, 0xdf, 0x3d, 0x79, 0xfa,
    0x02, 0xbe, 0xc9, 0x3a, 0x12, 0xbe, 0x1a, 0x52, 0xbe, 0x3d,
    0xd3, 0x16, 0xd3, 0x3c, 0x5f, 0x5a, 0x29, 0xbe, 0x26, 0x71,
    0x97, 0x3d, 0xc2, 0x51, 0x12, 0x3e, 0x76, 0xe4, 0xb4, 0xbd,
    0x4e, 0x54, 0xba, 0x3d, 0xb4, 0x69, 0xf9, 0xbd, 0x66, 0xc4,
    0x22, 0xbe, 0xa4, 0x4c, 0xcd, 0x3c, 0xc6, 0xf3, 0x4c, 0x3d,
    0x00, 0x46, 0x82, 0x3d, 0xb9, 0xde, 0x05, 0x3d, 0x95, 0x5d,
    0x35, 0x3e, 0xb7, 0xcb, 0x63, 0xbe, 0x87, 0x2e, 0x1c, 0xbe,
    0x06, 0xe3, 0xd6, 0xbc, 0x7a, 0x9b, 0xf2, 0xbd, 0x85, 0x1c,
    0x04, 0x3e, 0x2e, 0x5b, 0x20, 0xbe, 0x9e, 0xe1, 0x0b, 0xbe,
    0xd1, 0x3d, 0x8a, 0xbd, 0x1c, 0x69, 0x09, 0xbe, 0xc0, 0xea,
    0xe2, 0x3c, 0x69, 0xb5, 0x0a, 0x3e, 0xe1, 0xf0, 0xb4, 0x3d,
    0xcb, 0x1a, 0x07, 0xbd, 0xbc, 0x5a, 0x62, 0x3e, 0xb2, 0x71,
    0x30, 0x3d, 0xdc, 0xba, 0xdd, 0x3d, 0x31, 0xcf, 0x52, 0xbe,
    0x05, 0xba, 0x85, 0xbd, 0x99, 0x6f, 0x26, 0xbe, 0x68, 0x7c,
    0xf3, 0x3d, 0xe0, 0xd5, 0x88, 0xbd, 0xf3, 0x04, 0x28, 0x3d,
    0xb3, 0x91, 0x52, 0xbd, 0x7b, 0x33, 0x9b, 0x3d, 0x46, 0x67,
    0xed, 0x3d, 0xc9, 0x25, 0xd6, 0xbd, 0x32, 0x70, 0x1e, 0xbd,
    0x84, 0x85, 0x53, 0x3e, 0x06, 0xbf, 0xc3, 0xbd, 0xed, 0x18,
    0x1c, 0xbe, 0x4a, 0xeb, 0x9f, 0xbc, 0x2e, 0xd3, 0xda, 0x3d,
    0x98, 0xbe, 0x9a, 0x3d, 0x3f, 0xfa, 0x2c, 0x3e, 0x4d, 0x1b,
    0x7d, 0xbb, 0xd3, 0x32, 0x74, 0x3d, 0xfe, 0xbc, 0x77, 0xbe,
    0xd9, 0x4b, 0xa6, 0x3d, 0xbe, 0xe1, 0x13, 0x3d, 0xe2, 0x47,
    0x36, 0x3d, 0x3e, 0xa3, 0x43, 0xbe, 0xac, 0xcb, 0xd9, 0xbd,
    0x7e, 0x33, 0xc6, 0xbd, 0x79, 0xe5, 0x4a, 0xbd, 0x59, 0x19,
    0x21, 0xbe, 0x17, 0xae, 0x26, 0x3c, 0x33, 0x93, 0x84, 0xbd,
    0x0a, 0xdf, 0x9c, 0x3b, 0x88, 0x2b, 0x38, 0x3d, 0xab, 0x01,
    0x65, 0xbd, 0xa9, 0x76, 0xef, 0x3d, 0x06, 0x88, 0xe9, 0xbd,
    0x4c, 0x5f, 0x23, 0x3b, 0x08, 0x18, 0x0c, 0xbe, 0xe3, 0x97,
    0x85, 0x3d, 0xc3, 0xed, 0xdb, 0x3d, 0xc3, 0xda, 0xfa, 0xbc,
    0xde, 0x29, 0x27, 0xbd, 0xdd, 0xc1, 0xe8, 0x3d, 0x2d, 0x1a,
    0xf6, 0x3d, 0x84, 0xd1, 0x53, 0xbe, 0x90, 0xaf, 0x0c, 0xbe,
    0xf3, 0x29, 0xc4, 0x3d, 0x35, 0x9a, 0x26, 0xbe, 0x00, 0xf6,
    0x59, 0x3d, 0xa8, 0x6b, 0x1e, 0x3e, 0xbd, 0xb0, 0x8a, 0x3d,
    0x11, 0xb0, 0x9f, 0x3d, 0x74, 0xb9, 0x73, 0xbe, 0x65, 0x5d,
    0xd8, 0xbd, 0xab, 0x02, 0x48, 0xbe, 0x8a, 0xa9, 0x32, 0xbe,
    0x4b, 0xe3, 0xbf, 0xbc, 0xbd, 0x2b, 0xc3, 0xbb, 0xe4, 0x70,
    0xeb, 0xbd, 0xaa, 0x2f, 0xa4, 0x3d, 0x70, 0xc9, 0x47, 0xbd,
    0xa3, 0x47, 0x9b, 0xbd, 0x5d, 0x0b, 0xb7, 0x3d, 0xf6, 0x5b,
    0x1f, 0xbe, 0xb4, 0x0d, 0xd1, 0xbd, 0xcb, 0x66, 0x22, 0x3b,
    0xeb, 0x49, 0x14, 0x3e, 0x38, 0xdc, 0x25, 0x3e, 0x5c, 0x03,
    0x5b, 0x3d, 0x28, 0x58, 0xa5, 0x3e, 0x50, 0xc2, 0x16, 0x3e,
    0x43, 0x4f, 0x11, 0x3c, 0x95, 0x69, 0x2b, 0x3e, 0x70, 0x16,
    0xc2, 0x3d, 0x33, 0x43, 0x9d, 0x3d, 0x36, 0xbf, 0xcb, 0xbd,
    0xe0, 0xdb, 0xd0, 0x3d, 0x3e, 0x96, 0xd7, 0xbd, 0x2a, 0xdb,
    0x01, 0x3e, 0xf2, 0xc9, 0x61, 0x3d, 0x7d, 0x09, 0x79, 0x3d,
    0xbb, 0xbc, 0x9d, 0xbd, 0x32, 0x18, 0xc6, 0x3c, 0xbb, 0xe8,
    0xb8, 0xbd, 0x4a, 0xbb, 0xa7, 0x3b, 0x0d, 0xd3, 0x21, 0x3e,
    0x45, 0x45, 0x35, 0xbe, 0x56, 0x62, 0x13, 0x3d, 0xfe, 0xd3,
    0xfe, 0x3d, 0x1f, 0xb2, 0x5d, 0xbd, 0x99, 0xc7, 0xd2, 0xbd,
    0x6c, 0xf7, 0xab, 0xbe, 0xa6, 0xb3, 0x95, 0x3c, 0x35, 0x96,
    0x0b, 0x3e, 0x4f, 0xc1, 0x55, 0x3e, 0x71, 0x59, 0x33, 0xbe,
    0x02, 0x50, 0x5d, 0x3e, 0xe7, 0x33, 0x9a, 0xbd, 0xa2, 0x6a,
    0x1b, 0xbe, 0x1d, 0x98, 0x19, 0x3e, 0x45, 0x7a, 0x21, 0x3d,
    0x52, 0xdb, 0x37, 0x3e, 0xa5, 0x79, 0x21, 0x3d, 0x94, 0x98,
    0x05, 0xbe, 0x63, 0x52, 0xc1, 0x3d, 0xd5, 0x04, 0x00, 0x3d,
    0x99, 0x2f, 0x4d, 0xbc, 0xab, 0x38, 0x86, 0x3d, 0x5d, 0x08,
    0xe4, 0xbc, 0xbb, 0x13, 0x6f, 0x3d, 0x6d, 0x41, 0x45, 0xbe,
    0x30, 0x4d, 0x2e, 0xbe, 0x7a, 0xd8, 0x9a, 0xbd, 0xd6, 0x51,
    0x25, 0xbe, 0xe7, 0x55, 0x5b, 0x3d, 0x78, 0xa4, 0xd9, 0xbd,
    0x47, 0xfb, 0xab, 0xbc, 0xca, 0x26, 0x9d, 0x3d, 0x22, 0x82,
    0xee, 0x39, 0x58, 0x15, 0xaa, 0xbd, 0xcf, 0x39, 0x4c, 0x3e,
    0xaf, 0x23, 0xc0, 0xbd, 0xcb, 0xe5, 0x87, 0xbd, 0x95, 0x9e,
    0x82, 0x3d, 0x29, 0x83, 0x29, 0xbe, 0xdf, 0x78, 0x31, 0x3e,
    0x30, 0x03, 0x06, 0x3d, 0xb3, 0x64, 0x25, 0x3d, 0x6c, 0xf2,
    0x05, 0xbd, 0x38, 0x58, 0x90, 0xbd, 0xbc, 0x87, 0x10, 0x3e,
    0xa7, 0x51, 0x9c, 0x3d, 0xdb, 0x90, 0x25, 0xbe, 0x61, 0x62,
    0x13, 0xbe, 0x03, 0x8e, 0xdd, 0x3d, 0x80, 0x98, 0x8d, 0xbc,
    0x37, 0x27, 0xff, 0xbd, 0xca, 0x83, 0x97, 0xbc, 0x69, 0xd6,
    0xa5, 0xbd, 0x33, 0x98, 0x1f, 0xbe, 0x51, 0x9a, 0x1e, 0x3e,
    0x80, 0x1d, 0xb5, 0xbd, 0xd7, 0x66, 0xb0, 0x3d, 0x98, 0xf0,
    0x19, 0xbe, 0x9f, 0xbf, 0x3a, 0xbd, 0x4a, 0x34, 0x81, 0xbe,
    0x8f, 0x9d, 0xb7, 0xbc, 0x37, 0xbc, 0x7d, 0x3e, 0xce, 0x3b,
    0x93, 0xbe, 0x51, 0xce, 0xad, 0x3d, 0x32, 0xdd, 0x50, 0x3d,
    0x83, 0x25, 0x40, 0xbe, 0x34, 0xe0, 0xdb, 0x3d, 0x7b, 0xc6,
    0xdc, 0xbd, 0x95, 0x08, 0x6e, 0xbd, 0x64, 0x15, 0x36, 0xbe,
    0x58, 0xcc, 0x8c, 0xbe, 0x9f, 0xae, 0xa2, 0x3d, 0x81, 0x39,
    0xc3, 0x3d, 0x6a, 0xa3, 0xbb, 0x3d, 0xe7, 0x97, 0x04, 0x3c,
    0xa9, 0x5d, 0x8d, 0xbd, 0x0c, 0x35, 0x7d, 0xbd, 0x29, 0x07,
    0xae, 0xbd, 0x3b, 0xea, 0x0c, 0xbe, 0xbd, 0x93, 0x7e, 0xbd,
    0x40, 0x71, 0x21, 0x3e, 0xec, 0x5f, 0x19, 0xbe, 0xdc, 0x55,
    0x18, 0xbe, 0x55, 0x72, 0x86, 0x3d, 0x1a, 0xa7, 0x37, 0xbe,
    0x93, 0x2a, 0xc7, 0x3d, 0x9f, 0x67, 0xa1, 0xbd, 0x33, 0xeb,
    0x18, 0xbe, 0xa3, 0x65, 0xa7, 0x3a, 0xd8, 0xe0, 0xd6, 0xbd,
    0x22, 0xd5, 0xb0, 0x3d, 0x77, 0xd1, 0xec, 0x3d, 0xc2, 0x06,
    0xf2, 0xbd, 0xc5, 0x2e, 0x08, 0xbd, 0x1b, 0x6c, 0x81, 0xbe,
    0x2c, 0xec, 0xc3, 0x3c, 0x1d, 0x8e, 0x94, 0x3c, 0x9e, 0xf0,
    0x8c, 0x3c, 0x6e, 0xdc, 0x0a, 0x3e, 0xee, 0xb8, 0x3d, 0xbc,
    0x4b, 0xf6, 0xca, 0xbd, 0xee, 0xda, 0xde, 0x3c, 0xaa, 0x28,
    0x3d, 0xbe, 0xc1, 0x9c, 0x8f, 0x3d, 0xe5, 0x07, 0x0d, 0xbe,
    0x8d, 0xba, 0xa3, 0x3c, 0x27, 0xd5, 0x98, 0x3d, 0x8f, 0xa0,
    0x3e, 0xbe, 0xdf, 0x5f, 0x1c, 0x3e, 0x6e, 0xa9, 0xea, 0x3d,
    0x6c, 0x08, 0x84, 0xbd, 0x59, 0x1e, 0x94, 0x3d, 0x65, 0xf7,
    0x29, 0xbe, 0x89, 0x91, 0xf8, 0x3d, 0xaa, 0xe4, 0xb1, 0xbd,
    0xce, 0x2b, 0xc6, 0x3d, 0xf2, 0x50, 0x15, 0xbd, 0xee, 0xe4,
    0x9f, 0xbd, 0x99, 0xd6, 0x33, 0x3d, 0x92, 0xf2, 0xd6, 0x3d,
    0x43, 0x14, 0x15, 0xbe, 0x3c, 0x2e, 0xfc, 0x3d, 0x7a, 0x60,
    0x9e, 0x3e, 0x0e, 0xeb, 0x5b, 0x3d, 0xfb, 0xf3, 0xa7, 0x3c,
    0x91, 0x40, 0x02, 0xbd, 0x24, 0xf9, 0x56, 0xbe, 0x88, 0x6a,
    0x66, 0x3e, 0xb8, 0x7e, 0xe3, 0xbc, 0xba, 0x84, 0x40, 0xbd,
    0xca, 0x9b, 0x04, 0xbe, 0x37, 0x3e, 0xb5, 0x3d, 0x9f, 0x83,
    0x35, 0xbe, 0x6c, 0xcb, 0x27, 0x3d, 0xce, 0xd4, 0x25, 0xbd,
    0x05, 0x6e, 0x47, 0xbb, 0x6f, 0xc1, 0x19, 0xbe, 0x4b, 0x91,
    0xba, 0x3d, 0x9d, 0x38, 0xbd, 0x3d, 0x25, 0x9b, 0x02, 0x3e,
    0x62, 0xce, 0x6b, 0xbd, 0x66, 0x9d, 0x67, 0x3e, 0x1d, 0x85,
    0x13, 0xbe, 0x74, 0x36, 0xa9, 0x3c, 0x10, 0x13, 0xcb, 0xbd,
    0xf9, 0x0c, 0xb2, 0xbc, 0x5c, 0xda, 0xaf, 0xbd, 0xab, 0x24,
    0x84, 0x3d, 0xd1, 0x1c, 0x03, 0x3c, 0x49, 0x8c, 0x25, 0x3e,
    0x14, 0xf8, 0x06, 0xbe, 0xe7, 0x17, 0x36, 0x3e, 0x5d, 0xd8,
    0x78, 0x3d, 0x93, 0xbb, 0x38, 0x3d, 0xae, 0xb2, 0x61, 0xbe,
    0x44, 0x2c, 0xef, 0xbc, 0x5d, 0xff, 0x8e, 0x3c, 0xd7, 0xf9,
    0x00, 0x3e, 0x38, 0xc0, 0x50, 0xbe, 0xaf, 0x3b, 0x1e, 0x3e,
    0xe7, 0x48, 0x14, 0x3d, 0xd1, 0xa6, 0x18, 0xbc, 0x72, 0x35,
    0x90, 0xbd, 0x45, 0xec, 0xe8, 0xbd, 0x1c, 0x45, 0xdd, 0xbd,
    0x0f, 0xcc, 0x0d, 0x3e, 0x08, 0xe2, 0x6f, 0xbe, 0x84, 0xe0,
    0x2d, 0xbe, 0x01, 0xee, 0x85, 0xbd, 0x8f, 0x4f, 0xd8, 0x3d,
    0x09, 0x51, 0x09, 0xbe, 0x75, 0x3a, 0x28, 0xbd, 0x46, 0x54,
    0x60, 0xbe, 0x09, 0xd5, 0x92, 0xbd, 0x8a, 0xf7, 0x58, 0xbd,
    0x35, 0x4f, 0x0e, 0x3e, 0x84, 0x5c, 0x8a, 0x3d, 0xd7, 0x1c,
    0x8d, 0x3d, 0x87, 0xcb, 0x0c, 0x3e, 0xeb, 0xd9, 0x2e, 0x3e,
    0xf1, 0x11, 0xff, 0x3d, 0x7b, 0xf2, 0xc0, 0xbd, 0x0b, 0xa6,
    0x46, 0xbd, 0x8e, 0xe2, 0x68, 0x3e, 0x49, 0xfa, 0x0c, 0xbe,
    0xda, 0xca, 0xf1, 0x3d, 0x82, 0xfb, 0x1b, 0xbe, 0xd6, 0x38,
    0xa9, 0x3d, 0x73, 0x82, 0x30, 0x3e, 0x5b, 0x96, 0x3b, 0x3e,
    0x62, 0x67, 0xce, 0xbd, 0xed, 0x04, 0x3e, 0xbe, 0x39, 0x4f,
    0x2c, 0xbd, 0x03, 0xaf, 0x03, 0x3e, 0x22, 0xfb, 0x53, 0xbd,
    0xb5, 0x10, 0x6f, 0x3d, 0xe2, 0x5a, 0xc7, 0xbd, 0x36, 0x3f,
    0x86, 0x3c, 0x71, 0xcc, 0x89, 0x3c, 0x2d, 0x4d, 0x91, 0x3c,
    0x9d, 0x7d, 0x8f, 0xbd, 0x62, 0xd0, 0x3a, 0x3b, 0x3a, 0x7e,
    0x9e, 0x3d, 0x39, 0xa0, 0xa4, 0xbc, 0xe3, 0x44, 0x14, 0x3c,
    0x5b, 0xf5, 0x96, 0xbd, 0x02, 0x00, 0x7d, 0x3c, 0x2b, 0x6c,
    0xfe, 0xbd, 0xca, 0x1d, 0xd3, 0xbc, 0xdd, 0xa0, 0xe9, 0x3d,
    0xd8, 0xe7, 0x2c, 0xbe, 0x0f, 0x9c, 0xa1, 0xbd, 0xf1, 0x08,
    0xe2, 0xbc, 0x95, 0x50, 0xd3, 0xbd, 0x9e, 0xa3, 0x81, 0xba,
    0x7b, 0x88, 0x21, 0xbe, 0xc8, 0xb2, 0x11, 0x3d, 0x04, 0x69,
    0x00, 0xbe, 0xbe, 0x63, 0x26, 0x3d, 0xa2, 0xae, 0x14, 0x3e,
    0x77, 0xc4, 0x1c, 0xbd, 0x0a, 0x54, 0x18, 0xbe, 0xc6, 0xe2,
    0x21, 0xbe, 0x14, 0x7e, 0x4e, 0xbd, 0xd5, 0x68, 0x37, 0xbe,
    0xea, 0xea, 0xa7, 0xbc, 0x5c, 0x83, 0x39, 0xbe, 0xda, 0xa0,
    0xc7, 0xbd, 0xfc, 0x19, 0x10, 0xbe, 0xfe, 0xd5, 0xad, 0xbd,
    0x8f, 0x89, 0x07, 0xbe, 0xe2, 0xbe, 0xdc, 0x3d, 0xfb, 0xf8,
    0x01, 0xbe, 0x87, 0x7e, 0x00, 0x3d, 0xdc, 0x85, 0xb3, 0x3d,
    0x24, 0xba, 0x18, 0x3e, 0xaa, 0x74, 0xcd, 0xbd, 0xe4, 0x23,
    0x27, 0xbd, 0xe9, 0x5f, 0x8f, 0xbd, 0x7f, 0xfe, 0x28, 0x3d,
    0xa5, 0xa8, 0x2f, 0xbe, 0x3a, 0x48, 0xc4, 0xbd, 0x5a, 0xed,
    0xc2, 0xbd, 0x69, 0xcc, 0x00, 0xbe, 0x40, 0xb0, 0x50, 0x3c,
    0x78, 0x48, 0x2a, 0xbd, 0x02, 0x4a, 0xea, 0x3d, 0x59, 0xd3,
    0xda, 0xbd, 0xcf, 0x62, 0x6f, 0x3d, 0x40, 0x27, 0x0f, 0x3e,
    0x4b, 0x99, 0x08, 0x3d, 0xb2, 0xc9, 0x7b, 0x3d, 0x46, 0x53,
    0xbf, 0x3d, 0xd7, 0x31, 0x8e, 0xbd, 0x00, 0x1c, 0x12, 0x3d,
    0x0f, 0x96, 0x80, 0x3d, 0x8a, 0xae, 0x2a, 0xbe, 0x24, 0xe9,
    0xe0, 0x3c, 0x62, 0x1a, 0xb9, 0x3d, 0x2a, 0x91, 0xe2, 0x3c,
    0x21, 0x6c, 0x06, 0xbe, 0xaa, 0xae, 0xcc, 0x3d, 0xb3, 0x52,
    0xab, 0x3d, 0xb7, 0x95, 0x3d, 0x3d, 0x59, 0xcf, 0x99, 0xbd,
    0x26, 0x66, 0x16, 0x3e, 0x56, 0xdb, 0x7a, 0x3a, 0xe8, 0xad,
    0xdc, 0xbc, 0x74, 0xfd, 0xd3, 0x3d, 0xdf, 0xe3, 0x11, 0xbe,
    0x04, 0x38, 0xc4, 0x3c, 0x65, 0x20, 0x0b, 0x3e, 0x51, 0x9c,
    0xc6, 0xbd, 0xeb, 0x0a, 0xc6, 0xbd, 0x0d, 0x74, 0xb1, 0xbd,
    0xd8, 0x01, 0x0a, 0x3e, 0x2e, 0x61, 0xf4, 0x3d, 0x66, 0x74,
    0xd9, 0x3d, 0x2f, 0xda, 0xe2, 0x3d, 0x03, 0xa3, 0xee, 0x3d,
    0x82, 0x90, 0x1a, 0x3d, 0x52, 0x72, 0xb1, 0x3d, 0x70, 0x73,
    0x06, 0xbc, 0xf8, 0xb8, 0xea, 0xbb, 0xb7, 0xa9, 0x80, 0x3d,
    0xad, 0xc3, 0x44, 0x3e, 0x66, 0x86, 0x53, 0xbe, 0xd0, 0x54,
    0x93, 0x3e, 0xf2, 0x0b, 0xb5, 0x3d, 0xec, 0x6b, 0x49, 0xbe,
    0xad, 0xd2, 0xc5, 0x3e, 0xcb, 0x76, 0x84, 0xbe, 0x16, 0x76,
    0x99, 0x3d, 0xef, 0x60, 0x8e, 0x3d, 0x90, 0xc2, 0x30, 0x3e,
    0x4b, 0x2d, 0xd3, 0x3d, 0xc2, 0x1b, 0x14, 0xbe, 0xf6, 0x08,
    0xa7, 0xbd, 0xef, 0xcf, 0xbb, 0xbc, 0xe6, 0x29, 0x46, 0xbd,
    0xab, 0x20, 0x6c, 0x3d, 0x39, 0xe0, 0x23, 0x3e, 0x11, 0x1b,
    0x36, 0xbe, 0xe6, 0x3e, 0xff, 0x3d, 0x41, 0x8c, 0xe6, 0x3c,
    0xcb, 0x48, 0xc7, 0x3d, 0xf6, 0x15, 0xf5, 0x3c, 0x34, 0x08,
    0x0d, 0xbe, 0xa0, 0x6e, 0x6d, 0x3d, 0xbc, 0x93, 0xb4, 0x3d,
    0x9e, 0x2e, 0xe7, 0x3c, 0xac, 0x79, 0xa9, 0x3d, 0xe5, 0x73,
    0xc9, 0xbd, 0x6e, 0x12, 0x94, 0xbc, 0x55, 0xff, 0x79, 0x3e,
    0x3f, 0xe7, 0xe6, 0xbd, 0x28, 0x88, 0x34, 0xbe, 0x35, 0x6d,
    0xbb, 0x3d, 0x19, 0xce, 0x99, 0x3c, 0xab, 0x04, 0xd3, 0x3c,
    0x38, 0xce, 0x48, 0xbd, 0x42, 0x5c, 0xbe, 0xbd, 0x3b, 0x1d,
    0xff, 0xbd, 0x76, 0x7a, 0x07, 0x3e, 0x72, 0xc3, 0xf5, 0x3b,
    0x46, 0xe7, 0x02, 0x3e, 0xed, 0xfe, 0x36, 0xbd, 0x2d, 0xac,
    0x80, 0x3e, 0xac, 0xf8, 0xba, 0xbd, 0xc6, 0x79, 0xd6, 0xbd,
    0x1c, 0x93, 0x7d, 0x3d, 0x1f, 0x6f, 0x51, 0x3e, 0xf6, 0x16,
    0x4a, 0xbe, 0x8a, 0xee, 0xf8, 0x3c, 0xe5, 0xbe, 0x83, 0xbe,
    0xd2, 0xda, 0x08, 0x3e, 0xe0, 0xd4, 0x30, 0xbe, 0xff, 0x45,
    0x68, 0x3d, 0x77, 0x1c, 0x8b, 0x3d, 0x45, 0xb8, 0xde, 0xbd,
    0xa9, 0x91, 0x3d, 0xbe, 0x54, 0x06, 0x83, 0x3e, 0xd1, 0xaf,
    0xbc, 0xbd, 0x28, 0x10, 0x59, 0x3e, 0xb7, 0x05, 0x95, 0x3d,
    0xc9, 0x96, 0xdd, 0x3d, 0x4f, 0xa5, 0x48, 0xbe, 0xab, 0x78,
    0x7b, 0x3d, 0x3c, 0xcf, 0xd5, 0x3d, 0xd8, 0xbf, 0xd3, 0x3c,
    0x4f, 0xdb, 0x34, 0x3e, 0x90, 0x95, 0x1c, 0x3e, 0x84, 0x2c,
    0x14, 0x3d, 0xdd, 0x8c, 0x0b, 0xbe, 0x2c, 0x6f, 0x82, 0xbe,
    0x6c, 0x40, 0xd5, 0xba, 0x2a, 0x37, 0x34, 0x3d, 0x65, 0xc4,
    0x7d, 0x3b, 0x45, 0xfc, 0x31, 0x3a, 0xb6, 0x0d, 0x01, 0x3c,
    0x28, 0x55, 0x8b, 0x3d, 0x27, 0xdc, 0x0f, 0x3e, 0x92, 0x5f,
    0x07, 0xbe, 0xae, 0xcb, 0x9c, 0xbd, 0x76, 0x10, 0x8d, 0x3d,
    0xdc, 0x60, 0xaa, 0xbd, 0x73, 0xd8, 0xb4, 0x3c, 0xc1, 0xb3,
    0x56, 0x3d, 0x16, 0x04, 0xc8, 0xbc, 0x42, 0xad, 0x3f, 0xbd,
    0x02, 0x9c, 0x2e, 0xbc, 0x93, 0x4e, 0xa0, 0xbc, 0x2f, 0x49,
    0x2d, 0x3e, 0x8a, 0x4b, 0x85, 0xbd, 0xd0, 0xae, 0x34, 0xbe,
    0xb7, 0xf2, 0xf5, 0xbd, 0x3c, 0xa4, 0xc7, 0x3c, 0xa4, 0x5c,
    0xd6, 0xba, 0xd9, 0x8c, 0x76, 0x3d, 0x54, 0x3b, 0xee, 0x3d,
    0xda, 0x3b, 0xd6, 0x3d, 0xb2, 0xeb, 0xed, 0x3d, 0x79, 0x84,
    0x78, 0xbd, 0x4a, 0x2a, 0x45, 0xbd, 0x73, 0xa6, 0x4f, 0xbc,
    0x17, 0x5e, 0xea, 0xbd, 0xf3, 0x6c, 0xe5, 0x3b, 0xfe, 0xd9,
    0x0f, 0xbd, 0x81, 0x74, 0xa9, 0x3d, 0x4a, 0xd6, 0x9c, 0x3d,
    0x6e, 0xd2, 0xe7, 0x3d, 0x6f, 0x5b, 0x70, 0x3e, 0x27, 0xb8,
    0x0c, 0xbe, 0xb0, 0xfc, 0x78, 0xbe, 0xdb, 0x79, 0x7e, 0xbc,
    0x5b, 0x2a, 0x3c, 0xbe, 0x99, 0x1e, 0x64, 0x3c, 0xc2, 0x6d,
    0xf5, 0x3d, 0x1a, 0x32, 0x06, 0xbe, 0x7a, 0xb9, 0x93, 0xbd,
    0xb5, 0x9b, 0x8b, 0xbe, 0x0c, 0x6a, 0x9a, 0xbd, 0x54, 0x8f,
    0x4d, 0xbe, 0x31, 0x46, 0xd7, 0xbd, 0xc8, 0x33, 0xb1, 0xbd,
    0x27, 0x5e, 0x24, 0x3e, 0xc7, 0xb3, 0xe0, 0xbd, 0xc4, 0x2b,
    0x19, 0x3e, 0xf0, 0x53, 0x68, 0xbc, 0xc5, 0xb5, 0x02, 0xbe,
    0x2f, 0x25, 0x2b, 0x3d, 0xa6, 0x28, 0x25, 0xbe, 0x14, 0x81,
    0xec, 0xbd, 0x2e, 0xf1, 0x9b, 0x3c, 0xc0, 0xdd, 0x10, 0xbe,
    0xd5, 0xc1, 0x5c, 0x3d, 0xd6, 0xe8, 0xab, 0x3d, 0xbb, 0x0a,
    0xd6, 0x3d, 0x1a, 0x69, 0x48, 0xbe, 0xd5, 0x17, 0x42, 0x3d,
    0x53, 0x58, 0xa1, 0x3d, 0xce, 0xf2, 0x0c, 0xbc, 0x2a, 0x97,
    0x7c, 0x3d, 0xda, 0x91, 0x90, 0x3d, 0x16, 0x52, 0xd6, 0x3c,
    0x08, 0xcd, 0xcd, 0xbd, 0x67, 0x7e, 0x00, 0xbd, 0x2c, 0x3f,
    0x2b, 0x3d, 0x20, 0x5d, 0x43, 0xbe, 0xc3, 0x4f, 0xda, 0x3d,
    0x69, 0x92, 0x40, 0x3d, 0x6e, 0x2b, 0xd4, 0xbc, 0xf0, 0xad,
    0xdd, 0xbd, 0x59, 0x59, 0xcd, 0x3d, 0x74, 0x3a, 0x0e, 0xbe,
    0x24, 0xf1, 0xe9, 0x3d, 0x7b, 0x16, 0x17, 0xbe, 0xb0, 0x09,
    0xad, 0x3d, 0x74, 0x40, 0x48, 0x3c, 0x7c, 0xa5, 0x84, 0xbe,
    0x92, 0x22, 0x46, 0xbe, 0x57, 0x4a, 0x29, 0xbe, 0x77, 0xe4,
    0x0a, 0x3d, 0x46, 0x07, 0x5e, 0x3d, 0x06, 0x40, 0x1a, 0xbd,
    0x10, 0x23, 0x07, 0xbd, 0xb4, 0x9b, 0x24, 0xbe, 0x6a, 0xcd,
    0x85, 0x3d, 0xb1, 0xa5, 0x22, 0x3d, 0x42, 0x74, 0x2b, 0xbe,
    0xbf, 0xec, 0x81, 0x3d, 0xcc, 0x18, 0x61, 0x3d, 0x65, 0x10,
    0x53, 0xbd, 0xb1, 0x59, 0x2b, 0x3d, 0xbc, 0x0a, 0xb1, 0x3d,
    0x0e, 0xb6, 0x35, 0xbe, 0x85, 0xfe, 0x25, 0xbe, 0x45, 0x94,
    0xf7, 0x3c, 0xce, 0x38, 0xb5, 0xbd, 0x66, 0x08, 0x18, 0xbe,
    0x93, 0x51, 0x22, 0x3e, 0xb4, 0x13, 0x8e, 0x3d, 0x24, 0xee,
    0xc5, 0x3d, 0x24, 0x5a, 0x96, 0x3c, 0xf4, 0x5f, 0x80, 0x3d,
    0xa6, 0x41, 0xa8, 0x3d, 0xb1, 0x38, 0x43, 0xbc, 0x16, 0x59,
    0x92, 0x3d, 0xbe, 0x42, 0x10, 0xbe, 0x1c, 0x0d, 0xe5, 0x3d,
    0xac, 0x97, 0xad, 0x3d, 0xe3, 0x41, 0xad, 0xbd, 0x4c, 0x9d,
    0xf5, 0x3d, 0x98, 0xa9, 0xe8, 0xbd, 0xda, 0x41, 0xcc, 0x3d,
    0x3f, 0x1d, 0x80, 0xbd, 0xc6, 0xf8, 0x45, 0xbc, 0xfd, 0x75,
    0x1a, 0xbe, 0xb4, 0xa5, 0xa6, 0x3d, 0xb9, 0x65, 0x9f, 0xbc,
    0x90, 0x3e, 0x09, 0x3e, 0xb6, 0xd7, 0xeb, 0xbd, 0x41, 0x7e,
    0x88, 0x3d, 0x41, 0xa2, 0xb8, 0xbd, 0xdc, 0xc9, 0x53, 0x3d,
    0xe0, 0x26, 0xe6, 0xbd, 0xdb, 0x61, 0xde, 0xbd, 0x1c, 0x32,
    0x89, 0xbd, 0x7c, 0xfa, 0xe1, 0x3c, 0x1c, 0x64, 0x87, 0x3e,
    0xa6, 0xc3, 0x92, 0xbd, 0xb7, 0x4d, 0xfb, 0x3d, 0xbb, 0xe5,
    0xed, 0xbd, 0x35, 0x77, 0x6a, 0xbd, 0x5d, 0x57, 0x6e, 0x3e,
    0xba, 0xfc, 0xc5, 0x3a, 0x84, 0xb0, 0xd5, 0x3b, 0x68, 0xec,
    0xde, 0xbd, 0x01, 0x75, 0x99, 0x3e, 0x53, 0x86, 0x6a, 0xbe,
    0x51, 0x6e, 0x52, 0x3d, 0x42, 0x53, 0x78, 0x3e, 0xfe, 0x56,
    0x17, 0xbe, 0x96, 0x99, 0x9e, 0xbd, 0x6c, 0x54, 0x64, 0x3d,
    0x5b, 0xb2, 0xc6, 0x3d, 0xf7, 0xbe, 0x57, 0x3e, 0x5c, 0xda,
    0x30, 0x3c, 0x51, 0x05, 0x95, 0xbe, 0xb4, 0x0f, 0x31, 0xbd,
    0xfd, 0xf3, 0x2e, 0xbd, 0xfb, 0x98, 0x98, 0x3d, 0xa1, 0x0f,
    0xe6, 0x3d, 0x71, 0x6c, 0x04, 0xbe, 0xe8, 0xb1, 0x17, 0x3e,
    0x9e, 0x05, 0x0c, 0xbd, 0xc1, 0x2e, 0x9c, 0xbd, 0xf6, 0xe0,
    0xe9, 0xbb, 0x2d, 0x42, 0x62, 0x3d, 0x04, 0xd1, 0x75, 0x3e,
    0x4a, 0x6e, 0x79, 0xbe, 0x03, 0x07, 0x30, 0xbe, 0xcd, 0x04,
    0x4f, 0x3e, 0xaa, 0x94, 0x3f, 0x3c, 0x85, 0xc3, 0xf4, 0xba,
    0xe1, 0x78, 0x22, 0xbe, 0x36, 0x58, 0x82, 0xbe, 0x0c, 0xcb,
    0xed, 0xbd, 0x20, 0x32, 0xde, 0x3d, 0x56, 0x79, 0xf6, 0x3d,
    0x55, 0x26, 0x50, 0x3d, 0x62, 0x62, 0x23, 0xbe, 0xe9, 0x6f,
    0xbf, 0xbc, 0xf8, 0x47, 0x45, 0xbe, 0xb5, 0x3b, 0x8d, 0xbd,
    0x03, 0x78, 0x83, 0x3e, 0xe3, 0x84, 0xc6, 0x3d, 0x2e, 0x66,
    0x3e, 0xbd, 0xa6, 0x4a, 0x17, 0x3d, 0x43, 0xeb, 0xfb, 0x3c,
    0x4e, 0x92, 0x7c, 0xbe, 0xa0, 0xee, 0xab, 0x3d, 0x2e, 0xe1,
    0x9a, 0xbc, 0x98, 0x3a, 0x77, 0xbd, 0xdc, 0xce, 0x72, 0x3c,
    0x9a, 0xff, 0x07, 0x3e, 0xac, 0x1c, 0x23, 0x3e, 0xea, 0xd9,
    0xb9, 0xb9, 0x1e, 0x9c, 0x88, 0xbe, 0x4a, 0xa0, 0x02, 0xbe,
    0xab, 0x1e, 0x47, 0xbe, 0xb6, 0xa5, 0x22, 0xbe, 0x4f, 0x4f,
    0xe8, 0xbd, 0x37, 0x1a, 0xfd, 0x3d, 0xf7, 0x9c, 0xab, 0x3d,
    0xb6, 0xc2, 0xaa, 0xbd, 0x65, 0xd4, 0x97, 0xbe, 0x9d, 0x96,
    0xc3, 0x3d, 0x04, 0xb8, 0xa2, 0x3c, 0x92, 0xd1, 0x17, 0xbc,
    0xb0, 0x51, 0x36, 0xbd, 0xcf, 0xf8, 0x3e, 0xbb, 0x68, 0x91,
    0x27, 0x3d, 0x36, 0x8b, 0x12, 0x3d, 0x92, 0x6e, 0xae, 0xbc,
    0xae, 0x4d, 0xcf, 0x3c, 0x2c, 0x5c, 0x3c, 0xbe, 0x9e, 0xbf,
    0x88, 0x3c, 0x50, 0xff, 0x1a, 0xbe, 0x42, 0x52, 0x08, 0x3e,
    0x3c, 0xd1, 0x0d, 0x3e, 0xa2, 0x56, 0x09, 0xbe, 0xab, 0xbf,
    0x44, 0x3d, 0x9d, 0xcd, 0xf9, 0x3c, 0x19, 0xe9, 0xd0, 0xbd,
    0x1c, 0xca, 0x14, 0x3d, 0x16, 0x64, 0x42, 0x3e, 0xe8, 0x1d,
    0x88, 0xbc, 0xb5, 0x56, 0x07, 0xbd, 0x29, 0xb3, 0x64, 0xbd,
    0xc4, 0xc6, 0x46, 0xbe, 0xd4, 0x27, 0x12, 0x3e, 0x94, 0x90,
    0xa9, 0x3d, 0xe8, 0xaa, 0x97, 0xbd, 0x2d, 0x82, 0x97, 0xbd,
    0x5e, 0x40, 0xeb, 0xbd, 0x42, 0x42, 0x81, 0x3e, 0xba, 0x08,
    0x86, 0x3d, 0xa1, 0x86, 0x0f, 0x3e, 0x29, 0x00, 0x19, 0xbe,
    0x72, 0x3f, 0xe5, 0x3d, 0xf7, 0x4e, 0xf9, 0x3d, 0xdc, 0x76,
    0xec, 0xbd, 0x65, 0x7f, 0xa1, 0xbc, 0x36, 0x41, 0x20, 0x3e,
    0x17, 0xa0, 0xcd, 0xbd, 0x0b, 0xcc, 0x03, 0xbd, 0xe8, 0x12,
    0x65, 0xbe, 0x28, 0xae, 0x9c, 0xbe, 0xd2, 0xc0, 0x46, 0xbb,
    0xfc, 0x77, 0x25, 0x3e, 0xd8, 0x4c, 0xbb, 0xbd, 0x79, 0x33,
    0x3b, 0x3e, 0x89, 0xa4, 0xbf, 0xbd, 0x09, 0x6a, 0x49, 0xbe,
    0x69, 0x50, 0x35, 0x3e, 0x58, 0xe3, 0xb8, 0xbc, 0x76, 0x7f,
    0x9c, 0xbc, 0xdc, 0x11, 0xcb, 0x3c, 0x09, 0xee, 0x89, 0x3d,
    0x79, 0x7b, 0x2e, 0xbc, 0x61, 0xc4, 0xb0, 0x3d, 0x05, 0xa0,
    0xd3, 0xbd, 0xee, 0x11, 0xe8, 0x3c, 0x4c, 0xe9, 0xff, 0x3d,
    0x5b, 0x70, 0x19, 0xbd, 0x53, 0x61, 0x30, 0xbe, 0x43, 0xd2,
    0x88, 0xbd, 0x93, 0x16, 0xc3, 0x3d, 0xe3, 0x45, 0x79, 0x3d,
    0x79, 0x3f, 0x55, 0x3d, 0x5c, 0x9d, 0xd7, 0xbd, 0x72, 0xdb,
    0x9b, 0xbe, 0xf1, 0x67, 0x23, 0x3d, 0x60, 0x05, 0x3c, 0xb9,
    0xbe, 0xa8, 0x31, 0xbd, 0x82, 0xba, 0xb0, 0xbd, 0x6c, 0x99,
    0x03, 0x3d, 0x12, 0x74, 0x6b, 0xbe, 0x59, 0x7d, 0x3f, 0x3e,
    0xcc, 0xc3, 0xf2, 0x3d, 0x7a, 0xd1, 0x41, 0xbe, 0x9d, 0xa4,
    0x34, 0xbe, 0x3c, 0xbd, 0xe4, 0xbd, 0x6e, 0x5e, 0x1c, 0x3d,
    0xa9, 0x1b, 0x21, 0xbe, 0x14, 0xda, 0xe0, 0x3d, 0x8e, 0x9a,
    0x3d, 0xbd, 0xb4, 0xb4, 0xb7, 0xbd, 0x3f, 0x98, 0x14, 0x3e,
    0xfa, 0x43, 0xb8, 0xbe, 0xcd, 0x03, 0x36, 0xbd, 0x7a, 0x6a,
    0x8b, 0x3e, 0x64, 0x02, 0x6b, 0xbe, 0x35, 0x91, 0xd2, 0x3d,
    0xa3, 0x94, 0xe6, 0x3d, 0xc5, 0xfb, 0xbd, 0xbd, 0xbf, 0x32,
    0x37, 0xbc, 0xba, 0x7b, 0x7d, 0x3e, 0xb9, 0x7c, 0x49, 0xbd,
    0x6f, 0xcb, 0xbe, 0xbd, 0x59, 0x50, 0xaa, 0xbd, 0x71, 0x65,
    0x14, 0xbe, 0x37, 0x9c, 0x73, 0xbe, 0x6b, 0xa7, 0xe9, 0xbc,
    0x8f, 0x6a, 0xbf, 0xbd, 0x9e, 0x41, 0x40, 0xbe, 0xdd, 0x1a,
    0x36, 0xbd, 0xb8, 0xff, 0x35, 0xbd, 0x70, 0x78, 0x62, 0xbd,
    0x64, 0xaf, 0x24, 0xbd, 0xf2, 0xb8, 0x95, 0xbe, 0xd9, 0x4d,
    0x39, 0x3d, 0xef, 0x8f, 0x4a, 0x3e, 0x2e, 0x97, 0x28, 0xbd,
    0x70, 0x9e, 0x0c, 0xbe, 0x7c, 0x23, 0xc4, 0x3c, 0x2c, 0x8d,
    0xbf, 0x3c, 0x0a, 0x0f, 0x0e, 0x3d, 0x68, 0x94, 0x50, 0xbe,
    0xcf, 0x69, 0xad, 0xbc, 0xf1, 0x8c, 0xa2, 0x3d, 0xdb, 0x55,
    0xe8, 0x3d, 0x97, 0xba, 0x15, 0xbb, 0x37, 0x9a, 0x8f, 0xbd,
    0x55, 0x3a, 0x89, 0x3e, 0xaf, 0x0e, 0x35, 0xbe, 0x2e, 0x56,
    0x8a, 0x3e, 0xda, 0xea, 0x04, 0x3e, 0x99, 0xbf, 0x1f, 0xbc,
    0x2e, 0xb6, 0xd7, 0xbb, 0x0c, 0x71, 0xf0, 0x3d, 0xdc, 0x46,
    0xb0, 0xbd, 0x79, 0x09, 0x49, 0x3d, 0x91, 0xb3, 0x21, 0x3e,
    0x27, 0xc7, 0x64, 0xbd, 0xf7, 0xe8, 0x40, 0x3e, 0x68, 0xcb,
    0x30, 0x3e, 0x7a, 0xa3, 0xe5, 0xbd, 0xea, 0x11, 0xa7, 0x3d,
    0xec, 0x21, 0xd3, 0x3d, 0x7a, 0xc0, 0xce, 0xbd, 0x2d, 0x39,
    0xd1, 0xbd, 0xb2, 0x4a, 0xb2, 0x3d, 0xd3, 0x48, 0x89, 0xbe,
    0x33, 0xc0, 0xbb, 0xbd, 0x9f, 0x8a, 0xe9, 0x3d, 0x23, 0x57,
    0x1f, 0xbe, 0xeb, 0xae, 0x1d, 0xbe, 0x84, 0x83, 0xab, 0x3d,
    0x14, 0x14, 0x87, 0xbe, 0x06, 0xc9, 0x04, 0xbe, 0x78, 0xb2,
    0x68, 0xbd, 0x9b, 0x31, 0x40, 0x3d, 0x7e, 0xb5, 0x2b, 0x3e,
    0x96, 0xfa, 0x10, 0xbe, 0xd5, 0x89, 0xae, 0x3d, 0x93, 0xa1,
    0x83, 0x3d, 0x75, 0xdc, 0x2e, 0xbd, 0xed, 0x8a, 0xe5, 0xbb,
    0xbc, 0x00, 0xde, 0x3d, 0xae, 0xd5, 0xfc, 0x3d, 0x17, 0xa4,
    0x4a, 0xbe, 0xf5, 0xde, 0x0c, 0xbe, 0x60, 0x99, 0xa2, 0xbd,
    0xad, 0x7f, 0xd9, 0xbd, 0x48, 0x71, 0xaa, 0xbd, 0x1e, 0x79,
    0x0a, 0x3e, 0xff, 0xf6, 0x05, 0x3c, 0x77, 0x81, 0x7a, 0x3d,
    0x4f, 0xf2, 0x1b, 0x3c, 0xf3, 0xc3, 0xb6, 0xbd, 0x63, 0x82,
    0xa2, 0x3e, 0x37, 0x29, 0xae, 0x3d, 0xfc, 0x81, 0xe4, 0xbd,
    0x25, 0x6c, 0x51, 0xbe, 0x4c, 0x20, 0x37, 0xbd, 0xd4, 0x5d,
    0x26, 0x3b, 0x80, 0x4c, 0x10, 0xbe, 0x36, 0xaf, 0x6a, 0xbd,
    0xe9, 0x36, 0x20, 0xbe, 0xa7, 0xd4, 0x2a, 0x3d, 0x40, 0x8f,
    0x1d, 0x3e, 0xeb, 0xfb, 0x37, 0xbd, 0x14, 0x9a, 0xa9, 0xbd,
    0x78, 0x08, 0xd6, 0x3d, 0x49, 0xd2, 0x62, 0xbe, 0xe0, 0x06,
    0x80, 0xbe, 0x5b, 0x2d, 0xb4, 0x3e, 0x33, 0x66, 0x75, 0xbd,
    0xfa, 0xb2, 0x0c, 0xbd, 0xa2, 0xb3, 0x2e, 0x3d, 0x75, 0x08,
    0x79, 0xbe, 0x2e, 0x52, 0x05, 0x3e, 0x00, 0xb4, 0x89, 0x3e,
    0xce, 0xca, 0x3a, 0xbc, 0x32, 0x26, 0x22, 0x3e, 0xab, 0x36,
    0x03, 0x3d, 0xab, 0xc3, 0x38, 0xbd, 0x9b, 0x31, 0xd4, 0xbd,
    0xea, 0x1d, 0xcf, 0x3d, 0x57, 0x5e, 0x35, 0x3e, 0xcb, 0xa5,
    0x33, 0xbe, 0x15, 0xde, 0x54, 0xbe, 0x7c, 0x2f, 0x74, 0x3e,
    0x97, 0x20, 0xf4, 0xbd, 0xe5, 0xdf, 0x35, 0x3e, 0xb9, 0xc2,
    0x34, 0xbc, 0x01, 0x55, 0x98, 0xbd, 0x31, 0x01, 0x0a, 0xbd,
    0x8a, 0x31, 0x95, 0x3d, 0x6e, 0x51, 0xf9, 0xbd, 0xee, 0x87,
    0x8b, 0x3e, 0x66, 0x2f, 0x42, 0x3d, 0x84, 0xe1, 0x15, 0xbe,
    0x61, 0x68, 0x2c, 0x3d, 0x9e, 0x4a, 0x17, 0xbe, 0xf2, 0xb6,
    0x7a, 0x3e, 0x7f, 0xff, 0xbe, 0xbd, 0xdd, 0xeb, 0x3e, 0x3e,
    0xd5, 0x1a, 0x06, 0xbd, 0xbe, 0xa6, 0x99, 0x3c, 0x9d, 0xb5,
    0x06, 0xbe, 0x1b, 0x38, 0x10, 0xbc, 0xec, 0x10, 0x1c, 0xbe,
    0x6c, 0x6b, 0xac, 0xbe, 0x9f, 0xb2, 0x2f, 0xbe, 0xd5, 0xa7,
    0x06, 0xbe, 0xfc, 0xcb, 0x0a, 0x3e, 0x29, 0x4e, 0xe9, 0xbc,
    0x5f, 0xc6, 0x7e, 0xbd, 0x5e, 0x67, 0x4c, 0xbe, 0x3e, 0x4a,
    0x80, 0x3c, 0xf2, 0x5c, 0x8a, 0xbd, 0x80, 0xb7, 0x03, 0x3d,
    0x4d, 0xa1, 0x51, 0x3e, 0x2f, 0xab, 0x67, 0xbe, 0xb5, 0x6b,
    0x9d, 0x3d, 0x32, 0x08, 0xbe, 0x3c, 0x65, 0xdd, 0x9f, 0xbd,
    0xce, 0xa3, 0x51, 0xbd, 0x70, 0x5b, 0x0a, 0xbe, 0xc6, 0xd7,
    0x8c, 0xbb, 0x09, 0xc3, 0xbb, 0xbd, 0x8d, 0xd3, 0x7c, 0xbc,
    0xc6, 0xda, 0x14, 0xbd, 0x94, 0x02, 0xb8, 0xbd, 0x73, 0x77,
    0xbb, 0x3d, 0xe0, 0x87, 0x9e, 0xbd, 0xcd, 0xfb, 0xa1, 0xbe,
    0x67, 0xe3, 0x54, 0xbe, 0xdd, 0x0a, 0x79, 0x3d, 0x51, 0x01,
    0x00, 0x3e, 0xc7, 0xdd, 0x01, 0xbe, 0x8f, 0xa3, 0x18, 0x3e,
    0x89, 0xda, 0x43, 0xbd, 0xe7, 0x64, 0xc0, 0x3c, 0xd0, 0x05,
    0x8e, 0xbe, 0x8c, 0xf9, 0xbf, 0xbd, 0xcf, 0xec, 0x3b, 0x3e,
    0xef, 0x86, 0x20, 0xbe, 0x84, 0xe3, 0x2f, 0x3e, 0xfa, 0x83,
    0xb0, 0x3d, 0x3d, 0x86, 0x8f, 0x3d, 0x1d, 0x48, 0x71, 0x3c,
    0x24, 0xb4, 0x11, 0xbd, 0xee, 0x8a, 0x01, 0x3e, 0x7d, 0x31,
    0x03, 0xbc, 0x5d, 0x2e, 0x9e, 0x3b, 0x85, 0x60, 0x88, 0xbd,
    0xe0, 0x37, 0x0a, 0x3e, 0x52, 0x3e, 0xc2, 0x3d, 0x9d, 0x67,
    0x96, 0x3d, 0x96, 0xfc, 0x4c, 0xbe, 0x3a, 0xb9, 0xb0, 0xbd,
    0x22, 0xab, 0xd2, 0xbd, 0x5a, 0x3b, 0x70, 0x3d, 0x63, 0x6f,
    0xe0, 0x3c, 0xc2, 0x90, 0x18, 0xbd, 0xe1, 0x82, 0x45, 0xbd,
    0x9a, 0xf5, 0x23, 0xbe, 0x80, 0xc9, 0x37, 0xbe, 0xc2, 0x34,
    0x87, 0x3d, 0x49, 0x20, 0x74, 0xbd, 0xe6, 0x20, 0x7e, 0xbd,
    0x12, 0x87, 0x07, 0x3e, 0x49, 0x49, 0xfd, 0x3d, 0x1d, 0x72,
    0x19, 0xbe, 0x6b, 0xfc, 0xd4, 0xbd, 0xf9, 0x8b, 0xac, 0xbd,
    0xd5, 0x08, 0xf6, 0x3d, 0xfa, 0x06, 0xfc, 0x3d, 0x12, 0x36,
    0x6f, 0xbe, 0x08, 0x72, 0xae, 0xbd, 0x11, 0xbf, 0x57, 0xbb,
    0xbc, 0xd9, 0x1c, 0x3e, 0xdf, 0xb6, 0x41, 0xbe, 0x94, 0x7d,
    0x94, 0xbd, 0x44, 0x37, 0xd1, 0x3d, 0x9f, 0xd1, 0xbc, 0x3d,
    0xe5, 0x8c, 0x92, 0x3c, 0xb5, 0xe3, 0x69, 0x3e, 0x64, 0x8d,
    0xed, 0x3d, 0x9d, 0x77, 0x43, 0xbe, 0x29, 0xe9, 0x59, 0xbd,
    0x0e, 0x46, 0xea, 0x3d, 0x11, 0x39, 0xd9, 0xbd, 0xab, 0x92,
    0x01, 0xbe, 0x17, 0x4d, 0xd8, 0x3d, 0xb0, 0x2f, 0xb7, 0xbd,
    0xa4, 0xa1, 0xd8, 0x3d, 0x64, 0xbe, 0x71, 0x3e, 0x71, 0xf2,
    0x00, 0xbd, 0x2c, 0x37, 0xc5, 0xbd, 0x37, 0xd0, 0x8f, 0x3c,
    0x0d, 0xc2, 0x17, 0xbe, 0x5f, 0xa4, 0xc1, 0xbc, 0x35, 0x8b,
    0x32, 0xbd, 0x63, 0x4c, 0x6e, 0xbe, 0xd8, 0xb3, 0x11, 0x3d,
    0x7a, 0x52, 0x38, 0xbd, 0xdb, 0x66, 0xb8, 0x3d, 0x33, 0xfc,
    0x0a, 0x3e, 0x1a, 0x20, 0x01, 0x3d, 0x00, 0x81, 0xa6, 0x3d,
    0x3e, 0xb5, 0x24, 0x3e, 0x50, 0x5b, 0xb2, 0xbd, 0xbd, 0x2a,
    0xee, 0xbd, 0x7c, 0x32, 0x89, 0xbd, 0x6a, 0x0d, 0x49, 0x3a,
    0xba, 0xfb, 0xad, 0xbd, 0x56, 0xca, 0xfe, 0xbd, 0x15, 0x45,
    0x1c, 0x3e, 0x29, 0x51, 0x99, 0x3d, 0x8d, 0x11, 0x7b, 0xbc,
    0x28, 0x35, 0x04, 0xbc, 0x99, 0xd2, 0x88, 0xbe, 0x34, 0x4d,
    0x25, 0x3d, 0x61, 0x31, 0x99, 0xbd, 0x74, 0x00, 0xa2, 0x3c,
    0x6e, 0xf8, 0x28, 0x3e, 0x72, 0xe2, 0x58, 0xbd, 0xff, 0xb6,
    0xde, 0x3c, 0xe8, 0x6f, 0x92, 0x3b, 0x7e, 0xe3, 0x42, 0xbe,
    0x1a, 0x24, 0xba, 0x3e, 0x15, 0x0a, 0x29, 0x3e, 0xe2, 0x44,
    0xcf, 0xbc, 0xaa, 0xcf, 0xf9, 0x3d, 0x2d, 0x76, 0xa2, 0xbd,
    0xd7, 0x78, 0x2c, 0x3e, 0x4c, 0x66, 0x21, 0xbe, 0xaa, 0xf7,
    0xba, 0xbd, 0xf8, 0xbf, 0x02, 0x3e, 0x09, 0xdf, 0xad, 0xbd,
    0x65, 0xd7, 0x5d, 0x3d, 0x40, 0x93, 0x61, 0x3e, 0x47, 0x93,
    0x88, 0xbd, 0x11, 0x64, 0x4d, 0xbe, 0x6f, 0xe1, 0x3f, 0x3e,
    0x41, 0x47, 0x8a, 0xbe, 0xd3, 0xe1, 0xa5, 0xbc, 0xc9, 0xfd,
    0x8a, 0xbc, 0xd5, 0x01, 0x89, 0x3c, 0x26, 0x80, 0x30, 0x3e,
    0x86, 0xdb, 0x48, 0xbe, 0x3e, 0x1b, 0x56, 0xbe, 0xd9, 0x66,
    0x82, 0x3d, 0xfd, 0x28, 0xff, 0xbb, 0xf6, 0x70, 0xc7, 0xbc,
    0x82, 0x4d, 0xa5, 0xbd, 0xed, 0xa3, 0x80, 0x3d, 0x29, 0xb2,
    0x66, 0xbd, 0x25, 0x46, 0xc8, 0x3c, 0x89, 0x32, 0x4c, 0xbc,
    0x68, 0x0f, 0x43, 0xbc, 0x86, 0xf4, 0x51, 0x3d, 0x97, 0x29,
    0xe9, 0x3c, 0x89, 0x4b, 0x8a, 0xbd, 0x52, 0xb4, 0x5e, 0xbd,
    0xb6, 0xa2, 0x80, 0xbd, 0x4d, 0x52, 0x09, 0xbc, 0x76, 0xb2,
    0xad, 0xbd, 0x79, 0xd6, 0x46, 0x3d, 0x7f, 0x81, 0x91, 0x90,
    0x7b, 0x93, 0x8f, 0x96, 0x93, 0xa4, 0xad, 0x66, 0x6a, 0x54,
    0x56, 0x9a, 0x76, 0xa2, 0x6d, 0x8b, 0x6c, 0x4e, 0x78, 0x92,
    0x97, 0x7e, 0x78, 0x73, 0x85, 0x80, 0x3e, 0x7e, 0x9c, 0x83,
    0x6e, 0x91, 0x92, 0x89, 0x95, 0x69, 0x7b, 0x82, 0x81, 0x95,
    0x92, 0x88, 0x5f, 0xb4, 0x88, 0x89, 0x94, 0x7e, 0x6a, 0x96,
    0x78, 0x98, 0x6d, 0x6b, 0x8e, 0x56, 0x72, 0x32, 0x58, 0xa5,
    0x8c, 0x60, 0x71, 0x83, 0x84, 0x67, 0x6d, 0x8d, 0x77, 0x7b,
    0xa5, 0x53, 0x54, 0x68, 0x37, 0x6a, 0x9e, 0x78, 0x6f, 0x9e,
    0x89, 0x97, 0x7b, 0x83, 0x67, 0x78, 0x7b, 0x89, 0x8b, 0x98,
    0x55, 0xc9, 0x78, 0x70, 0x9b, 0x76, 0x60, 0x86, 0x9b, 0x91,
    0x88, 0x7a, 0xa4, 0x47, 0x42, 0x2b, 0x40, 0x95, 0x79, 0x67,
    0x92, 0xa0, 0x85, 0x69, 0x80, 0x6f, 0x7f, 0x80, 0x87, 0x65,
    0x68, 0x5d, 0x44, 0x70, 0x81, 0x86, 0x6a, 0x8a, 0x69, 0x8e,
    0x7e, 0x97, 0x8d, 0x97, 0x6a, 0x87, 0xa3, 0x81, 0x46, 0xab,
    0x79, 0x91, 0x9f, 0x7c, 0x83, 0xa4, 0x99, 0x91, 0x7c, 0x97,
    0xa4, 0x3a, 0x54, 0x4b, 0x6a, 0xa3, 0x85, 0x90, 0x89, 0x8c,
    0x96, 0x93, 0x64, 0x8c, 0x98, 0x9e, 0x7f, 0x38, 0x59, 0x73,
    0x40, 0x79, 0x8f, 0xaa, 0x76, 0xaa, 0x78, 0x88, 0x7d, 0x90,
    0x9d, 0xa8, 0x8a, 0x61, 0x82, 0x9e, 0x51, 0xc0, 0x78, 0x90,
    0x91, 0x70, 0x57, 0x96, 0x9d, 0x8f, 0x7e, 0x5f, 0x9a, 0x59,
    0x7a, 0x39, 0x64, 0x88, 0x87, 0x6c, 0x79, 0x69, 0x84, 0x89,
    0x85, 0x80, 0x96, 0x6e, 0x83, 0x4f, 0x66, 0x80, 0x52, 0x80,
    0x96, 0x66, 0x7f, 0x9c, 0x90, 0x97, 0xa1, 0xa0, 0x80, 0x88,
    0x89, 0x6b, 0x9d, 0x9b, 0x42, 0xb5, 0x89, 0x7a, 0x98, 0x3b,
    0x8e, 0xa0, 0x61, 0x7b, 0x92, 0x51, 0xa8, 0x4b, 0x67, 0x61,
    0x9d, 0x6a, 0x92, 0x58, 0x8e, 0xa8, 0x97, 0xa0, 0x63, 0x8d,
    0xa7, 0x82, 0x9a, 0x47, 0x49, 0x72, 0x3b, 0x71, 0x7b, 0x56,
    0x7f, 0xd6, 0x73, 0x8d, 0x7e, 0x79, 0x86, 0x82, 0x5b, 0x60,
    0x69, 0x7a, 0x45, 0xa9, 0x64, 0x65, 0x84, 0x6b, 0xa0, 0x8b,
    0x7d, 0x56, 0x87, 0xa4, 0x91, 0x9b, 0x5f, 0x4f, 0xbd, 0x89,
    0xb1, 0x8c, 0xa8, 0x71, 0xb5, 0x9b, 0x99, 0x81, 0x73, 0xa2,
    0x94, 0x6f, 0x33, 0x38, 0x8b, 0xa3, 0x51, 0x74, 0x7f, 0xa1,
    0x8a, 0x4d, 0x97, 0x79, 0xbd, 0x77, 0x73, 0x77, 0x7b, 0x79,
    0x8c, 0x57, 0x84, 0x65, 0x87, 0x8b, 0x88, 0x8d, 0x96, 0x43,
    0x53, 0x85, 0x82, 0x8c, 0x6c, 0x71, 0xa4, 0x90, 0xaf, 0xab,
    0x91, 0x63, 0x94, 0x85, 0x6d, 0x96, 0x64, 0xab, 0xa0, 0x60,
    0x33, 0x10, 0x8e, 0xa7, 0x59, 0x93, 0x93, 0x81, 0x9b, 0x78,
    0x68, 0xa6, 0x90, 0x63, 0x5e, 0x6c, 0x82, 0x94, 0xa1, 0x68,
    0x7a, 0x7d, 0x94, 0x73, 0x8c, 0x74, 0x75, 0x42, 0x60, 0x78,
    0xa4, 0x98, 0x6e, 0x68, 0xa8, 0x8a, 0x91, 0x6c, 0x92, 0x7b,
    0x8c, 0x6c, 0x7c, 0x6b, 0x7d, 0x8c, 0x89, 0x6d, 0x63, 0x2c,
    0x84, 0x8d, 0x51, 0x87, 0x75, 0x5f, 0x6b, 0x68, 0x94, 0xa8,
    0x79, 0x74, 0x6a, 0x7e, 0x8d, 0x8b, 0xa8, 0x4d, 0x7e, 0x78,
    0x8e, 0x90, 0xa7, 0x8a, 0xa1, 0x45, 0x59, 0xa5, 0x9c, 0xb3,
    0x7f, 0x5b, 0x8f, 0x7e, 0xa6, 0x87, 0x74, 0x6c, 0x8b, 0x83,
    0x96, 0x86, 0x7c, 0x8f, 0x8e, 0x89, 0x4e, 0x54, 0x8f, 0x8d,
    0x5f, 0xb1, 0x7d, 0x70, 0x79, 0x6c, 0x70, 0x89, 0x94, 0x6f,
    0x89, 0x73, 0x82, 0x9f, 0xa4, 0x4d, 0x79, 0x61, 0x87, 0x80,
    0x87, 0x80, 0x6e, 0x4a, 0x6f, 0x86, 0x8d, 0xa8, 0x5f, 0x66,
    0xae, 0x74, 0xa6, 0xa2, 0x71, 0x63, 0x97, 0x6b, 0x8c, 0x85,
    0x65, 0x83, 0x88, 0x86, 0x6e, 0x5f, 0x96, 0xae, 0x7d, 0x76,
    0x7f, 0x5a, 0x9b, 0x72, 0x7b, 0x89, 0x9e, 0x5c, 0x79, 0x98,
    0xa6, 0x89, 0x93, 0x52, 0xa1, 0x56, 0x7c, 0x84, 0xb0, 0x7c,
    0x77, 0x6d, 0x86, 0x86, 0x9f, 0xb4, 0x5b, 0x55, 0x6d, 0xa6,
    0x92, 0x91, 0x6a, 0x5b, 0x7c, 0x73, 0x95, 0x93, 0x93, 0x96,
    0xa5, 0x61, 0x5c, 0x64, 0x80, 0x8c, 0x67, 0xcc, 0x8d, 0x78,
    0x8d, 0x82, 0x7d, 0x9a, 0xb0, 0x5d, 0x78, 0x86, 0x91, 0x78,
    0x85, 0x62, 0xa6, 0x80, 0xa3, 0x77, 0x97, 0x99, 0x91, 0x7f,
    0x9c, 0xc0, 0x3f, 0x3f, 0x2f, 0x90, 0x6c, 0x76, 0x46, 0x8e,
    0x30, 0x72, 0xb2, 0x1f, 0x76, 0x49, 0x79, 0x71, 0x5f, 0x91,
    0x9a, 0x7e, 0x9d, 0x44, 0x48, 0x7b, 0x49, 0xa1, 0x2b, 0x75,
    0x98, 0xc1, 0xdb, 0x93, 0x92, 0x6f, 0x76, 0x91, 0x69, 0x94,
    0x7b, 0x9e, 0x75, 0x84, 0x7e, 0x8b, 0x8c, 0x7c, 0x82, 0xb5,
    0x27, 0x1e, 0x74, 0x99, 0x58, 0x75, 0x36, 0x93, 0x42, 0x79,
    0x90, 0x35, 0x75, 0x49, 0x65, 0x96, 0x5f, 0x7f, 0x85, 0x77,
    0xa1, 0x32, 0x82, 0x91, 0x8e, 0xa6, 0x12, 0x81, 0x8c, 0xa3,
    0xba, 0x8a, 0x71, 0x89, 0x6d, 0x70, 0x95, 0x8d, 0x68, 0x97,
    0xa8, 0x87, 0x65, 0x71, 0xa0, 0x9a, 0x6a, 0x8b, 0x3c, 0x20,
    0x4e, 0x7c, 0x42, 0x74, 0x54, 0x92, 0x17, 0x9d, 0x7a, 0x09,
    0x7f, 0x45, 0x6d, 0x6c, 0x3e, 0x89, 0xaa, 0x9d, 0x85, 0x63,
    0x91, 0x99, 0x8f, 0x8e, 0x31, 0x7d, 0x8d, 0x7f, 0x82, 0x71,
    0x90, 0x7f, 0x90, 0x6d, 0x80, 0x8d, 0x74, 0x8b, 0x83, 0x94,
    0x67, 0x80, 0xa0, 0x66, 0x8d, 0x9d, 0x52, 0x3d, 0x41, 0x94,
    0x55, 0x58, 0x45, 0x6d, 0x15, 0x83, 0x7d, 0x00, 0x5c, 0x42,
    0x7c, 0x5b, 0x5e, 0x81, 0x93, 0xa9, 0x8d, 0x3a, 0x95, 0x86,
    0x8f, 0xa1, 0x53, 0x91, 0x91, 0x99, 0x8a, 0x99, 0x8b, 0x7d,
    0x6d, 0x58, 0x9f, 0x91, 0x58, 0xa5, 0x7a, 0x93, 0x5f, 0x73,
    0x6b, 0x83, 0x80, 0x75, 0x47, 0x3a, 0x69, 0x6a, 0x72, 0x48,
    0x2b, 0x73, 0x52, 0x6c, 0x70, 0x3d, 0x77, 0x46, 0x6a, 0x3b,
    0x69, 0x88, 0xa0, 0x8a, 0xb3, 0x34, 0x9b, 0x72, 0x8c, 0x82,
    0x3b, 0x8f, 0x6b, 0xaf, 0xa6, 0x4e, 0x98, 0x86, 0x91, 0x94,
    0x8c, 0x8f, 0x45, 0xa5, 0x78, 0x99, 0x6f, 0x6b, 0x7f, 0x83,
    0x8e, 0x96, 0x3d, 0x74, 0x5a, 0x93, 0x81, 0x78, 0x43, 0x7c,
    0x5b, 0x05, 0x5e, 0x19, 0x7d, 0x41, 0x90, 0x30, 0x53, 0xa3,
    0x82, 0x99, 0xab, 0x2e, 0x90, 0xb6, 0xa4, 0x40, 0x2e, 0x8a,
    0x8d, 0xc2, 0xb7, 0x5e, 0x8f, 0x68, 0x88, 0x72, 0x9b, 0x70,
    0x77, 0xb4, 0x2b, 0x40, 0x75, 0x26, 0x97, 0x9c, 0xad, 0x53,
    0x25, 0x69, 0xb8, 0xaf, 0xb1, 0x50, 0x93, 0x5e, 0x69, 0x57,
    0x6b, 0x48, 0x7a, 0x94, 0xb1, 0x5c, 0x33, 0x65, 0xa3, 0x98,
    0x53, 0x2f, 0x5b, 0x4b, 0x89, 0x3b, 0x58, 0x6c, 0xa2, 0x3a,
    0x24, 0x4f, 0x90, 0x55, 0x56, 0x6b, 0x9f, 0x13, 0x6c, 0xa5,
    0x21, 0x4d, 0x3d, 0x65, 0x70, 0xa4, 0xa1, 0x26, 0x29, 0x74,
    0xbf, 0x9c, 0xa3, 0x37, 0x88, 0x4f, 0x43, 0x5e, 0x41, 0x2c,
    0x9b, 0xad, 0x93, 0x50, 0x4a, 0x92, 0x7f, 0x88, 0x7e, 0x52,
    0x20, 0x60, 0x75, 0x13, 0x60, 0x56, 0x8d, 0x4d, 0x33, 0x2b,
    0x56, 0x4a, 0x29, 0x66, 0xb6, 0x2a, 0x52, 0xa6, 0x40, 0x62,
    0x4e, 0x33, 0x9a, 0xb8, 0x8e, 0x25, 0x44, 0x5f, 0xb2, 0xc8,
    0xe1, 0x3f, 0x34, 0x5f, 0x37, 0x62, 0xad, 0x30, 0x8a, 0xbd,
    0x9d, 0x30, 0x2c, 0x79, 0xa3, 0xaa, 0x7e, 0x43, 0x1b, 0x2f,
    0x6a, 0x19, 0x82, 0x4e, 0x76, 0x5b, 0x23, 0x2c, 0x6b, 0x79,
    0x79, 0x64, 0xa3, 0x12, 0x68, 0xb6, 0x09, 0x2b, 0x60, 0x56,
    0x9e, 0xb5, 0xa0, 0x43, 0x2a, 0x39, 0x83, 0xa3, 0xd2, 0x29,
    0x53, 0x46, 0x49, 0x35, 0xa3, 0x3d, 0x81, 0xa1, 0x8e, 0x1f,
    0x42, 0x8e, 0x8f, 0xb8, 0x6f, 0x3e, 0x2d, 0x7b, 0x8f, 0x15,
    0x82, 0x4f, 0x7d, 0x3a, 0x4b, 0x3b, 0x72, 0x86, 0x76, 0x64,
    0x94, 0x48, 0x69, 0xa4, 0x24, 0x5e, 0x67, 0x14, 0x9d, 0xae,
    0x95, 0x2d, 0x3c, 0x77, 0x9c, 0x77, 0x9c, 0x39, 0x34, 0x5a,
    0x24, 0x5f, 0xc5, 0x39, 0x64, 0xae, 0x9d, 0x3c, 0x1b, 0x75,
    0xb9, 0x99, 0xb1, 0x27, 0x22, 0x38, 0x9a, 0x3b, 0x63, 0x72,
    0x8c, 0x43, 0x4c, 0x25, 0x9b, 0x3d, 0x63, 0x7b, 0xa3, 0x3f,
    0x56, 0xc9, 0x34, 0x47, 0x68, 0x33, 0x6f, 0x8e, 0xa6, 0x3c,
    0x38, 0x3e, 0x78, 0x88, 0xa6, 0x43, 0x31, 0x39, 0x2b, 0x47,
    0xa0, 0x4f, 0x8e, 0x9f, 0xff, 0x27, 0x52, 0xa2, 0x9e, 0x91,
    0x79, 0x39, 0x35, 0x2f, 0x79, 0x5c, 0x3a, 0x6b, 0x5e, 0x4e,
    0x23, 0x62, 0x88, 0x49, 0x4f, 0x66, 0xb2, 0x2f, 0x69, 0x7c,
    0x51, 0x5d, 0x71, 0x50, 0x71, 0x97, 0x93, 0x6c, 0x5d, 0xa7,
    0xaf, 0xa4, 0x8f, 0x63, 0xaf, 0x6f, 0x8f, 0x93, 0x82, 0x84,
    0x8f, 0x78, 0x82, 0x70, 0x88, 0x89, 0x9b, 0x90, 0x78, 0x77,
    0xb1, 0x6e, 0x7b, 0x6a, 0x9e, 0x89, 0x93, 0x5d, 0x53, 0x86,
    0x74, 0x78, 0x82, 0x73, 0x82, 0x5c, 0x89, 0x68, 0x73, 0x71,
    0x74, 0x84, 0x6e, 0x92, 0x79, 0x7c, 0x59, 0x9a, 0x9b, 0xa0,
    0x74, 0x78, 0xa6, 0x84, 0x93, 0x80, 0x8d, 0x85, 0x69, 0xa7,
    0x67, 0x6b, 0xa5, 0xa5, 0x7c, 0x8d, 0x74, 0xa1, 0x9d, 0x66,
    0x92, 0x82, 0xa3, 0x9f, 0x91, 0x42, 0x33, 0xbe, 0x69, 0x76,
    0x76, 0x91, 0x8b, 0x8b, 0x7d, 0x98, 0x7d, 0x65, 0x72, 0x72,
    0x74, 0xa1, 0x7d, 0x60, 0x83, 0xa4, 0xb7, 0xa8, 0x78, 0x5b,
    0x91, 0x99, 0xa7, 0x7a, 0x7c, 0x87, 0x87, 0xa6, 0x68, 0x7b,
    0x79, 0xa5, 0x99, 0x96, 0x5e, 0x73, 0x8d, 0x4b, 0x7f, 0x70,
    0x93, 0x8b, 0x69, 0x14, 0x4d, 0xb2, 0x70, 0x80, 0x63, 0x68,
    0x90, 0x89, 0x8e, 0x5d, 0x71, 0x8b, 0x77, 0x80, 0x9f, 0x8a,
    0x7f, 0x65, 0x86, 0xb0, 0xbb, 0xad, 0x79, 0x62, 0x95, 0x97,
    0x85, 0x6e, 0x79, 0x9d, 0x6f, 0x93, 0x6b, 0x6a, 0x8f, 0xad,
    0x81, 0xa4, 0x70, 0x66, 0xa2, 0x68, 0x7f, 0x6d, 0x97, 0x91,
    0x8f, 0x51, 0x4f, 0x65, 0x73, 0x69, 0x80, 0x87, 0x96, 0x71,
    0x82, 0x7a, 0x69, 0x7d, 0x73, 0x65, 0x6c, 0x92, 0x6c, 0x84,
    0x62, 0xa8, 0xb1, 0x9e, 0x66, 0x7d, 0x87, 0x97, 0x85, 0x7e,
    0x78, 0x8a, 0x83, 0x83, 0x5e, 0x62, 0x83, 0x91, 0x91, 0x8b,
    0x8d, 0x8e, 0x95, 0x4c, 0x75, 0x67, 0x88, 0x83, 0x6d, 0x65,
    0x5b, 0x93, 0x5d, 0x65, 0x82, 0x85, 0x91, 0x6d, 0x9c, 0x6b,
    0x5f, 0x8a, 0x76, 0x6e, 0xa1, 0x9b, 0x86, 0xa2, 0x7f, 0xb3,
    0x9d, 0xbd, 0x91, 0x5a, 0x81, 0x76, 0x7e, 0x98, 0x56, 0x83,
    0x89, 0x8b, 0x80, 0xa7, 0x9f, 0xa5, 0x71, 0x98, 0x7c, 0xa6,
    0x83, 0x7e, 0x82, 0x74, 0x87, 0x7e, 0x68, 0x47, 0x46, 0x8b,
    0x67, 0x68, 0x70, 0x64, 0x87, 0x5a, 0xf2, 0xf3, 0x07, 0xbf,
    0xec, 0xe6, 0x06, 0xbf, 0xe6, 0xd9, 0x05, 0xbf, 0xe0, 0xcc,
    0x04, 0xbf, 0xda, 0xbf, 0x03, 0xbf, 0xf9, 0x2d, 0x03, 0xbf,
    0xce, 0xa5, 0x01, 0xbf, 0xc8, 0x98, 0x00, 0xbf, 0x83, 0x17,
    0xff, 0xbe, 0xcb, 0x3d, 0xfd, 0xbe, 0x6b, 0xe3, 0xfa, 0xbe,
    0x5f, 0xc9, 0xf8, 0xbe, 0x53, 0xaf, 0xf6, 0xbe, 0x46, 0x95,
    0xf4, 0xbe, 0x3a, 0x7b, 0xf2, 0xbe, 0x2e, 0x61, 0xf0, 0xbe,
    0x1a, 0xb7, 0xed, 0xbe, 0x16, 0x2d, 0xec, 0xbe, 0x12, 0x4d,
    0xe9, 0xbe, 0xe6, 0x32, 0xe8, 0xbe, 0x77, 0xac, 0xe5, 0xbe,
    0xf4, 0xa8, 0xe3, 0xbe, 0xd9, 0xaa, 0xe1, 0xbe, 0x20, 0xb9,
    0xde, 0xbe, 0xc1, 0x76, 0xdd, 0xbe, 0x66, 0xd5, 0xdb, 0xbe,
    0xa9, 0x42, 0xd9, 0xbe, 0xca, 0x68, 0xd7, 0xbe, 0x91, 0x0e,
    0xd5, 0xbe, 0x85, 0xf4, 0xd2, 0xbe, 0xd8, 0xfd, 0xd0, 0xbe,
    0x44, 0xf6, 0xce, 0xbe, 0x80, 0x71, 0xcc, 0xbe, 0xdc, 0xc0,
    0xca, 0xbe, 0x4e, 0xc4, 0xc7, 0xbe, 0x88, 0xd0, 0xc5, 0xbe,
    0x35, 0x35, 0xc4, 0xbe, 0xf4, 0x77, 0xc2, 0xbe, 0xdf, 0x8f,
    0xbf, 0xbe, 0x7d, 0x69, 0xbe, 0xbe, 0xff, 0xd5, 0xbb, 0xbe,
    0x33, 0x2e, 0xb9, 0xbe, 0xfe, 0x65, 0xb8, 0xbe, 0x77, 0xfe,
    0xb4, 0xbe, 0xf6, 0x99, 0xb3, 0xbe, 0x02, 0xe9, 0xb0, 0xbe,
    0x76, 0xa0, 0xae, 0xbe, 0x90, 0x7c, 0xad, 0xbe, 0x10, 0x79,
    0xaa, 0xbe, 0x90, 0x68, 0xa9, 0xbe, 0x83, 0xbd, 0xa7, 0xbe,
    0x6f, 0x6d, 0xa4, 0xbe, 0xec, 0xad, 0xa2, 0xbe, 0x60, 0x45,
    0xa0, 0xbe, 0xd9, 0x71, 0x9d, 0xbe, 0xd3, 0x9a, 0x9c, 0xbe,
    0x3a, 0x34, 0x9a, 0xbe, 0x4c, 0x50, 0x98, 0xbe, 0xa4, 0x7e,
    0x95, 0xbe, 0x96, 0xd7, 0x93, 0xbe, 0x31, 0x94, 0x91, 0xbe,
    0x36, 0xae, 0x8f, 0xbe, 0x0e, 0xd2, 0x8d, 0xbe, 0x00, 0x8a,
    0x8c, 0xbe, 0x6e, 0xcf, 0x89, 0xbe, 0xf1, 0xcd, 0x87, 0xbe,
    0x12, 0xee, 0x84, 0xbe, 0xaa, 0xfa, 0x82, 0xbe, 0x9d, 0xde,
    0x80, 0xbe, 0x7d, 0x4c, 0x7d, 0xbe, 0xba, 0xff, 0x7a, 0xbe,
    0x93, 0xf7, 0x74, 0xbe, 0x4c, 0x3a, 0x70, 0xbe, 0xac, 0x23,
    0x6d, 0xbe, 0x0c, 0xa1, 0x67, 0xbe, 0x25, 0x1a, 0x66, 0xbe,
    0xc6, 0x65, 0x60, 0xbe, 0x9d, 0xbe, 0x5b, 0xbe, 0x32, 0xf9,
    0x57, 0xbe, 0x26, 0x1c, 0x53, 0xbe, 0x27, 0xc4, 0x4f, 0xbe,
    0x70, 0x3f, 0x4c, 0xbe, 0xe1, 0x12, 0x48, 0xbe, 0x42, 0x92,
    0x43, 0xbe, 0x5b, 0x79, 0x3e, 0xbe, 0xa2, 0x07, 0x39, 0xbe,
    0x49, 0x5a, 0x36, 0xbe, 0xa4, 0x77, 0x32, 0xbe, 0x6d, 0xee,
    0x2e, 0xbe, 0xb0, 0x91, 0x2a, 0xbe, 0x26, 0xf9, 0x25, 0xbe,
    0x3e, 0xb0, 0x21, 0xbe, 0x37, 0x13, 0x1d, 0xbe, 0xf5, 0xd5,
    0x1a, 0xbe, 0xf6, 0xcf, 0x14, 0xbe, 0xda, 0xc9, 0x10, 0xbe,
    0xe2, 0x7f, 0x0c, 0xbe, 0x7b, 0xd3, 0x07, 0xbe, 0x83, 0x7b,
    0x04, 0xbe, 0xb3, 0x84, 0xff, 0xbd, 0x20, 0xbc, 0xf6, 0xbd,
    0xf6, 0xfa, 0xee, 0xbd, 0x85, 0x0c, 0xe6, 0xbd, 0xe6, 0x69,
    0xdd, 0xbd, 0x51, 0xb3, 0xd3, 0xbd, 0xd5, 0x9e, 0xcb, 0xbd,
    0x75, 0x41, 0xc2, 0xbd, 0x88, 0xfc, 0xbb, 0xbd, 0xbf, 0x5b,
    0xb2, 0xbd, 0x65, 0x3b, 0xaa, 0xbd, 0x50, 0x4d, 0xa1, 0xbd,
    0x36, 0x8c, 0x9b, 0xbd, 0x17, 0xf6, 0x92, 0xbd, 0x99, 0xbc,
    0x89, 0xbd, 0x11, 0x47, 0x83, 0xbd, 0x80, 0x46, 0x73, 0xbd,
    0xc5, 0x05, 0x65, 0xbd, 0x81, 0x68, 0x51, 0xbd, 0x24, 0xc7,
    0x41, 0xbd, 0x5f, 0x63, 0x35, 0xbd, 0x8f, 0x80, 0x22, 0xbd,
    0xf4, 0xc6, 0x0e, 0xbd, 0x13, 0x08, 0x00, 0xbd, 0x6b, 0x81,
    0xdb, 0xbc, 0xb0, 0xae, 0xb5, 0xbc, 0x3e, 0xf7, 0x93, 0xbc,
    0x32, 0x57, 0x6c, 0xbc, 0x20, 0x6e, 0x2c, 0xbc, 0x8e, 0x15,
    0xc4, 0xbb, 0x6f, 0x21, 0xa9, 0xba, 0xb3, 0x99, 0x20, 0x3b,
    0x53, 0x67, 0xec, 0x3b, 0x52, 0x5e, 0x2f, 0x3c, 0x68, 0x14,
    0x74, 0x3c, 0x3d, 0xd8, 0x9c, 0x3c, 0x77, 0xb6, 0xb9, 0x3c,
    0x52, 0x1d, 0xdd, 0x3c, 0xc3, 0xb0, 0xff, 0x3c, 0x1e, 0x30,
    0x0d, 0x3d, 0x69, 0x96, 0x1d, 0x3d, 0x78, 0x53, 0x32, 0x3d,
    0x6c, 0xdc, 0x43, 0x3d, 0x6b, 0xeb, 0x53, 0x3d, 0x27, 0x0a,
    0x65, 0x3d, 0xef, 0xf7, 0x75, 0x3d, 0x26, 0xc8, 0x83, 0x3d,
    0xc8, 0x78, 0x8b, 0x3d, 0xb4, 0xae, 0x95, 0x3d, 0x86, 0x12,
    0x9e, 0x3d, 0xc5, 0xd7, 0xa4, 0x3d, 0x79, 0x25, 0xad, 0x3d,
    0xc2, 0x5d, 0xb6, 0x3d, 0xc5, 0xe7, 0xbe, 0x3d, 0xe5, 0x5f,
    0xc6, 0x3d, 0xac, 0x88, 0xcf, 0x3d, 0x9d, 0xcc, 0xd7, 0x3d,
    0x08, 0x0c, 0xdf, 0x3d, 0xb0, 0xa2, 0xe9, 0x3d, 0x98, 0xc1,
    0xf0, 0x3d, 0x65, 0x1c, 0xf8, 0x3d, 0x0c, 0x62, 0x00, 0x3e,
    0x9a, 0xf0, 0x04, 0x3e, 0x67, 0x33, 0x08, 0x3e, 0x61, 0x3e,
    0x0c, 0x3e, 0x2c, 0x80, 0x11, 0x3e, 0x02, 0xa4, 0x14, 0x3e,
    0x16, 0xa4, 0x19, 0x3e, 0xdf, 0x80, 0x1d, 0x3e, 0xce, 0x16,
    0x23, 0x3e, 0x28, 0x3f, 0x27, 0x3e, 0x78, 0x9d, 0x2a, 0x3e,
    0x4f, 0x2d, 0x30, 0x3e, 0x54, 0x52, 0x33, 0x3e, 0x49, 0xcc,
    0x36, 0x3e, 0xec, 0x6f, 0x3c, 0x3e, 0x6e, 0x7d, 0x40, 0x3e,
    0x50, 0x91, 0x43, 0x3e, 0xf5, 0xb8, 0x47, 0x3e, 0xdf, 0x8d,
    0x4d, 0x3e, 0x1d, 0x02, 0x51, 0x3e, 0x00, 0x67, 0x55, 0x3e,
    0xde, 0xb2, 0x59, 0x3e, 0x07, 0xfb, 0x5d, 0x3e, 0x32, 0x27,
    0x60, 0x3e, 0x50, 0xc6, 0x65, 0x3e, 0x14, 0x98, 0x6a, 0x3e,
    0x2c, 0x5c, 0x6e, 0x3e, 0xce, 0x03, 0x72, 0x3e, 0x04, 0x72,
    0x76, 0x3e, 0xc9, 0x6b, 0x7a, 0x3e, 0x76, 0xf7, 0x7d, 0x3e,
    0x40, 0x62, 0x82, 0x3e, 0xea, 0x93, 0x84, 0x3e, 0x73, 0xc5,
    0x84, 0x3e, 0x47, 0xe4, 0x87, 0x3e, 0x57, 0xef, 0x89, 0x3e,
    0x63, 0x09, 0x8c, 0x3e, 0x03, 0x06, 0x8e, 0x3e, 0x7b, 0x3d,
    0x90, 0x3e, 0x87, 0x57, 0x92, 0x3e, 0x00, 0x27, 0x95, 0x3e,
    0xd5, 0xe9, 0x95, 0x3e, 0xac, 0xa5, 0x98, 0x3e, 0xb8, 0xbf,
    0x9a, 0x3e, 0x43, 0xd1, 0x9b, 0x3e, 0xd0, 0xf3, 0x9e, 0x3e,
    0xdc, 0x0d, 0xa1, 0x3e, 0xe8, 0x27, 0xa3, 0x3e, 0xf4, 0x41,
    0xa5, 0x3e, 0x01, 0x5c, 0xa7, 0x3e, 0xf0, 0x6e, 0xaa, 0x3e,
    0x19, 0x90, 0xab, 0x3e, 0x25, 0xaa, 0xad, 0x3e, 0x31, 0xc4,
    0xaf, 0x3e, 0xb3, 0x0e, 0xb1, 0x3e, 0x49, 0xf8, 0xb3, 0x3e,
    0x55, 0x12, 0xb6, 0x3e, 0x62, 0x2c, 0xb8, 0x3e, 0x6e, 0x46,
    0xba, 0x3e, 0x66, 0x89, 0xbc, 0x3e, 0x86, 0x7a, 0xbe, 0x3e,
    0x92, 0x94, 0xc0, 0x3e, 0x9e, 0xae, 0xc2, 0x3e, 0xaa, 0xc8,
    0xc4, 0x3e, 0xb6, 0xe2, 0xc6, 0x3e, 0x84, 0x01, 0xc9, 0x3e,
    0xcf, 0x16, 0xcb, 0x3e, 0xdb, 0x30, 0xcd, 0x3e, 0xe7, 0x4a,
    0xcf, 0x3e, 0xf3, 0x64, 0xd1, 0x3e, 0xff, 0x7e, 0xd3, 0x3e,
    0x0b, 0x99, 0xd5, 0x3e, 0x17, 0xb3, 0xd7, 0x3e, 0x23, 0xcd,
    0xd9, 0x3e, 0x30, 0xe7, 0xdb, 0x3e, 0x3c, 0x01, 0xde, 0x3e,
    0x48, 0x1b, 0xe0, 0x3e, 0x54, 0x35, 0xe2, 0x3e, 0x60, 0x4f,
    0xe4, 0x3e, 0x6c, 0x69, 0xe6, 0x3e, 0x78, 0x83, 0xe8, 0x3e,
    0x84, 0x9d, 0xea, 0x3e, 0x90, 0xb7, 0xec, 0x3e, 0x9d, 0xd1,
    0xee, 0x3e, 0xa9, 0xeb, 0xf0, 0x3e, 0xb5, 0x05, 0xf3, 0x3e,
    0xc1, 0x1f, 0xf5, 0x3e, 0xcd, 0x39, 0xf7, 0x3e, 0xd9, 0x53,
    0xf9, 0x3e, 0xe5, 0x6d, 0xfb, 0x3e, 0xf1, 0x87, 0xfd, 0x3e,
    0xfe, 0xa1, 0xff, 0x3e, 0x05, 0xde, 0x00, 0x3f, 0x0b, 0xeb,
    0x01, 0x3f, 0x11, 0xf8, 0x02, 0x3f, 0x17, 0x05, 0x04, 0x3f,
    0x64, 0x0c, 0x04, 0x3d, 0x77, 0x0f, 0x08, 0xbd, 0x89, 0xff,
    0xaa, 0x3d, 0x1c, 0x3d, 0xb5, 0x3d, 0x28, 0xb3, 0xb3, 0xbd
  };

  return AI_HANDLE_PTR(s_network_weights);
}

