#include "network_data.h"

ai_handle ai_network_data_weights_get(void)
{

  AI_ALIGNED(4)
  static const ai_u8 s_network_weights[ 7480 ] = {
    0x71, 0xcd, 0x45, 0xbe, 0xa7, 0x15, 0x6e, 0x3e, 0xc8, 0x8e,
    0xa8, 0x3e, 0x6e, 0x45, 0xc3, 0x3d, 0x14, 0x4d, 0xa7, 0xbe,
    0x21, 0xbf, 0x18, 0xbe, 0xb1, 0x2c, 0x3e, 0xbe, 0x08, 0xb5,
    0x29, 0xbe, 0x4c, 0x65, 0xd8, 0xbd, 0x06, 0xc2, 0xd9, 0xbd,
    0x59, 0x94, 0x2a, 0xbe, 0x34, 0xdc, 0x0e, 0x3e, 0x0f, 0x70,
    0x1c, 0xbd, 0xed, 0x97, 0x95, 0xbe, 0x26, 0x0b, 0x53, 0x3e,
    0x77, 0x93, 0x47, 0xbe, 0x8c, 0xd8, 0x4d, 0xbe, 0x9e, 0x70,
    0x33, 0x3e, 0x4b, 0x05, 0x90, 0x3d, 0xd5, 0x92, 0xe4, 0x3d,
    0x50, 0x43, 0x0e, 0xbe, 0x30, 0x14, 0xa6, 0xbe, 0xb7, 0x38,
    0x8b, 0xbe, 0xb3, 0xd9, 0x13, 0x3e, 0x9a, 0x4d, 0x1e, 0x3e,
    0xc7, 0xce, 0x52, 0xbe, 0x2c, 0xf7, 0x63, 0x3e, 0x9a, 0x04,
    0x4a, 0x3e, 0x46, 0xfc, 0x55, 0x3e, 0x1e, 0x68, 0x72, 0xbe,
    0x51, 0xd5, 0x96, 0xbe, 0x15, 0x28, 0xc0, 0x3e, 0x4e, 0x59,
    0x7a, 0xbe, 0x70, 0xa0, 0x6d, 0xbd, 0xd1, 0xdd, 0x32, 0x3e,
    0xa4, 0x71, 0xe3, 0xbc, 0xb3, 0x46, 0x09, 0xbe, 0xee, 0x45,
    0xb2, 0x3d, 0x23, 0xfb, 0xa4, 0x3e, 0xbd, 0x07, 0xe0, 0xbd,
    0xa3, 0x80, 0xa0, 0x3e, 0x28, 0x4f, 0x83, 0x3e, 0xf7, 0x90,
    0x23, 0x3d, 0x38, 0x2c, 0xa8, 0x3e, 0xf8, 0xc2, 0x4a, 0x3e,
    0xb0, 0xba, 0xe2, 0x3d, 0x94, 0x74, 0x0a, 0x3d, 0x2e, 0x3f,
    0x68, 0x3d, 0x4c, 0x6e, 0x95, 0x3e, 0x02, 0x27, 0x87, 0x3d,
    0xe8, 0xe2, 0x0b, 0x3e, 0x38, 0x08, 0x74, 0x3e, 0x51, 0x2b,
    0x4c, 0x3d, 0x07, 0x52, 0x44, 0xbc, 0xac, 0x79, 0xb7, 0xbd,
    0xf9, 0x06, 0x1b, 0xbe, 0xe4, 0xc2, 0x50, 0x3d, 0x59, 0xd1,
    0xb4, 0xbe, 0xf7, 0x35, 0xa9, 0x3c, 0xfd, 0xa0, 0x88, 0xbe,
    0x04, 0x11, 0x8c, 0xbe, 0xee, 0x39, 0x9a, 0xbd, 0x5b, 0xbf,
    0x94, 0xbe, 0x8e, 0x28, 0xd2, 0x3e, 0xa0, 0x15, 0x2c, 0xbe,
    0x4f, 0xaa, 0xb8, 0xbe, 0x1b, 0x17, 0x38, 0x39, 0xb6, 0xd2,
    0x55, 0xbe, 0x46, 0x1a, 0x51, 0x3d, 0x79, 0x3d, 0xa2, 0x3e,
    0x90, 0x63, 0x07, 0xbe, 0x64, 0x10, 0x3a, 0xbe, 0x12, 0xde,
    0x18, 0xbe, 0xf4, 0x36, 0x6d, 0xbd, 0xab, 0xf8, 0x83, 0x3d,
    0x8f, 0xad, 0xf2, 0x3a, 0xb5, 0x9f, 0xf1, 0x3d, 0x20, 0xf4,
    0x38, 0x3e, 0x46, 0x45, 0xba, 0xbd, 0x9e, 0x08, 0x3c, 0xbe,
    0x2c, 0x05, 0x31, 0xbe, 0x6d, 0xeb, 0x4a, 0xbe, 0x31, 0xa6,
    0xa0, 0xbd, 0xa3, 0x7a, 0x03, 0x3e, 0xb1, 0x32, 0x8b, 0xbc,
    0xb9, 0x48, 0x55, 0xbe, 0xfc, 0xe6, 0xd6, 0xbd, 0x54, 0xca,
    0xe3, 0x3c, 0xda, 0x2f, 0x95, 0x3d, 0x87, 0x1a, 0x0a, 0xbe,
    0x6a, 0xf7, 0xa6, 0x3c, 0x22, 0x2f, 0xf8, 0x3d, 0xc5, 0xaa,
    0xf7, 0xbd, 0xa4, 0x6b, 0x25, 0xbe, 0x8b, 0x7b, 0x19, 0xbc,
    0x40, 0x84, 0x1d, 0x3e, 0x05, 0xfd, 0x65, 0x3e, 0x98, 0xea,
    0x45, 0x3d, 0x79, 0x68, 0x42, 0x3e, 0xf8, 0x3d, 0x75, 0x3d,
    0xc3, 0x04, 0x40, 0x3d, 0x3b, 0x2b, 0x08, 0xbe, 0x40, 0x1b,
    0xf2, 0xbd, 0x48, 0x50, 0x06, 0xbd, 0x91, 0x8a, 0x83, 0x3c,
    0xf3, 0xdc, 0xab, 0xbd, 0x7a, 0x7e, 0xe3, 0xbd, 0x19, 0xa9,
    0xe1, 0x3d, 0xa0, 0x87, 0x5a, 0xbd, 0xc0, 0x8a, 0xa7, 0x3d,
    0xcf, 0xb0, 0x80, 0xbe, 0x81, 0x20, 0x5f, 0xbe, 0xc9, 0x85,
    0xf6, 0x3d, 0xe1, 0x89, 0x19, 0xbe, 0xf1, 0x08, 0x79, 0xbd,
    0xbe, 0x70, 0x52, 0x3e, 0xc7, 0x72, 0xdd, 0x3d, 0x6a, 0x95,
    0x21, 0xbe, 0x12, 0xaf, 0xa6, 0xbd, 0x5e, 0x98, 0xf0, 0x3d,
    0x97, 0x32, 0xc5, 0x3d, 0x0a, 0x36, 0x99, 0x3d, 0x5a, 0x28,
    0x0b, 0xbe, 0x3d, 0x22, 0xb6, 0x3c, 0xfb, 0xf9, 0x12, 0x3e,
    0xbd, 0xf0, 0x76, 0x3d, 0xa9, 0x0f, 0x28, 0xbd, 0xd7, 0xe1,
    0x8e, 0xba, 0xba, 0x40, 0x22, 0x3d, 0x23, 0x9a, 0x63, 0xbd,
    0x76, 0x06, 0x8c, 0x3c, 0x6a, 0xb6, 0xbb, 0x3d, 0xf0, 0x25,
    0x15, 0x3e, 0x70, 0x9d, 0x0d, 0xbe, 0x47, 0x99, 0x92, 0x3d,
    0x21, 0x79, 0x5a, 0xbd, 0xc1, 0x2c, 0xb9, 0x3d, 0xc4, 0x6c,
    0x02, 0x3e, 0xa4, 0xbc, 0xf4, 0x3d, 0xf7, 0x4f, 0x96, 0x3d,
    0x1f, 0xe9, 0x8c, 0xbd, 0x8f, 0xef, 0x2f, 0xbe, 0x04, 0x36,
    0x92, 0x3d, 0xb4, 0xbd, 0x6f, 0x3e, 0x3d, 0xcc, 0x35, 0x3e,
    0x30, 0x77, 0x81, 0x3d, 0x96, 0xa2, 0x86, 0xbd, 0x86, 0x6a,
    0x2e, 0x3e, 0x4a, 0x7a, 0x7d, 0xbd, 0x69, 0x09, 0xb8, 0xbd,
    0x88, 0xc4, 0x07, 0x3e, 0x39, 0xca, 0xeb, 0x3d, 0xb6, 0x52,
    0xb9, 0x3d, 0xca, 0x47, 0x3b, 0xbe, 0xe9, 0x7f, 0xc0, 0x3c,
    0xee, 0x6c, 0x0c, 0x3e, 0xb5, 0xee, 0x99, 0x3d, 0x6e, 0xcd,
    0xdf, 0x3c, 0xc0, 0x6b, 0xa9, 0xbd, 0xc8, 0x66, 0xa0, 0xbd,
    0x51, 0x6f, 0xf4, 0x3b, 0xd6, 0x1d, 0x41, 0xbe, 0xd9, 0xaf,
    0x9c, 0xbb, 0x19, 0xaa, 0x43, 0xbd, 0x30, 0x4e, 0x0b, 0x3e,
    0x75, 0xf6, 0x3a, 0x3d, 0x9a, 0x6c, 0xf3, 0x3d, 0x1f, 0x9e,
    0xb5, 0xbc, 0xfa, 0xc1, 0x0f, 0x3e, 0x34, 0x5e, 0x11, 0xbe,
    0x23, 0x66, 0xf8, 0x3d, 0x37, 0x13, 0x5e, 0xbe, 0xb2, 0x33,
    0x4e, 0xbe, 0xf4, 0x36, 0x30, 0x3e, 0x2c, 0x01, 0xfc, 0xbd,
    0x71, 0x50, 0xad, 0x3d, 0xc2, 0xc7, 0xf0, 0xbd, 0x4e, 0xa5,
    0x45, 0x3b, 0xd9, 0xa6, 0xfd, 0x3d, 0xde, 0x9f, 0x74, 0x3e,
    0x8c, 0xba, 0x7a, 0x3e, 0xc2, 0xee, 0x11, 0x3e, 0x76, 0xd2,
    0x83, 0xbd, 0xb8, 0x6d, 0x99, 0x3d, 0x8a, 0x6a, 0xbc, 0xbd,
    0x4e, 0x9f, 0x75, 0xbe, 0x1e, 0x03, 0xf0, 0xbd, 0xcb, 0xfb,
    0xd8, 0x3d, 0x4e, 0x4d, 0x21, 0x3e, 0x72, 0x16, 0xfa, 0x3d,
    0x00, 0xb6, 0xe3, 0xbc, 0x1a, 0x4f, 0xa6, 0x3a, 0xba, 0xe1,
    0x17, 0xbc, 0xe0, 0x65, 0x26, 0x3e, 0xd5, 0x5a, 0xe8, 0x3d,
    0x18, 0x23, 0x4f, 0xbe, 0xc7, 0xa0, 0x28, 0xbe, 0xe6, 0x44,
    0x1c, 0x3d, 0x54, 0xb3, 0x89, 0xbd, 0x90, 0xe3, 0xf7, 0x3d,
    0xc3, 0xb5, 0x3d, 0xbd, 0x40, 0x0e, 0x56, 0xbe, 0x78, 0xba,
    0x90, 0x3d, 0xe4, 0xde, 0x56, 0x3e, 0xce, 0x61, 0xed, 0x3b,
    0x20, 0xb5, 0x56, 0x3d, 0xd0, 0x25, 0x3c, 0x3b, 0xc4, 0xbb,
    0x20, 0xbd, 0xcb, 0x00, 0xb9, 0xbd, 0x85, 0xf8, 0x72, 0xbe,
    0x0f, 0x72, 0x8b, 0xbd, 0x32, 0x6b, 0x15, 0xbe, 0x36, 0x88,
    0x61, 0xbe, 0x2b, 0x06, 0x58, 0x3d, 0x91, 0x93, 0x29, 0xbe,
    0x4d, 0x33, 0x12, 0xbc, 0x49, 0x2b, 0x0a, 0xbe, 0x82, 0x6d,
    0xf3, 0x3d, 0x2f, 0x3c, 0xec, 0x3b, 0xce, 0x6f, 0x4a, 0x3d,
    0x0c, 0x59, 0xa6, 0xbe, 0x65, 0x74, 0x96, 0xbd, 0x32, 0x46,
    0x0a, 0x3e, 0x55, 0xe7, 0xce, 0xbd, 0xe8, 0x6e, 0x32, 0x3e,
    0x84, 0x6c, 0x5f, 0x3e, 0xac, 0x18, 0xd3, 0x3c, 0x5e, 0x47,
    0x1f, 0xba, 0x63, 0x8b, 0x37, 0xbd, 0x9c, 0xd9, 0xb9, 0xbc,
    0x61, 0x29, 0x68, 0x3e, 0xc8, 0x25, 0xc8, 0x3c, 0xfd, 0xb9,
    0x83, 0xbd, 0x58, 0x00, 0xb6, 0x3d, 0xd0, 0x3d, 0x19, 0xbe,
    0xec, 0x50, 0xf8, 0x3c, 0xcc, 0x4d, 0x36, 0xbd, 0xb6, 0xd1,
    0x13, 0x3e, 0x59, 0xe1, 0xac, 0x3d, 0x90, 0x06, 0x4d, 0xba,
    0x29, 0xd1, 0x62, 0xbe, 0xcb, 0x4e, 0xfe, 0xbd, 0xc2, 0x4a,
    0x9e, 0xbc, 0x97, 0xd1, 0x2d, 0xbc, 0xc3, 0x3f, 0x56, 0xbc,
    0xbe, 0x5b, 0x8c, 0x3d, 0xbd, 0x85, 0x3f, 0xbd, 0x48, 0x5b,
    0x19, 0xbd, 0x6b, 0x40, 0x91, 0x3d, 0x4d, 0xf6, 0x93, 0x3d,
    0x87, 0x1f, 0x8c, 0x3c, 0x28, 0xc3, 0x42, 0x3d, 0x2f, 0xe4,
    0x39, 0x3e, 0x90, 0xa5, 0x06, 0xbe, 0x78, 0x09, 0x7b, 0x3e,
    0x73, 0x1d, 0xcb, 0x3c, 0x71, 0x66, 0x43, 0xbc, 0x02, 0xeb,
    0x33, 0x3e, 0x23, 0x1e, 0x1d, 0xbc, 0x16, 0x4a, 0x92, 0x3d,
    0x85, 0x01, 0x88, 0xba, 0x8c, 0x6a, 0x47, 0x3e, 0x18, 0xd2,
    0x54, 0xbd, 0xf4, 0x9a, 0x58, 0x3c, 0xb5, 0x70, 0x3e, 0xbe,
    0x8f, 0x10, 0x3e, 0xbe, 0x1a, 0x4d, 0xa1, 0x3c, 0x5f, 0x7a,
    0x12, 0xbe, 0xc7, 0x9d, 0x34, 0xbe, 0x5b, 0x48, 0x18, 0x3e,
    0xb3, 0x65, 0x31, 0xbe, 0xc4, 0xb4, 0x13, 0xbe, 0xcb, 0x51,
    0xc1, 0x3d, 0xb8, 0xd6, 0xe1, 0x3d, 0xa1, 0x20, 0xc0, 0x3d,
    0x9c, 0xe3, 0xd4, 0x3d, 0x07, 0xd5, 0xf8, 0x3d, 0xe9, 0xd5,
    0x54, 0xbe, 0xe7, 0xde, 0x5e, 0x3e, 0xe0, 0xa0, 0x15, 0xbd,
    0x71, 0x33, 0x78, 0xbd, 0xf8, 0x92, 0x0f, 0x3e, 0xb3, 0x55,
    0xec, 0x3d, 0xbd, 0x49, 0x23, 0x3e, 0x8f, 0x4d, 0x88, 0x3d,
    0x16, 0x01, 0xdd, 0xbc, 0xa4, 0x6e, 0x13, 0xbe, 0x4c, 0xde,
    0x17, 0xbd, 0x64, 0x43, 0x82, 0xbd, 0x67, 0x4e, 0x2b, 0xbc,
    0xe7, 0xae, 0x95, 0xbd, 0x54, 0xd9, 0x0b, 0xbd, 0x5c, 0x68,
    0x96, 0xbe, 0xa1, 0xbc, 0x08, 0x3e, 0x92, 0xd8, 0x4f, 0xbe,
    0xff, 0x28, 0xa5, 0x3d, 0x50, 0xcc, 0x9a, 0x3d, 0xed, 0xc6,
    0x01, 0xbd, 0x44, 0x30, 0x8d, 0xbd, 0x6f, 0x5a, 0xae, 0xbc,
    0x5a, 0xa2, 0x91, 0x3d, 0x13, 0x06, 0x6f, 0x3e, 0x8a, 0xa5,
    0x07, 0xbe, 0xbf, 0x6f, 0x3e, 0xbd, 0x12, 0x55, 0x1f, 0x3d,
    0xc1, 0x40, 0x8f, 0x3d, 0xf7, 0x64, 0x09, 0x3d, 0x1a, 0x74,
    0xb2, 0xbd, 0xba, 0x76, 0x0b, 0xbe, 0x47, 0x99, 0x64, 0xbd,
    0x3e, 0xd2, 0x13, 0xbc, 0xc6, 0xac, 0x43, 0xbe, 0x5f, 0x5c,
    0x03, 0xbe, 0x48, 0x4d, 0xb5, 0xbd, 0xc8, 0x50, 0xaa, 0x3d,
    0x8f, 0x50, 0x7e, 0x3e, 0x57, 0x69, 0x88, 0xbd, 0x36, 0xe8,
    0x31, 0x3e, 0x32, 0x94, 0xc3, 0x3c, 0x5b, 0xdd, 0xc8, 0xbc,
    0x78, 0xc3, 0x1e, 0xbd, 0x66, 0x72, 0x3a, 0xbe, 0x08, 0x56,
    0x16, 0xbe, 0x24, 0x86, 0xf4, 0xbd, 0x27, 0x20, 0xe3, 0xbc,
    0x16, 0xea, 0x83, 0x3d, 0x09, 0xd5, 0x99, 0x3d, 0xbf, 0x36,
    0x72, 0xbd, 0x04, 0x9b, 0x72, 0xbd, 0xea, 0x9a, 0xcc, 0xbd,
    0xcb, 0x6b, 0x95, 0x3d, 0xa8, 0xfb, 0x02, 0x3d, 0x63, 0x61,
    0x13, 0x3e, 0x23, 0x8a, 0x25, 0xbe, 0x32, 0x73, 0x78, 0x3d,
    0x39, 0xac, 0x29, 0xbc, 0x07, 0x73, 0x12, 0x3e, 0xed, 0x6d,
    0x45, 0xbe, 0x20, 0x71, 0x92, 0xbd, 0xcb, 0xe1, 0xa5, 0x3e,
    0x33, 0x55, 0xa4, 0xbd, 0x43, 0x7c, 0x97, 0xbd, 0x45, 0x53,
    0x30, 0x3e, 0x3b, 0x03, 0x6f, 0x3c, 0xe9, 0xf2, 0x65, 0xbe,
    0x08, 0xc9, 0x2e, 0xbe, 0xf3, 0x6c, 0x80, 0xbd, 0xff, 0x82,
    0xc1, 0xbc, 0x67, 0x6d, 0xbe, 0xbd, 0xf7, 0x50, 0x4c, 0x3e,
    0x59, 0xde, 0x06, 0xbd, 0xb4, 0xb2, 0x19, 0xbd, 0xa1, 0xa2,
    0xe1, 0x3d, 0xe4, 0x99, 0xb5, 0xbd, 0xad, 0xdb, 0x15, 0xbe,
    0xc8, 0x22, 0x5b, 0x3d, 0x5d, 0xe8, 0x27, 0x3e, 0xd6, 0x98,
    0x9e, 0xbb, 0x12, 0x28, 0x48, 0xbd, 0x50, 0x21, 0xb3, 0x3c,
    0x8c, 0x28, 0xa0, 0xbc, 0xab, 0x15, 0x86, 0xbe, 0xca, 0x58,
    0xc0, 0x3d, 0x22, 0xe2, 0xd0, 0x3d, 0x5e, 0x59, 0xab, 0x3d,
    0x21, 0x12, 0x45, 0xbd, 0xa7, 0x73, 0xeb, 0xbd, 0x30, 0x27,
    0x39, 0x3e, 0x32, 0x6c, 0xf3, 0xbd, 0xaf, 0xad, 0xc3, 0x3d,
    0xc4, 0x4f, 0x54, 0x3d, 0x57, 0x03, 0xb7, 0xbd, 0xc4, 0x9c,
    0x35, 0xbd, 0xf9, 0xee, 0xeb, 0xbc, 0x77, 0x78, 0xea, 0xbc,
    0x25, 0xb3, 0x62, 0x3e, 0x72, 0x9c, 0x76, 0xbd, 0xad, 0x3a,
    0xf0, 0x3d, 0x50, 0x84, 0x50, 0xbd, 0x6c, 0x7a, 0x14, 0x3e,
    0x1f, 0x4e, 0x21, 0xbc, 0xba, 0x60, 0xe5, 0xbc, 0x19, 0x2b,
    0x3c, 0x3e, 0x86, 0xce, 0x51, 0xbe, 0xd2, 0xb0, 0xb3, 0xbd,
    0x5a, 0x99, 0xa3, 0x3c, 0xa3, 0x5a, 0x11, 0x3d, 0xd8, 0xef,
    0xc3, 0xbd, 0x98, 0x72, 0x5d, 0x3e, 0x1c, 0x28, 0x5f, 0x3d,
    0x53, 0xc3, 0x7c, 0xbd, 0xbd, 0x4a, 0x14, 0x3c, 0x3d, 0x0e,
    0x51, 0x3d, 0x06, 0x18, 0x6a, 0xbd, 0xb4, 0x26, 0x6d, 0xbd,
    0x56, 0xe3, 0x09, 0xbd, 0x9d, 0x34, 0x7e, 0x3d, 0x5a, 0x1c,
    0xa1, 0x3d, 0x76, 0xf9, 0x5f, 0xbe, 0xed, 0x37, 0x0e, 0x3e,
    0xbd, 0xcf, 0xff, 0x3d, 0x87, 0x53, 0x5c, 0xbd, 0x30, 0xd3,
    0x8b, 0x3c, 0xda, 0xc3, 0x1c, 0xbd, 0xbb, 0x9b, 0x2a, 0xbd,
    0x38, 0x44, 0x12, 0xbe, 0xb4, 0xb7, 0xe4, 0x3d, 0x61, 0x49,
    0x9d, 0x3c, 0x8c, 0x67, 0x6a, 0x3d, 0xde, 0x00, 0x1c, 0xbe,
    0x8d, 0x5b, 0xdd, 0xbd, 0x83, 0x08, 0x83, 0x3b, 0xe5, 0x59,
    0x58, 0x3e, 0xc3, 0x86, 0xd4, 0xbd, 0x54, 0x16, 0xf0, 0xbd,
    0xf2, 0xa3, 0x33, 0xbe, 0xe6, 0xfb, 0xae, 0xbd, 0xaa, 0x01,
    0xb7, 0x3d, 0x68, 0x84, 0x1d, 0x3d, 0xad, 0xe9, 0x12, 0xbd,
    0xf5, 0xa2, 0xb8, 0x3d, 0xa3, 0x48, 0xb7, 0x3d, 0x30, 0x97,
    0x7e, 0x3d, 0x8d, 0x6a, 0xc6, 0x3d, 0xd6, 0x8a, 0x64, 0xbd,
    0x3b, 0xac, 0x9d, 0x3d, 0x3f, 0x55, 0xe6, 0xbd, 0x8f, 0x70,
    0xed, 0x3d, 0x67, 0x61, 0xcb, 0x3d, 0xd9, 0x0e, 0x21, 0xbe,
    0x5b, 0xb5, 0xca, 0xbb, 0xda, 0x9a, 0x01, 0x3d, 0xd4, 0x8b,
    0x10, 0xbe, 0x78, 0x49, 0x01, 0xbe, 0xa4, 0x3b, 0x3d, 0xbe,
    0xa3, 0xe7, 0x0e, 0xbe, 0x8d, 0x84, 0x05, 0x3e, 0x93, 0x56,
    0x99, 0xbd, 0x94, 0xe1, 0xe3, 0xbd, 0x61, 0xff, 0x71, 0xbd,
    0x6c, 0xb6, 0xe9, 0x3c, 0xe7, 0x9f, 0x93, 0xbd, 0x4e, 0xf3,
    0xf7, 0x3d, 0xec, 0xa8, 0xf0, 0xbd, 0x39, 0xce, 0x80, 0x3d,
    0xca, 0xda, 0xc3, 0x3c, 0x10, 0x63, 0xdd, 0xbd, 0xa1, 0x28,
    0x68, 0x3e, 0x63, 0x83, 0xce, 0x3c, 0x04, 0x19, 0xa6, 0x3c,
    0x08, 0xa7, 0x82, 0xbd, 0x71, 0x48, 0x02, 0x3e, 0x30, 0x2d,
    0xba, 0xbd, 0xf7, 0x54, 0x20, 0x3e, 0x5d, 0xb0, 0xb1, 0x3d,
    0x14, 0xe7, 0x33, 0xbe, 0x3a, 0x83, 0x98, 0xbd, 0xee, 0x91,
    0x50, 0xbd, 0x73, 0x42, 0xdb, 0x3c, 0xc2, 0xa7, 0x11, 0xbe,
    0xa5, 0xa0, 0x12, 0x3d, 0x92, 0x80, 0x74, 0xbb, 0x3f, 0xed,
    0x7f, 0x3d, 0xb5, 0x3a, 0x0d, 0xbd, 0x27, 0x11, 0xcd, 0xbd,
    0xe4, 0xdd, 0x18, 0x3e, 0x25, 0x2e, 0x30, 0xbe, 0x3f, 0xbd,
    0x8f, 0xbd, 0x8a, 0xea, 0xac, 0x3c, 0x42, 0xae, 0x94, 0x3d,
    0xbd, 0x60, 0x91, 0xbd, 0xef, 0xf1, 0x13, 0x3e, 0x01, 0x6a,
    0x5d, 0xbd, 0xe2, 0xd2, 0x3a, 0xbe, 0x83, 0xd1, 0x87, 0x3d,
    0x88, 0x8c, 0xd1, 0xbd, 0x01, 0xc9, 0x21, 0x3d, 0x75, 0x27,
    0xe1, 0x3b, 0x13, 0xe9, 0xff, 0x3d, 0xe1, 0x34, 0x1a, 0xbe,
    0x61, 0x00, 0x02, 0xbe, 0x77, 0x1f, 0xe4, 0xbd, 0x12, 0xc1,
    0x32, 0x3c, 0x55, 0x85, 0xab, 0xbd, 0xb8, 0x99, 0x0a, 0x3e,
    0x89, 0xec, 0x4e, 0x3d, 0xc6, 0xed, 0xac, 0x3d, 0xc4, 0x5e,
    0x3f, 0x3b, 0x70, 0xda, 0x0a, 0x3e, 0x26, 0x79, 0x39, 0xbd,
    0x24, 0xe8, 0xe5, 0x3d, 0x65, 0x91, 0xf0, 0xbc, 0x27, 0x3b,
    0x31, 0x3c, 0xd9, 0x63, 0x62, 0x3e, 0x5f, 0xb0, 0xb2, 0xbd,
    0x69, 0x79, 0x27, 0x3e, 0x81, 0x51, 0xc6, 0xbc, 0xfc, 0xff,
    0x22, 0xbc, 0xa1, 0x30, 0x07, 0x3d, 0x9a, 0x5f, 0x30, 0x3e,
    0x48, 0x57, 0x28, 0x3d, 0x58, 0xf5, 0x19, 0x3d, 0xce, 0xd5,
    0x9c, 0x3d, 0xaa, 0x23, 0x6e, 0xbe, 0xac, 0x6e, 0x28, 0xbd,
    0x39, 0x1c, 0x30, 0xbe, 0x4a, 0x1f, 0x33, 0xbe, 0xea, 0xe2,
    0x00, 0xbe, 0x98, 0x0e, 0xbc, 0x3d, 0xbd, 0xef, 0xca, 0x3d,
    0xa5, 0xdc, 0x5a, 0xbe, 0xb9, 0xf7, 0x93, 0x3d, 0xfc, 0x7b,
    0x32, 0xbd, 0x08, 0x37, 0x46, 0x3e, 0x6d, 0x3f, 0xcc, 0x3d,
    0x89, 0xca, 0x87, 0xbb, 0x8f, 0xa3, 0xb2, 0x3d, 0xea, 0xc2,
    0xa9, 0x3c, 0x3e, 0x88, 0x58, 0xbe, 0x61, 0xda, 0xc2, 0xbd,
    0xb6, 0xf3, 0x44, 0xbe, 0xb3, 0x63, 0xcd, 0xbd, 0xa4, 0xd6,
    0x3f, 0xbd, 0x14, 0xd5, 0x00, 0x3e, 0xaa, 0x68, 0x3d, 0x3e,
    0x1e, 0x24, 0x71, 0x3d, 0x0a, 0x0a, 0x5f, 0xbe, 0xe8, 0x3f,
    0x23, 0x3e, 0x20, 0xd0, 0xc1, 0x3d, 0xd7, 0x9a, 0xe3, 0x3d,
    0x85, 0x13, 0xc0, 0x3c, 0x91, 0xf6, 0xb1, 0xbd, 0x0e, 0xac,
    0x4a, 0x3c, 0xc0, 0x6d, 0x14, 0xbe, 0xf4, 0x31, 0xb1, 0x39,
    0x7a, 0x68, 0x55, 0xbc, 0xb7, 0x9c, 0xd5, 0xbd, 0xca, 0xcd,
    0x7c, 0x3d, 0x9f, 0xab, 0x03, 0x3e, 0x55, 0xee, 0xe4, 0xbd,
    0x5d, 0xcc, 0x26, 0xbe, 0x30, 0xf1, 0xa9, 0x3d, 0xfd, 0x42,
    0x1b, 0xbd, 0x90, 0x2f, 0x7d, 0x3c, 0xea, 0x09, 0x79, 0xbc,
    0xe4, 0xa5, 0xc7, 0xbd, 0xee, 0x39, 0x0b, 0x3e, 0xec, 0x18,
    0x8c, 0xbc, 0xd4, 0xe6, 0xff, 0x3d, 0x16, 0x7a, 0x77, 0x3d,
    0x69, 0x0d, 0x55, 0x3d, 0xd4, 0xc3, 0xfd, 0x3a, 0x94, 0xce,
    0xcd, 0x3d, 0x0b, 0x25, 0x30, 0x3e, 0x11, 0x0e, 0x34, 0x3e,
    0xa4, 0xac, 0x13, 0xbe, 0xdc, 0x61, 0x0d, 0xbd, 0x6f, 0xc0,
    0x9e, 0xbc, 0xb7, 0x0c, 0xd2, 0x3d, 0xc6, 0xe2, 0x31, 0xbe,
    0x3c, 0x12, 0x41, 0xbe, 0x4d, 0x22, 0x4d, 0xbe, 0xf1, 0x0f,
    0xb1, 0x3d, 0xf3, 0x58, 0x46, 0x3b, 0x30, 0xb6, 0x01, 0xbe,
    0xc6, 0x83, 0x5f, 0x3d, 0x0c, 0x9d, 0x4a, 0xbe, 0xdc, 0x5e,
    0x04, 0xbe, 0xdb, 0x30, 0x64, 0xbe, 0x29, 0x12, 0xd8, 0xbd,
    0x7d, 0x48, 0x62, 0xbe, 0x1f, 0xe1, 0xac, 0x3d, 0xb7, 0xf5,
    0xe5, 0x3d, 0xba, 0x9f, 0xad, 0x3d, 0x2e, 0x66, 0xb8, 0xbd,
    0xe4, 0xbf, 0xae, 0x3d, 0x99, 0x3f, 0xab, 0x3d, 0xc4, 0x9c,
    0x23, 0xbe, 0x11, 0x05, 0x0f, 0xbe, 0xbb, 0xc8, 0x0a, 0x3c,
    0x13, 0xdb, 0xac, 0x3d, 0x33, 0xf5, 0xea, 0x3d, 0x66, 0xff,
    0xe3, 0xbd, 0xb2, 0x51, 0xdf, 0xbd, 0x76, 0xc4, 0xed, 0xbd,
    0x87, 0xfc, 0xa9, 0x3c, 0xce, 0x6b, 0x57, 0xbd, 0x29, 0xc1,
    0x9d, 0x3d, 0xcc, 0x04, 0x8c, 0x3e, 0xe3, 0x50, 0x76, 0x3e,
    0xc8, 0xe3, 0x8b, 0xbe, 0x21, 0xff, 0x1c, 0xbd, 0x44, 0xa2,
    0xbe, 0xbd, 0x2c, 0x43, 0x2a, 0x3d, 0xdf, 0xae, 0xf6, 0xbd,
    0x4f, 0xe4, 0xaa, 0x3c, 0x81, 0x50, 0xb3, 0xbd, 0x6b, 0x08,
    0xf4, 0x3d, 0x13, 0x90, 0xa1, 0xbd, 0x3e, 0xae, 0x26, 0x3e,
    0xc2, 0x37, 0x5e, 0x3d, 0x10, 0x5f, 0x38, 0xbd, 0xb9, 0x37,
    0x5e, 0xbd, 0x4c, 0xd6, 0xcd, 0xbd, 0x97, 0xd4, 0x2c, 0xbe,
    0x60, 0xd1, 0x3a, 0xbd, 0x93, 0x76, 0xb1, 0x3d, 0x90, 0xd7,
    0x43, 0x3d, 0x6d, 0x75, 0x4e, 0x3d, 0xe5, 0x02, 0xb8, 0x3c,
    0xce, 0x95, 0x63, 0x3d, 0xe3, 0x3b, 0x9c, 0x3d, 0xd7, 0x69,
    0x68, 0xbc, 0xb3, 0xee, 0xae, 0xbb, 0xbe, 0x50, 0x8c, 0xbc,
    0x86, 0x8e, 0xb3, 0x3d, 0xc2, 0x75, 0x90, 0xbd, 0xf7, 0x9e,
    0xc9, 0x3d, 0xfb, 0x62, 0xcb, 0xbd, 0xa5, 0x38, 0x36, 0x3d,
    0x42, 0xed, 0x0b, 0xbe, 0xb7, 0x77, 0xb8, 0x3d, 0x87, 0xb4,
    0xc0, 0xbd, 0xe2, 0x63, 0x0c, 0xbd, 0xc5, 0x8a, 0xd9, 0xbd,
    0xe2, 0x5b, 0x41, 0xbe, 0xa7, 0x9a, 0x43, 0xbe, 0x2c, 0xcf,
    0xb6, 0x3d, 0x9f, 0x49, 0xab, 0xbd, 0xf6, 0x64, 0x0b, 0xbd,
    0x7a, 0x57, 0x9d, 0xbc, 0xaa, 0x70, 0x44, 0xbe, 0x41, 0x84,
    0xc8, 0x3d, 0x8a, 0x64, 0x2a, 0x3e, 0xe1, 0xcb, 0x78, 0x3d,
    0x46, 0x98, 0x38, 0x3d, 0x7d, 0x7d, 0xb8, 0x3d, 0x14, 0x36,
    0x6a, 0x3e, 0xb8, 0x9f, 0x26, 0xbe, 0xf0, 0xcb, 0x86, 0x39,
    0xdf, 0x59, 0x30, 0x3d, 0x3e, 0xb1, 0xa1, 0x3d, 0x7c, 0x42,
    0x0e, 0xbe, 0x77, 0x28, 0x6c, 0xbe, 0x24, 0x07, 0xe4, 0xbc,
    0x00, 0x18, 0x49, 0x3d, 0x45, 0x52, 0xa2, 0xbd, 0xc6, 0xc4,
    0x21, 0xbd, 0x0b, 0x68, 0x6b, 0xbd, 0xbc, 0xeb, 0xe0, 0xbd,
    0xd5, 0x73, 0x22, 0x3c, 0x96, 0xa1, 0x8d, 0xbc, 0xa3, 0x4f,
    0x76, 0xbd, 0x58, 0x31, 0x18, 0x3d, 0x57, 0x29, 0x35, 0x3d,
    0xa4, 0x37, 0xa7, 0xbd, 0xe2, 0x1a, 0x4e, 0xbe, 0x6b, 0xca,
    0xef, 0x3d, 0x48, 0xe9, 0xc9, 0xbc, 0x4f, 0x8e, 0xc9, 0xbc,
    0x45, 0x70, 0x28, 0x3e, 0x4a, 0x93, 0xb4, 0x3d, 0x70, 0x4e,
    0x37, 0x3c, 0x89, 0xe4, 0x00, 0x3e, 0xef, 0x53, 0x14, 0x3e,
    0xe3, 0xb6, 0xd5, 0x3c, 0x3d, 0x42, 0x0f, 0xbe, 0xcb, 0xe4,
    0xe0, 0xbd, 0x06, 0x48, 0xc3, 0x3d, 0xc8, 0x19, 0x05, 0xbe,
    0xc2, 0x0c, 0x89, 0xbc, 0x1e, 0xb6, 0x29, 0x3d, 0x3b, 0x8c,
    0xfc, 0xbd, 0x1d, 0xf6, 0x25, 0xbd, 0xdc, 0x01, 0xb4, 0xbd,
    0x2d, 0x85, 0xb3, 0x3d, 0xa6, 0x48, 0x10, 0x3d, 0x25, 0xf2,
    0x2d, 0x3c, 0x29, 0x11, 0x80, 0xbe, 0x97, 0xee, 0xc3, 0xbd,
    0x35, 0x4b, 0x42, 0xbe, 0x9c, 0x8f, 0x05, 0x3e, 0xca, 0x2c,
    0x39, 0xbe, 0x27, 0xa0, 0xf3, 0x3d, 0x34, 0x44, 0xee, 0x3d,
    0x06, 0x95, 0xdf, 0x3c, 0x6a, 0x04, 0xe0, 0xbd, 0x48, 0xdc,
    0xe2, 0x3d, 0xdf, 0x6d, 0x8d, 0x3d, 0x77, 0x85, 0xd9, 0xbd,
    0x14, 0xdc, 0x29, 0xbe, 0xb6, 0xed, 0x9e, 0xbc, 0xf9, 0x71,
    0x25, 0x3e, 0xd7, 0x21, 0xb7, 0xbd, 0xf5, 0xf1, 0x2e, 0x3b,
    0x64, 0x99, 0x37, 0xbd, 0x58, 0xc2, 0xa5, 0xbd, 0xd8, 0xc3,
    0x15, 0x3d, 0x55, 0x78, 0x98, 0xbc, 0x06, 0x6c, 0xdd, 0x3d,
    0x54, 0x8b, 0x1c, 0x3e, 0xfd, 0x62, 0xad, 0x3c, 0xf3, 0x95,
    0x97, 0x3d, 0xbb, 0x07, 0xa5, 0x3c, 0xcb, 0x6a, 0x8a, 0xbe,
    0x77, 0xce, 0x41, 0xbe, 0xf4, 0x56, 0x48, 0xbe, 0x5f, 0x99,
    0x4a, 0x3e, 0xf9, 0x1e, 0xa5, 0x3d, 0xd0, 0x78, 0x02, 0x3c,
    0xab, 0x16, 0x86, 0xbe, 0xd6, 0x44, 0xa2, 0x3d, 0x9a, 0x8c,
    0x03, 0xbd, 0x12, 0x38, 0xc1, 0x3d, 0x17, 0x6e, 0xe5, 0x3d,
    0xc4, 0x2e, 0xcd, 0xbc, 0x99, 0x2d, 0x2a, 0x3e, 0xa3, 0xce,
    0xbf, 0xbb, 0x02, 0x64, 0xb1, 0xbd, 0x2d, 0x2c, 0x14, 0x3e,
    0x98, 0x32, 0x17, 0xbc, 0xd6, 0xc2, 0x64, 0x3d, 0xc7, 0xf4,
    0x1a, 0xbe, 0x17, 0x09, 0xf1, 0x3d, 0xe2, 0x5a, 0x99, 0x3d,
    0xc2, 0xbb, 0x0a, 0x3e, 0xb1, 0xc5, 0x68, 0xbe, 0x35, 0x38,
    0x2a, 0x3d, 0x1f, 0x50, 0xc0, 0x3d, 0x55, 0x50, 0xd4, 0x3d,
    0xe0, 0x1c, 0x48, 0xbe, 0x56, 0x66, 0xb6, 0xbd, 0x41, 0xec,
    0x77, 0x3d, 0xe4, 0x4a, 0x02, 0xbe, 0x00, 0xbe, 0x92, 0x3c,
    0x7e, 0x18, 0xd4, 0x3d, 0xf8, 0x7e, 0xfd, 0x3d, 0xec, 0xc5,
    0x95, 0x3c, 0x55, 0x86, 0x34, 0x3e, 0x4a, 0xb0, 0x59, 0x3e,
    0x2c, 0xc7, 0xca, 0x39, 0x7f, 0x9b, 0x6a, 0xbe, 0x02, 0x42,
    0xd6, 0x3d, 0xbf, 0x47, 0x77, 0x3c, 0xa0, 0x2e, 0xc3, 0x3d,
    0xe1, 0x91, 0x8e, 0x3c, 0xbf, 0x1d, 0x72, 0xba, 0x33, 0xee,
    0x1e, 0x3e, 0x33, 0x02, 0xc7, 0xbe, 0x8d, 0x59, 0x20, 0xbc,
    0xbd, 0x44, 0x8f, 0x3c, 0x61, 0xbd, 0x8a, 0x3e, 0xd0, 0x17,
    0x06, 0x3e, 0xbb, 0xeb, 0x1f, 0x3d, 0x97, 0x81, 0x12, 0xbe,
    0x14, 0xc0, 0x5f, 0x3d, 0x39, 0x9f, 0x9e, 0x3b, 0x13, 0xdd,
    0x3d, 0xbe, 0x3c, 0x22, 0xe3, 0xbd, 0xd7, 0x90, 0x49, 0x3c,
    0x54, 0x8f, 0x05, 0x3e, 0x71, 0xe1, 0x8b, 0x3e, 0xd2, 0x9e,
    0xd1, 0xbc, 0xc3, 0x66, 0x9c, 0xbd, 0x35, 0x2f, 0xa6, 0xbd,
    0xa8, 0xaf, 0x67, 0xbb, 0x1c, 0x99, 0xb5, 0xbc, 0xfa, 0x0a,
    0x79, 0x3d, 0x7b, 0x2c, 0xd0, 0xbc, 0xff, 0x20, 0x52, 0xbd,
    0x6d, 0xc8, 0x26, 0x3d, 0xc4, 0x7d, 0xfa, 0x3d, 0x45, 0x7b,
    0x3f, 0xbe, 0x19, 0x18, 0x01, 0x3e, 0x2a, 0x64, 0x0a, 0x3e,
    0x14, 0x98, 0x46, 0x3e, 0xee, 0xad, 0x8c, 0xbd, 0xde, 0x56,
    0xc6, 0xbc, 0xb9, 0xf1, 0xea, 0xbd, 0x35, 0x00, 0x03, 0x3d,
    0xc8, 0xb0, 0x33, 0x3d, 0x48, 0x34, 0x05, 0xbe, 0xd6, 0x20,
    0x61, 0x3d, 0x67, 0x8d, 0x0b, 0x3c, 0xb9, 0xd4, 0x14, 0xbe,
    0x16, 0xd8, 0x04, 0x3d, 0xc1, 0x45, 0x43, 0x3c, 0xd4, 0x85,
    0xe9, 0x3d, 0x25, 0x99, 0x4a, 0x3d, 0x24, 0x62, 0x3b, 0xbe,
    0xbb, 0x72, 0x39, 0x3e, 0x78, 0xb8, 0x90, 0xbd, 0xc4, 0xcf,
    0x22, 0x3c, 0x6d, 0x11, 0xf5, 0x3d, 0xc1, 0x09, 0xaf, 0xbd,
    0xc0, 0x59, 0x2f, 0xbe, 0x57, 0x75, 0x3c, 0xbe, 0x6a, 0x5e,
    0x91, 0x3d, 0xbb, 0x57, 0x1f, 0x3d, 0x22, 0x05, 0x16, 0x3e,
    0x04, 0x6e, 0x4e, 0xbe, 0x7b, 0xd7, 0x53, 0xbe, 0x9b, 0x38,
    0x1d, 0xbe, 0x98, 0xf4, 0xf2, 0x3d, 0x60, 0x39, 0x28, 0x3e,
    0xa8, 0x0b, 0xd1, 0x3d, 0x1d, 0x72, 0x00, 0xbe, 0x50, 0xd5,
    0x05, 0x3e, 0x36, 0xec, 0x96, 0x3d, 0x8d, 0x54, 0x09, 0xbe,
    0x0e, 0x00, 0x3d, 0x3e, 0x3c, 0x65, 0x3f, 0xbd, 0x94, 0x4b,
    0x1d, 0x3e, 0x8c, 0xb8, 0xc6, 0xbd, 0x40, 0xef, 0x74, 0x3d,
    0xfe, 0x28, 0xaa, 0xbc, 0xfb, 0xf9, 0x05, 0xbe, 0x15, 0xbf,
    0xd7, 0xbc, 0x10, 0xc2, 0x7b, 0x3c, 0x23, 0xdd, 0x40, 0x3e,
    0x56, 0xdd, 0xde, 0xbd, 0xca, 0x51, 0xf9, 0xbd, 0x57, 0xe2,
    0xa6, 0xbd, 0x74, 0xe4, 0x5d, 0x3e, 0xc1, 0xca, 0x79, 0x3d,
    0x26, 0x51, 0x61, 0x3d, 0x96, 0x31, 0x81, 0x3c, 0x12, 0x69,
    0x1e, 0x3e, 0x56, 0xf5, 0x49, 0x3d, 0x9a, 0x2b, 0xbf, 0x3d,
    0x9f, 0x65, 0x00, 0x3e, 0xe7, 0x82, 0xf0, 0xbd, 0x0d, 0x3a,
    0x08, 0xbd, 0x4b, 0x7a, 0xef, 0x3d, 0x32, 0x45, 0xc2, 0x3d,
    0x43, 0xcf, 0x2b, 0xbe, 0x3a, 0x69, 0xac, 0xbd, 0xc9, 0x56,
    0x0f, 0xbd, 0xaa, 0x31, 0x06, 0xbe, 0x01, 0xff, 0xb0, 0xbc,
    0xe8, 0x02, 0xec, 0x3d, 0x6d, 0x41, 0x37, 0xbd, 0x3d, 0x76,
    0xd7, 0xbc, 0xb4, 0xa4, 0x20, 0x3b, 0x0b, 0x88, 0x81, 0xbd,
    0xe3, 0xe5, 0x38, 0xbd, 0x32, 0x6a, 0xbc, 0x3d, 0x74, 0x6a,
    0x64, 0xbd, 0x08, 0x5d, 0x51, 0xbe, 0xc6, 0xdd, 0x45, 0xbe,
    0xca, 0x3d, 0xe2, 0x3d, 0xe7, 0x0b, 0x57, 0xbc, 0xbb, 0xcf,
    0x67, 0x3e, 0xa7, 0xc1, 0x1f, 0x3e, 0x5c, 0xe9, 0x55, 0xbe,
    0x43, 0xdd, 0x46, 0xbe, 0x82, 0x5d, 0x6e, 0x3e, 0x72, 0xf3,
    0x2d, 0xbe, 0x99, 0x19, 0x0b, 0x3d, 0xb1, 0xc6, 0x4d, 0xbe,
    0x8f, 0x6a, 0x2d, 0xbe, 0xfc, 0xd8, 0x80, 0x3d, 0x74, 0x1f,
    0x42, 0xbd, 0x57, 0xff, 0x04, 0x3e, 0xff, 0x1d, 0x3c, 0xbd,
    0x15, 0x13, 0x86, 0x3d, 0xf3, 0x33, 0x30, 0x3e, 0xfe, 0x52,
    0x52, 0x3e, 0x2b, 0x6f, 0xc3, 0xbd, 0x6e, 0xe9, 0x0a, 0xbe,
    0xe7, 0x23, 0x4c, 0x3c, 0xa9, 0xad, 0xf2, 0x3c, 0x91, 0x77,
    0x33, 0x3e, 0xb3, 0x5f, 0xfb, 0x3d, 0x90, 0x49, 0x0e, 0x3e,
    0x86, 0x71, 0x02, 0x3e, 0x73, 0x69, 0x4f, 0x3e, 0xdd, 0xf3,
    0x55, 0xbe, 0x5c, 0xc1, 0xdd, 0xbd, 0xa5, 0x21, 0x85, 0x3c,
    0x09, 0x86, 0x65, 0x3e, 0x19, 0x6a, 0x82, 0x3d, 0x83, 0xd2,
    0x71, 0xbc, 0xc6, 0xe6, 0xb6, 0xbd, 0xe2, 0x32, 0x24, 0x3d,
    0x4b, 0xb8, 0x90, 0xbe, 0xd7, 0x73, 0x05, 0xbd, 0x3b, 0x52,
    0x74, 0x3e, 0x77, 0x8d, 0x27, 0x3c, 0xff, 0xcf, 0x27, 0x3e,
    0x3b, 0x3e, 0xc2, 0xbd, 0x04, 0x7f, 0x15, 0x3e, 0xe3, 0x3d,
    0x84, 0xbd, 0x06, 0x2d, 0x64, 0xbd, 0x14, 0x90, 0x2d, 0x3e,
    0xb9, 0xc5, 0x9b, 0x3d, 0xbe, 0x6d, 0x7f, 0x3d, 0x98, 0xcf,
    0xee, 0x3d, 0x52, 0x51, 0x79, 0xbb, 0x30, 0x14, 0xd4, 0xbd,
    0xff, 0xb2, 0xe1, 0x3d, 0x23, 0xb8, 0xb1, 0xbd, 0x50, 0x63,
    0x87, 0x3d, 0x35, 0x10, 0x43, 0xbe, 0xdd, 0xdd, 0xa3, 0x3c,
    0xd1, 0x69, 0x7f, 0x3d, 0x6d, 0xd3, 0x40, 0x3e, 0xc5, 0xc2,
    0xcb, 0x3d, 0x8b, 0xb7, 0xd0, 0xbd, 0xae, 0x76, 0x9e, 0xbe,
    0x13, 0x7d, 0x47, 0xbe, 0x43, 0x0e, 0x4a, 0x3e, 0xfd, 0x60,
    0x8e, 0x3d, 0xe4, 0x64, 0xb9, 0x3d, 0x22, 0xf3, 0x88, 0x38,
    0x04, 0x55, 0x21, 0x3e, 0xd4, 0xbc, 0xa8, 0xbd, 0xdc, 0x7e,
    0x13, 0xbe, 0x25, 0x48, 0xcb, 0xbc, 0xf9, 0x86, 0x8e, 0xbd,
    0x80, 0x1e, 0x13, 0xbe, 0x66, 0xa2, 0x4f, 0xbe, 0x57, 0x56,
    0xba, 0xbd, 0x2d, 0x86, 0xa5, 0x3d, 0x9a, 0x58, 0x60, 0x3e,
    0x18, 0x25, 0x09, 0xbe, 0x41, 0x21, 0x9a, 0xbc, 0xa9, 0x3a,
    0x0e, 0xbd, 0x47, 0xcd, 0xab, 0x3d, 0x8f, 0xdb, 0x11, 0xbd,
    0x46, 0xe4, 0x1a, 0xbd, 0x4b, 0x35, 0x9a, 0xbb, 0xdd, 0x39,
    0x18, 0xbd, 0x52, 0x34, 0x87, 0xbe, 0x3e, 0x84, 0x05, 0x3d,
    0x51, 0xe1, 0x2e, 0x3e, 0x63, 0xa0, 0x29, 0x3e, 0x56, 0xf8,
    0xff, 0xbd, 0xc8, 0xba, 0xea, 0xbd, 0x41, 0xa4, 0x5f, 0x3e,
    0xe4, 0x0c, 0x7b, 0xbe, 0x89, 0x58, 0x64, 0xbe, 0x07, 0xf6,
    0xef, 0x3d, 0xdd, 0x7d, 0xa9, 0xbc, 0xc6, 0xde, 0xfb, 0xbd,
    0x84, 0x00, 0x65, 0xbe, 0x6e, 0xf6, 0x44, 0xbe, 0x94, 0x4a,
    0x12, 0x3e, 0x67, 0x70, 0xcf, 0x3d, 0x6c, 0x0c, 0xc8, 0xbd,
    0x22, 0x02, 0x87, 0x3c, 0x6a, 0x00, 0x04, 0xbb, 0x96, 0xbf,
    0x02, 0x3e, 0x0b, 0x03, 0xa7, 0x3d, 0x07, 0xe9, 0x0c, 0xbe,
    0x07, 0xd1, 0xa6, 0xbe, 0x45, 0xc4, 0xfc, 0xbd, 0x0e, 0x50,
    0x7c, 0x3a, 0x24, 0xf4, 0x14, 0x3e, 0x5d, 0xcf, 0x56, 0x3e,
    0xba, 0xfd, 0x53, 0xbd, 0x8f, 0x2a, 0xf7, 0xbd, 0xdb, 0x4e,
    0x08, 0xbe, 0x65, 0x79, 0x8b, 0xbd, 0x2b, 0x52, 0x36, 0x3e,
    0xaf, 0x68, 0x0a, 0x3e, 0x5c, 0x0e, 0xcb, 0x3d, 0x62, 0x16,
    0x2a, 0x3e, 0x79, 0x8a, 0x57, 0xbd, 0xb7, 0xc6, 0x3c, 0xbe,
    0xd9, 0xfd, 0x39, 0xbe, 0x02, 0x8f, 0x3e, 0x3e, 0xfe, 0x71,
    0x62, 0x3c, 0x59, 0xfa, 0xaa, 0x3c, 0x30, 0xb4, 0xea, 0x3a,
    0x34, 0xfc, 0x42, 0xbc, 0xff, 0x10, 0x41, 0xbd, 0x39, 0x6c,
    0x51, 0xbd, 0x8b, 0x8c, 0x0c, 0x3d, 0x3f, 0xfc, 0x75, 0xbe,
    0xf9, 0x73, 0x10, 0x3e, 0xe4, 0x4e, 0xe9, 0x3d, 0x40, 0x39,
    0xa7, 0x3d, 0x33, 0xa7, 0x8b, 0xbc, 0xf3, 0x63, 0x27, 0xbe,
    0x4f, 0xb5, 0x5a, 0xbe, 0x77, 0x26, 0xbf, 0xbc, 0x47, 0xb8,
    0xdd, 0x3d, 0xff, 0x7b, 0x87, 0x3d, 0xf1, 0x3f, 0x20, 0x3d,
    0xab, 0x42, 0xdf, 0xbb, 0x52, 0x8a, 0x53, 0x3e, 0xf8, 0xdc,
    0xa2, 0x3c, 0xbf, 0xe5, 0xb3, 0x3d, 0xb5, 0x9f, 0x21, 0xbe,
    0xa0, 0x4a, 0x80, 0xbd, 0x6c, 0xc7, 0x38, 0x3e, 0x99, 0x54,
    0x0c, 0xbe, 0xd5, 0x5b, 0xd9, 0xbd, 0xb9, 0xa2, 0x2a, 0xbd,
    0x39, 0xa7, 0xa5, 0x3d, 0x2b, 0x3b, 0x3e, 0x3e, 0x82, 0xd5,
    0xfc, 0xbd, 0x70, 0xcd, 0xd5, 0xbe, 0x02, 0x3d, 0xa6, 0x3d,
    0x6c, 0x8e, 0x5c, 0x3d, 0x4b, 0x59, 0xe0, 0xbd, 0x8d, 0x5b,
    0x1d, 0x3d, 0x49, 0x25, 0x4b, 0xbe, 0x82, 0x93, 0x5b, 0xbe,
    0x26, 0xeb, 0xa6, 0xbd, 0x76, 0xd2, 0xf5, 0x3d, 0x71, 0xc5,
    0x96, 0xbd, 0x06, 0x39, 0xd6, 0xbd, 0xdc, 0xf3, 0x09, 0xbe,
    0xca, 0x0e, 0x53, 0x3e, 0x14, 0x56, 0x84, 0xbc, 0xd4, 0x8a,
    0xef, 0xbd, 0x65, 0x68, 0x01, 0x3e, 0x22, 0x16, 0x14, 0xbe,
    0x31, 0xcd, 0xc8, 0xbd, 0x07, 0xc1, 0x41, 0x3e, 0x0e, 0xf1,
    0xa1, 0x3b, 0xef, 0x4f, 0x1e, 0xbe, 0x26, 0xc5, 0x0c, 0x3e,
    0x77, 0x1e, 0x91, 0xbb, 0xa3, 0xc8, 0x3a, 0x3e, 0x5c, 0xd9,
    0x99, 0x3d, 0x1d, 0xc1, 0x34, 0xbe, 0x42, 0x1a, 0xb8, 0x3b,
    0x39, 0xf7, 0xa1, 0xbb, 0x20, 0xb0, 0xeb, 0x3d, 0xeb, 0x37,
    0x1d, 0x3e, 0x3e, 0x03, 0xe7, 0xbd, 0x30, 0x7b, 0x51, 0x3e,
    0x71, 0xdc, 0x87, 0x3e, 0xc4, 0x77, 0xd4, 0xbd, 0x45, 0x12,
    0x9f, 0x3d, 0x11, 0x84, 0x8d, 0xbd, 0xab, 0xba, 0xc2, 0xbc,
    0xee, 0x2e, 0x49, 0xbd, 0x09, 0x71, 0x13, 0xbc, 0xa6, 0xef,
    0xec, 0xbc, 0xda, 0xb2, 0x3d, 0xbe, 0x30, 0xf8, 0xa0, 0xbd,
    0x14, 0x01, 0x34, 0xbd, 0x08, 0x13, 0xc6, 0xbd, 0x4c, 0x4b,
    0xb2, 0x3d, 0xdd, 0xe0, 0x2f, 0xbe, 0xb2, 0xf9, 0x17, 0x3d,
    0x45, 0x04, 0x46, 0xbd, 0xa7, 0xc6, 0xe4, 0x3c, 0x22, 0x01,
    0x38, 0xbe, 0xd1, 0x3b, 0xa8, 0x3d, 0x91, 0x04, 0x6e, 0xbd,
    0x81, 0x48, 0x42, 0x3e, 0x09, 0x73, 0xa9, 0xbd, 0xd8, 0x37,
    0xa6, 0x3c, 0x34, 0x24, 0xf2, 0xbd, 0x82, 0x9a, 0x35, 0x3e,
    0xb9, 0xdc, 0x1c, 0x3e, 0x03, 0x87, 0x8d, 0x3d, 0xc1, 0x5d,
    0xdf, 0x3c, 0x58, 0x33, 0x06, 0x3e, 0xdb, 0x5b, 0xbf, 0x3c,
    0x1d, 0x95, 0xdd, 0xbd, 0x9a, 0x02, 0x5d, 0x3e, 0xb9, 0xd6,
    0x89, 0xbd, 0xaf, 0x13, 0x0a, 0x3c, 0x3a, 0xdc, 0xbf, 0x3d,
    0x93, 0xc7, 0x89, 0xbe, 0x28, 0xbf, 0x9a, 0x3c, 0xf9, 0xff,
    0xdf, 0xbd, 0xde, 0x26, 0xa3, 0xbd, 0x5a, 0x38, 0x63, 0xbd,
    0xcb, 0x25, 0x4a, 0x3d, 0xe5, 0xdc, 0xcc, 0xbd, 0xfb, 0x5e,
    0x0a, 0x3e, 0xed, 0x98, 0x28, 0xbe, 0xde, 0x06, 0x83, 0xbd,
    0xc0, 0x76, 0x7e, 0x3d, 0x21, 0xe3, 0x57, 0x3d, 0x78, 0x6a,
    0xa0, 0x3d, 0xab, 0x0f, 0xa2, 0x3e, 0x4a, 0x88, 0x8e, 0x3d,
    0x41, 0x07, 0xe0, 0x3d, 0xbd, 0x80, 0x34, 0x3c, 0x48, 0x9c,
    0xef, 0x3d, 0xc9, 0x2d, 0x2c, 0x3e, 0x9b, 0xfb, 0x78, 0xbd,
    0x2d, 0x26, 0x80, 0xbd, 0xa5, 0x01, 0x0d, 0xbe, 0xa5, 0x6a,
    0x0c, 0xbe, 0x07, 0x8c, 0x29, 0x3e, 0xb4, 0x84, 0x53, 0x3d,
    0x8d, 0xef, 0x8b, 0x3d, 0x24, 0xe4, 0xb2, 0xbb, 0x39, 0x7c,
    0x01, 0x3e, 0x05, 0xc0, 0x76, 0xbc, 0x38, 0x88, 0x31, 0xbc,
    0x6d, 0xac, 0xad, 0xbc, 0x30, 0xd4, 0x59, 0xbc, 0xa1, 0xa2,
    0xbd, 0xbd, 0xaa, 0xb9, 0xbc, 0xbd, 0x2c, 0x06, 0xef, 0x3c,
    0xec, 0xfa, 0x8e, 0x3d, 0xed, 0xc1, 0xf3, 0xbc, 0x9b, 0xc4,
    0x2f, 0xbe, 0xd8, 0xb1, 0x37, 0xbe, 0x21, 0x63, 0x16, 0x3d,
    0xb4, 0x5a, 0xe1, 0x3c, 0x7a, 0x9c, 0x51, 0xbe, 0xc2, 0xed,
    0x9a, 0x3d, 0x45, 0x36, 0xfe, 0x3d, 0x4f, 0x3c, 0xec, 0x3d,
    0x40, 0xff, 0x72, 0xbe, 0x26, 0x7c, 0xfb, 0xbd, 0x60, 0xd0,
    0x5c, 0xbd, 0xe0, 0x89, 0x40, 0x3e, 0x81, 0x6a, 0x73, 0x3e,
    0xbd, 0xea, 0xbe, 0x3d, 0x79, 0x9c, 0xcd, 0x3d, 0xdf, 0xd4,
    0x94, 0xbd, 0x18, 0x3a, 0x1e, 0xbc, 0x8c, 0x99, 0xd3, 0x3d,
    0xdc, 0x9b, 0x88, 0x3e, 0x03, 0xe4, 0xc9, 0x3c, 0xf7, 0x80,
    0xe8, 0x3d, 0xca, 0x7d, 0x1d, 0x3c, 0xc7, 0xc9, 0xa2, 0xbd,
    0xdd, 0x0f, 0xe3, 0x3d, 0xc7, 0x6a, 0xf7, 0xbd, 0x7c, 0x46,
    0x49, 0xbc, 0x27, 0xc6, 0x8d, 0xbd, 0x3b, 0x17, 0x92, 0x3d,
    0x55, 0x92, 0xf7, 0x3d, 0x41, 0x9e, 0x9f, 0xbd, 0xa3, 0x76,
    0x46, 0x3e, 0xa0, 0x35, 0x14, 0x3d, 0x74, 0x78, 0x37, 0xbe,
    0x04, 0xdf, 0x86, 0x3d, 0x33, 0x6f, 0x19, 0x3e, 0xdb, 0xcd,
    0xad, 0x3d, 0xdb, 0xc4, 0x96, 0x3d, 0x52, 0xab, 0x90, 0xbe,
    0x94, 0xa4, 0x0c, 0x3d, 0x35, 0x2a, 0xda, 0xbd, 0x93, 0xab,
    0xea, 0x3c, 0x1f, 0x9d, 0x39, 0xbd, 0x9e, 0xdc, 0xcb, 0x3c,
    0xd0, 0x1d, 0x29, 0x3d, 0x42, 0xa5, 0x36, 0xbc, 0x27, 0xfc,
    0x7a, 0xbd, 0x22, 0x00, 0x75, 0xbe, 0xda, 0x9d, 0xdb, 0x3b,
    0x07, 0xab, 0xc0, 0x3d, 0xa7, 0xe9, 0x69, 0x3d, 0xc7, 0x9e,
    0xda, 0x3d, 0x92, 0xc0, 0xe5, 0x3d, 0xd4, 0x41, 0x81, 0xbe,
    0x57, 0x4e, 0xa4, 0x3d, 0xd0, 0x62, 0x81, 0x3c, 0xf9, 0xc7,
    0xee, 0xbd, 0xd3, 0x1a, 0x08, 0x3e, 0xd5, 0xea, 0x87, 0xbd,
    0x47, 0x5f, 0x0d, 0xbe, 0x65, 0x3d, 0x15, 0x3e, 0x17, 0xfa,
    0x2f, 0xbe, 0x83, 0xe0, 0x5e, 0xbd, 0x5f, 0x38, 0xbc, 0x3c,
    0xc0, 0xc9, 0x2d, 0x3e, 0xe1, 0xc3, 0xf9, 0x3d, 0x44, 0xb7,
    0x9f, 0x3d, 0x3b, 0x0a, 0xa4, 0x3d, 0x3c, 0x33, 0xdb, 0xbd,
    0xaa, 0x0d, 0x16, 0xbe, 0x65, 0x52, 0x53, 0xbd, 0x41, 0x42,
    0x9a, 0xbd, 0xa3, 0x8d, 0x29, 0xbe, 0x3a, 0x46, 0xb3, 0x3d,
    0x52, 0x56, 0x32, 0xbc, 0x31, 0x86, 0x24, 0x3e, 0xf8, 0x6e,
    0x3e, 0xbe, 0x4e, 0x54, 0x1c, 0x3e, 0x12, 0xae, 0x67, 0xbb,
    0x22, 0x29, 0xd9, 0x3c, 0xe8, 0x71, 0x7e, 0x3d, 0x9f, 0x08,
    0xdd, 0x3d, 0x2c, 0xe7, 0x03, 0x3b, 0x25, 0x76, 0x63, 0xbd,
    0x7a, 0xc1, 0x53, 0x3d, 0x63, 0xbd, 0x70, 0xbe, 0x8e, 0x98,
    0x2b, 0xbe, 0x70, 0xc2, 0x45, 0x3e, 0x16, 0x33, 0x04, 0x3e,
    0x96, 0x08, 0xc7, 0x3c, 0xce, 0xcf, 0x28, 0x3e, 0x0a, 0x0e,
    0xbb, 0xbd, 0x51, 0x95, 0xe6, 0xbd, 0x98, 0x65, 0x7d, 0xbd,
    0xab, 0x6c, 0x9a, 0xbc, 0x0d, 0xe2, 0xee, 0x3c, 0x7a, 0x2c,
    0xb3, 0xbc, 0x07, 0xde, 0xa2, 0xbd, 0x80, 0x33, 0x4f, 0x3e,
    0xf2, 0x0b, 0xe5, 0xbd, 0x5f, 0x14, 0x89, 0x3d, 0xb1, 0x7b,
    0x51, 0xbd, 0x31, 0x26, 0x28, 0x3e, 0x39, 0x08, 0x0c, 0xbe,
    0x74, 0xd2, 0x3f, 0x3e, 0x72, 0x4c, 0x14, 0x3e, 0xfb, 0x88,
    0x1d, 0x3d, 0xc0, 0x8f, 0x27, 0xbe, 0xc9, 0xc5, 0xa2, 0x3e,
    0xf8, 0xb4, 0x4b, 0xbc, 0xfe, 0x86, 0x58, 0x3d, 0x8a, 0x48,
    0x47, 0xbd, 0xa0, 0xe0, 0xe4, 0xbd, 0x64, 0x08, 0xe5, 0x3d,
    0x39, 0x63, 0x61, 0x3e, 0x18, 0xdb, 0xeb, 0xbd, 0x01, 0xf6,
    0xea, 0x3b, 0x4f, 0xe8, 0x24, 0xbc, 0x83, 0xfb, 0x40, 0xbe,
    0x74, 0xea, 0x19, 0xbe, 0x29, 0x3f, 0x9c, 0xbd, 0x4a, 0x34,
    0x17, 0x3e, 0xd6, 0x13, 0xd2, 0x3d, 0x44, 0x06, 0xd3, 0xbd,
    0xba, 0xae, 0xbb, 0xbc, 0xdd, 0xbb, 0x49, 0xbc, 0xfc, 0x74,
    0x03, 0xbe, 0x41, 0xfc, 0x8b, 0x3d, 0x43, 0x4a, 0xad, 0x3d,
    0x5e, 0x4d, 0x0f, 0x3e, 0x3e, 0x0f, 0x6b, 0xbd, 0x99, 0x55,
    0x82, 0x3d, 0x2c, 0x0c, 0xa2, 0x3a, 0xec, 0x59, 0xaf, 0x3d,
    0xbe, 0x96, 0x6d, 0x3b, 0x5e, 0x59, 0x17, 0xbe, 0x74, 0xce,
    0x0d, 0x3d, 0xd0, 0xe8, 0x19, 0xbe, 0xf7, 0x77, 0xcc, 0x3a,
    0x73, 0xc7, 0xf9, 0x3c, 0x43, 0x0a, 0x23, 0xbd, 0x11, 0x63,
    0x91, 0x3d, 0x45, 0x65, 0x98, 0xa5, 0xb8, 0xa3, 0x5d, 0x90,
    0x93, 0x35, 0x7d, 0x6c, 0x81, 0xcf, 0xbd, 0xb1, 0x6a, 0xa4,
    0xaa, 0x69, 0xa7, 0x9a, 0x8d, 0x59, 0xa9, 0x92, 0x5c, 0x6f,
    0x7b, 0x73, 0x8e, 0xba, 0x64, 0x9b, 0x9a, 0xcc, 0x73, 0xb4,
    0x80, 0xa9, 0xa0, 0xaa, 0xa7, 0x94, 0xc1, 0xbe, 0x53, 0xb3,
    0x6f, 0x68, 0x91, 0xac, 0xac, 0xa6, 0x74, 0xa9, 0xa9, 0x47,
    0x9c, 0x56, 0xa4, 0xdf, 0xbb, 0xac, 0x82, 0x91, 0xa6, 0x4b,
    0xa1, 0xbd, 0xcd, 0x70, 0xb5, 0x8d, 0x73, 0x4f, 0x99, 0x70,
    0x87, 0x91, 0x81, 0xb7, 0x88, 0xab, 0x6d, 0xa6, 0x81, 0xac,
    0xb1, 0x92, 0xb8, 0x95, 0xac, 0xa2, 0x84, 0xb4, 0x80, 0x81,
    0xa5, 0xb4, 0x9e, 0xae, 0x7b, 0x94, 0xa5, 0x63, 0x82, 0x40,
    0xb3, 0xdc, 0xaf, 0x9b, 0x76, 0x90, 0x9d, 0x63, 0xcc, 0xb2,
    0xb8, 0x60, 0xd1, 0x81, 0x90, 0x6e, 0xaf, 0x70, 0x83, 0x92,
    0x6f, 0x96, 0xb4, 0xca, 0x86, 0xa3, 0x74, 0xa1, 0xaf, 0x9a,
    0xa6, 0xad, 0xd0, 0xa8, 0x5d, 0xb3, 0x48, 0x8c, 0x85, 0xb8,
    0x9e, 0x9f, 0x7e, 0x88, 0xa8, 0x79, 0x80, 0x84, 0xa4, 0xcb,
    0xa8, 0xaa, 0x8a, 0x91, 0xa5, 0x45, 0xa9, 0xc4, 0xa3, 0x7e,
    0xac, 0x85, 0x9d, 0x68, 0x59, 0x66, 0x8e, 0xbd, 0x76, 0x95,
    0xa6, 0xc7, 0xb6, 0x9c, 0xa6, 0xb0, 0xb4, 0x7e, 0xa3, 0x94,
    0xd2, 0xa7, 0x48, 0x90, 0x75, 0x79, 0x84, 0xbf, 0x9b, 0xa6,
    0x8d, 0x97, 0xb2, 0x46, 0xa3, 0x64, 0x8c, 0xbe, 0xb2, 0x95,
    0xa0, 0x9f, 0xb6, 0x6b, 0x75, 0xa9, 0xa5, 0x78, 0xae, 0x82,
    0x8e, 0x64, 0x84, 0x83, 0x87, 0x9c, 0x95, 0x91, 0xa0, 0xb2,
    0x81, 0x93, 0x8b, 0xa6, 0xa4, 0x99, 0xb5, 0x9c, 0xd1, 0xaf,
    0x6a, 0xa0, 0x63, 0x3b, 0xb4, 0x6b, 0x9e, 0xaa, 0x7c, 0x2c,
    0x8a, 0xa1, 0x3a, 0x5f, 0x60, 0x5a, 0xc3, 0xae, 0xb7, 0x8f,
    0xac, 0x33, 0x89, 0x4d, 0xa0, 0xa1, 0x7e, 0x88, 0x5b, 0x8d,
    0x6a, 0x8c, 0x9e, 0xc1, 0x9c, 0x5e, 0xaa, 0xb3, 0xf0, 0xde,
    0xbe, 0x5f, 0xa1, 0xa1, 0x71, 0x83, 0x98, 0xa3, 0xc2, 0xa8,
    0x7c, 0x6b, 0xc0, 0x69, 0xa2, 0xa8, 0x73, 0x28, 0x8d, 0xbd,
    0x31, 0x51, 0x75, 0x96, 0xc6, 0x91, 0x6d, 0x8d, 0xbe, 0x35,
    0x6e, 0x4f, 0xaa, 0xab, 0x6e, 0x9d, 0x52, 0x90, 0x85, 0x5c,
    0xb1, 0xab, 0x4c, 0x89, 0xa3, 0x88, 0xde, 0xea, 0x6e, 0x79,
    0xa6, 0x80, 0x9b, 0x54, 0x91, 0x89, 0xc0, 0xbf, 0x5b, 0x44,
    0xb6, 0x74, 0xb6, 0xbd, 0x7c, 0x3c, 0x82, 0x9c, 0x64, 0x56,
    0x85, 0x4c, 0xbc, 0x66, 0x5a, 0x78, 0xb5, 0x5e, 0x5f, 0x56,
    0x8c, 0xc3, 0xaf, 0xa2, 0x51, 0x9c, 0x80, 0x6e, 0xaf, 0x9c,
    0x5e, 0x96, 0xb1, 0x99, 0xbe, 0xaf, 0x68, 0xad, 0x9b, 0x8f,
    0x8e, 0x4b, 0x9a, 0x79, 0x91, 0xa5, 0x9c, 0x52, 0x8d, 0x6c,
    0xa5, 0xb0, 0x87, 0x4f, 0x84, 0x96, 0x58, 0x44, 0x66, 0x82,
    0xab, 0x82, 0x7f, 0x87, 0xb7, 0x40, 0x5a, 0x30, 0x60, 0xb1,
    0x85, 0x9f, 0x60, 0xa9, 0x99, 0x9d, 0x9a, 0xc4, 0x59, 0x83,
    0xc9, 0x8e, 0xba, 0xd5, 0x9b, 0x84, 0xa0, 0x8b, 0x75, 0x9b,
    0x95, 0xa6, 0xb3, 0x90, 0x95, 0x1a, 0x9f, 0x58, 0xa5, 0xb1,
    0x8b, 0x30, 0x73, 0xab, 0x5c, 0x63, 0x36, 0x3b, 0xbf, 0x77,
    0xad, 0x72, 0xc0, 0x6d, 0x6a, 0x5c, 0x9c, 0x7f, 0x60, 0x91,
    0x5d, 0xa5, 0x7f, 0x4f, 0xb3, 0xa5, 0x78, 0x97, 0xbf, 0x91,
    0xc1, 0xaf, 0x63, 0xb5, 0xad, 0x95, 0x72, 0x7c, 0x8d, 0xa8,
    0xce, 0xad, 0xae, 0x62, 0xc7, 0x3c, 0x5d, 0x43, 0x8d, 0x2c,
    0x4e, 0xb8, 0x55, 0xa4, 0x74, 0x6b, 0xbb, 0xdd, 0xc3, 0xaa,
    0x99, 0x99, 0xa4, 0x9b, 0x88, 0xb4, 0x9f, 0xb4, 0xc9, 0x9e,
    0xce, 0xd2, 0x9c, 0xad, 0xb1, 0x83, 0x89, 0x99, 0x8f, 0xa7,
    0xa5, 0xb9, 0x77, 0xbf, 0x91, 0xc1, 0x62, 0x89, 0xce, 0x87,
    0xb4, 0x8f, 0xd5, 0x27, 0x75, 0x58, 0x8f, 0x4a, 0x42, 0xc3,
    0x55, 0xc0, 0x56, 0x85, 0xaa, 0xd0, 0xcd, 0xa0, 0xb3, 0xc1,
    0x88, 0x8a, 0x89, 0xd2, 0xa1, 0xc1, 0xb9, 0xa8, 0xd2, 0xdc,
    0x96, 0x9b, 0xb6, 0xa8, 0x8d, 0x72, 0x7c, 0x7e, 0xa4, 0xa7,
    0x76, 0x9f, 0xc8, 0xb6, 0x44, 0x85, 0xa9, 0x9a, 0x8e, 0x8e,
    0xd6, 0x18, 0x4d, 0x57, 0xab, 0x67, 0x53, 0xc7, 0x63, 0xb9,
    0x7a, 0x6e, 0xb7, 0xbf, 0xbc, 0xaa, 0xa2, 0x9a, 0x66, 0x87,
    0x7d, 0x96, 0x83, 0xb7, 0xcd, 0xbf, 0xff, 0xde, 0xa4, 0x98,
    0xcd, 0xc2, 0x7b, 0xad, 0xae, 0x6f, 0xa0, 0xa6, 0x6f, 0xb9,
    0x9e, 0xc4, 0x6b, 0x8e, 0xd0, 0x7e, 0xae, 0x5e, 0xa2, 0x2a,
    0x50, 0x46, 0x7c, 0x4e, 0x4b, 0xa7, 0x6c, 0xb2, 0x60, 0x6b,
    0xab, 0xce, 0xb0, 0xb4, 0xbe, 0xcb, 0xa3, 0x79, 0x93, 0xc7,
    0xa2, 0xb4, 0xca, 0xc2, 0x9e, 0xe2, 0xaf, 0xa2, 0xbf, 0xb1,
    0x75, 0x71, 0xac, 0xb7, 0xad, 0x7b, 0x94, 0xbc, 0x9b, 0xe0,
    0x84, 0xb9, 0xc3, 0x7e, 0x9b, 0x86, 0xb1, 0x27, 0x61, 0x3b,
    0x7f, 0x62, 0x60, 0xc8, 0x63, 0xd2, 0x7a, 0x86, 0xbc, 0xb7,
    0xd6, 0x9f, 0xb8, 0xb7, 0xa4, 0xa5, 0x76, 0xdd, 0x8f, 0x97,
    0xab, 0xb7, 0xe6, 0xcd, 0xb8, 0x80, 0xc2, 0x8f, 0x92, 0x90,
    0xa1, 0x9a, 0xc7, 0x95, 0x86, 0xb1, 0x97, 0xa5, 0x79, 0xb8,
    0xb5, 0x6c, 0xc2, 0x5d, 0x59, 0x9a, 0x90, 0x72, 0x68, 0x90,
    0x98, 0xa8, 0x98, 0xdb, 0xb4, 0xac, 0x7d, 0x84, 0x99, 0x5d,
    0xab, 0x1b, 0x8f, 0x93, 0x68, 0x3f, 0x47, 0xb7, 0x1f, 0x7b,
    0x63, 0x71, 0xb5, 0x98, 0xb1, 0x56, 0x98, 0xae, 0x9e, 0x92,
    0x7a, 0x6a, 0x9e, 0x9b, 0x97, 0x9b, 0xad, 0x87, 0xa5, 0xb5,
    0xd2, 0x66, 0x96, 0x8e, 0x89, 0x8d, 0x8a, 0x82, 0xaa, 0xc6,
    0xac, 0xe8, 0xcd, 0xb9, 0x7c, 0x82, 0x93, 0x50, 0x9a, 0x4f,
    0xcc, 0xc0, 0x8c, 0x3c, 0x57, 0xb2, 0x14, 0x83, 0x48, 0x7d,
    0xb7, 0xa0, 0x82, 0x7f, 0x97, 0x7c, 0xa2, 0x7c, 0x5a, 0x6f,
    0xbc, 0xaa, 0x96, 0xbd, 0xbd, 0x8b, 0x75, 0xa4, 0xe0, 0x7b,
    0x91, 0x8d, 0x88, 0x7c, 0x9a, 0x84, 0xb5, 0xa3, 0xb9, 0xe3,
    0xc7, 0xa8, 0x75, 0x96, 0xa6, 0x33, 0xa2, 0x1c, 0xb5, 0x8d,
    0x86, 0x2d, 0x8b, 0x8b, 0x42, 0x68, 0x2c, 0x6d, 0x9f, 0x86,
    0xaf, 0x8c, 0x9f, 0xa1, 0x87, 0x9b, 0x68, 0x70, 0xa7, 0xa0,
    0x94, 0xba, 0xb1, 0x9a, 0x8f, 0xc2, 0xe7, 0x68, 0x58, 0x96,
    0x9a, 0x7d, 0x92, 0x82, 0x9d, 0xc0, 0x92, 0xe3, 0xcb, 0xb5,
    0x69, 0x8f, 0x82, 0x24, 0x9a, 0x3d, 0xd6, 0xc8, 0x80, 0x15,
    0x87, 0x9c, 0x49, 0x92, 0x21, 0x6d, 0xb2, 0xaf, 0x89, 0x89,
    0xb9, 0x7d, 0xb2, 0x96, 0x71, 0x49, 0xc6, 0x96, 0xa9, 0x96,
    0xc5, 0xa2, 0x7c, 0xa8, 0xdf, 0x65, 0x56, 0xa2, 0x9b, 0x7d,
    0x8b, 0x85, 0xa7, 0xb4, 0xae, 0xdb, 0xb1, 0x93, 0x6a, 0x6c,
    0x8f, 0x46, 0xa9, 0x0b, 0x9d, 0xa0, 0x8b, 0x34, 0x6d, 0x97,
    0x00, 0x83, 0x39, 0x58, 0x9b, 0x8a, 0xa1, 0x6a, 0xab, 0xa4,
    0xb1, 0x78, 0x4a, 0x73, 0xb9, 0xaa, 0x84, 0x7f, 0xd4, 0x84,
    0x6f, 0xaa, 0x42, 0xb4, 0xad, 0xa6, 0xaf, 0xb1, 0x78, 0x91,
    0xa8, 0x8e, 0xa1, 0x9a, 0xb4, 0x58, 0x4e, 0x98, 0x93, 0xc3,
    0x95, 0xd6, 0x86, 0xaf, 0xb0, 0xd4, 0xa4, 0x7a, 0xa8, 0x96,
    0xca, 0x89, 0xbb, 0x6e, 0x7c, 0xab, 0xa4, 0xc4, 0x96, 0xdf,
    0xd3, 0xb7, 0x6c, 0x96, 0x9e, 0x76, 0x91, 0x89, 0x9d, 0x58,
    0x68, 0xa7, 0xa1, 0x94, 0x96, 0xa4, 0x95, 0x9d, 0xac, 0xac,
    0x96, 0xaa, 0xaa, 0x5a, 0x1d, 0x92, 0x7f, 0xb5, 0x85, 0xce,
    0x6c, 0xaa, 0x63, 0x8f, 0x69, 0x8a, 0xae, 0x7c, 0x70, 0x80,
    0x93, 0x51, 0x85, 0xaf, 0x87, 0xab, 0x9f, 0x79, 0xc8, 0xac,
    0x7a, 0x8b, 0x83, 0x7c, 0x57, 0x96, 0x89, 0xb1, 0x4f, 0xb3,
    0xa5, 0xaf, 0x9c, 0xae, 0x81, 0xb0, 0xbb, 0x8d, 0xa4, 0x8d,
    0xb9, 0x34, 0x2d, 0x8f, 0x90, 0xa9, 0x82, 0xc1, 0x96, 0xb1,
    0x87, 0xd1, 0x83, 0x78, 0xb8, 0x7d, 0x95, 0x96, 0x8f, 0x4d,
    0xa9, 0xaf, 0x6e, 0xb0, 0xa0, 0xa5, 0x9b, 0xbb, 0x6d, 0x90,
    0xac, 0x8b, 0x6e, 0x74, 0x84, 0x77, 0x7e, 0xbd, 0x79, 0xb9,
    0x95, 0x9e, 0x76, 0x9e, 0xac, 0xae, 0xa8, 0x8b, 0x8b, 0x38,
    0x32, 0x9c, 0x73, 0x74, 0x8d, 0xcc, 0xac, 0x9c, 0x9e, 0x96,
    0x72, 0x7f, 0xb4, 0xa1, 0xa9, 0xaa, 0xb2, 0x80, 0x97, 0xb7,
    0x83, 0xa3, 0xb3, 0xc8, 0x9b, 0xcb, 0x7c, 0x89, 0x85, 0x81,
    0x59, 0x8f, 0x8a, 0x8a, 0x3b, 0xa9, 0xa2, 0x9f, 0xb0, 0xac,
    0x77, 0xad, 0xb5, 0x95, 0xbb, 0x8a, 0x98, 0x30, 0x50, 0x9b,
    0x7a, 0xb5, 0xac, 0xaf, 0x60, 0xbe, 0xbe, 0xc6, 0x9d, 0x73,
    0xa2, 0x78, 0xab, 0xa3, 0xa6, 0x69, 0x90, 0xa0, 0x94, 0xa5,
    0x9b, 0xc5, 0x8a, 0xad, 0x90, 0x7e, 0x95, 0x71, 0x7c, 0x9f,
    0x9c, 0x63, 0xa7, 0xa7, 0x52, 0xb1, 0x9b, 0x9e, 0xdf, 0x90,
    0xa0, 0x1e, 0x9e, 0xc0, 0x94, 0x9f, 0x8f, 0x5f, 0xb6, 0xcf,
    0x3d, 0x84, 0x9e, 0xac, 0x75, 0x80, 0x87, 0xbc, 0xa5, 0xb6,
    0x8d, 0xa7, 0x5a, 0x89, 0xb9, 0x7e, 0x60, 0x6d, 0x5c, 0x4d,
    0x88, 0x40, 0x51, 0xa8, 0x95, 0xb5, 0x4d, 0x8c, 0xb1, 0x67,
    0xa0, 0x9a, 0x66, 0xa6, 0x9c, 0x90, 0xd5, 0x8b, 0xa0, 0x17,
    0x8f, 0x92, 0x89, 0xc7, 0x91, 0x9b, 0xc1, 0xd0, 0x55, 0xc1,
    0xa4, 0xaa, 0xc0, 0x93, 0x83, 0x9d, 0xbf, 0x9c, 0x83, 0x96,
    0x8e, 0x88, 0xcf, 0x4c, 0x74, 0x55, 0x50, 0x87, 0x81, 0x6e,
    0x49, 0x78, 0xc7, 0xa5, 0x8c, 0xb1, 0x82, 0x2c, 0xc1, 0xae,
    0x73, 0xad, 0x8e, 0xa7, 0xbb, 0xa6, 0xb3, 0x74, 0xa3, 0x91,
    0x91, 0xd2, 0x81, 0x6e, 0xb2, 0xbd, 0x47, 0xac, 0x9e, 0x76,
    0xb8, 0x94, 0x74, 0xbb, 0xba, 0x99, 0x88, 0xae, 0x88, 0x66,
    0xd4, 0x50, 0x68, 0x58, 0x55, 0x3c, 0xb6, 0x58, 0x3f, 0xad,
    0xbe, 0xd3, 0x71, 0x97, 0xb2, 0x67, 0x9f, 0xb8, 0x4d, 0xb6,
    0x85, 0x99, 0xcc, 0x9e, 0xab, 0x4a, 0x9d, 0x83, 0x85, 0xc7,
    0x7f, 0x56, 0xa5, 0xa4, 0x68, 0xd1, 0xb9, 0x94, 0x8d, 0x71,
    0x88, 0xa9, 0xc4, 0xbf, 0xc9, 0xc5, 0x91, 0x9c, 0xb2, 0x76,
    0x77, 0x47, 0x46, 0x53, 0x95, 0x84, 0x41, 0xab, 0x95, 0xc3,
    0x68, 0xae, 0x93, 0x70, 0xc4, 0xa5, 0x57, 0xb0, 0x8a, 0x9d,
    0xbd, 0xa6, 0xae, 0x3a, 0xb1, 0xa2, 0x8f, 0xb5, 0x8e, 0x70,
    0xb9, 0xba, 0x3f, 0xc8, 0xcd, 0xa1, 0x8c, 0x8a, 0xb6, 0xb0,
    0xc3, 0xa6, 0xb1, 0x92, 0x66, 0x5e, 0xc7, 0x2b, 0x56, 0x92,
    0x4e, 0x58, 0x81, 0x51, 0x44, 0x9a, 0x88, 0xae, 0x86, 0x9a,
    0xa7, 0x73, 0x27, 0x4b, 0x1e, 0xbf, 0x3d, 0x48, 0x1d, 0xbf,
    0x54, 0x45, 0x1c, 0xbf, 0x6a, 0x42, 0x1b, 0xbf, 0x80, 0x3f,
    0x1a, 0xbf, 0x96, 0x3c, 0x19, 0xbf, 0xad, 0x39, 0x18, 0xbf,
    0xc3, 0x36, 0x17, 0xbf, 0xd9, 0x33, 0x16, 0xbf, 0xef, 0x30,
    0x15, 0xbf, 0x06, 0x2e, 0x14, 0xbf, 0x0e, 0xaf, 0x12, 0xbf,
    0x32, 0x28, 0x12, 0xbf, 0x48, 0x25, 0x11, 0xbf, 0x5f, 0x22,
    0x10, 0xbf, 0x75, 0x1f, 0x0f, 0xbf, 0x8b, 0x1c, 0x0e, 0xbf,
    0xa1, 0x19, 0x0d, 0xbf, 0xb8, 0x16, 0x0c, 0xbf, 0xce, 0x13,
    0x0b, 0xbf, 0x03, 0x39, 0x0a, 0xbf, 0x4d, 0x72, 0x09, 0xbf,
    0x11, 0x0b, 0x08, 0xbf, 0x77, 0xfd, 0x06, 0xbf, 0xaa, 0x63,
    0x06, 0xbf, 0x53, 0x02, 0x05, 0xbf, 0xe6, 0xcc, 0x03, 0xbf,
    0xb1, 0xaa, 0x02, 0xbf, 0x9b, 0xf8, 0x01, 0xbf, 0x96, 0x0d,
    0x01, 0xbf, 0x1d, 0x18, 0x00, 0xbf, 0x80, 0x67, 0xfe, 0xbe,
    0xde, 0xdb, 0xfb, 0xbe, 0x34, 0xfa, 0xf8, 0xbe, 0x37, 0xd0,
    0xf7, 0xbe, 0x64, 0xca, 0xf5, 0xbe, 0x4e, 0xe3, 0xf2, 0xbe,
    0xbd, 0xbe, 0xf1, 0xbe, 0xe9, 0xb8, 0xef, 0xbe, 0xe8, 0xe8,
    0xed, 0xbe, 0x25, 0x2c, 0xec, 0xbe, 0x6f, 0xa7, 0xe9, 0xbe,
    0x91, 0xad, 0xe6, 0xbe, 0x6b, 0x2b, 0xe5, 0xbe, 0xd3, 0xcc,
    0xe3, 0xbe, 0x18, 0xe9, 0xe1, 0xbe, 0x4d, 0x8a, 0xdf, 0xbe,
    0x7a, 0x84, 0xdd, 0xbe, 0x4d, 0x99, 0xdb, 0xbe, 0x24, 0x78,
    0xd8, 0xbe, 0xcc, 0x86, 0xd6, 0xbe, 0x3c, 0xba, 0xd4, 0xbe,
    0x32, 0x2c, 0xd3, 0xbe, 0xf5, 0x43, 0xd2, 0xbe, 0x6a, 0xfc,
    0xce, 0xbe, 0xde, 0x55, 0xcd, 0xbe, 0x64, 0xd9, 0xcb, 0xbe,
    0x45, 0x48, 0xca, 0xbe, 0x54, 0xd2, 0xc7, 0xbe, 0x62, 0x5e,
    0xc4, 0xbe, 0x97, 0x5b, 0xc3, 0xbe, 0x31, 0x52, 0xc1, 0xbe,
    0x15, 0x2d, 0xbf, 0xbe, 0x18, 0x58, 0xbd, 0xbe, 0x0c, 0x94,
    0xba, 0xbe, 0xef, 0x37, 0xb8, 0xbe, 0x8c, 0xbb, 0xb6, 0xbe,
    0x4e, 0xbe, 0xb5, 0xbe, 0x6e, 0x9a, 0xb2, 0xbe, 0xc4, 0x41,
    0xb0, 0xbe, 0x7f, 0xc2, 0xae, 0xbe, 0x28, 0x02, 0xad, 0xbe,
    0x79, 0x5d, 0xaa, 0xbe, 0xca, 0x77, 0xa9, 0xbe, 0x4d, 0x77,
    0xa7, 0xbe, 0x3f, 0x9c, 0xa4, 0xbe, 0xbd, 0xe3, 0xa1, 0xbe,
    0x5f, 0xa5, 0xa0, 0xbe, 0xf8, 0x78, 0x9f, 0xbe, 0x0f, 0x62,
    0x9c, 0xbe, 0x7d, 0x48, 0x9b, 0xbe, 0x44, 0xe0, 0x98, 0xbe,
    0x5f, 0x88, 0x96, 0xbe, 0xf9, 0x42, 0x95, 0xbe, 0x1c, 0x93,
    0x93, 0xbe, 0xf0, 0x12, 0x91, 0xbe, 0x9a, 0x60, 0x8f, 0xbe,
    0xa6, 0xe0, 0x8c, 0xbe, 0xf4, 0x70, 0x8a, 0xbe, 0x96, 0xb3,
    0x88, 0xbe, 0x75, 0x78, 0x86, 0xbe, 0x9c, 0x4d, 0x84, 0xbe,
    0xff, 0x98, 0x82, 0xbe, 0x64, 0x8c, 0x80, 0xbe, 0x72, 0xa0,
    0x7d, 0xbe, 0x2a, 0x0f, 0x79, 0xbe, 0x87, 0x6e, 0x75, 0xbe,
    0x7b, 0x75, 0x70, 0xbe, 0xdb, 0x3a, 0x6d, 0xbe, 0x6b, 0x44,
    0x68, 0xbe, 0x96, 0x72, 0x63, 0xbe, 0xde, 0x68, 0x61, 0xbe,
    0xf7, 0x69, 0x5d, 0xbe, 0x11, 0x81, 0x57, 0xbe, 0x07, 0x0c,
    0x55, 0xbe, 0x5a, 0x60, 0x4f, 0xbe, 0x53, 0x08, 0x4d, 0xbe,
    0xe9, 0xf3, 0x47, 0xbe, 0xa0, 0x81, 0x44, 0xbe, 0x66, 0x99,
    0x40, 0xbe, 0x66, 0xf0, 0x3b, 0xbe, 0x8e, 0x4e, 0x37, 0xbe,
    0x81, 0xc7, 0x32, 0xbe, 0x15, 0x17, 0x30, 0xbe, 0x18, 0x03,
    0x2d, 0xbe, 0x1c, 0xd3, 0x28, 0xbe, 0x1d, 0x32, 0x25, 0xbe,
    0x52, 0x4b, 0x20, 0xbe, 0x1f, 0xc6, 0x1b, 0xbe, 0x08, 0x86,
    0x16, 0xbe, 0x8e, 0x2c, 0x13, 0xbe, 0xdb, 0x32, 0x0f, 0xbe,
    0x15, 0x74, 0x0b, 0xbe, 0x44, 0x4b, 0x07, 0xbe, 0xf8, 0xd2,
    0x03, 0xbe, 0x71, 0x23, 0xfe, 0xbd, 0x60, 0x72, 0xf5, 0xbd,
    0xdc, 0xd6, 0xef, 0xbd, 0xbd, 0xab, 0xe6, 0xbd, 0x79, 0x38,
    0xdc, 0xbd, 0x60, 0x19, 0xd6, 0xbd, 0x8e, 0x16, 0xcf, 0xbd,
    0x6e, 0xac, 0xc5, 0xbd, 0x79, 0x0a, 0xbf, 0xbd, 0xb1, 0x21,
    0xb5, 0xbd, 0x99, 0x22, 0xaf, 0xbd, 0x4b, 0xff, 0xa4, 0xbd,
    0xf4, 0xc0, 0x9d, 0xbd, 0x53, 0xa0, 0x94, 0xbd, 0x83, 0x08,
    0x8d, 0xbd, 0x63, 0x01, 0x86, 0xbd, 0xee, 0x65, 0x7c, 0xbd,
    0x56, 0x81, 0x6a, 0xbd, 0xf8, 0xe1, 0x5a, 0xbd, 0x8f, 0x94,
    0x4a, 0xbd, 0x05, 0x2c, 0x3a, 0xbd, 0xf8, 0x59, 0x28, 0xbd,
    0x7f, 0x71, 0x1b, 0xbd, 0xda, 0xe2, 0x0a, 0xbd, 0x88, 0x48,
    0xf9, 0xbc, 0x27, 0x94, 0xd8, 0xbc, 0x4c, 0x6e, 0xb3, 0xbc,
    0xaa, 0x2e, 0x99, 0xbc, 0xe5, 0xfd, 0x6a, 0xbc, 0x19, 0x4d,
    0x23, 0xbc, 0xc4, 0xd9, 0xcb, 0xbb, 0xdc, 0x89, 0xb9, 0xba,
    0x59, 0x6d, 0xec, 0x3a, 0xc7, 0x6e, 0xcf, 0x3b, 0x22, 0xd7,
    0x2e, 0x3c, 0xe3, 0xcc, 0x7a, 0x3c, 0xf6, 0x17, 0x97, 0x3c,
    0x91, 0xb1, 0xb2, 0x3c, 0x61, 0xbf, 0xcf, 0x3c, 0xb8, 0x72,
    0xf2, 0x3c, 0xb8, 0x25, 0x0c, 0x3d, 0x16, 0x11, 0x20, 0x3d,
    0xbe, 0x4b, 0x30, 0x3d, 0xcb, 0x55, 0x3d, 0x3d, 0xa2, 0x2a,
    0x4a, 0x3d, 0x50, 0xcd, 0x57, 0x3d, 0x10, 0xa5, 0x68, 0x3d,
    0x16, 0x51, 0x78, 0x3d, 0x0d, 0xb9, 0x83, 0x3d, 0x86, 0x7a,
    0x8c, 0x3d, 0x6b, 0xa1, 0x95, 0x3d, 0x6c, 0xff, 0x9b, 0x3d,
    0xc8, 0x0f, 0xa5, 0x3d, 0x60, 0x64, 0xae, 0x3d, 0xbc, 0x7d,
    0xb7, 0x3d, 0x95, 0x20, 0xbe, 0x3d, 0xca, 0x60, 0xc7, 0x3d,
    0x6f, 0xbe, 0xcf, 0x3d, 0x20, 0x2d, 0xd5, 0x3d, 0x93, 0x85,
    0xdd, 0x3d, 0x7b, 0xfb, 0xe6, 0x3d, 0xe0, 0xee, 0xed, 0x3d,
    0x33, 0x7c, 0xf6, 0x3d, 0x20, 0x6f, 0xfb, 0x3d, 0xb2, 0x36,
    0x02, 0x3e, 0xa0, 0x35, 0x07, 0x3e, 0xfd, 0x50, 0x0b, 0x3e,
    0xf0, 0x1b, 0x10, 0x3e, 0xdf, 0x4d, 0x14, 0x3e, 0xe4, 0xf9,
    0x16, 0x3e, 0xcc, 0x51, 0x1a, 0x3e, 0x73, 0x41, 0x1f, 0x3e,
    0x9f, 0x49, 0x23, 0x3e, 0x2a, 0x82, 0x28, 0x3e, 0x06, 0x37,
    0x2b, 0x3e, 0x19, 0xcf, 0x2f, 0x3e, 0x54, 0x50, 0x34, 0x3e,
    0x20, 0xf9, 0x37, 0x3e, 0xb0, 0x81, 0x3c, 0x3e, 0x7c, 0x07,
    0x3f, 0x3e, 0x5d, 0x3c, 0x44, 0x3e, 0x5e, 0xc9, 0x48, 0x3e,
    0x68, 0xcb, 0x4c, 0x3e, 0xfe, 0x15, 0x52, 0x3e, 0x02, 0xcc,
    0x54, 0x3e, 0x7f, 0x75, 0x58, 0x3e, 0x7e, 0xae, 0x5d, 0x3e,
    0x3b, 0x7d, 0x60, 0x3e, 0x81, 0x97, 0x63, 0x3e, 0xad, 0x39,
    0x68, 0x3e, 0xa2, 0x9c, 0x6c, 0x3e, 0x49, 0xa8, 0x70, 0x3e,
    0xf0, 0xb3, 0x74, 0x3e, 0x97, 0xbf, 0x78, 0x3e, 0x58, 0x8d,
    0x7c, 0x3e, 0xea, 0xc1, 0x80, 0x3e, 0x1a, 0x6e, 0x81, 0x3e,
    0x31, 0x2a, 0x84, 0x3e, 0xc0, 0xa6, 0x86, 0x3e, 0xf6, 0xb7,
    0x88, 0x3e, 0x94, 0x88, 0x8a, 0x3e, 0x02, 0xff, 0x8b, 0x3e,
    0x4c, 0x2a, 0x8e, 0x3e, 0x0f, 0x9a, 0x90, 0x3e, 0xe2, 0x9f,
    0x92, 0x3e, 0xda, 0x2b, 0x95, 0x3e, 0xdf, 0xc8, 0x95, 0x3e,
    0x66, 0x5c, 0x99, 0x3e, 0x30, 0xb7, 0x9a, 0x3e, 0xc7, 0x43,
    0x9d, 0x3e, 0xd7, 0xc2, 0x9e, 0x3e, 0xab, 0xc8, 0xa0, 0x3e,
    0x7e, 0xce, 0xa2, 0x3e, 0x52, 0xd4, 0xa4, 0x3e, 0x25, 0xda,
    0xa6, 0x3e, 0xc8, 0x8c, 0xa8, 0x3e, 0xcc, 0xe5, 0xaa, 0x3e,
    0xa0, 0xeb, 0xac, 0x3e, 0x73, 0xf1, 0xae, 0x3e, 0x47, 0xf7,
    0xb0, 0x3e, 0x1a, 0xfd, 0xb2, 0x3e, 0xee, 0x02, 0xb5, 0x3e,
    0xc1, 0x08, 0xb7, 0x3e, 0x95, 0x0e, 0xb9, 0x3e, 0x68, 0x14,
    0xbb, 0x3e, 0x3c, 0x1a, 0xbd, 0x3e, 0x0f, 0x20, 0xbf, 0x3e,
    0xe3, 0x25, 0xc1, 0x3e, 0xb6, 0x2b, 0xc3, 0x3e, 0x8a, 0x31,
    0xc5, 0x3e, 0x5d, 0x37, 0xc7, 0x3e, 0x9f, 0xa5, 0x91, 0x3d,
    0x20, 0x81, 0xef, 0x3d, 0xc9, 0xc2, 0x81, 0x3a, 0xfd, 0xf5,
    0x3e, 0xbe, 0x92, 0xb9, 0x5c, 0x3d, 0xe3, 0x48, 0xd2, 0xbd
  };

  return AI_HANDLE_PTR(s_network_weights);
}

