#include "network_data.h"

ai_handle ai_network_data_weights_get(void)
{

  AI_ALIGNED(4)
  static const ai_u8 s_network_weights[ 8792 ] = {
    0x82, 0x6c, 0xb0, 0xbe, 0x88, 0x8b, 0xbd, 0xbe, 0x76, 0x53,
    0xa0, 0xbe, 0x6f, 0xbf, 0x70, 0x3c, 0x08, 0x60, 0x40, 0xbe,
    0x9d, 0xd0, 0xd0, 0x3d, 0x38, 0xac, 0xfc, 0xbe, 0xd6, 0xf6,
    0xca, 0xbe, 0x73, 0x48, 0x53, 0x3e, 0x05, 0xd1, 0xf3, 0xbe,
    0x3c, 0xb5, 0xa1, 0x3d, 0x35, 0x93, 0x66, 0x3e, 0xe0, 0x18,
    0xb1, 0xbe, 0x51, 0xf4, 0x91, 0xbe, 0x8a, 0x18, 0x54, 0x3e,
    0xd3, 0xae, 0x23, 0xbf, 0x2a, 0x38, 0xef, 0xbe, 0x7b, 0xb5,
    0x37, 0xbd, 0xd0, 0x4b, 0x31, 0x3e, 0x71, 0x42, 0x20, 0x3f,
    0x27, 0x7f, 0xa1, 0x3e, 0xf6, 0x21, 0x22, 0x3f, 0xc5, 0x16,
    0x1c, 0x3f, 0x7b, 0x7a, 0x08, 0x3e, 0xd7, 0x0f, 0x03, 0x3c,
    0xfb, 0x02, 0x0b, 0x3f, 0x96, 0xb3, 0x23, 0x3f, 0x4e, 0xda,
    0xc9, 0x3e, 0x09, 0x50, 0x9a, 0x3d, 0x77, 0xe8, 0xc9, 0xbe,
    0x8f, 0xb9, 0x9b, 0x3e, 0x33, 0x7d, 0xb2, 0x3e, 0x59, 0x56,
    0xb2, 0xbe, 0x36, 0x41, 0x44, 0x3e, 0x99, 0x71, 0x2a, 0x3e,
    0x7f, 0xde, 0x9a, 0x3c, 0x70, 0x0f, 0x41, 0x3e, 0x40, 0xd9,
    0xd7, 0x3d, 0x4b, 0xa8, 0xe3, 0xbd, 0x4a, 0x27, 0x28, 0xbd,
    0x3f, 0x9c, 0xe5, 0xbd, 0x91, 0x8b, 0x7b, 0x3d, 0x0e, 0xf8,
    0x81, 0x3e, 0x6a, 0xf0, 0xa6, 0x3e, 0xf6, 0xf7, 0x1e, 0xbe,
    0x2d, 0x73, 0x57, 0xbd, 0xcf, 0xcf, 0x3f, 0xbd, 0x0f, 0x21,
    0x7e, 0x3e, 0xb7, 0x8f, 0x35, 0xbe, 0x54, 0xb8, 0x56, 0x3d,
    0xdc, 0xa1, 0xa3, 0xbe, 0x50, 0x85, 0x65, 0x3d, 0x29, 0x54,
    0x02, 0x3e, 0xc3, 0x19, 0x86, 0xbe, 0x90, 0xcd, 0x92, 0xbd,
    0xbe, 0xc0, 0x9e, 0x3e, 0x23, 0x53, 0xa0, 0x3d, 0xad, 0xe0,
    0xa3, 0x3d, 0x4a, 0x40, 0x29, 0x3d, 0xe9, 0x2f, 0x9a, 0xbd,
    0x68, 0x13, 0x48, 0x3d, 0x85, 0xb6, 0x6b, 0x3d, 0xc3, 0x82,
    0x3a, 0xbe, 0xb0, 0xe1, 0xb7, 0x3e, 0x29, 0xa9, 0x46, 0xbe,
    0x82, 0xab, 0x4e, 0x3e, 0x9a, 0x4d, 0x88, 0xbd, 0x68, 0x4d,
    0xe4, 0x3d, 0xc4, 0x01, 0x84, 0xbe, 0x5a, 0x53, 0x1f, 0x3e,
    0x85, 0x67, 0x8a, 0x3e, 0xb4, 0x92, 0x66, 0xbc, 0x42, 0x94,
    0x21, 0xbd, 0x3c, 0x39, 0x6f, 0x3e, 0x99, 0x5b, 0xe5, 0x3d,
    0x1c, 0xcd, 0xad, 0x3e, 0xd8, 0xb3, 0xaa, 0x3d, 0x1c, 0x59,
    0x79, 0x3e, 0x2a, 0xd0, 0xdd, 0xbd, 0xaf, 0xf5, 0x8c, 0xbe,
    0xff, 0x77, 0x25, 0xbe, 0xf9, 0xe5, 0x87, 0x3e, 0x18, 0x07,
    0x01, 0x3e, 0x90, 0x92, 0x6b, 0xbd, 0x50, 0xcd, 0x48, 0xbe,
    0x4c, 0xfe, 0x6c, 0xbe, 0x4a, 0x96, 0x09, 0x3d, 0x75, 0x71,
    0x36, 0x3e, 0x81, 0xa1, 0x71, 0x3e, 0x06, 0x88, 0x0c, 0x3e,
    0x7f, 0xf1, 0x15, 0xbe, 0x9f, 0x45, 0x9a, 0xbe, 0x1c, 0x6d,
    0x5f, 0x3e, 0xcd, 0xca, 0x52, 0xbd, 0xc1, 0xe0, 0x5e, 0x3e,
    0xd1, 0x0c, 0x2f, 0x3d, 0xae, 0xc6, 0xd5, 0xbc, 0x80, 0x33,
    0xa0, 0x3d, 0x2d, 0x98, 0xdf, 0xbc, 0x74, 0x54, 0x8e, 0x3d,
    0xf7, 0x40, 0x0c, 0x3c, 0xde, 0x88, 0x53, 0x3e, 0xfa, 0x3c,
    0xe2, 0xbd, 0xb3, 0xeb, 0x0a, 0x3e, 0x74, 0xb4, 0x43, 0xbd,
    0xd3, 0x86, 0x91, 0x3e, 0xf2, 0xcf, 0x8c, 0x3e, 0x02, 0x5b,
    0x60, 0xbe, 0x4e, 0x92, 0x85, 0xbc, 0x59, 0x13, 0x5a, 0xbe,
    0x0b, 0x91, 0x78, 0x3e, 0xb9, 0x57, 0xd1, 0x3d, 0x37, 0x8f,
    0x0c, 0x3e, 0x3f, 0x92, 0x95, 0xbc, 0x40, 0xa6, 0x96, 0x3e,
    0x8d, 0x13, 0xa7, 0x3e, 0xd7, 0xa5, 0x66, 0x3e, 0x3f, 0xe1,
    0xf7, 0x3d, 0x1e, 0x9d, 0x22, 0x3e, 0xbb, 0xb9, 0xd5, 0xbd,
    0x45, 0x8f, 0xce, 0x3c, 0xdc, 0xef, 0xf3, 0x3d, 0xc1, 0x01,
    0xf5, 0xbd, 0x09, 0xb5, 0xc2, 0x3d, 0xcd, 0xd0, 0x1b, 0x3d,
    0xc1, 0x18, 0xb0, 0x3b, 0x3f, 0x16, 0x66, 0x3d, 0x06, 0x28,
    0xba, 0x3d, 0x76, 0xfc, 0xf9, 0x3d, 0x16, 0x2e, 0x9d, 0xbd,
    0xda, 0x5d, 0x84, 0xbe, 0x1d, 0x9a, 0xa6, 0xbe, 0x11, 0x82,
    0xa0, 0xbd, 0x3f, 0x9a, 0x8c, 0x3e, 0x18, 0xdd, 0x71, 0x3e,
    0x0c, 0xf7, 0x6e, 0xbe, 0x72, 0xa9, 0xab, 0xbd, 0xff, 0x53,
    0x66, 0xbd, 0xbe, 0x04, 0x01, 0x3d, 0x66, 0x6f, 0xf2, 0xbd,
    0x82, 0xe1, 0x3b, 0x3e, 0x44, 0xe2, 0xb0, 0x3e, 0x2c, 0x02,
    0x02, 0x3d, 0xe6, 0x32, 0xbb, 0xbe, 0x1d, 0x2d, 0x37, 0xbe,
    0xb5, 0x89, 0x8c, 0x3d, 0x42, 0x39, 0x41, 0xbe, 0x97, 0xd1,
    0x22, 0xbe, 0xed, 0xcf, 0x45, 0xbe, 0xea, 0xeb, 0x25, 0x3c,
    0xee, 0x67, 0x35, 0xbe, 0x88, 0xf9, 0x34, 0xbe, 0x11, 0x82,
    0x7c, 0x3e, 0x28, 0x36, 0x73, 0xbe, 0xb0, 0x6f, 0x1b, 0xbc,
    0x8c, 0xa8, 0xad, 0x3d, 0x22, 0x34, 0x26, 0xbd, 0x7d, 0x53,
    0x56, 0x3e, 0x56, 0xe3, 0x10, 0xbe, 0x5a, 0x1a, 0x2e, 0xbe,
    0xfc, 0x44, 0xf8, 0xbc, 0x26, 0x6f, 0x84, 0x3d, 0x9b, 0x99,
    0x28, 0x3e, 0xf0, 0x21, 0x6e, 0x3e, 0x2d, 0xed, 0x4d, 0xbe,
    0xce, 0xa2, 0x53, 0xbe, 0xa5, 0x5f, 0x3f, 0xbd, 0xae, 0xf0,
    0x5e, 0x3e, 0xbe, 0x79, 0xe2, 0x3c, 0x98, 0x99, 0x99, 0x3b,
    0x19, 0x9b, 0x20, 0xbe, 0x4a, 0x11, 0x83, 0x3e, 0x69, 0x50,
    0x1e, 0xbe, 0x58, 0x85, 0x77, 0x3e, 0x4f, 0x91, 0x33, 0x3e,
    0xe4, 0x91, 0x65, 0x3e, 0x09, 0xf0, 0x48, 0xbe, 0xd3, 0x4d,
    0x09, 0x3d, 0xf4, 0xda, 0x68, 0x3d, 0x83, 0x06, 0xfa, 0x3e,
    0x99, 0xc6, 0x77, 0x3e, 0x40, 0x32, 0x38, 0x3e, 0x11, 0xab,
    0x5e, 0xbd, 0xb7, 0x81, 0x35, 0x3e, 0xbb, 0xea, 0xee, 0x3d,
    0x92, 0xb4, 0x03, 0xbe, 0x8c, 0x7a, 0x9b, 0x3e, 0xc2, 0x88,
    0x02, 0xbe, 0x23, 0x88, 0xb6, 0xbc, 0x12, 0x56, 0x13, 0x3e,
    0x97, 0x5e, 0xb1, 0xbd, 0xe4, 0x40, 0x84, 0x3e, 0x76, 0x7e,
    0x14, 0xbe, 0x8e, 0xde, 0x32, 0x3e, 0x7c, 0xf2, 0xc3, 0x3d,
    0x17, 0x8d, 0xa7, 0x3d, 0xcc, 0x84, 0xb9, 0xbd, 0xf3, 0x51,
    0x1e, 0x3d, 0xc9, 0xed, 0xfe, 0x3d, 0x0c, 0xc2, 0x48, 0x3d,
    0xd9, 0x67, 0x64, 0x3e, 0x97, 0xf6, 0xab, 0x3d, 0xec, 0x32,
    0x30, 0x3e, 0x08, 0xf1, 0xe1, 0x3c, 0x14, 0xb1, 0x8c, 0xbd,
    0xe8, 0x31, 0x1a, 0xbd, 0xbc, 0xd6, 0x4f, 0xbe, 0x3f, 0x15,
    0x1a, 0x3d, 0xe4, 0xec, 0x71, 0xbe, 0x02, 0x3a, 0x9a, 0xbd,
    0x60, 0xfc, 0xa8, 0x3c, 0x32, 0x03, 0x89, 0xbc, 0x26, 0x43,
    0x51, 0xbe, 0x14, 0xa9, 0x2b, 0x3e, 0xca, 0x8d, 0x7d, 0xbd,
    0xff, 0x36, 0xb1, 0x3e, 0xdc, 0x77, 0x26, 0x3e, 0xe4, 0x85,
    0x3d, 0xbe, 0x87, 0x82, 0x22, 0xbb, 0xea, 0xba, 0xba, 0x3d,
    0x42, 0x9e, 0x45, 0xbd, 0x94, 0x28, 0x0b, 0xbe, 0xef, 0x5c,
    0x7a, 0xbe, 0x15, 0xec, 0x6d, 0x3e, 0xbe, 0xb7, 0xd7, 0x3d,
    0x93, 0x82, 0x82, 0xbd, 0x74, 0xed, 0xb6, 0xbc, 0x7b, 0xc5,
    0x29, 0x3c, 0x31, 0x9b, 0x23, 0xbe, 0xb7, 0x9e, 0xd6, 0xbd,
    0x49, 0x25, 0x33, 0x3c, 0xa9, 0x98, 0x5d, 0x3e, 0xec, 0x34,
    0xb1, 0x3d, 0x6e, 0x9f, 0x28, 0xbd, 0x6c, 0x2f, 0x81, 0x3c,
    0x93, 0x3c, 0x83, 0x3e, 0x7b, 0x06, 0xf0, 0xbd, 0x13, 0x90,
    0x84, 0x3e, 0x72, 0x09, 0x13, 0xbe, 0x59, 0xf1, 0x16, 0xbd,
    0xdd, 0x40, 0x07, 0xbe, 0x0a, 0xdf, 0xab, 0xbd, 0xf2, 0x34,
    0x86, 0x3e, 0x48, 0xe2, 0x7f, 0x3e, 0xd8, 0xe5, 0xed, 0x3d,
    0xd9, 0xb6, 0x5e, 0x3c, 0xdd, 0xb8, 0x4d, 0xbd, 0x6d, 0x60,
    0xcb, 0x3d, 0x0f, 0xc7, 0x8a, 0xbc, 0x53, 0xfd, 0xad, 0x3d,
    0x47, 0xd6, 0x44, 0xbd, 0xc8, 0x0c, 0x40, 0x3e, 0x56, 0x9d,
    0x3c, 0x3d, 0xcb, 0x10, 0xdc, 0x39, 0x73, 0xfe, 0x7f, 0x3e,
    0x4a, 0x6e, 0x50, 0x3c, 0x73, 0x93, 0x4d, 0xbe, 0xb4, 0xe5,
    0x47, 0xbe, 0xda, 0xa2, 0x7c, 0xbd, 0x83, 0xc2, 0xa2, 0xbd,
    0x15, 0x05, 0x14, 0xbe, 0x25, 0xc0, 0x0b, 0xbd, 0xf9, 0xa5,
    0x1c, 0x3e, 0x18, 0xa3, 0xd2, 0xbc, 0xcd, 0x74, 0x5c, 0x3e,
    0xa3, 0x15, 0x77, 0x3e, 0xf8, 0x7c, 0x06, 0x3d, 0x8a, 0x9a,
    0x8c, 0xbe, 0xda, 0xd8, 0xba, 0x3d, 0xf6, 0x91, 0x55, 0x3e,
    0x22, 0x21, 0xac, 0x3c, 0xdc, 0xd7, 0x22, 0x3d, 0x1f, 0xc0,
    0x1c, 0x3e, 0x87, 0x1f, 0x6f, 0xbe, 0x48, 0xe3, 0x11, 0x3e,
    0x9f, 0x98, 0xb5, 0xbc, 0xfa, 0x63, 0x0b, 0x3e, 0x92, 0x36,
    0xae, 0xbd, 0xc7, 0xc4, 0x72, 0x3e, 0x29, 0x71, 0xe7, 0x3d,
    0xc7, 0x97, 0x59, 0x3d, 0xf5, 0x78, 0x09, 0xbe, 0x90, 0x0a,
    0x8c, 0x3d, 0xbe, 0x3b, 0x80, 0xbe, 0x73, 0x1d, 0x64, 0xbe,
    0x6f, 0x1a, 0x61, 0xbe, 0xb8, 0x9e, 0xca, 0xbc, 0x2b, 0xc1,
    0x67, 0xbc, 0x9b, 0xeb, 0x51, 0x3e, 0x85, 0xe1, 0xa9, 0x3e,
    0x8b, 0x08, 0x52, 0x3e, 0x7b, 0x16, 0x6e, 0xbd, 0xb1, 0xa1,
    0x0f, 0x3e, 0x8c, 0xe0, 0x7d, 0xb9, 0x2f, 0x3d, 0x3e, 0xbe,
    0x89, 0x00, 0xb4, 0xbd, 0xa0, 0x12, 0x2c, 0xbe, 0xd6, 0xa6,
    0x60, 0x3e, 0x78, 0xef, 0x62, 0xbc, 0xdf, 0x11, 0xf2, 0xbd,
    0x7b, 0x73, 0x7a, 0xbd, 0xa7, 0xa1, 0x0e, 0xbe, 0xdc, 0xa8,
    0x22, 0xbe, 0xe8, 0x14, 0x9b, 0x3c, 0x47, 0xb1, 0xd8, 0x3e,
    0xb5, 0x35, 0xbd, 0x3e, 0x49, 0x79, 0x64, 0xbd, 0x41, 0xbf,
    0x9a, 0x3d, 0xe9, 0xec, 0x9a, 0x3e, 0x0c, 0x8f, 0x17, 0x3e,
    0x49, 0x79, 0xcf, 0x3d, 0x3a, 0xb2, 0x88, 0x3e, 0x9a, 0x33,
    0x1e, 0x3e, 0x00, 0xbb, 0x72, 0xbd, 0xbd, 0x9c, 0x56, 0x3e,
    0x9e, 0xd5, 0x0a, 0xbe, 0x2a, 0xbe, 0x69, 0x3e, 0xdb, 0xbd,
    0xa2, 0x3e, 0x36, 0xbd, 0xd8, 0xbd, 0x60, 0x08, 0x83, 0xbd,
    0x7c, 0xcb, 0xdb, 0xba, 0x7f, 0x2b, 0xd8, 0xbd, 0x51, 0x13,
    0xc9, 0xbd, 0x0a, 0x5e, 0x3d, 0x3e, 0x06, 0x15, 0x0d, 0xbd,
    0xba, 0x5d, 0x1a, 0xbd, 0x96, 0x6f, 0x50, 0x3d, 0x5d, 0xdf,
    0x64, 0xbd, 0xa7, 0x7b, 0x08, 0xbe, 0xed, 0xc0, 0x36, 0xbd,
    0x6d, 0xa4, 0xd3, 0xbd, 0xc7, 0x4a, 0xe3, 0xbc, 0x9a, 0xcf,
    0x02, 0xbd, 0xc4, 0xa5, 0x66, 0xbd, 0x68, 0xe0, 0xae, 0x3d,
    0x80, 0x97, 0x38, 0x3e, 0xd2, 0x90, 0x9b, 0x3b, 0x63, 0xd0,
    0x98, 0xbc, 0xf4, 0x6a, 0xde, 0x3d, 0xe4, 0x1b, 0xc7, 0xbd,
    0x82, 0x0d, 0x12, 0x3e, 0x72, 0x4f, 0x87, 0xbc, 0x51, 0xe1,
    0x9b, 0x3d, 0xa2, 0x62, 0x3c, 0x3d, 0x54, 0xdd, 0x72, 0x3c,
    0xc8, 0xb1, 0x05, 0xbe, 0xbc, 0xad, 0x74, 0xbd, 0x6d, 0x99,
    0x16, 0x3d, 0x6f, 0x29, 0x73, 0xbd, 0xd5, 0x78, 0xaa, 0x3d,
    0x7d, 0xc4, 0xa3, 0x3d, 0xde, 0x8d, 0xae, 0xbd, 0x20, 0x6a,
    0x01, 0x3d, 0xbe, 0x09, 0x22, 0xbd, 0x6e, 0x9f, 0x52, 0x3e,
    0xf9, 0x3a, 0xe0, 0x3d, 0xd7, 0x2f, 0x2c, 0xbe, 0x78, 0xf1,
    0xc4, 0x3d, 0x40, 0x9b, 0xe8, 0x3c, 0x5c, 0x97, 0xa8, 0xbc,
    0x3a, 0x67, 0x83, 0x3d, 0x8a, 0xd9, 0xf3, 0x3d, 0xc2, 0xc4,
    0x2d, 0xbd, 0x79, 0xc6, 0x59, 0x3d, 0xe9, 0x93, 0xe3, 0xbd,
    0x08, 0xdf, 0x7c, 0xbd, 0xad, 0x0a, 0xef, 0x3d, 0x4c, 0x3b,
    0x98, 0xbd, 0x03, 0xff, 0x11, 0x3d, 0x32, 0x13, 0x96, 0x3d,
    0xa4, 0xd1, 0x17, 0xbe, 0xae, 0x82, 0x43, 0xba, 0x40, 0x05,
    0x06, 0x3e, 0xe3, 0x39, 0xcc, 0xbd, 0xe8, 0xf1, 0xc1, 0xbd,
    0x4d, 0x3e, 0x91, 0x3d, 0x73, 0xb9, 0xa5, 0x3d, 0x1e, 0x0f,
    0xf0, 0x3d, 0xb3, 0x80, 0x42, 0x3d, 0x90, 0x4d, 0xa4, 0x3d,
    0xe9, 0x34, 0xcf, 0x3c, 0x54, 0xeb, 0xef, 0xbd, 0x06, 0x0b,
    0xc3, 0xbd, 0xb7, 0xca, 0x77, 0xbd, 0x50, 0x04, 0x17, 0xbe,
    0xff, 0x97, 0x10, 0xbe, 0x35, 0xad, 0x01, 0x3e, 0x39, 0x70,
    0xc4, 0xbc, 0x86, 0x5c, 0x28, 0xbe, 0x0d, 0x3a, 0x67, 0x3d,
    0x38, 0xe3, 0x07, 0x3d, 0x9e, 0x5c, 0xc2, 0xbd, 0x3a, 0x26,
    0x90, 0xbd, 0x6b, 0x43, 0xfa, 0xbd, 0x8f, 0x1b, 0xf6, 0xbd,
    0x20, 0x5a, 0xc3, 0x3c, 0xdd, 0x4f, 0xa4, 0xbc, 0x35, 0x4b,
    0x9e, 0x3d, 0x38, 0x22, 0xf4, 0x3c, 0x95, 0x12, 0x2f, 0x3e,
    0xd6, 0xe3, 0x14, 0xbe, 0x06, 0x63, 0x07, 0xbe, 0x03, 0xea,
    0x30, 0x3d, 0x8a, 0xbe, 0x36, 0x3e, 0x68, 0x44, 0xa1, 0xbd,
    0x27, 0xaf, 0x09, 0x3e, 0xf1, 0xbe, 0x1b, 0x3c, 0x61, 0x29,
    0xf4, 0x3b, 0xbb, 0x77, 0xde, 0x3d, 0x06, 0x49, 0xc8, 0xbd,
    0x0b, 0x76, 0x93, 0xbd, 0x24, 0xe8, 0x9b, 0xbd, 0x0a, 0x16,
    0x9a, 0xbd, 0x35, 0x3a, 0xd6, 0xbc, 0xfb, 0x32, 0x18, 0xbe,
    0xaa, 0xaf, 0x2e, 0xbe, 0x8d, 0xa4, 0x35, 0xbe, 0x7d, 0xc6,
    0xbe, 0xbd, 0x0b, 0x25, 0xba, 0xbd, 0xe7, 0xfd, 0x6e, 0x3d,
    0x5d, 0xfb, 0x1a, 0xbe, 0x7d, 0x6d, 0xf6, 0x3b, 0xaa, 0xf0,
    0xcb, 0xbc, 0xbb, 0x5e, 0xc4, 0x3d, 0x65, 0x8f, 0x91, 0x3d,
    0x56, 0x4e, 0xc3, 0x3b, 0x0d, 0xa2, 0x45, 0x3d, 0xae, 0x10,
    0x6e, 0x3e, 0x4f, 0x70, 0x5a, 0x3e, 0xe4, 0x3c, 0xf1, 0x3d,
    0x5f, 0x27, 0xf6, 0xbd, 0xa8, 0x45, 0x5d, 0xbd, 0x82, 0x06,
    0xd3, 0xbd, 0x0c, 0x32, 0x01, 0xbe, 0xb7, 0x1a, 0x18, 0xbe,
    0x25, 0xce, 0xc5, 0xbd, 0x4f, 0xf3, 0xd3, 0xbd, 0x32, 0x9d,
    0x1a, 0x3e, 0x83, 0x78, 0x97, 0xbd, 0x6c, 0xea, 0xa7, 0xbc,
    0x47, 0x55, 0xd6, 0x3d, 0xc0, 0x5b, 0x71, 0xbd, 0x44, 0xae,
    0xd4, 0x3d, 0x0b, 0x7c, 0x05, 0x3e, 0x90, 0x74, 0xbc, 0xbd,
    0xd0, 0x84, 0x27, 0xbe, 0xb3, 0xc9, 0x35, 0x3d, 0x89, 0xbc,
    0x00, 0xbd, 0x9d, 0x67, 0x39, 0xbc, 0xd2, 0x77, 0x20, 0x3e,
    0x49, 0x0f, 0xb9, 0xbd, 0x73, 0xec, 0xcf, 0xbd, 0x51, 0x1d,
    0x80, 0x3c, 0xdf, 0x55, 0xe7, 0x3d, 0x86, 0x2f, 0x98, 0x3b,
    0x02, 0x67, 0x07, 0x3c, 0xa1, 0xde, 0x93, 0xbc, 0x7a, 0xdb,
    0x14, 0xbe, 0x23, 0x4c, 0x3c, 0xbe, 0xd6, 0xf5, 0x26, 0xbc,
    0xe0, 0xb7, 0x8f, 0xbd, 0x19, 0x59, 0x23, 0x3e, 0x1e, 0x9d,
    0x01, 0xbe, 0xff, 0x05, 0xbe, 0xbd, 0x8a, 0xb0, 0x4a, 0x3e,
    0x0d, 0x0a, 0x38, 0x3e, 0x32, 0x37, 0xd3, 0x3d, 0x1f, 0xe3,
    0xab, 0x3d, 0x8f, 0x97, 0x2a, 0xbc, 0x8a, 0xcc, 0x50, 0x3d,
    0x49, 0x8e, 0x16, 0xbd, 0xdf, 0xbe, 0x19, 0x3e, 0xae, 0xfa,
    0xaf, 0x3d, 0x02, 0xf0, 0x6e, 0x3e, 0x8a, 0x4f, 0xbb, 0x3d,
    0x84, 0x30, 0x24, 0x3e, 0xdb, 0x5b, 0x5b, 0xbd, 0x4a, 0xd2,
    0x16, 0x3e, 0x07, 0xd0, 0x4d, 0xbd, 0x81, 0x04, 0x6f, 0x3e,
    0xc8, 0x84, 0x5d, 0xbe, 0xb5, 0xaf, 0x40, 0x3e, 0x63, 0xae,
    0x60, 0xbd, 0x2e, 0x47, 0x32, 0xbe, 0x2a, 0x5d, 0x03, 0xbe,
    0xd1, 0x20, 0xc9, 0x3d, 0x67, 0xfc, 0xb9, 0xbb, 0x90, 0x3b,
    0x15, 0x3d, 0x06, 0x52, 0x5e, 0x3e, 0x45, 0x0b, 0x5f, 0x3e,
    0xa6, 0xe0, 0xaa, 0xbd, 0x80, 0xfc, 0xd5, 0xbd, 0x84, 0x62,
    0x94, 0xbd, 0xa4, 0xcb, 0x4b, 0xbd, 0x56, 0x73, 0x21, 0xbe,
    0x42, 0xaa, 0xb8, 0x3d, 0x3d, 0xc6, 0x01, 0x3e, 0x41, 0x59,
    0x41, 0x3d, 0xed, 0x3a, 0x83, 0x3d, 0xca, 0xb4, 0xc3, 0x3d,
    0xa1, 0x45, 0x5c, 0xbd, 0x89, 0x0e, 0x53, 0xbc, 0x67, 0xff,
    0xc7, 0xbc, 0x3b, 0x05, 0xde, 0xbd, 0x02, 0x80, 0xf5, 0xbd,
    0xd2, 0xf3, 0xa5, 0x3d, 0x39, 0xe9, 0x86, 0xbd, 0x4d, 0x9b,
    0x3d, 0xbe, 0x80, 0xef, 0x47, 0xbd, 0xa4, 0xf4, 0x0b, 0x3d,
    0xd6, 0xe2, 0x8b, 0xbe, 0x5a, 0x3d, 0xef, 0xbd, 0xd5, 0x61,
    0xdf, 0xbc, 0x09, 0xad, 0x09, 0x3e, 0xc0, 0x66, 0xb3, 0x3d,
    0x0b, 0xe9, 0xc8, 0xbd, 0x5d, 0x87, 0x2c, 0x3e, 0x86, 0x97,
    0x36, 0xbe, 0x03, 0x75, 0x29, 0xbe, 0x89, 0xfe, 0xa5, 0xbd,
    0x35, 0x9a, 0xd9, 0xbd, 0x19, 0x12, 0x4e, 0x3e, 0x8e, 0x94,
    0x5e, 0x3d, 0xc4, 0xfa, 0xe7, 0xba, 0x13, 0x93, 0x93, 0x3c,
    0x85, 0x06, 0xb2, 0xbb, 0x54, 0xb0, 0xa0, 0xbd, 0x74, 0x4e,
    0xb9, 0xbd, 0x72, 0x89, 0x50, 0xbd, 0xb5, 0xb8, 0x96, 0xbd,
    0x2d, 0x9d, 0x15, 0x3e, 0x12, 0x95, 0x62, 0xbc, 0x8d, 0x8c,
    0x04, 0x3e, 0x30, 0x67, 0x10, 0xbe, 0xe3, 0x2f, 0x1b, 0xbd,
    0x6f, 0x42, 0x14, 0xbe, 0xf8, 0xee, 0x12, 0x3e, 0xe1, 0xab,
    0x53, 0x3e, 0x6a, 0x1e, 0x04, 0x3e, 0xab, 0x41, 0x8b, 0xbd,
    0xe6, 0x6a, 0xa3, 0xbd, 0x29, 0xa5, 0xb4, 0xbd, 0x02, 0x65,
    0x25, 0xbe, 0xe2, 0x28, 0x05, 0x3c, 0xcf, 0x08, 0x8c, 0xbb,
    0x18, 0x6d, 0xf8, 0x3c, 0xdd, 0xff, 0x00, 0x3d, 0x51, 0x2a,
    0x88, 0xbd, 0x96, 0xd9, 0xad, 0xbd, 0xaf, 0x66, 0x0b, 0x3e,
    0x51, 0x09, 0x81, 0xbd, 0x41, 0x3f, 0xc1, 0x3c, 0xe9, 0x1d,
    0x00, 0xbd, 0x5f, 0xff, 0x07, 0x3e, 0x2e, 0x84, 0xb0, 0xbb,
    0x43, 0xc3, 0x18, 0xbe, 0x67, 0xaf, 0xee, 0xbc, 0x3d, 0xc3,
    0x6f, 0x3b, 0xd4, 0x65, 0xca, 0x3b, 0xdc, 0xf1, 0x38, 0x3e,
    0x3d, 0xe6, 0x5c, 0xbe, 0x69, 0x95, 0x1b, 0xbe, 0xcb, 0xb9,
    0xf9, 0xbd, 0xb9, 0xff, 0x8f, 0xbc, 0x12, 0xad, 0x93, 0x3d,
    0xc6, 0xa4, 0x83, 0x3d, 0xcd, 0x31, 0xea, 0x3c, 0x08, 0x72,
    0xc0, 0x3d, 0x24, 0xd0, 0x1d, 0xbe, 0x73, 0x37, 0xc0, 0xbd,
    0xbb, 0x45, 0x6d, 0xbe, 0xf4, 0xca, 0x96, 0xbe, 0x78, 0x91,
    0xc8, 0x3c, 0x28, 0xfb, 0x46, 0x3c, 0xb5, 0xb7, 0x18, 0x3e,
    0xc3, 0xcf, 0xdb, 0xbd, 0xa7, 0x25, 0xf1, 0xbd, 0xa2, 0xc8,
    0x94, 0x3d, 0x11, 0xbb, 0xa5, 0x3d, 0xb3, 0x20, 0x22, 0xbc,
    0xa0, 0x92, 0x2a, 0xbd, 0xaa, 0xa9, 0x5b, 0x3c, 0x88, 0x7c,
    0x98, 0x3d, 0xc6, 0x4b, 0x5c, 0x3e, 0xe1, 0xb6, 0x1b, 0xbe,
    0x69, 0x38, 0xc7, 0xbd, 0x44, 0x92, 0x6b, 0x3b, 0xc3, 0xf2,
    0x4c, 0x3e, 0x66, 0xae, 0xfc, 0xbd, 0x32, 0x34, 0xf3, 0x3d,
    0x55, 0x9e, 0x96, 0x3d, 0x9b, 0x8a, 0x77, 0xbd, 0xe8, 0x51,
    0x87, 0xbd, 0x25, 0x0f, 0xe2, 0xbd, 0x58, 0xc5, 0x69, 0xbe,
    0x3d, 0x0b, 0x2a, 0xbe, 0x5e, 0xcf, 0x85, 0x3c, 0xb9, 0x10,
    0x06, 0x3e, 0x29, 0x32, 0xe9, 0x3d, 0x31, 0xd6, 0x53, 0xbe,
    0x55, 0xe7, 0xe1, 0xbd, 0xfb, 0x8b, 0x76, 0x3d, 0x1d, 0x83,
    0x43, 0xbd, 0xb9, 0x31, 0xa5, 0x3d, 0x83, 0x22, 0x52, 0xbe,
    0xfe, 0x80, 0xd4, 0x3d, 0xee, 0xdc, 0x4e, 0xbe, 0xe5, 0xcb,
    0x3a, 0x3e, 0x36, 0xba, 0x01, 0xbe, 0x5d, 0x30, 0x9d, 0xbd,
    0x1e, 0xd0, 0x06, 0xbe, 0x2c, 0xf6, 0xa4, 0x3c, 0x8d, 0x4f,
    0x64, 0xbb, 0x31, 0x8b, 0x1d, 0x3e, 0x77, 0xf7, 0x13, 0x3d,
    0x3e, 0x13, 0xc5, 0xbd, 0xe8, 0xd1, 0x16, 0xbe, 0xbe, 0xed,
    0x21, 0xbc, 0x43, 0xa7, 0x5c, 0xbe, 0xa1, 0x8a, 0xfb, 0xbd,
    0x2d, 0x36, 0x87, 0xbc, 0x65, 0xe1, 0xd9, 0xbd, 0x48, 0x05,
    0x91, 0x3e, 0x01, 0x1a, 0x6d, 0x3d, 0xf8, 0xce, 0x2c, 0x3e,
    0x98, 0xc5, 0x5e, 0xbd, 0x7c, 0x9d, 0x00, 0xbe, 0x6c, 0x44,
    0x1a, 0x3e, 0x96, 0x36, 0xd7, 0x3d, 0x3f, 0x2c, 0xc6, 0xbd,
    0xd9, 0xe2, 0x6e, 0xbe, 0x9c, 0x67, 0x37, 0x3e, 0x2a, 0xee,
    0xf7, 0xbd, 0x64, 0x72, 0x6f, 0xbe, 0x97, 0x95, 0x21, 0x3e,
    0x6e, 0xb7, 0x5e, 0x3e, 0xdd, 0x4d, 0x6c, 0xbe, 0x78, 0x98,
    0x36, 0x3d, 0xc9, 0xa0, 0x20, 0x3e, 0x67, 0x35, 0x13, 0xbe,
    0xf8, 0xc2, 0xd0, 0xba, 0x19, 0x30, 0xb2, 0x3d, 0xf1, 0x5c,
    0xfd, 0x3c, 0x98, 0x6d, 0x8b, 0xbd, 0xd2, 0x90, 0xc3, 0x3d,
    0xe1, 0xf9, 0xdc, 0x3c, 0x03, 0xbd, 0xaa, 0x3d, 0xd9, 0x84,
    0x05, 0x3e, 0x6a, 0x6d, 0x03, 0x3e, 0xc5, 0x8c, 0xb8, 0xbb,
    0x0d, 0x18, 0x53, 0xbe, 0x41, 0x0b, 0x95, 0xbd, 0xd4, 0xd3,
    0x06, 0x3e, 0xc6, 0x58, 0x49, 0x3d, 0x2b, 0x0a, 0xe1, 0xbc,
    0x72, 0xd2, 0xe7, 0xbc, 0x64, 0xaf, 0x4c, 0xbd, 0xa5, 0x10,
    0x9c, 0xbd, 0xad, 0x17, 0x7f, 0x3b, 0x67, 0x10, 0x46, 0xbc,
    0x05, 0x44, 0xc1, 0xbc, 0x71, 0xac, 0x82, 0x3d, 0x31, 0xbf,
    0x5b, 0x3c, 0xbc, 0x3f, 0x38, 0xbe, 0x06, 0xde, 0x1b, 0xbe,
    0x41, 0xc7, 0x4a, 0x3d, 0x78, 0x9f, 0x93, 0xbd, 0xe0, 0xda,
    0xe9, 0x3c, 0x0e, 0xd3, 0xd9, 0xbd, 0x4e, 0x02, 0x91, 0xbd,
    0xad, 0xc7, 0xd1, 0xbd, 0xdd, 0xf9, 0x49, 0xbd, 0x37, 0x26,
    0x2a, 0xbe, 0x26, 0xee, 0x29, 0x3e, 0xa4, 0x9d, 0xb9, 0xbd,
    0x54, 0x80, 0xfd, 0xbd, 0xb2, 0x99, 0xfd, 0x3c, 0x94, 0xab,
    0x4a, 0xbd, 0xc2, 0x8b, 0xa1, 0xbe, 0x3c, 0x1e, 0x61, 0x3e,
    0xa5, 0xc5, 0x37, 0x3c, 0x7a, 0x61, 0xc7, 0xbd, 0x05, 0x26,
    0x78, 0x3d, 0x0c, 0x6b, 0x61, 0x3d, 0xaf, 0x39, 0xd0, 0xbd,
    0x3d, 0xb7, 0x36, 0x3d, 0xc2, 0x15, 0xf2, 0x3c, 0x75, 0xb6,
    0x9e, 0xbd, 0xf1, 0x80, 0x9a, 0xbc, 0x9d, 0x7d, 0x2b, 0x3c,
    0xa6, 0xe4, 0xfe, 0xbc, 0x45, 0x52, 0x94, 0xbd, 0x3b, 0x80,
    0x1f, 0xbe, 0x56, 0xfa, 0xc9, 0x3d, 0x53, 0xde, 0x51, 0x3d,
    0x18, 0xf5, 0x88, 0x3d, 0x75, 0x07, 0xad, 0x3d, 0xb3, 0xb2,
    0xb2, 0x3b, 0xa4, 0x1c, 0x9b, 0xbd, 0xa2, 0x94, 0x85, 0xbe,
    0x55, 0x89, 0x20, 0x3e, 0x77, 0x73, 0x3c, 0x3e, 0xfd, 0xa8,
    0xe8, 0xbd, 0x4c, 0x07, 0xd4, 0xbd, 0xe2, 0x87, 0x53, 0x3e,
    0xc2, 0x85, 0xb0, 0x3d, 0x6f, 0x5b, 0x89, 0xbd, 0x0e, 0x51,
    0x4a, 0x3e, 0x0b, 0x2c, 0xff, 0x3d, 0xcb, 0xd1, 0x10, 0x3e,
    0x19, 0x24, 0xaa, 0x3d, 0x98, 0x9c, 0xaf, 0xbd, 0xf8, 0x32,
    0x6a, 0xbd, 0x15, 0x2a, 0xb8, 0xbd, 0x6e, 0xca, 0xa7, 0x3c,
    0x96, 0x93, 0xad, 0x3d, 0xbe, 0xb6, 0x7a, 0xbc, 0x80, 0x64,
    0xfc, 0x3d, 0x54, 0x55, 0x32, 0xbe, 0x2f, 0x9a, 0xc0, 0x3d,
    0x89, 0x30, 0x15, 0xbd, 0xa3, 0xbe, 0x2f, 0xbd, 0x41, 0x00,
    0x51, 0x3d, 0x06, 0x38, 0xb0, 0xbd, 0xf9, 0x72, 0xde, 0xbd,
    0x34, 0xc4, 0x85, 0xbd, 0x02, 0x74, 0xe5, 0x3d, 0x07, 0x40,
    0x1c, 0xbe, 0x3b, 0xb9, 0xb1, 0x3d, 0x07, 0x7e, 0x96, 0xbc,
    0xd6, 0x59, 0x54, 0x3e, 0x76, 0xfd, 0x52, 0xbd, 0xd1, 0xc9,
    0x99, 0x3c, 0x36, 0xfe, 0x15, 0x3c, 0xd6, 0x9d, 0x5d, 0x3c,
    0x52, 0x38, 0x0e, 0x3d, 0x44, 0xb0, 0x2e, 0xbe, 0xc6, 0x68,
    0x19, 0xbe, 0x70, 0x7a, 0xae, 0x3c, 0xb7, 0x1a, 0x75, 0xbe,
    0xdf, 0xdc, 0x9b, 0x3d, 0x23, 0x5a, 0x2e, 0xbd, 0xa0, 0xa4,
    0x8a, 0xba, 0x63, 0xd8, 0xa1, 0xbd, 0x52, 0x90, 0x04, 0xbe,
    0x6b, 0x34, 0x21, 0x3e, 0x5d, 0xc3, 0x0c, 0x3e, 0x66, 0x0e,
    0xab, 0xbe, 0x6f, 0x8b, 0xb4, 0xbd, 0xa7, 0x0d, 0x03, 0xbe,
    0x1d, 0xe6, 0xde, 0xbd, 0x65, 0xa5, 0x59, 0xbd, 0x40, 0xea,
    0x35, 0x3c, 0xe1, 0xa0, 0x03, 0x3e, 0xcb, 0x10, 0x99, 0x3d,
    0x3b, 0xe9, 0x4d, 0xbd, 0x45, 0x24, 0x85, 0xbd, 0x36, 0x11,
    0x24, 0x3e, 0x0f, 0x9b, 0x00, 0xbc, 0xf7, 0x9d, 0x10, 0x3e,
    0x62, 0x79, 0x99, 0xbd, 0x82, 0x80, 0x88, 0xbd, 0x64, 0x7b,
    0xbe, 0xbc, 0x7d, 0x6e, 0xad, 0xbd, 0x22, 0x38, 0x0e, 0x3e,
    0xb0, 0x5c, 0xad, 0xbc, 0x53, 0xa4, 0xa0, 0xbd, 0x2a, 0x16,
    0xbb, 0xbd, 0xc2, 0x91, 0x87, 0xbd, 0x17, 0xc3, 0x13, 0xbe,
    0x7e, 0xa2, 0x30, 0xbd, 0xcd, 0x5f, 0xd6, 0xbc, 0x81, 0xc5,
    0xac, 0x3d, 0x1d, 0x1c, 0x0a, 0x3d, 0x46, 0x10, 0xf6, 0x3d,
    0x6a, 0x4a, 0x89, 0x3d, 0xb8, 0xbb, 0x82, 0x3d, 0xa4, 0x68,
    0xd5, 0xbc, 0x28, 0xf6, 0xa2, 0x3c, 0x24, 0xd6, 0xaa, 0xbd,
    0x2e, 0x93, 0xb0, 0xbd, 0xc9, 0x86, 0xa9, 0xbd, 0xaa, 0x9c,
    0xaa, 0x3d, 0x59, 0x00, 0x3d, 0xbe, 0x19, 0xda, 0xce, 0xbd,
    0xad, 0xf5, 0x4b, 0xbe, 0x6d, 0xe7, 0x66, 0x3d, 0xf0, 0x92,
    0x38, 0x3e, 0x8e, 0x55, 0x9d, 0x3d, 0x51, 0x9d, 0x3d, 0xbe,
    0x15, 0xcb, 0x46, 0xbe, 0x4a, 0x92, 0x22, 0x3e, 0xba, 0x6b,
    0x0b, 0x3e, 0x5a, 0x2c, 0x68, 0x3d, 0xee, 0xe4, 0x8b, 0x3c,
    0x83, 0xce, 0x0b, 0x3e, 0xd0, 0x71, 0xbf, 0x3c, 0xfa, 0x33,
    0x31, 0x3e, 0xe2, 0x27, 0x74, 0x3e, 0x3c, 0x62, 0x83, 0xbe,
    0xf3, 0xa9, 0x18, 0xbd, 0xeb, 0xd6, 0x05, 0x3e, 0x73, 0x1d,
    0x14, 0xbd, 0xc5, 0xc8, 0xfc, 0x3b, 0x02, 0x37, 0x8b, 0x3c,
    0x49, 0xf8, 0x01, 0x3e, 0x6d, 0xe8, 0xd0, 0x3d, 0x66, 0x48,
    0xa1, 0xbc, 0xce, 0xe8, 0x34, 0xbd, 0x4c, 0xac, 0x25, 0xbe,
    0xd2, 0xbc, 0xc4, 0x3d, 0x02, 0x68, 0x37, 0xbd, 0x06, 0x9f,
    0xc9, 0xbd, 0x45, 0xea, 0xef, 0xbd, 0xfd, 0x6b, 0xf2, 0xbd,
    0x9a, 0x46, 0x82, 0xbd, 0xec, 0x70, 0x44, 0x3d, 0x74, 0x96,
    0xa4, 0x3c, 0x18, 0xa5, 0x00, 0xbe, 0x32, 0xdf, 0x71, 0xbc,
    0x9d, 0xac, 0x18, 0x3e, 0x57, 0x09, 0x10, 0x3e, 0x8b, 0x6e,
    0x08, 0xbd, 0x37, 0x6d, 0xa6, 0xbd, 0x87, 0x84, 0x66, 0xbd,
    0x87, 0x78, 0x0d, 0xbd, 0xc5, 0x4c, 0x84, 0x3c, 0x7b, 0xa5,
    0xb3, 0x3d, 0x3a, 0x01, 0xa9, 0x3d, 0x36, 0xe2, 0x75, 0xbc,
    0x4f, 0xdb, 0x60, 0x3e, 0x89, 0x53, 0x9f, 0xbd, 0x02, 0x6f,
    0xb2, 0x3d, 0x98, 0x11, 0x83, 0xbd, 0x7a, 0x99, 0x18, 0x3d,
    0x45, 0xff, 0xab, 0xbd, 0x81, 0x9e, 0xb7, 0x3c, 0xc3, 0x19,
    0x0c, 0xbd, 0x13, 0xd8, 0x55, 0xbd, 0xd0, 0xb6, 0xd3, 0x3d,
    0xeb, 0x4d, 0x1b, 0xbe, 0xfe, 0x01, 0xbf, 0xbc, 0x40, 0xd7,
    0x93, 0x3d, 0xeb, 0x7a, 0xe3, 0x3d, 0xc4, 0x4a, 0xc3, 0xbd,
    0xa9, 0xfa, 0x07, 0x3d, 0x2b, 0xc2, 0x13, 0x3e, 0x9c, 0x04,
    0x16, 0xbe, 0x4f, 0xe1, 0xb6, 0x3d, 0x67, 0xfd, 0xe9, 0xbd,
    0xe6, 0x16, 0x59, 0xbd, 0x42, 0x58, 0xd3, 0xbd, 0x1d, 0x53,
    0x52, 0xbc, 0x1f, 0xf4, 0x00, 0x3e, 0x01, 0x82, 0x2f, 0x3e,
    0x13, 0x47, 0x8f, 0xbd, 0xb0, 0x59, 0x20, 0xbd, 0xe5, 0xfb,
    0x3d, 0xbe, 0x12, 0xb5, 0x9c, 0xbd, 0xa6, 0x20, 0xc7, 0x3d,
    0x09, 0x2c, 0x57, 0x3e, 0x0c, 0x45, 0x26, 0x3e, 0x5f, 0x24,
    0xc7, 0xbd, 0xc2, 0x30, 0xe7, 0xbc, 0xee, 0xd8, 0xb4, 0xbd,
    0xe0, 0x33, 0xb3, 0x3d, 0x7b, 0xcc, 0xba, 0xbd, 0xff, 0xae,
    0x3a, 0xbd, 0xf4, 0xfa, 0xc9, 0x3c, 0x3c, 0x94, 0x3e, 0xbd,
    0xd4, 0x75, 0xb1, 0x3d, 0x0d, 0x76, 0x40, 0xbe, 0x58, 0x5d,
    0x81, 0x3d, 0x2b, 0xad, 0x56, 0xbe, 0x2c, 0xc4, 0x20, 0x3e,
    0x1c, 0xf6, 0xb9, 0x3c, 0x02, 0x83, 0xaa, 0x3d, 0xf8, 0x7e,
    0x6d, 0xbd, 0x58, 0x0a, 0x6c, 0x3d, 0x53, 0x3f, 0x3f, 0xbe,
    0xc8, 0x75, 0x48, 0xbe, 0x9e, 0x53, 0x73, 0x3d, 0x59, 0xf5,
    0x35, 0xbe, 0x8e, 0xab, 0x2a, 0x3e, 0x4b, 0xe6, 0x67, 0xbd,
    0xf8, 0x5d, 0x54, 0x3e, 0x92, 0x85, 0x5e, 0x3d, 0xa3, 0xa0,
    0x32, 0x3d, 0x45, 0x39, 0x8c, 0xbd, 0x47, 0x00, 0xb2, 0xbd,
    0x1b, 0x32, 0x2c, 0x3d, 0x82, 0x2e, 0xa8, 0xbd, 0x9f, 0xce,
    0x00, 0x3e, 0xcc, 0x20, 0x53, 0xbd, 0x3a, 0x6e, 0x1b, 0xbb,
    0x0d, 0xe5, 0x1e, 0xbe, 0x64, 0xd7, 0x42, 0x3e, 0xa0, 0x13,
    0xef, 0xbc, 0xd9, 0x76, 0x03, 0x3e, 0x50, 0x3d, 0x55, 0x3e,
    0x3b, 0xbd, 0x95, 0x3d, 0xdf, 0xbe, 0x1d, 0x3e, 0x4a, 0x0f,
    0x47, 0x3e, 0x71, 0x66, 0x2e, 0xbe, 0x49, 0x7d, 0xc4, 0x3d,
    0xd0, 0x52, 0x66, 0xbe, 0xb5, 0x72, 0xeb, 0x3b, 0xb4, 0xb9,
    0x2f, 0x3e, 0xf5, 0x42, 0x23, 0x3e, 0x44, 0x10, 0x61, 0x3e,
    0xb1, 0x54, 0x36, 0xbe, 0x4d, 0xcd, 0x6b, 0x3d, 0xc4, 0xc3,
    0x17, 0x3c, 0x49, 0xe3, 0xce, 0x3d, 0x38, 0x90, 0x0f, 0x3e,
    0xac, 0xad, 0x3d, 0xbc, 0x23, 0x60, 0x1d, 0x3e, 0xd3, 0x75,
    0x1a, 0x3d, 0xf4, 0x54, 0x37, 0xbe, 0x67, 0x32, 0xf9, 0x3d,
    0x01, 0xcb, 0xa0, 0x3d, 0xef, 0x84, 0x21, 0xbe, 0x7d, 0x00,
    0x6f, 0x3d, 0x36, 0xa8, 0xc2, 0x3d, 0x68, 0x54, 0x47, 0xbd,
    0xc4, 0xd8, 0x7c, 0xbd, 0x00, 0xf8, 0x22, 0x3d, 0x39, 0xdd,
    0x53, 0x3e, 0x86, 0xaf, 0x1d, 0xbe, 0xf5, 0xd0, 0x13, 0xbd,
    0x25, 0xe9, 0x0a, 0xbe, 0x63, 0x53, 0xc1, 0x3d, 0xf6, 0xf9,
    0x4f, 0xbd, 0x36, 0x9f, 0x05, 0xbe, 0x21, 0x56, 0xfb, 0xbd,
    0x1f, 0x2e, 0x85, 0xbd, 0xe5, 0x9f, 0x5f, 0x3b, 0xe3, 0x9a,
    0x21, 0xbd, 0xd1, 0xf4, 0x77, 0xbd, 0x82, 0x7d, 0xeb, 0x3d,
    0x2f, 0x12, 0x0a, 0xbd, 0xb9, 0x70, 0x03, 0x3e, 0x64, 0x91,
    0x15, 0xbe, 0xb8, 0x83, 0x12, 0xbd, 0x9a, 0x50, 0xcf, 0x3d,
    0xfd, 0xa8, 0xa2, 0xbc, 0xb2, 0xde, 0x3d, 0x3e, 0x23, 0xaf,
    0xa1, 0xbd, 0x5f, 0xd2, 0x0f, 0xbd, 0x10, 0x8c, 0x9e, 0xbb,
    0x4b, 0xad, 0xb7, 0xbd, 0x81, 0x69, 0xd8, 0x3d, 0x38, 0xfe,
    0x63, 0x3d, 0x24, 0x36, 0xaa, 0xbd, 0x28, 0x7d, 0x52, 0xbe,
    0x68, 0x5d, 0x1d, 0x3e, 0xc6, 0xf4, 0xf0, 0x3c, 0xed, 0x4d,
    0xfb, 0xbd, 0x9d, 0xa8, 0xe0, 0xbd, 0xe4, 0x95, 0xcf, 0x3d,
    0xdf, 0x32, 0x42, 0x3e, 0xb8, 0xd8, 0xbc, 0xbd, 0xba, 0xca,
    0xce, 0x3d, 0xfc, 0xaa, 0x24, 0xbd, 0x65, 0x01, 0x83, 0x3e,
    0xdd, 0x7c, 0x65, 0x3e, 0x49, 0x58, 0xcb, 0x3c, 0x3e, 0x3a,
    0x4e, 0xbe, 0x03, 0xcc, 0xcd, 0x3d, 0x0c, 0xb1, 0xa7, 0x3d,
    0x92, 0xd7, 0x42, 0xbd, 0xbb, 0x10, 0x5a, 0x3d, 0x58, 0x90,
    0xf2, 0xbc, 0x21, 0xfe, 0x87, 0x3d, 0x39, 0xa1, 0xf7, 0xbd,
    0x44, 0x46, 0x20, 0xbe, 0x4e, 0x17, 0x20, 0x3e, 0xc5, 0xb6,
    0xec, 0xbd, 0x65, 0x44, 0x08, 0xbd, 0xba, 0x51, 0x55, 0x3c,
    0xd5, 0x52, 0x8c, 0xbd, 0xb2, 0xe7, 0x3d, 0x3d, 0x60, 0x00,
    0x6a, 0xbe, 0x06, 0xe1, 0x31, 0xbc, 0x79, 0x85, 0xd5, 0x3c,
    0x9b, 0xd5, 0xcb, 0x3d, 0x07, 0xa6, 0x38, 0xbe, 0xcc, 0x90,
    0x35, 0x3e, 0x23, 0xd1, 0x1f, 0x3e, 0x3e, 0x0c, 0xa7, 0xbd,
    0xb1, 0xf9, 0x55, 0x3e, 0x43, 0x01, 0x17, 0x3e, 0xea, 0xe4,
    0xf3, 0x3d, 0x82, 0xa3, 0x05, 0xbd, 0x48, 0x68, 0xee, 0x3d,
    0xd4, 0xc4, 0xab, 0xbb, 0xc9, 0x16, 0x3c, 0x3d, 0xdd, 0x27,
    0x16, 0x3e, 0x2c, 0x26, 0x05, 0x3e, 0x27, 0xb2, 0xed, 0xbd,
    0xa4, 0x30, 0xf7, 0x3c, 0xd0, 0x80, 0x86, 0x3d, 0x00, 0xa7,
    0x64, 0xbc, 0xc0, 0x72, 0x4e, 0xbd, 0x2b, 0x9a, 0xf9, 0xbc,
    0xe1, 0x10, 0x0e, 0x3e, 0xa7, 0x2f, 0x7f, 0x3c, 0x5d, 0xba,
    0xae, 0xbd, 0xc3, 0x9c, 0xa5, 0xbd, 0x8a, 0x26, 0xd2, 0xbd,
    0x08, 0x2d, 0xe8, 0xbd, 0xd8, 0x95, 0x48, 0xbd, 0x42, 0x41,
    0x0a, 0xbe, 0x5e, 0xfd, 0xd1, 0xbd, 0xcf, 0xb2, 0x6a, 0x3e,
    0x33, 0xb9, 0x11, 0x3d, 0xcc, 0xaa, 0xad, 0xbd, 0xc9, 0x7f,
    0xba, 0x3d, 0xa5, 0x54, 0x04, 0xbe, 0xad, 0x5a, 0x9b, 0xbd,
    0x5e, 0x8c, 0x59, 0x3d, 0xdf, 0x3e, 0x5a, 0x3e, 0x1d, 0xd7,
    0x38, 0x3e, 0x5a, 0x18, 0xc9, 0xbc, 0x0c, 0xe9, 0xde, 0xbd,
    0x44, 0xab, 0x85, 0x3d, 0xc7, 0x0d, 0x3b, 0xbd, 0x91, 0xd5,
    0x91, 0xbc, 0x03, 0xc0, 0xbb, 0xbd, 0xc2, 0x9e, 0x01, 0x3e,
    0xb9, 0x80, 0x1e, 0xbe, 0x84, 0x3f, 0x42, 0xbe, 0x7a, 0x3d,
    0x6d, 0xbd, 0x01, 0xa1, 0x81, 0xbd, 0x54, 0xdd, 0x37, 0xbe,
    0xc4, 0xa5, 0x62, 0x3e, 0xa2, 0xc0, 0xf7, 0xbd, 0xcd, 0x42,
    0x3a, 0x3d, 0x68, 0x23, 0xa5, 0xbd, 0x27, 0x02, 0x17, 0x3e,
    0x46, 0x27, 0x38, 0xba, 0x4f, 0x92, 0x9c, 0x3d, 0x4e, 0xee,
    0x38, 0xbd, 0x8a, 0x5d, 0xf0, 0x3d, 0x59, 0xb2, 0xd9, 0xbd,
    0x78, 0x29, 0x05, 0x3e, 0x83, 0xcd, 0xa9, 0xbc, 0x2d, 0xbf,
    0x3f, 0xbe, 0xb3, 0xc4, 0x25, 0xbd, 0x8d, 0xd4, 0xc3, 0xbb,
    0x50, 0x02, 0x08, 0xbc, 0x5a, 0xa8, 0x9a, 0xbd, 0xa5, 0x72,
    0x0c, 0xbd, 0x03, 0x01, 0x59, 0xbd, 0xf4, 0xeb, 0x10, 0xbe,
    0x50, 0x54, 0x74, 0xbd, 0xc0, 0x0e, 0x93, 0xbc, 0xba, 0x6b,
    0xd5, 0xbc, 0xe2, 0x47, 0x24, 0x3d, 0x48, 0xcf, 0xdc, 0xbd,
    0xdf, 0x40, 0x24, 0xbe, 0x98, 0x97, 0x04, 0xbd, 0x3c, 0x65,
    0x83, 0xbe, 0x69, 0x63, 0xe4, 0x3d, 0x01, 0x65, 0xd2, 0x3b,
    0xdc, 0x9c, 0x56, 0x3d, 0xcf, 0x16, 0x6f, 0xbe, 0x5f, 0x7d,
    0x3b, 0xbe, 0xaf, 0x8b, 0x68, 0xbe, 0x4c, 0xc7, 0x80, 0x3d,
    0xd6, 0x1e, 0x67, 0xbe, 0xa0, 0xac, 0x32, 0x3e, 0x3b, 0xfb,
    0x8f, 0xbd, 0x12, 0x90, 0x7a, 0xbd, 0xfa, 0x53, 0xea, 0xbd,
    0xd1, 0x42, 0xd5, 0x3d, 0x08, 0x8b, 0xea, 0xbd, 0xa5, 0x0d,
    0x19, 0xbe, 0x2e, 0xc6, 0x17, 0x3e, 0x30, 0x90, 0x9f, 0xbd,
    0x28, 0xdc, 0x44, 0xbc, 0x74, 0x03, 0x0d, 0x3e, 0x10, 0x5c,
    0xc0, 0xbd, 0xde, 0x0f, 0x3c, 0xbe, 0xa5, 0x34, 0x75, 0xbe,
    0x27, 0xcb, 0x85, 0xbd, 0xe8, 0x61, 0xf6, 0xbd, 0xe8, 0x17,
    0xe6, 0xbc, 0x76, 0x08, 0xb4, 0x3c, 0xe1, 0xb9, 0x28, 0x3e,
    0x3f, 0x37, 0x04, 0xbc, 0x44, 0x10, 0x13, 0xbe, 0x37, 0x5c,
    0x7b, 0xbe, 0xfa, 0x21, 0xde, 0x3c, 0x33, 0xcd, 0x29, 0xbd,
    0x11, 0xb9, 0xa0, 0x3d, 0x5c, 0x3f, 0x10, 0x3e, 0x93, 0x6a,
    0xb5, 0xbb, 0xe5, 0x45, 0xda, 0xbb, 0x9f, 0xa0, 0x2d, 0x3e,
    0xf4, 0x2b, 0xeb, 0x3d, 0xa5, 0xd3, 0x24, 0xbd, 0xb1, 0x9c,
    0x88, 0x3d, 0xf7, 0x97, 0xd2, 0xbd, 0x0e, 0x4e, 0x61, 0x3d,
    0xff, 0x77, 0x6d, 0x3c, 0xfa, 0xf8, 0xf9, 0x3d, 0xa7, 0x17,
    0x2a, 0xbe, 0xa9, 0x13, 0x1b, 0xbe, 0xa4, 0x8c, 0x21, 0xbe,
    0x09, 0x1a, 0x9e, 0xbe, 0x33, 0x77, 0xd8, 0xbd, 0x5c, 0x4d,
    0x90, 0x3c, 0x9f, 0x98, 0x2d, 0x3d, 0x30, 0x00, 0xa6, 0xbd,
    0x1c, 0xb7, 0xe9, 0xbd, 0x65, 0x67, 0x4e, 0xbe, 0x2c, 0xbc,
    0x3f, 0x3e, 0x61, 0x09, 0x25, 0xbe, 0x21, 0x3d, 0x53, 0x3c,
    0x3f, 0xf0, 0x9c, 0x3d, 0xa0, 0xbd, 0xd9, 0x3d, 0x23, 0x44,
    0x18, 0x3e, 0xd8, 0x89, 0xf1, 0xbc, 0x02, 0x72, 0xa2, 0xbd,
    0x99, 0x2a, 0xd1, 0x3d, 0xa3, 0x04, 0xf2, 0x3d, 0x35, 0x7e,
    0xd2, 0x3d, 0x47, 0x1d, 0xf0, 0xbd, 0x0a, 0x77, 0x2b, 0xbe,
    0x30, 0xe0, 0x6a, 0xb9, 0x15, 0x9d, 0x0c, 0xbd, 0x0e, 0xad,
    0x63, 0xbe, 0x65, 0xf4, 0x23, 0xbe, 0xc0, 0xbb, 0x4b, 0x37,
    0xcc, 0xb1, 0x1b, 0xbe, 0x67, 0x4d, 0x1a, 0x3e, 0xea, 0x47,
    0x05, 0x3e, 0x94, 0x74, 0x4d, 0x3c, 0xee, 0x0c, 0x44, 0x3e,
    0x47, 0xbc, 0x9d, 0xbd, 0xf0, 0xc1, 0x25, 0x3d, 0x05, 0x46,
    0x7e, 0x3b, 0x94, 0x2a, 0x96, 0x3d, 0xed, 0x24, 0xe5, 0xbd,
    0xc8, 0x75, 0x04, 0xbc, 0xe3, 0x71, 0x38, 0x3e, 0xe7, 0xb2,
    0x54, 0x3e, 0x15, 0x2e, 0x9f, 0xbd, 0x34, 0x3e, 0x69, 0x3e,
    0x19, 0x63, 0xbf, 0xbd, 0x5e, 0xcc, 0x3d, 0xbd, 0x82, 0x99,
    0x62, 0xbe, 0xc0, 0xb7, 0x89, 0x3b, 0x8b, 0x37, 0x85, 0x3d,
    0xc1, 0x82, 0x98, 0xbd, 0x37, 0x97, 0x76, 0xbd, 0xe8, 0x25,
    0x91, 0xbd, 0x2d, 0xa6, 0x94, 0xbd, 0xe2, 0x94, 0x50, 0xbc,
    0x66, 0x96, 0xe1, 0x3d, 0x00, 0x61, 0xe3, 0x3d, 0x27, 0x4a,
    0x6f, 0xbe, 0xc2, 0xab, 0x32, 0xbd, 0x1b, 0xed, 0xd4, 0x3d,
    0x1a, 0x10, 0xd0, 0x3d, 0x97, 0x6a, 0x55, 0xbe, 0x87, 0xe9,
    0x0d, 0x3e, 0xea, 0x79, 0x16, 0xbd, 0x60, 0xb1, 0x26, 0xbd,
    0xe8, 0x10, 0x21, 0x3e, 0xfb, 0xfc, 0x37, 0x3e, 0xce, 0xbd,
    0x0f, 0x3e, 0x7d, 0x27, 0x9a, 0x3d, 0xc0, 0x99, 0xf2, 0x3d,
    0xf9, 0xe5, 0x16, 0x3e, 0x88, 0xf7, 0x85, 0x3d, 0xb1, 0x98,
    0x9f, 0x3d, 0xa3, 0x57, 0x02, 0xbe, 0xfe, 0x51, 0x9a, 0xbe,
    0xed, 0xc2, 0xf3, 0xbd, 0xcb, 0x74, 0xb4, 0x3c, 0x67, 0x6d,
    0xbf, 0xbd, 0xff, 0x8e, 0x3f, 0xbc, 0x13, 0x3d, 0x0f, 0x3e,
    0x1c, 0xc1, 0x3d, 0x3e, 0xa3, 0xda, 0xb5, 0x3d, 0x4f, 0xe3,
    0x99, 0xbd, 0xc1, 0x8e, 0xdc, 0x3d, 0x7f, 0x27, 0x86, 0xbd,
    0x01, 0xb9, 0xfe, 0xbc, 0xc1, 0x1f, 0x9a, 0xbd, 0x1f, 0x7e,
    0x7a, 0xbd, 0x80, 0x6c, 0xf9, 0xbd, 0xe3, 0x1e, 0xcb, 0x3d,
    0xc4, 0xd4, 0xc0, 0xbd, 0x4a, 0x48, 0x0a, 0x3d, 0xbe, 0x67,
    0x5f, 0xbc, 0xd6, 0xf8, 0x60, 0x3c, 0xad, 0xe8, 0x36, 0xbe,
    0x9c, 0x3e, 0xc0, 0x3d, 0x71, 0x4e, 0xe3, 0xbd, 0x9c, 0x11,
    0x23, 0x3e, 0xbd, 0x9e, 0xad, 0xbd, 0x77, 0x71, 0xb6, 0xba,
    0x86, 0xec, 0xb6, 0xbc, 0xde, 0x0c, 0x96, 0x3d, 0xcc, 0xc6,
    0x90, 0xbc, 0xfc, 0x15, 0xa8, 0x3c, 0xbb, 0xb6, 0x3e, 0xbe,
    0x87, 0x48, 0xa5, 0x3d, 0xdf, 0xac, 0xda, 0xbd, 0x9f, 0xf3,
    0x79, 0x3d, 0x14, 0xf8, 0x42, 0xbb, 0x81, 0xaa, 0xe2, 0x3d,
    0x1c, 0x57, 0x75, 0xbe, 0xda, 0x65, 0x6c, 0x3d, 0xc7, 0xed,
    0x58, 0xbd, 0xa7, 0x47, 0x11, 0x3e, 0x8a, 0xaa, 0x89, 0x3e,
    0xd1, 0x02, 0x00, 0x3e, 0x3f, 0x21, 0xcb, 0x3c, 0x68, 0xcf,
    0xf6, 0x3d, 0x23, 0xd0, 0xe5, 0xbd, 0x89, 0x39, 0x42, 0xbe,
    0x5d, 0x40, 0x83, 0x3d, 0x93, 0x57, 0xf3, 0x3c, 0xeb, 0x42,
    0x80, 0xbe, 0x72, 0x5d, 0x65, 0x3c, 0xfa, 0x05, 0x0d, 0xbe,
    0x2e, 0x0d, 0x26, 0xbc, 0x65, 0xc0, 0xad, 0xbd, 0x95, 0xcd,
    0xe5, 0xbd, 0xf9, 0x27, 0xae, 0xbd, 0x37, 0x4d, 0x77, 0x3e,
    0xf9, 0xb8, 0x8a, 0xbd, 0xd4, 0xef, 0xf7, 0xbd, 0x55, 0x04,
    0x37, 0x3c, 0x61, 0xf7, 0xf2, 0x3d, 0xbc, 0xf7, 0xe3, 0x3c,
    0xfc, 0x18, 0x66, 0x3e, 0x57, 0x82, 0x03, 0x3e, 0x53, 0xfa,
    0x0f, 0x3d, 0x7e, 0x6d, 0x29, 0x3e, 0xc8, 0xa7, 0x9f, 0x3d,
    0x1c, 0x7b, 0x01, 0x3e, 0xc0, 0x23, 0x93, 0xbc, 0x4c, 0x54,
    0x37, 0xbe, 0xd3, 0x7f, 0x07, 0xbe, 0x1a, 0xf5, 0x2a, 0x3e,
    0x60, 0x21, 0x19, 0x3d, 0x73, 0xa0, 0x56, 0xbe, 0xd2, 0x6a,
    0xbf, 0x3d, 0xdf, 0x7e, 0x47, 0xbe, 0xe1, 0xe5, 0xfe, 0xbd,
    0x29, 0x7f, 0x27, 0xbd, 0x40, 0x9e, 0x91, 0x3d, 0x97, 0x20,
    0x82, 0x3d, 0x6f, 0x51, 0x56, 0x3b, 0x20, 0x0a, 0xf1, 0xbd,
    0x06, 0x3c, 0xbd, 0x3d, 0x78, 0x74, 0xe7, 0xba, 0x91, 0x76,
    0xae, 0xbd, 0x39, 0xe2, 0x74, 0xbe, 0x5a, 0xf0, 0x52, 0x3e,
    0x60, 0x0b, 0xa0, 0x3d, 0xa8, 0x58, 0x11, 0x3e, 0x09, 0xca,
    0x94, 0xbd, 0x39, 0x03, 0xd8, 0x3d, 0xa1, 0x89, 0x29, 0xbc,
    0xd9, 0xaf, 0x4a, 0xbd, 0x2d, 0x5d, 0x50, 0x3d, 0xa2, 0xcc,
    0x64, 0x3d, 0x9f, 0x9d, 0x60, 0xbe, 0xc1, 0xcd, 0x2e, 0xbe,
    0x4d, 0xba, 0x7d, 0xbc, 0x6c, 0xd1, 0x84, 0xbd, 0xed, 0x18,
    0x71, 0xbb, 0xcc, 0xdb, 0x51, 0x3c, 0x84, 0x68, 0x22, 0xbe,
    0x55, 0x5c, 0x0c, 0x3e, 0xa3, 0x04, 0xc6, 0x3d, 0x60, 0xa0,
    0x9f, 0x3b, 0x5e, 0xde, 0x21, 0x3d, 0x6b, 0x71, 0x40, 0xbe,
    0x0f, 0x7e, 0x5e, 0xbc, 0x67, 0x6c, 0x84, 0x3d, 0xa8, 0xf2,
    0xb6, 0xbd, 0xa2, 0x63, 0xc0, 0x3c, 0x40, 0x26, 0x52, 0x3e,
    0xb5, 0x4e, 0x05, 0x3e, 0x59, 0xbb, 0x1e, 0x3e, 0x8c, 0x90,
    0x91, 0xbd, 0x9a, 0xd6, 0x0b, 0x3d, 0xdb, 0x5b, 0x92, 0xbc,
    0xc2, 0x4c, 0x36, 0x3e, 0x25, 0xc6, 0x05, 0x3c, 0x4a, 0xf6,
    0xeb, 0x3b, 0x4b, 0x1d, 0x06, 0x3e, 0xe4, 0x7b, 0x83, 0x3c,
    0x9b, 0x64, 0xa0, 0x3d, 0x15, 0x9f, 0xd0, 0xbd, 0x88, 0xa1,
    0xd7, 0x3d, 0x81, 0xb5, 0x5b, 0xbe, 0x18, 0x05, 0xe4, 0xbd,
    0xd1, 0x53, 0x74, 0x3d, 0xc5, 0x45, 0x82, 0x3d, 0xde, 0x54,
    0xb8, 0xbd, 0x47, 0x2b, 0x80, 0xbd, 0x95, 0xff, 0x48, 0xbe,
    0xc4, 0xf3, 0x00, 0xbe, 0xf4, 0x38, 0xfe, 0xbc, 0x70, 0x5d,
    0x3f, 0x3e, 0x27, 0x4d, 0xfd, 0x3d, 0xc3, 0xa7, 0x5b, 0x3d,
    0x2d, 0xff, 0x3b, 0x3d, 0xfc, 0xb9, 0x04, 0x3e, 0x6c, 0x1c,
    0x88, 0x3d, 0x03, 0x2c, 0x95, 0x3d, 0x64, 0x75, 0xd2, 0xba,
    0xac, 0x51, 0x01, 0xbe, 0x65, 0x74, 0x8a, 0xbe, 0x17, 0xd2,
    0x71, 0xbc, 0xa4, 0x0b, 0xb6, 0xbd, 0x67, 0x4b, 0x67, 0xbe,
    0xc4, 0xb7, 0x5e, 0xbe, 0x1b, 0x37, 0x7a, 0xbc, 0x5e, 0xe8,
    0xee, 0x3b, 0x22, 0xa6, 0x4f, 0x3e, 0x3d, 0xa5, 0xa8, 0xbd,
    0x37, 0x7f, 0xc8, 0xbd, 0xc3, 0xd1, 0xee, 0xbd, 0x7f, 0x73,
    0x97, 0xbd, 0x2b, 0x37, 0x8a, 0xbd, 0xec, 0x27, 0x9d, 0x3d,
    0x4c, 0xad, 0x10, 0x3e, 0xee, 0x5d, 0xaf, 0x3d, 0x54, 0x13,
    0x62, 0x3d, 0xc4, 0xde, 0x97, 0x3d, 0xe4, 0x6e, 0x41, 0x3e,
    0xcc, 0x36, 0x00, 0x3e, 0xb3, 0x5e, 0x73, 0x3d, 0x24, 0xa1,
    0x32, 0x3d, 0x65, 0x08, 0x3a, 0x3e, 0xd3, 0xda, 0x51, 0x3d,
    0xf6, 0x26, 0x7b, 0xbc, 0x2a, 0x99, 0x15, 0x3e, 0x11, 0xdd,
    0x96, 0xbd, 0x6f, 0x3a, 0xe3, 0xbd, 0xc5, 0xfa, 0xa1, 0x3c,
    0xa7, 0x60, 0xcc, 0x3d, 0xa1, 0x82, 0x3a, 0xbb, 0x06, 0x1e,
    0x4e, 0xbe, 0x43, 0xe9, 0xa3, 0x3d, 0x7c, 0x47, 0x54, 0x3d,
    0x8e, 0x46, 0x21, 0xbd, 0xb4, 0xa5, 0xf9, 0x3c, 0xba, 0x1b,
    0xe1, 0xbd, 0x0e, 0xae, 0xaa, 0x3d, 0xae, 0x5d, 0x3e, 0xbb,
    0x70, 0xa2, 0x1b, 0x3e, 0xd2, 0x8e, 0x03, 0xbe, 0xf6, 0xbf,
    0xe4, 0xbd, 0x59, 0x6b, 0x20, 0xbe, 0x51, 0x49, 0x47, 0x3d,
    0x22, 0xec, 0x21, 0xbe, 0xc7, 0x44, 0x0c, 0x3c, 0xe8, 0xda,
    0x0a, 0xbe, 0x2d, 0x1a, 0x5d, 0x3d, 0x38, 0x07, 0xf1, 0xbc,
    0x03, 0x5e, 0x0c, 0x3e, 0x9a, 0x94, 0x31, 0x3b, 0x60, 0xda,
    0xf6, 0xbd, 0x8f, 0x8c, 0xde, 0xbc, 0xc6, 0x10, 0xd9, 0x3d,
    0x46, 0xbc, 0xbd, 0xbd, 0x8e, 0x00, 0x21, 0xbe, 0xc7, 0xd7,
    0x14, 0x3d, 0xbe, 0x32, 0x15, 0xbe, 0x15, 0x2a, 0xcf, 0xbd,
    0x1d, 0x5c, 0xcb, 0xbc, 0x6d, 0xa2, 0xfa, 0x3d, 0x4f, 0x57,
    0x85, 0x3d, 0xe7, 0x7a, 0x39, 0x3d, 0x50, 0x8d, 0x03, 0xbd,
    0xa0, 0xdd, 0x95, 0xbe, 0x08, 0x8c, 0x67, 0xbd, 0xaa, 0x95,
    0x83, 0x3d, 0x63, 0x1d, 0xd8, 0xbd, 0x6f, 0xce, 0x07, 0xbe,
    0x09, 0xd8, 0x0a, 0x3e, 0xef, 0x2a, 0x1f, 0xbe, 0xa8, 0x55,
    0x49, 0x3e, 0x54, 0x1d, 0x8c, 0xbd, 0xf2, 0x37, 0x54, 0x3e,
    0x16, 0xde, 0x3a, 0x3e, 0xdd, 0xf3, 0xa7, 0xbb, 0xd9, 0xa2,
    0xca, 0x3d, 0x90, 0x42, 0x9a, 0x3d, 0xba, 0xc6, 0x3e, 0xbd,
    0xf1, 0xbe, 0x34, 0x3e, 0xec, 0x0b, 0xac, 0x3d, 0xc8, 0x75,
    0xa6, 0xbd, 0xf6, 0x76, 0xe6, 0xbd, 0x51, 0x2b, 0xb6, 0x3d,
    0x92, 0x71, 0xff, 0x3d, 0xfa, 0x9f, 0x62, 0x3e, 0x4b, 0x63,
    0x32, 0xbe, 0x1b, 0x06, 0x29, 0x3d, 0x59, 0x8d, 0xfe, 0xbd,
    0xed, 0xae, 0xc8, 0x3d, 0xeb, 0xd3, 0xef, 0x3c, 0xb6, 0xa3,
    0x41, 0xbd, 0xde, 0xbd, 0x5a, 0x3a, 0xce, 0x23, 0xc1, 0xbd,
    0x7a, 0xe1, 0x2d, 0xbe, 0x08, 0xbc, 0x2b, 0x3e, 0x0f, 0xd2,
    0x86, 0x3d, 0xe1, 0x8e, 0x67, 0xbe, 0xe6, 0x45, 0xe0, 0x3d,
    0x55, 0x6c, 0xb3, 0x3c, 0x21, 0x20, 0x71, 0x3c, 0xf8, 0xcc,
    0x84, 0x3d, 0xe3, 0xc8, 0x84, 0xbd, 0x3b, 0xb3, 0x04, 0xbd,
    0x7c, 0x88, 0x9c, 0x3d, 0xb5, 0x65, 0x36, 0x3e, 0x70, 0x52,
    0x01, 0x3e, 0x06, 0x28, 0x42, 0x3d, 0x98, 0x7f, 0x38, 0x3e,
    0x22, 0x77, 0xb3, 0x3d, 0x77, 0x50, 0xc8, 0xbd, 0x58, 0xdf,
    0x35, 0xbe, 0x7c, 0xb7, 0x22, 0x3b, 0x73, 0x10, 0x79, 0x3d,
    0xa3, 0x46, 0xf5, 0x3d, 0x80, 0x93, 0x61, 0x3d, 0xdf, 0xb8,
    0x0d, 0x3e, 0xee, 0x04, 0xc2, 0xbd, 0xa7, 0x81, 0xb1, 0x3c,
    0x20, 0xc0, 0x5e, 0xbc, 0x1c, 0xaa, 0xa5, 0x3c, 0x38, 0x73,
    0x9d, 0xbe, 0x9c, 0x44, 0xf0, 0x3d, 0xe6, 0x41, 0x05, 0x3e,
    0x5f, 0x89, 0x19, 0x3e, 0x37, 0x70, 0x7d, 0xbd, 0x94, 0xe6,
    0xe1, 0x3d, 0x24, 0x86, 0x0b, 0xbb, 0xe9, 0xd5, 0xad, 0x3c,
    0x98, 0x67, 0xdc, 0xbc, 0x82, 0x67, 0x1c, 0x3d, 0xde, 0x32,
    0xaf, 0xbd, 0xa1, 0x9b, 0x15, 0x3d, 0xe7, 0x3c, 0xd8, 0xbd,
    0x40, 0xdf, 0xef, 0x3d, 0xf6, 0xa1, 0x5d, 0xbd, 0x74, 0xa2,
    0xda, 0xbd, 0x05, 0xa8, 0x1a, 0xbd, 0x67, 0x45, 0xed, 0x3c,
    0xd5, 0x01, 0xb4, 0xbd, 0x88, 0x94, 0x03, 0x3e, 0x00, 0x93,
    0xa6, 0x3c, 0xb4, 0xf3, 0x0b, 0xbd, 0x5f, 0x7a, 0x2f, 0x3e,
    0x55, 0x43, 0x67, 0xbd, 0x83, 0x79, 0x4f, 0xbe, 0x7d, 0x8a,
    0x2d, 0x3d, 0x51, 0xf2, 0xa1, 0xbd, 0xd0, 0x7e, 0x05, 0xbd,
    0xa4, 0xa1, 0x54, 0xbd, 0x1e, 0xf3, 0xb6, 0x3c, 0x23, 0x00,
    0x97, 0x3c, 0xae, 0xe2, 0x9a, 0xbd, 0x5c, 0x93, 0x46, 0x3e,
    0xf7, 0x94, 0x66, 0xbe, 0x46, 0x34, 0x72, 0xbb, 0x27, 0x3b,
    0x06, 0xbd, 0x44, 0x6a, 0x50, 0xbe, 0x38, 0x28, 0x25, 0x3d,
    0x4c, 0xaf, 0xc7, 0xbd, 0x3d, 0x84, 0x14, 0xbe, 0x28, 0x3f,
    0xb1, 0xbd, 0x70, 0x1d, 0xa7, 0x3d, 0x64, 0x5f, 0xba, 0x3d,
    0x12, 0x61, 0x01, 0x3e, 0xb7, 0xc0, 0x9d, 0xbd, 0x07, 0x2d,
    0xa8, 0x3c, 0x59, 0x93, 0xd3, 0xbb, 0x10, 0x75, 0x2d, 0xbd,
    0xc7, 0x2c, 0xc6, 0xbd, 0xbc, 0x4e, 0xb8, 0x3d, 0xcb, 0xdb,
    0x7e, 0xbd, 0xbc, 0x8f, 0x1f, 0x3d, 0x01, 0x11, 0xbe, 0xbb,
    0xaa, 0x64, 0x10, 0xbd, 0x0b, 0xc5, 0x44, 0xbd, 0x22, 0x19,
    0xbf, 0xbd, 0x8b, 0xc7, 0x4a, 0xbc, 0x5d, 0x7a, 0x3e, 0xbd,
    0x83, 0xc2, 0xb9, 0xbd, 0x11, 0x43, 0x5f, 0xbc, 0xfd, 0x5c,
    0xe5, 0x3c, 0x31, 0xe3, 0x9d, 0xbd, 0x7f, 0x97, 0x93, 0x95,
    0x97, 0xbc, 0x85, 0x90, 0xb6, 0x88, 0x83, 0xac, 0x85, 0x70,
    0x7e, 0x8a, 0x6e, 0x91, 0x6e, 0x5c, 0x6b, 0xc9, 0xb1, 0x96,
    0x9b, 0x74, 0x75, 0x52, 0x9e, 0x7b, 0x71, 0xaa, 0x8a, 0x0f,
    0x93, 0x9b, 0xb9, 0x77, 0x8f, 0x79, 0xb2, 0x5e, 0x7a, 0x07,
    0x2c, 0x2c, 0x45, 0x96, 0xa1, 0x9e, 0x9b, 0x6d, 0xa8, 0xab,
    0x7d, 0xa3, 0x9b, 0xab, 0x66, 0x9e, 0x7d, 0xac, 0x73, 0x8b,
    0x79, 0x6b, 0x72, 0x8d, 0x75, 0xae, 0x95, 0xab, 0xaf, 0xa3,
    0x84, 0x77, 0x75, 0x80, 0x7a, 0x83, 0x52, 0x49, 0x7a, 0x9e,
    0xa2, 0x4e, 0x6c, 0x79, 0xa2, 0x8b, 0x95, 0x41, 0x69, 0x51,
    0x68, 0x91, 0xad, 0x93, 0xa7, 0x85, 0x87, 0xb4, 0x6c, 0xab,
    0x93, 0x92, 0x68, 0x7d, 0x9b, 0x8a, 0x70, 0xaa, 0x67, 0x81,
    0x9c, 0x7d, 0x8d, 0x95, 0x99, 0x90, 0x93, 0x78, 0x85, 0x96,
    0x85, 0x87, 0x91, 0x6e, 0x93, 0x53, 0x8d, 0xb9, 0x8e, 0x6e,
    0x81, 0x65, 0xb6, 0x68, 0xa2, 0x2d, 0x6b, 0x4d, 0x43, 0x7a,
    0x96, 0xab, 0x91, 0x87, 0x3f, 0xa6, 0x79, 0x84, 0xa7, 0x80,
    0x85, 0x92, 0xaf, 0x8b, 0x75, 0x95, 0x5c, 0x78, 0x6b, 0x73,
    0x47, 0x99, 0x98, 0xa3, 0xa2, 0x9e, 0x70, 0x70, 0x84, 0x7a,
    0xb4, 0x94, 0x80, 0x6c, 0x82, 0x99, 0x82, 0x73, 0x77, 0x68,
    0xb0, 0x59, 0x94, 0x48, 0x45, 0x47, 0x69, 0x86, 0xa9, 0x88,
    0x82, 0x7a, 0x71, 0x9a, 0x81, 0xc7, 0x94, 0xa0, 0x8b, 0xa0,
    0xc0, 0x95, 0x6b, 0x7d, 0x6e, 0x6e, 0x8e, 0x63, 0x6e, 0xb7,
    0xda, 0xa8, 0x9b, 0x7a, 0x6f, 0x9a, 0xa8, 0x80, 0xb4, 0x83,
    0x95, 0x46, 0x6d, 0x8b, 0x6a, 0x36, 0xc0, 0x4e, 0xd3, 0x51,
    0xac, 0x32, 0x54, 0x73, 0xa0, 0x96, 0x87, 0x89, 0xad, 0x7d,
    0x6a, 0xa3, 0x5a, 0x9a, 0x7c, 0xb4, 0x8e, 0xa8, 0x96, 0x88,
    0x9f, 0xa3, 0x9e, 0x7c, 0x96, 0x6a, 0x82, 0xc9, 0x9f, 0xb6,
    0xb3, 0x8c, 0x71, 0x9b, 0xa9, 0x83, 0xbe, 0x8b, 0x68, 0x38,
    0x5c, 0xa2, 0x94, 0xa2, 0xac, 0x4d, 0x8d, 0x94, 0x84, 0x5a,
    0x98, 0x6f, 0x59, 0x98, 0xb5, 0x9a, 0x54, 0x98, 0x9e, 0x54,
    0x9a, 0xaf, 0x9f, 0x8d, 0x6d, 0x71, 0x9d, 0x90, 0x83, 0x72,
    0x81, 0xb5, 0x84, 0x1d, 0xac, 0x6c, 0x88, 0x85, 0x79, 0x55,
    0xb2, 0xc6, 0x7a, 0xa0, 0x98, 0xa0, 0x9a, 0x87, 0xb5, 0x93,
    0x7d, 0x78, 0x76, 0x69, 0x81, 0x71, 0xa5, 0x9a, 0x7c, 0xac,
    0x7c, 0x64, 0x89, 0xaf, 0x6f, 0x7a, 0xaa, 0x85, 0x9d, 0xaa,
    0x92, 0xb9, 0x56, 0x61, 0x80, 0x6b, 0x8d, 0x84, 0x7b, 0x8b,
    0x8c, 0x4f, 0x95, 0x88, 0x8a, 0xa3, 0x8b, 0x6c, 0xac, 0xa2,
    0x81, 0x85, 0x90, 0x8e, 0x93, 0xad, 0xcb, 0x93, 0x91, 0x82,
    0x59, 0x8a, 0x72, 0x65, 0x90, 0xc1, 0x90, 0xab, 0x8a, 0x9e,
    0x85, 0xa5, 0x82, 0x89, 0xaa, 0x72, 0xb6, 0xaf, 0xa3, 0xc8,
    0x86, 0x82, 0x92, 0x6d, 0xc5, 0xa1, 0xb5, 0xa1, 0x8e, 0x57,
    0xae, 0xa0, 0xae, 0x75, 0x90, 0x99, 0x62, 0x81, 0x93, 0x95,
    0x80, 0x81, 0x76, 0x9f, 0x90, 0xa6, 0xca, 0x99, 0x55, 0x60,
    0x76, 0x71, 0x93, 0x8c, 0x6d, 0xa3, 0xa3, 0x86, 0x6e, 0x99,
    0x6e, 0x95, 0x96, 0x82, 0xa3, 0xb0, 0x99, 0xc2, 0xa0, 0x78,
    0x85, 0x77, 0xb7, 0x97, 0x83, 0xae, 0x71, 0x4a, 0x77, 0x96,
    0x8f, 0x96, 0xa9, 0x7a, 0x72, 0x79, 0x77, 0x74, 0x99, 0xbd,
    0x53, 0x95, 0xb8, 0x94, 0x90, 0x78, 0x90, 0x67, 0x9b, 0x88,
    0xaf, 0x9b, 0x67, 0x95, 0x95, 0x86, 0x5d, 0x9e, 0x68, 0x91,
    0xa3, 0x61, 0x7e, 0xc5, 0x8e, 0x9f, 0x6f, 0x76, 0xa2, 0x85,
    0x86, 0x93, 0xa6, 0xae, 0x7d, 0x3a, 0x93, 0x80, 0xa8, 0x8c,
    0x70, 0x79, 0x79, 0x88, 0x82, 0x8e, 0x8d, 0x82, 0xa8, 0x9b,
    0xad, 0x84, 0xab, 0xa7, 0x55, 0x5c, 0x84, 0x86, 0xb1, 0x81,
    0x81, 0x9e, 0xa9, 0x87, 0x5c, 0x97, 0x8c, 0x8a, 0x92, 0x69,
    0x85, 0xc3, 0xa7, 0x9c, 0x77, 0x73, 0x65, 0x9f, 0x83, 0xa8,
    0xa1, 0x8d, 0x85, 0x3f, 0x84, 0x83, 0x74, 0x80, 0xa5, 0x75,
    0x73, 0x9a, 0x7b, 0xa6, 0x97, 0x7d, 0x9c, 0xa4, 0xaa, 0x9d,
    0x6a, 0x94, 0x3a, 0x54, 0x98, 0x48, 0x90, 0x8d, 0x82, 0x8a,
    0xad, 0x93, 0x68, 0x54, 0x76, 0xb5, 0xab, 0x7f, 0x9d, 0x6a,
    0x81, 0x6c, 0x79, 0x7c, 0x79, 0x6b, 0x9f, 0x55, 0xa7, 0xa3,
    0x6a, 0x86, 0x6e, 0x61, 0x73, 0xaf, 0x73, 0x6f, 0x72, 0x9c,
    0xa3, 0xc4, 0x65, 0x82, 0xa4, 0x96, 0xa9, 0x3f, 0x87, 0x90,
    0x59, 0xa2, 0x5f, 0xad, 0xaf, 0xaa, 0xac, 0xaf, 0x3e, 0x96,
    0x7c, 0x82, 0x63, 0x98, 0xb6, 0x74, 0x88, 0x89, 0x85, 0x68,
    0x55, 0x64, 0x79, 0x95, 0x77, 0x47, 0xad, 0x9a, 0x78, 0x95,
    0x79, 0x77, 0x5a, 0x90, 0x5a, 0x7a, 0x5b, 0xa0, 0x88, 0x95,
    0x3e, 0x83, 0x99, 0x9f, 0xd1, 0x7d, 0x87, 0x97, 0x5a, 0x9d,
    0x68, 0xa6, 0xc0, 0xa4, 0x96, 0x96, 0x6c, 0x84, 0x89, 0x99,
    0x90, 0x92, 0xb3, 0x7f, 0x89, 0x56, 0x71, 0x71, 0x58, 0x6b,
    0x47, 0xa5, 0x8e, 0x5d, 0x8d, 0x9b, 0x70, 0x9f, 0x97, 0x96,
    0x70, 0x9d, 0x6b, 0xa0, 0x86, 0xbd, 0x73, 0x98, 0x92, 0x7f,
    0x79, 0xb7, 0x96, 0x6c, 0x74, 0x67, 0x64, 0x9d, 0x55, 0x8b,
    0x9e, 0xb1, 0x77, 0xa2, 0x6c, 0x9e, 0xbe, 0x9b, 0x5b, 0xa8,
    0xa5, 0x7e, 0x55, 0x66, 0x68, 0x75, 0x3b, 0x38, 0x6c, 0xae,
    0xb1, 0x56, 0x7d, 0x9f, 0x73, 0xa1, 0x84, 0x7a, 0x67, 0x73,
    0x64, 0xa5, 0x7a, 0x94, 0xae, 0x9c, 0x80, 0x78, 0x84, 0xa3,
    0xba, 0x5c, 0x7c, 0xa9, 0xa2, 0x82, 0x60, 0x95, 0x5f, 0xaa,
    0x98, 0xa2, 0x44, 0xa5, 0x7d, 0x70, 0x3b, 0xab, 0xc9, 0x61,
    0x82, 0x51, 0x97, 0x82, 0x44, 0x0b, 0x19, 0x85, 0xcd, 0x20,
    0x70, 0xb1, 0x99, 0x7a, 0x82, 0x8c, 0x88, 0x88, 0x3e, 0xa2,
    0x48, 0x7d, 0x97, 0xc9, 0x58, 0x8f, 0xbb, 0xb5, 0xba, 0x2c,
    0xa3, 0x9d, 0x53, 0x7f, 0x49, 0x96, 0x76, 0x8a, 0x89, 0xae,
    0x35, 0xaf, 0x7c, 0x56, 0x63, 0xaa, 0xc5, 0xad, 0x96, 0x2b,
    0x92, 0x8f, 0x50, 0x1a, 0x20, 0x9f, 0x9b, 0x13, 0x79, 0x8a,
    0x70, 0x91, 0x97, 0x76, 0x5f, 0x8f, 0x5e, 0x94, 0x84, 0x6d,
    0x73, 0xc7, 0x5a, 0x8b, 0x76, 0xaf, 0xa6, 0x64, 0x86, 0x96,
    0x57, 0xae, 0x84, 0x8e, 0x8d, 0x92, 0x9a, 0xa6, 0x4e, 0x82,
    0x85, 0x86, 0x90, 0x8c, 0x6f, 0x65, 0x8f, 0x66, 0x9a, 0xa7,
    0xaa, 0x78, 0x39, 0x64, 0x7c, 0x82, 0x56, 0x66, 0x6b, 0xae,
    0x96, 0x71, 0x64, 0x66, 0x5e, 0xb1, 0x6c, 0x69, 0x99, 0x50,
    0x94, 0x8e, 0x8f, 0x6c, 0x6e, 0x4a, 0x33, 0xa4, 0xb6, 0xb5,
    0x6a, 0x8a, 0x6f, 0x99, 0xa1, 0x8b, 0x9b, 0x71, 0x74, 0x7a,
    0x86, 0x90, 0x75, 0x74, 0x57, 0x46, 0x8e, 0x7a, 0xa1, 0x92,
    0x3d, 0x7c, 0x7a, 0x8a, 0x71, 0x5c, 0x8d, 0xc6, 0x77, 0x67,
    0x52, 0x63, 0x9e, 0x8f, 0x96, 0x58, 0x43, 0x42, 0x9d, 0x70,
    0x8e, 0x90, 0x7f, 0x44, 0x74, 0xb9, 0xa6, 0xc0, 0x77, 0x9d,
    0x4c, 0xa7, 0x9e, 0xa6, 0xb1, 0x78, 0x94, 0x84, 0x9b, 0x8e,
    0x91, 0x42, 0x7b, 0x12, 0x6e, 0x8b, 0xa8, 0x7e, 0x21, 0x7e,
    0x55, 0x97, 0x84, 0x6b, 0x93, 0xb0, 0x93, 0x91, 0x46, 0x5c,
    0x87, 0xa3, 0x54, 0x5e, 0x90, 0x79, 0x75, 0x5a, 0x7f, 0x8d,
    0x4e, 0x2d, 0x4e, 0x93, 0xa6, 0x9f, 0x87, 0x9b, 0x57, 0x99,
    0x8e, 0xa0, 0xb1, 0x9a, 0x95, 0x8f, 0x7f, 0x84, 0x68, 0x71,
    0x9f, 0x11, 0xa3, 0x78, 0xa8, 0x96, 0x1e, 0x64, 0x6a, 0x8a,
    0x69, 0x89, 0x6f, 0xb6, 0x76, 0x6d, 0x2f, 0x51, 0xa0, 0xa3,
    0x8b, 0x7e, 0x74, 0x6e, 0x9d, 0x75, 0x7b, 0x73, 0x7d, 0x3a,
    0x75, 0xa1, 0xad, 0xaa, 0x68, 0x95, 0x96, 0x77, 0x9f, 0x8c,
    0xb5, 0x6d, 0x97, 0x83, 0x97, 0x83, 0x87, 0x77, 0x82, 0x4b,
    0xa9, 0x6e, 0xb2, 0x82, 0x1b, 0x68, 0x66, 0x90, 0x6a, 0x8b,
    0x87, 0x8a, 0x6b, 0x5b, 0x48, 0x3e, 0x7e, 0x95, 0x73, 0x50,
    0x64, 0x88, 0x91, 0x83, 0xb3, 0x89, 0x67, 0x59, 0x5a, 0xb6,
    0xa9, 0xad, 0x66, 0x7c, 0x97, 0x8a, 0xa0, 0x91, 0xbc, 0x93,
    0x7e, 0x56, 0xaa, 0x8c, 0x87, 0x84, 0x95, 0x62, 0x82, 0xb0,
    0xaa, 0x8c, 0x61, 0x84, 0x66, 0xb6, 0x59, 0x59, 0x5c, 0xb4,
    0x80, 0x8a, 0x87, 0x89, 0x9d, 0xbc, 0x76, 0x63, 0x92, 0x7e,
    0x82, 0xa4, 0x87, 0x9b, 0x75, 0x65, 0x72, 0xa2, 0xba, 0xcc,
    0x57, 0x80, 0x66, 0x8f, 0xa9, 0x82, 0xa6, 0x81, 0x92, 0x92,
    0x9f, 0x27, 0x5e, 0x9a, 0x4f, 0x6b, 0x3c, 0x3b, 0xa5, 0xa0,
    0xbb, 0x9f, 0x72, 0x4a, 0x75, 0x76, 0x8b, 0x5d, 0xaa, 0xbc,
    0x94, 0x7b, 0x82, 0x9e, 0x60, 0x9f, 0x7e, 0x9d, 0x65, 0xbe,
    0x6f, 0x73, 0x35, 0x5e, 0x3d, 0x7c, 0x81, 0x74, 0x94, 0x7a,
    0x76, 0x7b, 0x6d, 0x5f, 0x71, 0x8d, 0x6c, 0xa6, 0x91, 0x3b,
    0x46, 0xae, 0x4c, 0x7e, 0x6e, 0x53, 0xa6, 0xa2, 0xc3, 0xc4,
    0x86, 0x45, 0xa1, 0x8c, 0x88, 0x84, 0xb0, 0xa1, 0x60, 0x8d,
    0x85, 0x7b, 0x98, 0xa1, 0x70, 0xbd, 0x6c, 0x97, 0x69, 0x9b,
    0x66, 0x59, 0x78, 0x76, 0xa0, 0x90, 0x81, 0x91, 0x5f, 0x8e,
    0x76, 0x65, 0x6d, 0x8f, 0x5a, 0xad, 0xa3, 0x2c, 0x25, 0xa2,
    0x30, 0x64, 0x7e, 0x2e, 0xad, 0x8c, 0xa4, 0xb6, 0x4c, 0x54,
    0xa2, 0x90, 0x7a, 0x86, 0xa9, 0xba, 0x57, 0x6d, 0x87, 0x94,
    0x64, 0xb1, 0x7d, 0x9e, 0x99, 0xaa, 0x65, 0x87, 0x62, 0x72,
    0x62, 0x90, 0x84, 0x75, 0xa6, 0x8f, 0x76, 0x74, 0x6a, 0x49,
    0x7a, 0x76, 0x82, 0x92, 0x9b, 0x39, 0x41, 0x9c, 0x4f, 0x73,
    0x56, 0x3d, 0xc0, 0x9e, 0xbb, 0xac, 0x75, 0x07, 0xa2, 0x94,
    0x6c, 0x8e, 0x71, 0x9d, 0x5b, 0x7c, 0xa5, 0xa1, 0x71, 0x9a,
    0x87, 0xb1, 0x63, 0xad, 0x85, 0x90, 0x3e, 0x75, 0x51, 0x7e,
    0x4d, 0x8a, 0x63, 0xb7, 0x8f, 0xaa, 0x72, 0x69, 0x76, 0x91,
    0x9e, 0x9c, 0x84, 0x5d, 0x57, 0x9a, 0x40, 0x28, 0x4e, 0x15,
    0xb8, 0x90, 0xa3, 0xa4, 0x60, 0x52, 0x76, 0x73, 0x82, 0x65,
    0x9a, 0x96, 0x87, 0x79, 0x65, 0x6d, 0x7c, 0xb6, 0x70, 0x99,
    0x86, 0xa3, 0x93, 0x89, 0x54, 0x55, 0x7c, 0x72, 0x4d, 0x71,
    0x94, 0x9e, 0x54, 0x8a, 0x6e, 0x58, 0x88, 0x80, 0x99, 0x9b,
    0xa7, 0x3f, 0x3a, 0xa6, 0x4d, 0x4f, 0x7c, 0x50, 0xb4, 0x97,
    0xa2, 0xaf, 0x62, 0x62, 0x98, 0xb2, 0x76, 0x7e, 0x84, 0xa0,
    0x76, 0x76, 0x94, 0x75, 0x7c, 0xb9, 0x5f, 0x81, 0x85, 0x9c,
    0x87, 0x60, 0x57, 0x70, 0x51, 0x63, 0x85, 0x97, 0xac, 0xa3,
    0x28, 0x9b, 0x5d, 0x65, 0x8b, 0x7a, 0x9f, 0x43, 0xad, 0x68,
    0x22, 0x1f, 0x48, 0x4b, 0x2c, 0x22, 0xa9, 0x7c, 0x3a, 0x84,
    0x53, 0x59, 0x5d, 0x12, 0xa3, 0xc1, 0x80, 0x04, 0x64, 0x34,
    0x22, 0x20, 0xce, 0x55, 0x4d, 0x54, 0x16, 0x29, 0x71, 0x52,
    0x28, 0xbd, 0x69, 0x19, 0x41, 0xad, 0x33, 0xa5, 0x76, 0x4a,
    0xbd, 0xa9, 0x7e, 0x4d, 0x63, 0x0a, 0xb5, 0x83, 0x35, 0x2a,
    0x4e, 0x5b, 0x5f, 0x42, 0xae, 0x6a, 0x28, 0xb2, 0x73, 0x5e,
    0x4b, 0x04, 0xb3, 0xc9, 0x8f, 0x03, 0x2f, 0x2f, 0x01, 0x20,
    0xdd, 0x60, 0x4f, 0x2f, 0x35, 0x00, 0x91, 0x77, 0x26, 0xc3,
    0x67, 0x1a, 0x1c, 0x92, 0x22, 0xb7, 0x56, 0x69, 0x8e, 0x8a,
    0x93, 0x65, 0x87, 0x09, 0xa9, 0x63, 0x33, 0x41, 0x4e, 0x7e,
    0x34, 0x3c, 0xae, 0x6d, 0x21, 0xc4, 0x78, 0x49, 0x72, 0x3b,
    0x98, 0xc3, 0x94, 0x26, 0x20, 0x2a, 0x3c, 0x2f, 0xb7, 0x93,
    0x4b, 0x2b, 0x31, 0x01, 0x6c, 0x62, 0x3e, 0xb1, 0x90, 0x06,
    0x3c, 0x84, 0x5a, 0xbb, 0x86, 0x70, 0x98, 0x6e, 0x6c, 0x62,
    0x6c, 0x1f, 0xae, 0x5b, 0x4c, 0x3a, 0x6d, 0x50, 0x12, 0x47,
    0x9c, 0x50, 0x5b, 0x91, 0x5c, 0x13, 0x8f, 0x43, 0xae, 0xe3,
    0x7c, 0x2a, 0x56, 0x45, 0x29, 0x58, 0xff, 0x89, 0x55, 0x2e,
    0x16, 0x12, 0x5f, 0x4c, 0x15, 0x9a, 0x6a, 0x22, 0x46, 0xae,
    0x1c, 0xb1, 0x3a, 0x4b, 0xb8, 0xac, 0x81, 0x69, 0x95, 0x27,
    0xa4, 0x89, 0x2d, 0x36, 0x6c, 0x6b, 0x1d, 0x4e, 0xa3, 0x63,
    0x27, 0x92, 0x3d, 0x34, 0x68, 0x05, 0xbe, 0xa2, 0x6d, 0x37,
    0x56, 0x20, 0x30, 0x1e, 0xe3, 0x84, 0x1b, 0x45, 0x07, 0x3a,
    0x82, 0x7f, 0x43, 0xc4, 0x65, 0x0f, 0x3d, 0xa2, 0x40, 0xae,
    0x43, 0x7e, 0xb3, 0x9f, 0x99, 0x58, 0x8d, 0x3d, 0xac, 0x68,
    0x34, 0x40, 0x70, 0x41, 0x1d, 0x15, 0xb1, 0x4f, 0x41, 0x82,
    0x72, 0x2b, 0x77, 0x37, 0x97, 0xab, 0x8c, 0x4a, 0x56, 0x27,
    0x0b, 0x39, 0xc6, 0x64, 0x49, 0x4a, 0x38, 0x26, 0x99, 0x5a,
    0x2b, 0xc5, 0x91, 0x28, 0x2a, 0xa0, 0x27, 0xc7, 0x5e, 0x75,
    0xcc, 0x7f, 0x94, 0x49, 0xc0, 0xf5, 0x02, 0xbf, 0x58, 0xc3,
    0x01, 0xbf, 0xcc, 0x14, 0x01, 0xbf, 0x0e, 0x4b, 0x00, 0xbf,
    0x72, 0x12, 0xfe, 0xbe, 0xfa, 0x8f, 0xfc, 0xbe, 0x2e, 0x10,
    0xfb, 0xbe, 0xa1, 0xa5, 0xf8, 0xbe, 0xe1, 0xe3, 0xf6, 0xbe,
    0xd3, 0x6e, 0xf5, 0xbe, 0x38, 0xff, 0xf2, 0xbe, 0xf3, 0x50,
    0xf1, 0xbe, 0x11, 0x60, 0xef, 0xbe, 0x1d, 0x7f, 0xed, 0xbe,
    0x29, 0x9e, 0xeb, 0xbe, 0x7d, 0xb6, 0xe9, 0xbe, 0x42, 0xdc,
    0xe7, 0xbe, 0x6b, 0x5b, 0xe5, 0xbe, 0xd8, 0x1f, 0xe4, 0xbe,
    0x64, 0x75, 0xe2, 0xbe, 0x72, 0x58, 0xe0, 0xbe, 0xa3, 0x40,
    0xde, 0xbe, 0x4a, 0x59, 0xdd, 0xbe, 0x96, 0xb5, 0xda, 0xbe,
    0xa2, 0xd4, 0xd8, 0xbe, 0xe6, 0xc4, 0xd6, 0xbe, 0x9f, 0x55,
    0xd5, 0xbe, 0x6e, 0x74, 0xd2, 0xbe, 0x38, 0xeb, 0xd1, 0xbe,
    0x6c, 0x14, 0xcf, 0xbe, 0x7c, 0xbf, 0xcc, 0xbe, 0x80, 0x25,
    0xcb, 0xbe, 0x7b, 0x81, 0xc9, 0xbe, 0x30, 0xea, 0xc7, 0xbe,
    0x78, 0x67, 0xc6, 0xbe, 0x27, 0x2a, 0xc4, 0xbe, 0x34, 0x49,
    0xc2, 0xbe, 0x09, 0xc8, 0xc0, 0xbe, 0xa9, 0x9a, 0xbf, 0xbe,
    0x13, 0x64, 0xbc, 0xbe, 0xe6, 0xa1, 0xba, 0xbe, 0x28, 0xdd,
    0xb8, 0xbe, 0x4e, 0xb0, 0xb6, 0xbe, 0x13, 0x97, 0xb5, 0xbe,
    0x5a, 0x2f, 0xb4, 0xbe, 0xc7, 0xea, 0xb1, 0xbe, 0x5f, 0xea,
    0xaf, 0xbe, 0x10, 0x65, 0xad, 0xbe, 0x3a, 0x3d, 0xab, 0xbe,
    0x9e, 0x36, 0xaa, 0xbe, 0xa7, 0xc9, 0xa8, 0xbe, 0x2f, 0x3e,
    0xa6, 0xbe, 0xea, 0x17, 0xa5, 0xbe, 0x7c, 0x98, 0xa1, 0xbe,
    0xea, 0x8b, 0x9f, 0xbe, 0x22, 0x0c, 0x9e, 0xbe, 0xd1, 0x99,
    0x9c, 0xbe, 0x5c, 0x91, 0x9a, 0xbe, 0x90, 0x24, 0x99, 0xbe,
    0x2b, 0x08, 0x97, 0xbe, 0x80, 0x2d, 0x95, 0xbe, 0xa1, 0x4c,
    0x93, 0xbe, 0x92, 0x12, 0x91, 0xbe, 0x63, 0x30, 0x8f, 0xbe,
    0x96, 0xb7, 0x8d, 0xbe, 0xc1, 0x08, 0x8c, 0xbe, 0x23, 0x0d,
    0x89, 0xbe, 0x8f, 0xe7, 0x87, 0xbe, 0x29, 0x19, 0x86, 0xbe,
    0x03, 0xec, 0x83, 0xbe, 0xe6, 0xb3, 0x82, 0xbe, 0xab, 0x54,
    0x80, 0xbe, 0x8a, 0xfa, 0x7d, 0xbe, 0x18, 0x0b, 0x79, 0xbe,
    0xa5, 0x99, 0x76, 0xbe, 0x98, 0x30, 0x71, 0xbe, 0x15, 0xb7,
    0x6e, 0xbe, 0x57, 0x24, 0x6a, 0xbe, 0x04, 0xb7, 0x66, 0xbe,
    0xad, 0x6c, 0x63, 0xbe, 0xc5, 0xdb, 0x5f, 0xbe, 0x9d, 0x1e,
    0x5c, 0xbe, 0x18, 0x8b, 0x57, 0xbe, 0x58, 0xd0, 0x53, 0xbe,
    0x05, 0xd6, 0x4f, 0xbe, 0xfc, 0x66, 0x4c, 0xbe, 0x6a, 0xd5,
    0x48, 0xbe, 0x55, 0xcc, 0x44, 0xbe, 0x17, 0x28, 0x41, 0xbe,
    0x24, 0xc7, 0x3d, 0xbe, 0xd4, 0x72, 0x39, 0xbe, 0x9b, 0x45,
    0x36, 0xbe, 0x51, 0x07, 0x32, 0xbe, 0x03, 0xd7, 0x2d, 0xbe,
    0xf3, 0xc4, 0x2a, 0xbe, 0xf4, 0xcb, 0x26, 0xbe, 0xdd, 0x95,
    0x21, 0xbe, 0x71, 0xcf, 0x1e, 0xbe, 0xb1, 0x7b, 0x1b, 0xbe,
    0x90, 0x1a, 0x18, 0xbe, 0x74, 0x0b, 0x14, 0xbe, 0x6f, 0x2d,
    0x10, 0xbe, 0x65, 0x1a, 0x0d, 0xbe, 0x24, 0x71, 0x08, 0xbe,
    0x74, 0xb5, 0x04, 0xbe, 0xdf, 0x8c, 0x01, 0xbe, 0x53, 0x07,
    0xfc, 0xbd, 0x8a, 0x08, 0xf3, 0xbd, 0xb4, 0x2e, 0xeb, 0xbd,
    0xf7, 0x30, 0xe3, 0xbd, 0x94, 0x17, 0xdc, 0xbd, 0x3e, 0x8f,
    0xd5, 0xbd, 0x02, 0x30, 0xd0, 0xbd, 0x72, 0xd4, 0xc7, 0xbd,
    0x42, 0x45, 0xc0, 0xbd, 0x3e, 0xd6, 0xb7, 0xbd, 0x2a, 0xe6,
    0xaf, 0xbd, 0x07, 0x03, 0xa9, 0xbd, 0x1c, 0xce, 0xa1, 0xbd,
    0x7d, 0xd0, 0x98, 0xbd, 0xa7, 0x6d, 0x92, 0xbd, 0x22, 0x3a,
    0x8a, 0xbd, 0x7e, 0x3d, 0x83, 0xbd, 0x93, 0xbd, 0x75, 0xbd,
    0xe2, 0xed, 0x68, 0xbd, 0xab, 0x1f, 0x59, 0xbd, 0x88, 0x97,
    0x47, 0xbd, 0xc2, 0xb1, 0x38, 0xbd, 0x4a, 0x3e, 0x2e, 0xbd,
    0x3a, 0x6e, 0x20, 0xbd, 0xda, 0x98, 0x10, 0xbd, 0xb2, 0x62,
    0x01, 0xbd, 0x6b, 0x6d, 0xe6, 0xbc, 0x6b, 0xd9, 0xcf, 0xbc,
    0x7c, 0x40, 0xad, 0xbc, 0x75, 0xed, 0x8b, 0xbc, 0x4b, 0x1d,
    0x51, 0xbc, 0x06, 0xa5, 0x14, 0xbc, 0x33, 0x3d, 0xac, 0xbb,
    0xc5, 0xeb, 0xe6, 0xba, 0x82, 0xec, 0x23, 0x3b, 0x06, 0xc2,
    0xb9, 0x3b, 0x81, 0x7f, 0x20, 0x3c, 0xd2, 0x2b, 0x55, 0x3c,
    0x12, 0xd8, 0x89, 0x3c, 0x78, 0x64, 0xa7, 0x3c, 0x1e, 0x03,
    0xc9, 0x3c, 0x2b, 0x9b, 0xe2, 0x3c, 0xe6, 0x88, 0x02, 0x3d,
    0xff, 0xc1, 0x10, 0x3d, 0x4d, 0x69, 0x1f, 0x3d, 0x0a, 0xce,
    0x2c, 0x3d, 0x9c, 0x38, 0x3a, 0x3d, 0xaa, 0x8d, 0x4b, 0x3d,
    0x4f, 0x92, 0x5b, 0x3d, 0x57, 0xb3, 0x6a, 0x3d, 0xcc, 0xcf,
    0x78, 0x3d, 0xc3, 0xc2, 0x84, 0x3d, 0x82, 0xbb, 0x8b, 0x3d,
    0x44, 0x57, 0x93, 0x3d, 0x21, 0x06, 0x9c, 0x3d, 0x16, 0x19,
    0xa3, 0x3d, 0x28, 0x3c, 0xaa, 0x3d, 0xb0, 0xf6, 0xb0, 0x3d,
    0xd1, 0x79, 0xb8, 0x3d, 0xf6, 0x18, 0xc1, 0x3d, 0x25, 0x43,
    0xc9, 0x3d, 0xc0, 0x8a, 0xd0, 0x3d, 0x76, 0x09, 0xd8, 0x3d,
    0x8b, 0x27, 0xdf, 0x3d, 0x51, 0x07, 0xe7, 0x3d, 0x05, 0x08,
    0xed, 0x3d, 0x70, 0x8a, 0xf4, 0x3d, 0x7f, 0x6b, 0xfc, 0x3d,
    0x8f, 0x7c, 0x02, 0x3e, 0xde, 0xa2, 0x05, 0x3e, 0x5b, 0x9e,
    0x08, 0x3e, 0xec, 0x0e, 0x0d, 0x3e, 0x35, 0x00, 0x11, 0x3e,
    0xb4, 0x6e, 0x15, 0x3e, 0x07, 0x64, 0x18, 0x3e, 0xad, 0x84,
    0x1c, 0x3e, 0xf7, 0x6f, 0x20, 0x3e, 0xb3, 0xc4, 0x22, 0x3e,
    0x10, 0xb8, 0x27, 0x3e, 0x0e, 0x53, 0x2c, 0x3e, 0xbd, 0xdf,
    0x2f, 0x3e, 0x08, 0x28, 0x33, 0x3e, 0x40, 0xc1, 0x36, 0x3e,
    0x65, 0xc0, 0x3a, 0x3e, 0x08, 0x01, 0x3f, 0x3e, 0xf3, 0xd4,
    0x41, 0x3e, 0xd9, 0xf3, 0x44, 0x3e, 0xc0, 0x79, 0x49, 0x3e,
    0x13, 0x3b, 0x4b, 0x3e, 0x9e, 0xda, 0x51, 0x3e, 0x05, 0x5e,
    0x55, 0x3e, 0x25, 0x88, 0x58, 0x3e, 0x8c, 0x4d, 0x5d, 0x3e,
    0xb7, 0xd9, 0x60, 0x3e, 0x59, 0xaa, 0x63, 0x3e, 0x80, 0xac,
    0x67, 0x3e, 0xcb, 0x41, 0x6b, 0x3e, 0x6e, 0x7e, 0x6d, 0x3e,
    0x9a, 0xb0, 0x70, 0x3e, 0x72, 0x6b, 0x77, 0x3e, 0x65, 0x9c,
    0x79, 0x3e, 0x6f, 0xf3, 0x7d, 0x3e, 0xac, 0xda, 0x80, 0x3e,
    0x4b, 0xab, 0x82, 0x3e, 0x93, 0x9c, 0x84, 0x3e, 0x68, 0xc0,
    0x85, 0x3e, 0x7b, 0x5e, 0x88, 0x3e, 0x6f, 0x3f, 0x8a, 0x3e,
    0x63, 0x20, 0x8c, 0x3e, 0x57, 0x01, 0x8e, 0x3e, 0x4b, 0xe2,
    0x8f, 0x3e, 0x3f, 0xc3, 0x91, 0x3e, 0xd6, 0xbe, 0x92, 0x3e,
    0x27, 0x85, 0x95, 0x3e, 0x1a, 0x66, 0x97, 0x3e, 0xdd, 0x4c,
    0x99, 0x3e, 0x02, 0x28, 0x9b, 0x3e, 0xf6, 0x08, 0x9d, 0x3e,
    0xea, 0xe9, 0x9e, 0x3e, 0xde, 0xca, 0xa0, 0x3e, 0xd2, 0xab,
    0xa2, 0x3e, 0xf6, 0xc2, 0xa4, 0x3e, 0xba, 0x6d, 0xa6, 0x3e,
    0xae, 0x4e, 0xa8, 0x3e, 0xa1, 0x2f, 0xaa, 0x3e, 0x95, 0x10,
    0xac, 0x3e, 0x89, 0xf1, 0xad, 0x3e, 0x7d, 0xd2, 0xaf, 0x3e,
    0x71, 0xb3, 0xb1, 0x3e, 0x65, 0x94, 0xb3, 0x3e, 0x59, 0x75,
    0xb5, 0x3e, 0x4d, 0x56, 0xb7, 0x3e, 0x41, 0x37, 0xb9, 0x3e,
    0x35, 0x18, 0xbb, 0x3e, 0x28, 0xf9, 0xbc, 0x3e, 0x1c, 0xda,
    0xbe, 0x3e, 0x10, 0xbb, 0xc0, 0x3e, 0x04, 0x9c, 0xc2, 0x3e,
    0xf8, 0x7c, 0xc4, 0x3e, 0xec, 0x5d, 0xc6, 0x3e, 0xe0,
    0x3e, 0xc8, 0x3e, 0xd4, 0x1f, 0xca, 0x3e, 0xc8, 0x00,
    0xcc, 0x3e, 0xbc, 0xe1, 0xcd, 0x3e, 0xaf, 0xc2, 0xcf,
    0x3e, 0xa3, 0xa3, 0xd1, 0x3e, 0x97, 0x84, 0xd3, 0x3e,
    0x8b, 0x65, 0xd5, 0x3e, 0x7f, 0x46, 0xd7, 0x3e, 0x73,
    0x27, 0xd9, 0x3e, 0x75, 0x82, 0x16, 0x3d, 0xbb, 0xc0,
    0xa1, 0xbd, 0x5b, 0xd8, 0x81, 0x3d, 0x5e, 0x55, 0xce,
    0x3c, 0x74, 0x86, 0x33, 0xbe, 0xb0, 0x12, 0xd6, 0x3d
  };

  return AI_HANDLE_PTR(s_network_weights);
}

