#include "network_data.h"

ai_handle ai_network_data_weights_get(void)
{

  AI_ALIGNED(4)
  static const ai_u8 s_network_weights[ 28056 ] = {
    0x15, 0xed, 0xa0, 0x3e, 0x75, 0x2f, 0xf6, 0x3e, 0x4e, 0xef,
    0x0d, 0x3f, 0x30, 0x07, 0xa9, 0x3e, 0xf7, 0x42, 0xe2, 0x3e,
    0xb1, 0xe5, 0x0f, 0x3f, 0xd9, 0xb5, 0x14, 0xbe, 0x03, 0xc2,
    0xb0, 0x3e, 0x10, 0x55, 0xc6, 0xbb, 0x03, 0x15, 0x7c, 0xbe,
    0xbc, 0xcc, 0x07, 0x3e, 0x1b, 0x71, 0x55, 0xbe, 0x81, 0x92,
    0xc8, 0xbe, 0xbd, 0x0f, 0x30, 0x3b, 0x7d, 0x13, 0xfc, 0x3d,
    0xda, 0x63, 0xdb, 0xbe, 0xfb, 0x38, 0x91, 0xbe, 0x60, 0xa0,
    0xb9, 0xbe, 0xac, 0xb9, 0xbe, 0xbe, 0x0b, 0xd2, 0x90, 0xbe,
    0xe8, 0xf4, 0x2d, 0x3e, 0x71, 0x2f, 0x72, 0xbe, 0x36, 0x18,
    0x84, 0x3e, 0x40, 0x20, 0x50, 0x3d, 0x3c, 0x04, 0x0d, 0x3d,
    0x09, 0x8e, 0x82, 0xbc, 0xd6, 0x8f, 0x53, 0x3d, 0x67, 0x01,
    0x5e, 0xbe, 0x1c, 0xc0, 0xbb, 0xbb, 0xae, 0xa4, 0x51, 0xbe,
    0xe4, 0x2f, 0x60, 0xbe, 0x75, 0xda, 0xc5, 0xbe, 0xf5, 0x84,
    0x78, 0xbe, 0xc9, 0x00, 0xd2, 0xbe, 0x76, 0x5d, 0x33, 0xbe,
    0xca, 0x07, 0x14, 0xbe, 0x09, 0x75, 0xea, 0x3e, 0xbd, 0x14,
    0xa4, 0x3e, 0xc9, 0xb8, 0xd4, 0xbc, 0x11, 0xc3, 0xdc, 0x3e,
    0x43, 0xe3, 0xfe, 0x3d, 0xac, 0x68, 0x13, 0xbe, 0xb7, 0xaf,
    0xdd, 0x3e, 0xf6, 0x35, 0x04, 0xbe, 0xb8, 0x7c, 0xb8, 0xbd,
    0xc7, 0xb6, 0x08, 0xbe, 0x7c, 0x7e, 0x8d, 0x3b, 0xcb, 0x70,
    0x92, 0xbd, 0x4f, 0xae, 0x9d, 0xbe, 0x52, 0x95, 0x96, 0xbe,
    0x7d, 0x0d, 0xbe, 0x3d, 0x47, 0x44, 0x9b, 0xbe, 0x26, 0x5a,
    0x0d, 0xbe, 0x6f, 0xd2, 0xd2, 0x3d, 0x10, 0xf3, 0xcb, 0xbe,
    0xf0, 0x07, 0x36, 0x3e, 0xfd, 0xb1, 0xbb, 0x3e, 0x4d, 0xec,
    0xb6, 0xbe, 0x5d, 0xc7, 0x82, 0x3e, 0x32, 0xc5, 0xad, 0x3e,
    0x61, 0xa7, 0xeb, 0xbe, 0x0f, 0xf4, 0x85, 0xbe, 0xde, 0x54,
    0xc3, 0xbd, 0x06, 0xbc, 0x36, 0x3c, 0xa9, 0x15, 0x94, 0x3e,
    0x4c, 0x8a, 0xc9, 0x3e, 0x1c, 0xdd, 0xb7, 0x3e, 0xf5, 0x81,
    0x5a, 0x3e, 0x27, 0xcf, 0xca, 0x3d, 0x2e, 0x23, 0x9e, 0x3e,
    0x45, 0x7a, 0x3b, 0x3e, 0xb0, 0xaa, 0x44, 0x3e, 0x49, 0x22,
    0xa3, 0x3d, 0x80, 0x82, 0xb9, 0x3d, 0x0a, 0x93, 0xc7, 0x3d,
    0x1e, 0xb4, 0xc3, 0x3d, 0x94, 0x51, 0xb5, 0x3d, 0x62, 0xf7,
    0xb1, 0x3d, 0x49, 0x4c, 0x87, 0x3d, 0xaf, 0x0e, 0x04, 0x3c,
    0x2f, 0x77, 0xd4, 0xbd, 0x00, 0x96, 0x19, 0x3e, 0xb9, 0x69,
    0xda, 0x3c, 0xfa, 0x9d, 0xb6, 0x3d, 0x0f, 0x35, 0x82, 0x3d,
    0x33, 0xf0, 0x6f, 0x3e, 0x4b, 0xc6, 0x66, 0x3e, 0xce, 0xe4,
    0x0f, 0xbd, 0x0f, 0x32, 0x69, 0x3d, 0x70, 0xdf, 0x1d, 0xbe,
    0xf0, 0x10, 0xec, 0x3c, 0x0c, 0x80, 0x1d, 0xbe, 0x72, 0x38,
    0xb2, 0xbd, 0xf1, 0x65, 0xa2, 0xbd, 0x74, 0xf1, 0x7a, 0x3e,
    0xd3, 0x69, 0x00, 0xbe, 0xf6, 0x34, 0x00, 0x3d, 0x0f, 0x9b,
    0x13, 0xbd, 0xe0, 0x65, 0x97, 0x3c, 0xa7, 0xfc, 0x1a, 0xbe,
    0x23, 0xd3, 0xab, 0x3d, 0x5e, 0xbb, 0x76, 0xbb, 0xf5, 0xda,
    0x33, 0xbe, 0x90, 0x86, 0xf0, 0xbd, 0x47, 0xfd, 0x5b, 0x3d,
    0x1e, 0xcf, 0x3c, 0xbc, 0xf0, 0x17, 0x20, 0x3e, 0x50, 0x74,
    0xb9, 0x3d, 0xee, 0xbc, 0x01, 0xbe, 0x9c, 0xcb, 0xd6, 0x3d,
    0xde, 0x02, 0x3f, 0x3e, 0xd9, 0x8d, 0x15, 0xbb, 0x3c, 0xc0,
    0x17, 0x3d, 0xe6, 0x33, 0xf2, 0x3d, 0x53, 0x31, 0x4c, 0x3e,
    0x68, 0x36, 0x17, 0x3d, 0xc2, 0x6e, 0x4b, 0x3d, 0xb8, 0xf9,
    0x8f, 0x3d, 0x1f, 0x1b, 0xf4, 0xbc, 0x25, 0xfb, 0x25, 0x3e,
    0x84, 0x17, 0x14, 0xbe, 0x72, 0xe6, 0x4c, 0xbe, 0x65, 0x79,
    0x90, 0xbd, 0x19, 0x83, 0x6b, 0x3d, 0xca, 0x9f, 0x01, 0x3e,
    0x90, 0x3d, 0xa2, 0x3d, 0x46, 0x45, 0xa4, 0xbd, 0xaa, 0x88,
    0x57, 0x3d, 0x0f, 0x84, 0x4a, 0x3e, 0x1d, 0x30, 0x8b, 0x3d,
    0x7b, 0x10, 0x57, 0x3d, 0x85, 0x7e, 0x67, 0x3e, 0x66, 0xd1,
    0xbe, 0xbd, 0xfd, 0xff, 0x5a, 0x3e, 0x4b, 0xae, 0xdf, 0x3d,
    0xa6, 0x99, 0x38, 0xbd, 0xd7, 0xcf, 0x54, 0x3d, 0xc6, 0x73,
    0x7f, 0x3d, 0x47, 0xb8, 0x09, 0x3e, 0x6b, 0x58, 0xda, 0xbd,
    0x73, 0x18, 0xb3, 0x3d, 0xe2, 0x7a, 0x9c, 0x3d, 0x25, 0x1c,
    0x16, 0xbd, 0xbf, 0x19, 0x0f, 0xbe, 0xac, 0xfa, 0xf9, 0xbd,
    0x4a, 0xc5, 0x1a, 0xbd, 0x66, 0x1d, 0xb5, 0xbd, 0x8a, 0x00,
    0x4f, 0xbe, 0x5d, 0x79, 0x07, 0x3d, 0x75, 0x24, 0x84, 0xbe,
    0xf8, 0xf0, 0x61, 0xbe, 0x9b, 0x67, 0x5b, 0xbd, 0xcf, 0x4b,
    0x8f, 0xbd, 0xae, 0xf8, 0x25, 0x3e, 0x48, 0x9c, 0x87, 0x3e,
    0x19, 0x76, 0x19, 0x3e, 0xf9, 0x84, 0x92, 0xbd, 0x0c, 0xae,
    0x03, 0xbb, 0x0d, 0x01, 0x4d, 0x3e, 0x1b, 0x93, 0x0f, 0xbe,
    0xad, 0x4b, 0x4a, 0x3e, 0x55, 0xb7, 0x6e, 0x3c, 0x7a, 0xd0,
    0x87, 0x3e, 0x60, 0x56, 0x06, 0x3e, 0x97, 0xd4, 0xd4, 0xbc,
    0x72, 0xfd, 0x09, 0x3e, 0x9d, 0x31, 0x11, 0xbb, 0x66, 0x50,
    0x1a, 0x3e, 0x64, 0xac, 0x41, 0x3e, 0x1c, 0xbb, 0x10, 0x3e,
    0xac, 0x46, 0x0c, 0x3c, 0x6f, 0x4c, 0x52, 0x3d, 0xa2, 0x9b,
    0x08, 0x3e, 0x3b, 0x90, 0x66, 0x3d, 0x83, 0x6a, 0x85, 0x3e,
    0x1e, 0xcd, 0xbd, 0x3c, 0x29, 0x39, 0xd0, 0xbd, 0x2c, 0xf0,
    0x33, 0x3e, 0xfb, 0x0c, 0xb2, 0x3b, 0xc5, 0x5a, 0xae, 0x3d,
    0x50, 0xd1, 0x3f, 0x3d, 0x0f, 0xb2, 0xad, 0x3d, 0xc1, 0xba,
    0x97, 0x3c, 0x84, 0xcb, 0x14, 0xbe, 0x02, 0x5d, 0x49, 0x3e,
    0x3a, 0xa3, 0x3a, 0x3e, 0xac, 0x2f, 0x3d, 0x3d, 0x72, 0x48,
    0xa3, 0x3c, 0xd9, 0x41, 0xb2, 0xba, 0x11, 0x21, 0x1e, 0x3e,
    0xb2, 0xda, 0x70, 0xbd, 0xca, 0xa7, 0xd1, 0xbd, 0x1d, 0x1f,
    0x5e, 0xbd, 0xdf, 0x61, 0x3f, 0x3e, 0x87, 0x5c, 0x6b, 0x3e,
    0x3e, 0xbe, 0xa4, 0x3b, 0xdc, 0x2c, 0x1c, 0xbd, 0xeb, 0xe7,
    0x4f, 0x3e, 0x78, 0x90, 0xab, 0x3c, 0x98, 0xdd, 0xd7, 0xba,
    0xe5, 0xac, 0x0b, 0x3e, 0x1a, 0x13, 0xdb, 0x3d, 0x0d, 0xb7,
    0x69, 0x3e, 0x68, 0x88, 0x12, 0x3e, 0x0a, 0x33, 0xc6, 0xbd,
    0xc7, 0x6f, 0x44, 0x3e, 0xcb, 0x46, 0x31, 0x3e, 0x92, 0x71,
    0xf6, 0x3c, 0x8d, 0x6e, 0x54, 0xbd, 0xc7, 0xe2, 0x85, 0x3e,
    0x61, 0x79, 0x25, 0x3e, 0xc0, 0x39, 0x1c, 0xbc, 0x41, 0xa4,
    0xd6, 0xbd, 0xc0, 0x4d, 0x6d, 0x3d, 0xc1, 0xd1, 0x8f, 0x3d,
    0xac, 0x00, 0x32, 0x3e, 0x63, 0xba, 0xbf, 0x3c, 0x1b, 0x6e,
    0x04, 0xbc, 0x18, 0x18, 0x4d, 0x3d, 0x86, 0x55, 0x1e, 0x3e,
    0xac, 0x3b, 0x0b, 0x3e, 0x52, 0xd8, 0xa4, 0x3b, 0xbf, 0xc2,
    0x87, 0x3e, 0x75, 0x2f, 0x4b, 0x3d, 0x36, 0xe1, 0x14, 0x3d,
    0xd5, 0xa2, 0x80, 0xbd, 0x53, 0xac, 0x6f, 0xbe, 0xae, 0x0d,
    0x6e, 0xbd, 0xf5, 0x39, 0xb4, 0x3d, 0xce, 0x84, 0xfe, 0xbd,
    0x9f, 0x59, 0x17, 0xbc, 0x12, 0x9f, 0x03, 0x3e, 0xb0, 0x7a,
    0x56, 0x3d, 0x70, 0x95, 0x61, 0x3e, 0x19, 0xb9, 0xcf, 0x3d,
    0x48, 0x2d, 0x8e, 0xbd, 0x29, 0x38, 0x09, 0xbd, 0xeb, 0xfc,
    0x94, 0x3c, 0x94, 0xc5, 0x3c, 0x3e, 0x6d, 0xc4, 0x0f, 0xbe,
    0x8e, 0x04, 0x26, 0x3e, 0xb5, 0x6c, 0xfa, 0xbd, 0x60, 0x5f,
    0x81, 0xbd, 0x23, 0x44, 0x09, 0x3e, 0xd2, 0x1b, 0xfa, 0x3d,
    0xa9, 0x00, 0xa8, 0x3d, 0x5a, 0x3f, 0x9e, 0xbd, 0x0f, 0xaa,
    0x2d, 0x3e, 0x7e, 0x1b, 0x47, 0xbe, 0x2f, 0x7b, 0x4b, 0xbe,
    0xed, 0xca, 0xaf, 0x3d, 0x37, 0x7f, 0x0d, 0x3e, 0xaa, 0x58,
    0x46, 0x3e, 0x05, 0xa4, 0xcd, 0xbd, 0xa2, 0x07, 0x88, 0xbe,
    0xf9, 0xbc, 0x18, 0xbd, 0x92, 0x8b, 0x2d, 0xbb, 0x91, 0x67,
    0x0f, 0x3e, 0xbf, 0x71, 0xb3, 0x3d, 0xc0, 0x49, 0xe2, 0x3c,
    0x40, 0x33, 0xb2, 0xbd, 0xd8, 0x14, 0x34, 0x3e, 0x97, 0xaa,
    0xf8, 0xbc, 0x6f, 0x21, 0x9a, 0xbb, 0xea, 0xb0, 0xf4, 0x3b,
    0x05, 0xc1, 0xd3, 0xbd, 0x9f, 0x48, 0x35, 0x3e, 0x8a, 0xa8,
    0x1f, 0xbd, 0x32, 0x36, 0x28, 0x3e, 0xf5, 0x5b, 0xe8, 0x3d,
    0x97, 0x78, 0x26, 0x3d, 0xf6, 0x9e, 0x46, 0x3e, 0x7f, 0x4e,
    0xa7, 0x3d, 0xe1, 0x2a, 0xc0, 0xbd, 0x63, 0x79, 0xd4, 0xbc,
    0x94, 0x77, 0xdd, 0x3d, 0xfe, 0xa1, 0x64, 0x3e, 0x11, 0x5d,
    0x90, 0x3c, 0xf4, 0xeb, 0x80, 0xbe, 0x56, 0x2c, 0x77, 0x3d,
    0x50, 0x61, 0x61, 0x3d, 0xe3, 0xe7, 0x07, 0xbd, 0x28, 0xf1,
    0xf0, 0x3d, 0x4d, 0xe9, 0x3b, 0x3e, 0xb2, 0xfe, 0x08, 0xbe,
    0xd9, 0x93, 0xea, 0xbc, 0x88, 0x27, 0x97, 0xbc, 0xca, 0x83,
    0xc8, 0x3d, 0x74, 0x26, 0xe1, 0x3d, 0x50, 0xf7, 0x49, 0xbd,
    0x16, 0x5e, 0xb0, 0x3d, 0x9a, 0xe2, 0x88, 0x3b, 0x52, 0xde,
    0xca, 0xbd, 0xad, 0x2a, 0xb6, 0xbd, 0x1b, 0x1e, 0x23, 0xbd,
    0xca, 0xd6, 0x45, 0x3e, 0x2c, 0xe8, 0x9f, 0xbd, 0x1f, 0xf3,
    0x6b, 0x3d, 0xc1, 0x15, 0x26, 0x3d, 0x94, 0x2e, 0xe7, 0x3d,
    0x2d, 0xad, 0xff, 0xbd, 0xfb, 0x46, 0x81, 0xbd, 0xbf, 0xd5,
    0xbc, 0x3d, 0x9b, 0x80, 0x7d, 0xbd, 0x40, 0xad, 0x4f, 0x3e,
    0x2b, 0xee, 0x32, 0xbe, 0x98, 0x3e, 0x1d, 0x3e, 0x1f, 0xa3,
    0xe7, 0xbd, 0x4b, 0x52, 0x87, 0xbd, 0xf2, 0xb8, 0x0d, 0x3e,
    0xbf, 0xa1, 0x72, 0x3d, 0x00, 0x88, 0x33, 0xbc, 0x02, 0xb2,
    0xd4, 0x3d, 0xe8, 0x35, 0xe6, 0xbc, 0x85, 0x8b, 0x2d, 0xbe,
    0x47, 0xe2, 0x69, 0xbc, 0x11, 0x42, 0x55, 0x3e, 0x7f, 0x15,
    0x1f, 0xbd, 0x61, 0xe8, 0x09, 0xbe, 0x95, 0xcd, 0x20, 0x3e,
    0x4b, 0x12, 0x49, 0xbd, 0xbe, 0x7e, 0x10, 0x3e, 0x70, 0x95,
    0xc9, 0x3d, 0x2a, 0x7f, 0x29, 0xbc, 0x73, 0x41, 0xb7, 0xbd,
    0x9e, 0xf4, 0x24, 0x3d, 0x4b, 0x25, 0x46, 0x3d, 0x81, 0xb0,
    0x3c, 0xbe, 0x4c, 0x36, 0xc0, 0x3d, 0x48, 0x43, 0xd6, 0xbc,
    0xe8, 0x83, 0x1c, 0x3e, 0xfa, 0xcc, 0xdf, 0xbd, 0xd5, 0x3e,
    0x41, 0x3e, 0x2e, 0x09, 0xd9, 0xbd, 0xf9, 0xee, 0x6f, 0x3d,
    0xb8, 0x79, 0x83, 0xbd, 0x81, 0x5d, 0x87, 0x3d, 0x79, 0xf2,
    0x32, 0x3d, 0x05, 0x59, 0x6c, 0xbd, 0xc8, 0x65, 0x14, 0x3e,
    0x66, 0x7b, 0x5a, 0x3e, 0x03, 0x9c, 0x29, 0x3d, 0x88, 0x5a,
    0x83, 0xbe, 0xf7, 0xde, 0xda, 0x3d, 0x53, 0x2c, 0x5c, 0xbe,
    0x79, 0x9c, 0x03, 0xbe, 0x51, 0xf5, 0xf1, 0x3c, 0xce, 0x73,
    0x2b, 0x3e, 0x17, 0xc4, 0x0f, 0x3c, 0xe6, 0x73, 0xc3, 0x3d,
    0x6f, 0x3b, 0x1c, 0x3e, 0xd0, 0x06, 0x8e, 0x3d, 0x9b, 0xa2,
    0xab, 0xbc, 0x0f, 0xbd, 0xc6, 0xbb, 0x61, 0x78, 0x34, 0xbd,
    0xab, 0x20, 0x74, 0x3d, 0x89, 0xde, 0x29, 0x3e, 0x6c, 0xa1,
    0x39, 0x3e, 0x50, 0x7d, 0x3d, 0x3e, 0x41, 0x20, 0x95, 0x3d,
    0x8f, 0xc6, 0x33, 0xbe, 0x47, 0x5a, 0x25, 0xbe, 0x52, 0x07,
    0x26, 0x3b, 0xb6, 0x28, 0x17, 0x3e, 0x48, 0x2b, 0xd6, 0xbd,
    0x01, 0xee, 0x36, 0xbe, 0x09, 0xca, 0x80, 0x3c, 0x3d, 0x33,
    0x51, 0x3d, 0x6b, 0xa4, 0xe1, 0xbd, 0xa8, 0xb5, 0xa8, 0xbd,
    0xba, 0xb7, 0x24, 0x3d, 0x6a, 0x65, 0x57, 0x3e, 0x1d, 0xba,
    0xd7, 0xbd, 0x79, 0xeb, 0xd0, 0xbd, 0x4b, 0x49, 0x22, 0xbe,
    0x77, 0xd4, 0x5b, 0xbe, 0x1a, 0x08, 0x64, 0x3b, 0xa8, 0x7a,
    0xaf, 0x3c, 0x3a, 0x98, 0x65, 0xbd, 0xba, 0x80, 0x2e, 0x3e,
    0x9f, 0x88, 0x80, 0xbe, 0x73, 0x8c, 0x4c, 0x3e, 0x18, 0xcb,
    0x17, 0x3e, 0xc0, 0x74, 0x34, 0x3e, 0x32, 0x5e, 0x66, 0xbd,
    0x78, 0x67, 0x1d, 0x3e, 0x0a, 0x8b, 0xdc, 0x3d, 0x9e, 0x43,
    0x6c, 0x3e, 0xb1, 0xca, 0x28, 0xbd, 0xe8, 0x66, 0x19, 0x3d,
    0x38, 0xa7, 0x33, 0xbe, 0x6f, 0x97, 0x43, 0x3e, 0xd8, 0x07,
    0x67, 0xbd, 0xbc, 0x5e, 0x7b, 0x3d, 0xa8, 0x7a, 0xd8, 0xbd,
    0xc6, 0xf7, 0xd7, 0x3d, 0x20, 0xba, 0x44, 0x3d, 0x86, 0xe9,
    0x84, 0x3d, 0x4d, 0x33, 0x70, 0xbd, 0xa8, 0xa6, 0x24, 0xbd,
    0xc8, 0x9d, 0x46, 0x3e, 0x89, 0xa0, 0x4a, 0x3e, 0xe8, 0x3e,
    0xd0, 0x3c, 0x58, 0x8d, 0xf4, 0x3c, 0xc8, 0x67, 0x55, 0x3d,
    0x7d, 0x19, 0x55, 0xbd, 0x7d, 0xc0, 0xdc, 0xbd, 0xd9, 0x0d,
    0x50, 0x3e, 0x26, 0xe1, 0x35, 0x3e, 0xfe, 0x08, 0x07, 0x3e,
    0x3a, 0x92, 0xf1, 0xbd, 0x55, 0x5e, 0x02, 0x3e, 0xfb, 0xcd,
    0xf4, 0xbb, 0x2d, 0x0a, 0xe2, 0x3c, 0x01, 0xc6, 0xb2, 0xbd,
    0xd6, 0x02, 0xd5, 0x3b, 0x6a, 0x05, 0x90, 0xbb, 0xc3, 0x0d,
    0x10, 0x3e, 0x21, 0x91, 0x1b, 0x3e, 0x64, 0xf4, 0x2f, 0x3e,
    0x0b, 0xb2, 0xed, 0xbd, 0xe6, 0xb2, 0xe1, 0xbd, 0x79, 0x24,
    0x30, 0xbc, 0x12, 0x06, 0xb9, 0x3d, 0x97, 0xbb, 0xef, 0x3d,
    0x2f, 0xde, 0x9f, 0xbd, 0x2f, 0x75, 0xac, 0x3d, 0xd0, 0x2a,
    0x5e, 0x3e, 0xd4, 0x41, 0x5e, 0x3d, 0x0c, 0x10, 0x5c, 0x3e,
    0xf4, 0xd6, 0x4c, 0xbd, 0x8f, 0x2b, 0x30, 0x3c, 0x9b, 0x59,
    0x9d, 0x3c, 0xd2, 0x5e, 0xf3, 0x3d, 0x2a, 0xb3, 0x94, 0x3b,
    0xd5, 0x2c, 0xb6, 0xbd, 0x4e, 0x18, 0x90, 0xbc, 0xbf, 0x9c,
    0x45, 0x3e, 0xb2, 0xa1, 0xa0, 0x3b, 0x24, 0x5b, 0x85, 0x3a,
    0xcd, 0x7c, 0x07, 0x3e, 0xf3, 0xd6, 0x06, 0x3e, 0x29, 0x53,
    0x02, 0xbc, 0x91, 0x35, 0xf8, 0xbd, 0x23, 0xb8, 0x46, 0x3e,
    0xb2, 0xd9, 0x89, 0xbd, 0x54, 0xf8, 0x35, 0x3e, 0xc7, 0xf0,
    0xc6, 0x3d, 0x2b, 0x3c, 0x44, 0xbe, 0xab, 0x79, 0xd0, 0xbd,
    0x83, 0x1b, 0x2b, 0x3e, 0xbf, 0x99, 0x3e, 0x3e, 0xe7, 0x39,
    0x9d, 0xbd, 0xf6, 0xb9, 0xf8, 0xbc, 0x5c, 0xe0, 0x50, 0x3e,
    0x9f, 0xa6, 0x29, 0xbd, 0x8c, 0x54, 0x9c, 0xba, 0x77, 0x9b,
    0x34, 0x3d, 0xfb, 0x80, 0xaf, 0xbd, 0xe4, 0xce, 0x82, 0x3d,
    0x43, 0xb1, 0x07, 0x3d, 0xa0, 0x5d, 0xd3, 0xbd, 0x0b, 0xe6,
    0x23, 0xbd, 0x82, 0x0b, 0x97, 0xbd, 0xf6, 0x58, 0xff, 0x3d,
    0x3b, 0x8b, 0x21, 0xbd, 0x0a, 0x8d, 0x3c, 0x3e, 0xe1, 0x8a,
    0x60, 0x3c, 0xe8, 0x89, 0x46, 0x3e, 0x24, 0xac, 0x2e, 0x3d,
    0x9e, 0xeb, 0x3c, 0x3e, 0xae, 0xc9, 0x46, 0x3e, 0xee, 0x76,
    0x95, 0xbd, 0x18, 0x9f, 0x26, 0xbe, 0x7b, 0x39, 0x1a, 0x3e,
    0x18, 0x73, 0x37, 0xbe, 0x16, 0x8d, 0x06, 0x3e, 0x89, 0x73,
    0x22, 0x3e, 0x02, 0x47, 0xea, 0xbb, 0x12, 0xe4, 0x17, 0xbe,
    0x91, 0x32, 0x73, 0xbd, 0xea, 0x8d, 0xfe, 0x3d, 0x43, 0x15,
    0x0f, 0xbd, 0xf1, 0xaf, 0xcd, 0xbb, 0x09, 0x6b, 0xa7, 0xbd,
    0x65, 0x3d, 0xa3, 0xbd, 0xee, 0x86, 0x82, 0xbd, 0xd2, 0x19,
    0xfa, 0x3c, 0x05, 0x04, 0x47, 0x3e, 0x33, 0x29, 0xb7, 0x3d,
    0x90, 0xee, 0x69, 0x3d, 0x9f, 0x95, 0x18, 0xbe, 0x4c, 0xbc,
    0x84, 0x3e, 0x2d, 0x3c, 0xc7, 0xbd, 0x1e, 0x00, 0x3f, 0x3e,
    0x84, 0xad, 0xb7, 0x3c, 0xff, 0x46, 0x32, 0xbe, 0xf2, 0xc1,
    0xc4, 0xbd, 0x05, 0x1b, 0x16, 0xbe, 0x2e, 0x0b, 0x07, 0xbe,
    0x56, 0x07, 0x01, 0x3e, 0x93, 0xdd, 0xca, 0xbc, 0x75, 0xde,
    0xfa, 0x3d, 0xf4, 0xe6, 0xdd, 0xbd, 0x15, 0x12, 0x11, 0x3d,
    0x5e, 0x0d, 0xb0, 0xbd, 0xcd, 0x46, 0xbe, 0xbd, 0x8e, 0xab,
    0x13, 0x3e, 0xe1, 0x37, 0xc7, 0xbd, 0x4f, 0xf7, 0xb0, 0xbd,
    0xad, 0x40, 0xec, 0x3d, 0x21, 0x51, 0x57, 0xbc, 0xb0, 0xa1,
    0xaf, 0xbc, 0x54, 0xb3, 0xaa, 0x3d, 0x35, 0x5d, 0x41, 0x3e,
    0x50, 0x65, 0xc7, 0x3d, 0x2e, 0x38, 0x24, 0xbe, 0x0e, 0x3b,
    0xfa, 0xbb, 0x5a, 0xb3, 0x74, 0x3e, 0x8e, 0xcf, 0xbc, 0x3d,
    0x89, 0xe0, 0xd4, 0xbd, 0xf6, 0x21, 0xcc, 0xbc, 0x48, 0x4a,
    0x0d, 0x3e, 0xa1, 0xaa, 0x41, 0x3d, 0x93, 0xf9, 0xe2, 0xbd,
    0x58, 0x0c, 0xb3, 0x3d, 0xa1, 0xc1, 0x15, 0xbe, 0x5c, 0x82,
    0x11, 0x3e, 0xed, 0x43, 0x06, 0x3e, 0x1d, 0xec, 0xce, 0x3d,
    0xad, 0x94, 0xbd, 0x3d, 0x69, 0xba, 0x55, 0x3b, 0xa3, 0xc3,
    0xb2, 0x3d, 0xfa, 0xc5, 0x20, 0x3d, 0x01, 0x91, 0x49, 0x3d,
    0xf9, 0xa6, 0x9e, 0xbd, 0x2c, 0x9f, 0x52, 0x3e, 0xaa, 0x27,
    0xe2, 0xbc, 0x53, 0xfb, 0x7d, 0x3e, 0xfa, 0xfa, 0x0c, 0x3c,
    0x99, 0xd6, 0x32, 0xbd, 0xaa, 0x14, 0x4f, 0xbd, 0xe9, 0xb6,
    0xb5, 0x3d, 0xc2, 0x68, 0xe6, 0xbc, 0xa1, 0xa4, 0xa5, 0x3b,
    0x54, 0x40, 0x83, 0x3c, 0x60, 0x70, 0x08, 0xbd, 0xf8, 0x6b,
    0x88, 0xbc, 0x57, 0x60, 0xef, 0x3d, 0x1c, 0x87, 0x68, 0xbe,
    0xe0, 0x94, 0x45, 0xbe, 0x90, 0xb3, 0x3d, 0x3e, 0x82, 0x39,
    0xf2, 0xbd, 0xda, 0x0c, 0x98, 0xbd, 0x42, 0x41, 0xa4, 0x3c,
    0x29, 0x10, 0x2c, 0xbe, 0xa6, 0x75, 0xdf, 0x3d, 0x36, 0xb3,
    0x9f, 0x3c, 0x76, 0x87, 0x8c, 0xbc, 0x63, 0xc0, 0x2b, 0x3e,
    0x5a, 0xdf, 0x88, 0xbd, 0x76, 0x1a, 0x41, 0x3e, 0x73, 0x11,
    0x09, 0x3d, 0xf8, 0x20, 0x12, 0x3e, 0x9e, 0x61, 0x1d, 0x3e,
    0x58, 0x93, 0x28, 0xbb, 0x6f, 0x46, 0x77, 0x3e, 0xec, 0x8a,
    0x62, 0xbd, 0x0a, 0x41, 0x0f, 0xbe, 0xf6, 0x50, 0x3b, 0xbe,
    0x1c, 0xe9, 0x6f, 0xbe, 0xc4, 0x79, 0x5b, 0x3d, 0x84, 0xbb,
    0x9e, 0x3d, 0x11, 0x5e, 0x4d, 0xbd, 0x1f, 0x49, 0x40, 0xbe,
    0xd9, 0x20, 0xed, 0xbb, 0xbd, 0x0e, 0x25, 0x3e, 0xf7, 0x6f,
    0xa8, 0x3d, 0xe4, 0xef, 0x2c, 0xbb, 0x86, 0xba, 0x8b, 0xbd,
    0xac, 0x47, 0xb8, 0xbd, 0xb6, 0x5b, 0x2c, 0xbe, 0xd4, 0xb7,
    0xb3, 0xbc, 0x61, 0x1a, 0x17, 0xbe, 0x2c, 0xd0, 0xa0, 0xbd,
    0x4b, 0x30, 0x44, 0x3e, 0x07, 0xa4, 0x63, 0x3d, 0x61, 0x19,
    0xbd, 0x39, 0x8a, 0x7f, 0xd2, 0x3d, 0x07, 0x78, 0x1e, 0x3e,
    0xce, 0xde, 0x7d, 0x3c, 0x43, 0x03, 0xe0, 0xbd, 0xbf, 0xe9,
    0x76, 0x3d, 0xf7, 0x19, 0x9f, 0xbd, 0x3a, 0xd8, 0x59, 0x3e,
    0xd0, 0x46, 0x2c, 0xbe, 0xaf, 0x6a, 0x1f, 0xbe, 0x49, 0x0e,
    0xa9, 0xbd, 0x4e, 0x36, 0x4e, 0x3e, 0x50, 0x61, 0xe8, 0x3d,
    0x61, 0x6f, 0xf6, 0xbd, 0xe2, 0xbe, 0xe3, 0x3c, 0x26, 0x29,
    0xf5, 0x3d, 0xaf, 0x1d, 0x2d, 0x3d, 0x85, 0xe7, 0x5a, 0x3c,
    0x61, 0xf9, 0x0e, 0xbe, 0x12, 0x91, 0x48, 0xbe, 0x81, 0xbb,
    0x78, 0x3d, 0x60, 0x87, 0x99, 0xbd, 0xd7, 0x80, 0x47, 0x3e,
    0xb1, 0x8b, 0x4f, 0x3e, 0xa0, 0x93, 0xc1, 0x3d, 0x07, 0x0d,
    0xff, 0x3c, 0xd8, 0x5f, 0xb0, 0x3d, 0x37, 0x0b, 0x08, 0xbc,
    0xd1, 0xfd, 0xe0, 0xbd, 0x82, 0xeb, 0x64, 0x3e, 0x94, 0xb0,
    0x24, 0xbe, 0x64, 0x9d, 0x30, 0x3e, 0x26, 0x00, 0x24, 0xbe,
    0xf0, 0x6b, 0xbc, 0x3c, 0xf1, 0x16, 0xb1, 0xbc, 0x29, 0xf5,
    0x41, 0xbd, 0xb8, 0x33, 0xbc, 0xbd, 0x53, 0xf6, 0xad, 0xbb,
    0x08, 0xe2, 0x08, 0x3b, 0xdb, 0x45, 0x7f, 0xbd, 0xaa, 0x6e,
    0xdc, 0xbd, 0xda, 0xab, 0x43, 0x3e, 0xd7, 0x96, 0x84, 0xbe,
    0xc6, 0x67, 0x85, 0xbe, 0x08, 0x7c, 0xcb, 0x3d, 0xbd, 0x3d,
    0xd2, 0x3d, 0x35, 0xbd, 0xdc, 0xbc, 0xf9, 0x81, 0x6e, 0x3e,
    0xcd, 0x67, 0x12, 0xbe, 0xa8, 0xa8, 0xde, 0xbd, 0x8b, 0x67,
    0x80, 0xbc, 0x21, 0xee, 0x49, 0x3e, 0x4b, 0x60, 0xa9, 0x3d,
    0x16, 0xe3, 0x36, 0x3e, 0xaf, 0x6f, 0x4f, 0xbc, 0xee, 0xa2,
    0xcd, 0x3c, 0x41, 0xd3, 0xfb, 0xbd, 0x9c, 0xa5, 0xc5, 0xbd,
    0x2b, 0xd7, 0xd2, 0x3d, 0x32, 0x3a, 0x0c, 0x3e, 0x5f, 0xc8,
    0xea, 0xbd, 0x9e, 0xad, 0xd3, 0x3d, 0xb8, 0x0c, 0xd9, 0xbd,
    0xee, 0xa4, 0x8e, 0xbd, 0xca, 0x28, 0x4d, 0x3d, 0x15, 0x76,
    0x0e, 0x3e, 0xf7, 0x7a, 0x78, 0x3d, 0x74, 0xcc, 0x4d, 0x3d,
    0xf8, 0x7c, 0x94, 0xbd, 0x2c, 0xed, 0x0d, 0x3e, 0x0d, 0x6b,
    0x94, 0xbd, 0xa8, 0xb4, 0xf6, 0xbd, 0x85, 0x62, 0xb4, 0xbd,
    0xc9, 0x68, 0x07, 0x3e, 0xe0, 0x4c, 0xb5, 0xbd, 0x93, 0x90,
    0xbc, 0xbd, 0x4f, 0x88, 0x53, 0x3d, 0xb8, 0xa0, 0x72, 0xbd,
    0x38, 0x9d, 0x5f, 0xbd, 0xa9, 0x9c, 0x81, 0xbd, 0xf2, 0x35,
    0xd4, 0x3c, 0xdf, 0x6c, 0xec, 0xbc, 0xd3, 0x95, 0xd6, 0xbd,
    0xbc, 0x1f, 0xb2, 0xbd, 0x35, 0x7b, 0x08, 0x3e, 0x55, 0xbf,
    0x85, 0x3d, 0x45, 0xea, 0x92, 0x3d, 0x8b, 0x83, 0xd9, 0xbd,
    0x16, 0x3f, 0x8c, 0x3c, 0x1f, 0xf7, 0x23, 0x3d, 0x60, 0x96,
    0x64, 0x3d, 0x0a, 0x1e, 0x21, 0xbe, 0x87, 0xa0, 0x67, 0xbd,
    0xc9, 0x66, 0x60, 0x3d, 0x8c, 0x57, 0x3f, 0xbe, 0x45, 0x3a,
    0x3b, 0xbe, 0x46, 0x51, 0xc6, 0xbd, 0xb7, 0xdc, 0x8f, 0x3d,
    0x98, 0x1a, 0xf0, 0xbd, 0x24, 0xc8, 0x3c, 0xbc, 0xf7, 0x15,
    0x17, 0xbd, 0x9b, 0x06, 0x5b, 0x3e, 0x22, 0x3c, 0x3a, 0xbe,
    0xc9, 0xa3, 0x8f, 0x3d, 0x09, 0x0f, 0x2b, 0xbe, 0xbd, 0xd4,
    0x81, 0x3e, 0x90, 0xe8, 0x7c, 0xbe, 0xe0, 0xff, 0x0c, 0xbe,
    0xf9, 0x1d, 0x0e, 0x3e, 0x45, 0x01, 0x1f, 0x3e, 0xd1, 0x7d,
    0x24, 0xbd, 0x83, 0xac, 0xd3, 0xbb, 0xee, 0x40, 0xdd, 0x3d,
    0x28, 0xe7, 0x1a, 0x3e, 0xf7, 0xb2, 0xd1, 0x3d, 0xcd, 0x36,
    0xcd, 0x3d, 0x34, 0x76, 0x3c, 0x3e, 0x6b, 0xb7, 0x6b, 0xbd,
    0x6d, 0xb6, 0x65, 0xbe, 0xd0, 0xdb, 0xbb, 0xbd, 0x57, 0x74,
    0x97, 0x3d, 0x96, 0x60, 0xb0, 0xb9, 0x2e, 0xfc, 0xb9, 0x3d,
    0x0b, 0x21, 0xa0, 0xbd, 0xbd, 0x90, 0xd6, 0xbc, 0x0a, 0x70,
    0xa0, 0x3d, 0x92, 0x88, 0x89, 0xbd, 0xce, 0xf7, 0x44, 0xbe,
    0xf9, 0x0c, 0x8a, 0x3b, 0x53, 0x06, 0x71, 0x3e, 0xb0, 0xca,
    0x28, 0xbe, 0x04, 0xe4, 0x73, 0x3c, 0xc7, 0x1f, 0x60, 0x3e,
    0x29, 0xdc, 0xcd, 0x3d, 0x61, 0x71, 0x94, 0xbc, 0x80, 0xff,
    0x17, 0xbe, 0xda, 0x5a, 0xd3, 0x3d, 0xc8, 0x83, 0xfe, 0x3d,
    0xa1, 0x6a, 0xbb, 0x3c, 0xca, 0xc8, 0xc0, 0xbc, 0x63, 0x0a,
    0x68, 0x3e, 0x1d, 0xb4, 0x77, 0xbc, 0x3a, 0x32, 0xc5, 0x3c,
    0xec, 0x77, 0xdb, 0x3d, 0xa6, 0xfd, 0x92, 0x3c, 0x49, 0xa5,
    0xe6, 0x3d, 0xfa, 0x36, 0x29, 0x3d, 0x4c, 0xe1, 0x71, 0x3c,
    0x83, 0x1b, 0x6f, 0x3d, 0x38, 0x09, 0x9d, 0x3d, 0x3f, 0x26,
    0xb3, 0x3c, 0x97, 0xd0, 0x27, 0x3d, 0x90, 0x79, 0x44, 0x3e,
    0x2e, 0xbf, 0xb7, 0x3d, 0x9a, 0x31, 0x23, 0x3e, 0x75, 0x58,
    0x0e, 0x3d, 0x3b, 0x8e, 0x4b, 0x3e, 0xf1, 0x10, 0x70, 0xbc,
    0x06, 0x80, 0x6e, 0x3e, 0x75, 0x70, 0x44, 0x3e, 0xdb, 0xc3,
    0x55, 0x3e, 0x65, 0x13, 0x18, 0x3e, 0x24, 0xf2, 0xcc, 0x3d,
    0x59, 0xd7, 0xf4, 0xbc, 0x67, 0x7b, 0x08, 0x3e, 0xed, 0xdc,
    0xdf, 0xbd, 0x11, 0x2d, 0xa9, 0xbc, 0x1e, 0xbe, 0x3a, 0xbd,
    0x77, 0xef, 0xfa, 0xbd, 0x24, 0xa3, 0xe2, 0xbc, 0xf9, 0xa7,
    0xe3, 0x3d, 0x11, 0x86, 0x4a, 0xbe, 0x8d, 0x56, 0x45, 0xbe,
    0x89, 0x12, 0x0d, 0x3d, 0x9c, 0x4d, 0xa9, 0x3d, 0x65, 0x98,
    0x58, 0x3d, 0xd7, 0x3f, 0x5f, 0x3d, 0x73, 0x78, 0x99, 0x3d,
    0x85, 0x3c, 0x21, 0x3e, 0xce, 0x24, 0x2a, 0x3e, 0x63, 0xc3,
    0x8f, 0xbd, 0x71, 0x2d, 0x7f, 0x3d, 0x4d, 0x78, 0x3a, 0x3e,
    0xdf, 0x1b, 0xb6, 0xbd, 0x27, 0x6d, 0x73, 0x3e, 0x66, 0x13,
    0x82, 0xbd, 0xed, 0x30, 0xe9, 0x3d, 0x4d, 0xdb, 0x0c, 0x3e,
    0xca, 0x32, 0x86, 0xbd, 0xcd, 0x76, 0x6f, 0xbe, 0xb6, 0xcd,
    0x74, 0xbd, 0x6e, 0x8e, 0x1f, 0x3e, 0xc7, 0x35, 0x24, 0xbd,
    0x6c, 0x71, 0x22, 0x3d, 0x09, 0x01, 0x3a, 0xbc, 0x50, 0xfb,
    0xf2, 0xbc, 0x5b, 0x3c, 0xb3, 0x3a, 0xee, 0x0a, 0x2e, 0x3e,
    0x0d, 0x40, 0x7b, 0x3e, 0xee, 0x3b, 0xcb, 0x3d, 0x6e, 0x09,
    0x02, 0x3e, 0xc4, 0xa4, 0x07, 0x3e, 0x0d, 0xdb, 0x00, 0x3e,
    0x3a, 0x2d, 0xa9, 0xbb, 0x69, 0x28, 0x9e, 0xbd, 0xb8, 0x2a,
    0xaf, 0xbd, 0x63, 0x32, 0x7b, 0x3e, 0xf8, 0xcc, 0x58, 0x3e,
    0x8b, 0x58, 0xc5, 0x3d, 0x01, 0x78, 0x4a, 0xbe, 0xf7, 0xdb,
    0x03, 0xbc, 0x7a, 0x38, 0x26, 0x3d, 0x6b, 0x7b, 0x0e, 0x3d,
    0xd7, 0x8a, 0x56, 0xbe, 0x5d, 0x9c, 0x0a, 0xbe, 0x5b, 0xf6,
    0x4b, 0x3e, 0x64, 0x9a, 0x11, 0x3e, 0x8a, 0x55, 0x7a, 0x3d,
    0x1d, 0x85, 0x87, 0x3d, 0x29, 0x52, 0xc1, 0xbd, 0xcf, 0x4b,
    0x35, 0xbe, 0x28, 0x10, 0xc4, 0xb9, 0x49, 0xa3, 0x39, 0xbe,
    0x2e, 0xf3, 0x01, 0x3e, 0xb3, 0x9a, 0x27, 0x3c, 0xb5, 0xa8,
    0x22, 0xbe, 0xf2, 0x45, 0xae, 0xbd, 0x9b, 0x47, 0xa2, 0x3d,
    0x79, 0x62, 0xf8, 0xbd, 0xd2, 0x9c, 0x4a, 0xbd, 0xb3, 0xb3,
    0x07, 0xbe, 0x49, 0xe9, 0xc9, 0xbd, 0xe9, 0x96, 0x9b, 0x3d,
    0x9d, 0x95, 0x33, 0x3e, 0xe0, 0x72, 0xb7, 0x3d, 0x5d, 0x1f,
    0xb0, 0x3c, 0x9d, 0x83, 0x9e, 0xbd, 0x49, 0x67, 0x24, 0x3c,
    0x26, 0xd0, 0x35, 0x3c, 0xc4, 0x9f, 0x48, 0x3e, 0xc7, 0xe5,
    0xad, 0xbd, 0x54, 0xa9, 0x1e, 0x3e, 0xde, 0xc1, 0x61, 0xbc,
    0x69, 0xb1, 0x12, 0x3e, 0xa6, 0x5c, 0x51, 0x3d, 0xff, 0x97,
    0x63, 0x3e, 0xbc, 0xa8, 0x14, 0x3d, 0xcf, 0xba, 0x39, 0x3e,
    0xa7, 0xb7, 0x45, 0xbe, 0xb9, 0xd3, 0x32, 0x3e, 0x18, 0xea,
    0xb2, 0x3d, 0x9b, 0x23, 0x71, 0x3e, 0xc7, 0xe2, 0x1b, 0x3e,
    0x79, 0xcd, 0x05, 0x3e, 0xec, 0xff, 0x3c, 0x3c, 0x93, 0x59,
    0x7a, 0xbd, 0x27, 0x9e, 0x94, 0xbb, 0x7e, 0xcf, 0xa0, 0x3d,
    0xd9, 0xa5, 0xbd, 0x3d, 0xba, 0xdc, 0x09, 0x3d, 0x63, 0x64,
    0xc6, 0xbd, 0x54, 0xb6, 0xf8, 0xbd, 0x71, 0xe1, 0x9b, 0x3c,
    0x1d, 0x9c, 0x3e, 0x3e, 0x62, 0x06, 0xcd, 0x3d, 0x68, 0x03,
    0x28, 0xbe, 0x91, 0x35, 0x45, 0x3d, 0xb4, 0x15, 0x78, 0xbd,
    0xcb, 0x92, 0xa8, 0x3d, 0xde, 0x67, 0x0f, 0x3e, 0x79, 0x89,
    0x12, 0xbd, 0xed, 0xd8, 0x0d, 0xbd, 0x20, 0xa8, 0xb0, 0xbd,
    0xee, 0xb5, 0xed, 0x3d, 0x09, 0xd0, 0xaa, 0xbb, 0xac, 0xcb,
    0x65, 0x3e, 0x16, 0xb1, 0x8e, 0xbd, 0x2a, 0xa1, 0xc0, 0xbd,
    0x6b, 0x6c, 0x34, 0x3d, 0x5f, 0xc5, 0x28, 0xbe, 0xb6, 0xb3,
    0xb0, 0xbc, 0x4e, 0xb2, 0x3d, 0x3d, 0xc6, 0x34, 0x8a, 0x3d,
    0x99, 0x62, 0x7f, 0xbd, 0x0c, 0xf1, 0x26, 0xbe, 0xed, 0xbc,
    0x35, 0x3e, 0x85, 0x77, 0x7b, 0xbe, 0x75, 0xdf, 0xa1, 0x3d,
    0x50, 0x93, 0x06, 0xbe, 0xaf, 0x6c, 0x3a, 0x3e, 0xa1, 0xfc,
    0x19, 0xbe, 0x48, 0x60, 0x19, 0xbe, 0xa1, 0x2f, 0x6c, 0x3e,
    0x1e, 0xc4, 0xc2, 0x3c, 0xd2, 0x93, 0xc1, 0x3d, 0x58, 0x78,
    0x5e, 0x3d, 0x5e, 0x09, 0x4d, 0x3e, 0x52, 0x3d, 0x92, 0xbc,
    0x21, 0xb2, 0x84, 0xbd, 0x7f, 0xbf, 0x54, 0xbe, 0xf1, 0x5f,
    0x1c, 0x3e, 0x9b, 0xe2, 0xf8, 0x3d, 0x76, 0xe9, 0x1a, 0x3b,
    0x7e, 0x6f, 0x0f, 0x3d, 0x00, 0x08, 0xe3, 0xbc, 0xe8, 0x37,
    0x08, 0xbd, 0xee, 0x4a, 0x90, 0x3d, 0xc9, 0x55, 0x41, 0x3e,
    0x7f, 0xe3, 0x24, 0x3e, 0x3f, 0x07, 0x42, 0x3e, 0xc3, 0x27,
    0x2b, 0xbe, 0x46, 0xb7, 0xf7, 0x3d, 0x1e, 0xbf, 0xe7, 0xbc,
    0x93, 0xa2, 0x26, 0xbd, 0x93, 0xcc, 0xf9, 0x3b, 0xcb, 0xfd,
    0xf3, 0xbc, 0x21, 0x60, 0x72, 0x3e, 0x50, 0x45, 0x4d, 0xbd,
    0x9a, 0x82, 0x83, 0x3d, 0x1c, 0xc9, 0x0c, 0xbe, 0x65, 0xfc,
    0x5b, 0xbd, 0x62, 0x07, 0xef, 0x3d, 0x7a, 0x9e, 0x11, 0xbc,
    0x5d, 0xa3, 0xa5, 0x3d, 0xa5, 0x4a, 0x29, 0x3e, 0xbf, 0x01,
    0x12, 0x3e, 0x5d, 0x38, 0x00, 0xbe, 0xf8, 0xee, 0x82, 0x3c,
    0xf0, 0x5b, 0xb9, 0xbd, 0xb4, 0x1e, 0x17, 0x3e, 0xe6, 0xa9,
    0x73, 0xbd, 0x1a, 0x5e, 0xd4, 0xbd, 0x83, 0x91, 0x43, 0x3e,
    0x32, 0xe7, 0x70, 0x3e, 0x80, 0x24, 0x1c, 0xbe, 0x6c, 0xac,
    0x1d, 0xbe, 0xdf, 0x44, 0x72, 0xbe, 0x7e, 0xd6, 0x09, 0x3e,
    0x5b, 0x8e, 0xb3, 0x3d, 0xd1, 0xbf, 0xd3, 0xbd, 0xb6, 0x35,
    0x56, 0x3d, 0xdf, 0x97, 0x65, 0x3d, 0x28, 0xe0, 0x67, 0x3d,
    0x62, 0x63, 0xfb, 0xbd, 0x99, 0x87, 0x9f, 0xbd, 0xd4, 0x65,
    0x0a, 0x3e, 0x87, 0x5f, 0xaa, 0x3d, 0xe1, 0x22, 0x12, 0x3d,
    0x31, 0xaf, 0x49, 0x3c, 0xb1, 0x24, 0xb8, 0xbd, 0xe7, 0x99,
    0x42, 0x3e, 0x42, 0x25, 0x1e, 0xbe, 0x92, 0x62, 0xe6, 0x3b,
    0xc5, 0x6f, 0x27, 0x3e, 0xf3, 0xf4, 0x8f, 0x3a, 0xdb, 0xde,
    0xe8, 0xbd, 0xae, 0xa2, 0x4b, 0x3e, 0x69, 0x80, 0xd5, 0x3d,
    0x45, 0xaa, 0xce, 0xbd, 0x2a, 0x24, 0xa7, 0x3c, 0xdf, 0x76,
    0x82, 0x3d, 0xac, 0x3f, 0x24, 0x3e, 0xe9, 0xe7, 0xa1, 0x3d,
    0x73, 0x3f, 0x05, 0xbe, 0x8b, 0xaf, 0x32, 0x3e, 0x5c, 0x63,
    0x6c, 0xbd, 0xfe, 0xc5, 0xc3, 0x3d, 0xd8, 0xa7, 0x1f, 0x3d,
    0x72, 0x64, 0xaa, 0x3d, 0xa6, 0x7c, 0x6d, 0x3c, 0x09, 0x2a,
    0x9d, 0x3d, 0x25, 0xba, 0xab, 0x3b, 0x1c, 0xa6, 0xce, 0xbd,
    0x19, 0xa5, 0xbc, 0x3d, 0x6b, 0x45, 0x9e, 0x3c, 0x9e, 0x2c,
    0x59, 0x3e, 0xea, 0x01, 0x09, 0x3e, 0x27, 0x5b, 0xb1, 0xbd,
    0xac, 0xab, 0x2b, 0xbb, 0x25, 0xcb, 0xf8, 0x3d, 0xbf, 0x96,
    0x4d, 0x3e, 0xa0, 0x49, 0xff, 0xbd, 0xea, 0x59, 0x27, 0xbe,
    0x6e, 0x35, 0x7e, 0xbd, 0x1a, 0xf0, 0xab, 0x3d, 0x64, 0x9a,
    0x7a, 0x3e, 0x46, 0xfd, 0x56, 0xbe, 0xe2, 0x97, 0x10, 0xbd,
    0x0a, 0x37, 0x0d, 0x3e, 0x57, 0x61, 0x25, 0xbe, 0x46, 0x1c,
    0x52, 0x3e, 0x50, 0xdf, 0xae, 0x3c, 0xcf, 0x5c, 0xd6, 0x3b,
    0x9a, 0x34, 0x9b, 0x3d, 0xa2, 0x15, 0x37, 0x3d, 0x89, 0x8b,
    0xb5, 0xbd, 0x02, 0x7d, 0x7f, 0x3d, 0xaf, 0x36, 0x5d, 0x3d,
    0x20, 0xaa, 0x77, 0x3c, 0x2f, 0x7e, 0xa8, 0x3d, 0x23, 0x06,
    0x8d, 0x3d, 0xae, 0x48, 0x85, 0xbc, 0x50, 0xf0, 0x0b, 0x3e,
    0x9d, 0xbb, 0x58, 0x3d, 0x72, 0x22, 0x31, 0x3e, 0xc0, 0xcd,
    0x26, 0x3e, 0x41, 0xbb, 0xd2, 0xbd, 0xaa, 0x12, 0x03, 0xbe,
    0x70, 0x41, 0x79, 0xbc, 0x3e, 0x7a, 0x06, 0x3e, 0xd6, 0x2b,
    0xe6, 0xbd, 0x2b, 0x69, 0x61, 0xbe, 0x3f, 0x10, 0x05, 0xbd,
    0xb1, 0x7d, 0xb2, 0xbc, 0x4f, 0x67, 0xec, 0xbd, 0x69, 0x1c,
    0x3d, 0xbd, 0x69, 0xe6, 0x72, 0x3d, 0xa7, 0xa7, 0x17, 0xbe,
    0xf8, 0xb0, 0xb0, 0xbd, 0x34, 0x4e, 0x19, 0x3e, 0x7d, 0xbf,
    0x6a, 0xbd, 0xfe, 0x35, 0x9e, 0x3c, 0x53, 0xc3, 0x10, 0x3e,
    0xe3, 0xe4, 0xad, 0x3b, 0x25, 0xe6, 0xc5, 0xbd, 0x93, 0xa2,
    0x9c, 0x3d, 0x11, 0x3e, 0x9c, 0x3d, 0x88, 0xa1, 0x77, 0x3d,
    0x73, 0x7d, 0x56, 0xbd, 0xdd, 0xc7, 0x9b, 0x3c, 0x26, 0x1c,
    0x95, 0x3c, 0xbb, 0xb2, 0xc1, 0x3d, 0xb5, 0xca, 0x0e, 0xbe,
    0x32, 0x56, 0xf1, 0xbb, 0xc6, 0x55, 0xd2, 0xbd, 0xd7, 0xd7,
    0xd6, 0x3d, 0x53, 0x1f, 0x01, 0x3e, 0xba, 0x84, 0x69, 0x3e,
    0xb0, 0x3b, 0x9c, 0xbc, 0x3c, 0x0b, 0xf1, 0xbd, 0x60, 0xc0,
    0x90, 0x3d, 0xe3, 0x3f, 0x67, 0x3e, 0x09, 0xb1, 0x1e, 0xbc,
    0x40, 0x8d, 0x87, 0x3c, 0x9a, 0x21, 0x4c, 0xbd, 0xa4, 0xcd,
    0xee, 0xbd, 0x23, 0x89, 0x47, 0xbd, 0x49, 0xca, 0xc3, 0xbd,
    0x40, 0xce, 0xb5, 0x3b, 0xea, 0xcc, 0xbf, 0x3d, 0x56, 0x59,
    0xe4, 0xbd, 0x55, 0x58, 0x46, 0xbe, 0x63, 0xa5, 0xe5, 0xbd,
    0x4c, 0x32, 0x80, 0x3e, 0xc2, 0x67, 0xe2, 0x3d, 0x6a, 0xe5,
    0xbb, 0xbc, 0x94, 0x20, 0x10, 0xbd, 0x15, 0x9b, 0xcb, 0xbd,
    0x9e, 0xe4, 0xb8, 0x3c, 0xc3, 0x42, 0x86, 0xbd, 0x61, 0x50,
    0x28, 0x3d, 0xb2, 0x06, 0x55, 0x3e, 0xfb, 0x1c, 0xdd, 0xbd,
    0x33, 0xff, 0x3e, 0x3d, 0xb6, 0xae, 0xd6, 0x3d, 0x81, 0xba,
    0xb2, 0x3a, 0x02, 0x6c, 0x07, 0xbe, 0xcf, 0x34, 0xd9, 0x3d,
    0x61, 0x18, 0x4c, 0x3e, 0xe8, 0xe5, 0x64, 0xbe, 0x83, 0xa4,
    0xae, 0x3d, 0xd3, 0x55, 0x15, 0xbc, 0x7f, 0xb2, 0xed, 0x3d,
    0x55, 0x39, 0x32, 0x3d, 0xd4, 0x4d, 0x89, 0xbd, 0x1a, 0x20,
    0xaf, 0xbd, 0x16, 0x7f, 0x68, 0xbd, 0x26, 0xea, 0x14, 0xbd,
    0x45, 0x57, 0x0d, 0xbe, 0xf1, 0xbe, 0xe1, 0xbd, 0xd6, 0x04,
    0x21, 0xbc, 0x6a, 0x1c, 0xe1, 0x3d, 0x90, 0x57, 0x38, 0x3e,
    0x3b, 0xe1, 0xc1, 0x3d, 0x82, 0xc1, 0x0a, 0x3e, 0x4c, 0xde,
    0xc9, 0x3d, 0xba, 0xeb, 0x68, 0xbd, 0x5a, 0x24, 0x92, 0x3d,
    0x47, 0xae, 0x1a, 0x3c, 0x6f, 0xb2, 0x6f, 0x3e, 0xd1, 0x8f,
    0x1c, 0xbc, 0xa5, 0xc7, 0x5a, 0x3d, 0x5d, 0xe3, 0x7f, 0x3c,
    0x24, 0x15, 0x61, 0xbd, 0xd8, 0xac, 0x3e, 0xbd, 0x56, 0x27,
    0xbd, 0xbd, 0x6f, 0xe1, 0x3d, 0xbc, 0x78, 0x1d, 0x7e, 0x3d,
    0xa0, 0xdf, 0x02, 0x3e, 0xec, 0x3d, 0x1b, 0x3d, 0x57, 0x64,
    0x25, 0xbe, 0xe7, 0xb3, 0x80, 0xbe, 0xc8, 0x4b, 0xac, 0x3d,
    0x6b, 0xbf, 0x9a, 0x3d, 0x64, 0x84, 0x4f, 0x3e, 0x5e, 0x43,
    0xc6, 0xbd, 0xed, 0xe0, 0xec, 0xbc, 0x06, 0x47, 0x2c, 0x3d,
    0x82, 0xda, 0x05, 0xbe, 0x8d, 0xe7, 0x4f, 0xbe, 0x8d, 0xb6,
    0x79, 0xbd, 0xca, 0x9c, 0x47, 0xbd, 0xb1, 0x9d, 0x96, 0x3b,
    0xf0, 0x95, 0x14, 0xbd, 0xa6, 0x41, 0x07, 0x3e, 0xc1, 0x18,
    0x12, 0x3e, 0x8b, 0x8d, 0x23, 0xbe, 0x00, 0xfd, 0x25, 0xbe,
    0x1a, 0x64, 0xee, 0xbd, 0xf9, 0x2b, 0x81, 0x3d, 0x52, 0x27,
    0xbf, 0xbd, 0x48, 0xa9, 0x89, 0xbe, 0xa7, 0xb6, 0x77, 0x3c,
    0xf0, 0x37, 0xe7, 0xbd, 0xfe, 0xf1, 0x52, 0xbd, 0x5d, 0x94,
    0xfa, 0x3b, 0x9c, 0x10, 0xe3, 0x3d, 0xd5, 0xeb, 0x24, 0x3e,
    0x5f, 0xc8, 0xe3, 0x3d, 0xa3, 0x16, 0x19, 0x3e, 0x6a, 0x97,
    0x08, 0x3e, 0x3b, 0xf9, 0xad, 0x3d, 0xb7, 0x67, 0xca, 0x3c,
    0x9a, 0x8c, 0x54, 0xbe, 0x37, 0xe8, 0x3e, 0x3e, 0x30, 0x29,
    0x78, 0xbc, 0xe3, 0x89, 0x81, 0x3c, 0x33, 0x38, 0xdc, 0xbd,
    0x0d, 0xe2, 0x20, 0x3e, 0x5e, 0xb3, 0x33, 0x3e, 0xe5, 0x86,
    0x58, 0xbb, 0x1d, 0xfc, 0x24, 0x3e, 0xb4, 0x8b, 0x28, 0xbe,
    0xf9, 0xd9, 0xc3, 0x3d, 0x50, 0x1a, 0x08, 0xbe, 0x68, 0x1c,
    0x8c, 0xbd, 0x59, 0x85, 0xdf, 0xbd, 0x43, 0xe1, 0x5e, 0xbd,
    0x8a, 0x15, 0xab, 0x3d, 0xee, 0x80, 0x18, 0xbe, 0x8b, 0xa0,
    0x28, 0x3e, 0xe6, 0xbb, 0xdb, 0x3c, 0x65, 0x26, 0xd0, 0x3d,
    0x73, 0x97, 0xee, 0x3d, 0x52, 0x90, 0xf9, 0x3d, 0xb0, 0x54,
    0x72, 0xbd, 0x5a, 0x11, 0x08, 0x3e, 0xa9, 0xf1, 0xfc, 0x3d,
    0xf0, 0x7d, 0x4d, 0x3e, 0xf9, 0x6f, 0x62, 0x3d, 0x8c, 0x7d,
    0xd1, 0x3d, 0xf3, 0x53, 0x0f, 0xbc, 0x2c, 0x87, 0x05, 0x3e,
    0x5d, 0x2b, 0x0b, 0xbe, 0x36, 0xa3, 0xe7, 0xbc, 0x4b, 0x2f,
    0xa1, 0xbd, 0x4a, 0x1e, 0x2a, 0x3e, 0x2a, 0xf4, 0xea, 0x3d,
    0x6e, 0xb0, 0x8f, 0xbd, 0xf8, 0x4f, 0xce, 0xbd, 0x22, 0xf7,
    0x20, 0x3e, 0xf1, 0x1b, 0x11, 0x3e, 0xc9, 0x30, 0xaf, 0x3c,
    0x6c, 0x13, 0x6b, 0xbd, 0x06, 0x83, 0x13, 0xbd, 0x51, 0x17,
    0xda, 0xbc, 0xa8, 0xe6, 0x58, 0xbd, 0xa3, 0x25, 0x47, 0xbd,
    0xf8, 0xb4, 0xae, 0xbd, 0xc8, 0xad, 0xe4, 0x3d, 0xaa, 0x98,
    0xba, 0xbd, 0xf8, 0xa6, 0x32, 0x3e, 0x91, 0x83, 0xf7, 0xbc,
    0x96, 0x71, 0x9e, 0xbd, 0xbb, 0x06, 0x70, 0x3c, 0xec, 0xea,
    0x25, 0x3c, 0x6e, 0x3e, 0x99, 0xbd, 0xf3, 0x7d, 0x58, 0x3e,
    0x06, 0x13, 0xda, 0xbd, 0xae, 0x4d, 0xb5, 0xbc, 0xc8, 0x99,
    0x27, 0x3e, 0x61, 0xd0, 0x15, 0xbe, 0x58, 0xc1, 0xd7, 0xbd,
    0x72, 0xeb, 0x7d, 0xbd, 0x2c, 0x17, 0x21, 0x3c, 0x98, 0xbb,
    0x9d, 0xbc, 0xdb, 0x3a, 0xcc, 0x3c, 0x13, 0x73, 0x9d, 0x3d,
    0xd3, 0xd5, 0x66, 0xbc, 0x01, 0x2a, 0x52, 0x3e, 0x20, 0xc6,
    0xa2, 0xbd, 0x75, 0x8a, 0x97, 0xbd, 0x35, 0xd6, 0x48, 0x3c,
    0xad, 0x3c, 0xdf, 0xbd, 0x63, 0xf3, 0x03, 0xbd, 0xc4, 0x26,
    0xbf, 0xbd, 0x17, 0xdb, 0xa5, 0x3d, 0xe9, 0x88, 0xe8, 0x3d,
    0x3e, 0xab, 0xb2, 0xbd, 0xf7, 0x47, 0x86, 0x3d, 0xe5, 0xfe,
    0x55, 0x3e, 0xa9, 0x18, 0x35, 0xbd, 0x1a, 0xce, 0xf2, 0x3d,
    0x4c, 0xed, 0xef, 0x3c, 0x5c, 0x5f, 0x2d, 0x3d, 0x7c, 0xe8,
    0x7d, 0x3d, 0xf2, 0xa5, 0x0b, 0x3d, 0xb1, 0x09, 0x18, 0xbe,
    0xec, 0x65, 0x38, 0xbd, 0x0d, 0xff, 0xe6, 0xbd, 0xe0, 0x23,
    0x39, 0xbe, 0x79, 0xd5, 0x7c, 0x3e, 0xa5, 0x95, 0x81, 0x3d,
    0xb1, 0x0e, 0x5e, 0x3e, 0xc2, 0x81, 0x8a, 0xbd, 0x6f, 0x27,
    0x15, 0xbd, 0x18, 0xdc, 0x4f, 0x3e, 0x28, 0x2a, 0x66, 0x3e,
    0xa6, 0x53, 0x46, 0x3e, 0x16, 0xb1, 0x31, 0x3e, 0x34, 0xe1,
    0x33, 0x3d, 0xd3, 0x0b, 0xfb, 0xbb, 0x1b, 0x32, 0x6f, 0x3d,
    0x10, 0x78, 0xb7, 0x3c, 0x22, 0x4b, 0x0d, 0x3e, 0x26, 0x5b,
    0x12, 0xbe, 0x6d, 0x1d, 0x00, 0x3e, 0x6d, 0xc5, 0x0c, 0xbe,
    0x99, 0xea, 0x78, 0xbd, 0x9d, 0x85, 0x28, 0xbc, 0xe8, 0x71,
    0x3c, 0x3e, 0x1f, 0xaf, 0x22, 0xbe, 0x08, 0xda, 0x1a, 0x3e,
    0x33, 0x24, 0x0e, 0x3d, 0xb0, 0x71, 0x34, 0xbe, 0x3f, 0xbf,
    0x16, 0x3c, 0x01, 0x5d, 0x73, 0x3d, 0xd3, 0x14, 0x21, 0xbd,
    0x99, 0x83, 0xba, 0x3b, 0x7c, 0xae, 0x22, 0x3c, 0x3f, 0x8a,
    0xb5, 0xbb, 0xf9, 0x2e, 0x47, 0x3d, 0xa5, 0x26, 0x15, 0x3c,
    0x48, 0x7d, 0xb2, 0x3c, 0xb0, 0xa3, 0x31, 0x3d, 0xac, 0xa0,
    0x03, 0x3c, 0x5c, 0x9f, 0x9a, 0x3b, 0xf0, 0x57, 0xab, 0xbb,
    0x3a, 0xf1, 0xc5, 0x3b, 0x52, 0x69, 0xe0, 0x3c, 0x3a, 0x5f,
    0x29, 0x3d, 0x0d, 0xc2, 0x26, 0xbd, 0xf4, 0x56, 0x9f, 0x3c,
    0x3c, 0xbb, 0x1a, 0xbd, 0x36, 0x3d, 0xd1, 0xbd, 0x80, 0x93,
    0x44, 0xbd, 0xfc, 0x43, 0x60, 0x3b, 0x89, 0xcb, 0xdd, 0xbd,
    0x2c, 0x36, 0x94, 0xbd, 0xaa, 0x9b, 0x28, 0x3d, 0x90, 0x78,
    0x0c, 0xbc, 0xb8, 0x9f, 0x95, 0xbd, 0x48, 0x60, 0x99, 0x3d,
    0x82, 0x77, 0xc8, 0x3d, 0x49, 0x87, 0x96, 0x3c, 0xb0, 0x98,
    0x94, 0x3d, 0x90, 0x1e, 0xa6, 0xbc, 0x7b, 0x56, 0x35, 0x3d,
    0x55, 0x44, 0x86, 0xbd, 0x54, 0xbe, 0x67, 0x3c, 0x8c, 0xa2,
    0xa2, 0x3c, 0xf1, 0xe9, 0x77, 0xbc, 0xe7, 0x6c, 0x59, 0xbc,
    0x30, 0xe0, 0x7d, 0x39, 0x37, 0xff, 0xf5, 0xbd, 0x41, 0x5c,
    0x48, 0xbd, 0x23, 0x07, 0x67, 0x3c, 0x09, 0x9a, 0x2a, 0xbd,
    0xd4, 0xbf, 0x24, 0x3d, 0xdf, 0x1a, 0x4f, 0xbd, 0xe0, 0x23,
    0x27, 0xbc, 0x36, 0x69, 0xb6, 0x3b, 0x6c, 0x0d, 0x88, 0x3c,
    0xa3, 0x5c, 0x79, 0x3d, 0x26, 0x14, 0xea, 0xbd, 0x62, 0x9d,
    0x91, 0xbd, 0x1e, 0x86, 0x11, 0x3d, 0x19, 0x24, 0xeb, 0xbd,
    0x3a, 0x2e, 0xc1, 0xbb, 0xce, 0x70, 0x7b, 0xbd, 0x83, 0x6b,
    0x57, 0xbc, 0xd2, 0xb6, 0x75, 0xbd, 0x40, 0xdb, 0x89, 0x3d,
    0x8a, 0x9f, 0xa5, 0x3d, 0x6b, 0x3c, 0x60, 0xbc, 0xb9, 0x2c,
    0x8c, 0x3d, 0xca, 0xe7, 0x28, 0x3d, 0x14, 0x67, 0x5c, 0x3c,
    0x40, 0x7c, 0x22, 0x3d, 0x2d, 0xd8, 0x3c, 0x3d, 0x1d, 0x81,
    0x4f, 0xbd, 0xc2, 0xd9, 0xbf, 0xbd, 0x15, 0x18, 0xc8, 0xbd,
    0x75, 0xa2, 0x97, 0xbd, 0x76, 0x59, 0xd0, 0x3c, 0xd8, 0xd0,
    0xc5, 0x3d, 0x7a, 0x36, 0x07, 0xbe, 0xca, 0x0b, 0x0e, 0xbc,
    0x8e, 0xe4, 0x02, 0xbe, 0x07, 0xc6, 0x16, 0x3d, 0x66, 0x2e,
    0x89, 0x3d, 0x1e, 0x53, 0x91, 0xbd, 0x51, 0x57, 0xc9, 0xbd,
    0xdd, 0x28, 0x22, 0x3b, 0x2d, 0xf8, 0xee, 0xbd, 0x79, 0xbe,
    0x84, 0xbd, 0x00, 0x20, 0x22, 0x3d, 0x7e, 0x70, 0xd1, 0x3b,
    0x52, 0x11, 0x64, 0x3d, 0x98, 0x78, 0x8e, 0x3b, 0x1d, 0x9c,
    0x9b, 0x3d, 0x09, 0xce, 0xc3, 0xbd, 0x04, 0xf5, 0xc9, 0xbd,
    0xa8, 0x69, 0xb5, 0x3d, 0x11, 0x09, 0x24, 0xbc, 0x69, 0xb2,
    0xc6, 0xbd, 0x08, 0x03, 0xf9, 0xbc, 0xf4, 0x6e, 0xbd, 0x3c,
    0xd9, 0xe0, 0xc1, 0x3d, 0x70, 0x6d, 0x3c, 0xbd, 0xd7, 0x76,
    0xa5, 0xbd, 0x4e, 0xed, 0xe5, 0xbd, 0x0a, 0x25, 0xf5, 0xbd,
    0x6d, 0x0f, 0xe4, 0xbc, 0xc2, 0xb2, 0x82, 0xbd, 0xfe, 0x3a,
    0xe5, 0xbd, 0x58, 0x30, 0xad, 0xbc, 0xd0, 0x27, 0xef, 0xb9,
    0x9c, 0x84, 0x93, 0x3d, 0xbf, 0x58, 0xd4, 0xbd, 0xbe, 0xdc,
    0x56, 0xbd, 0x1b, 0xc3, 0x96, 0xbd, 0xdf, 0x77, 0xed, 0xbd,
    0x09, 0x76, 0x6d, 0xbd, 0x5f, 0xba, 0x45, 0x3d, 0x90, 0xad,
    0x46, 0x3d, 0xbf, 0x20, 0xee, 0x3d, 0x2a, 0x5e, 0x46, 0x3d,
    0xb4, 0xa5, 0x68, 0xbb, 0x9a, 0x0b, 0xae, 0xbd, 0x20, 0x01,
    0xd3, 0xbb, 0x59, 0x81, 0x6d, 0x3d, 0x30, 0x86, 0x8b, 0xbd,
    0xf1, 0x7b, 0xc5, 0x3c, 0xcb, 0x5f, 0x7d, 0xbd, 0xfa, 0x57,
    0x21, 0xbd, 0x99, 0x7d, 0xa3, 0x3d, 0x78, 0x71, 0x0b, 0xbd,
    0xb4, 0x1f, 0xd2, 0x3c, 0x9f, 0x78, 0x18, 0x3b, 0x62, 0xb1,
    0x94, 0xbd, 0x08, 0x44, 0xee, 0x3b, 0x98, 0xb2, 0x4d, 0x3d,
    0x69, 0xe5, 0xd8, 0xbd, 0x02, 0x6b, 0xe2, 0x3b, 0x69, 0x79,
    0xaa, 0x3d, 0xfb, 0xf6, 0x7c, 0x3d, 0x7d, 0x1e, 0x01, 0x3d,
    0xeb, 0x89, 0xbf, 0xbd, 0xe1, 0xd3, 0x3e, 0x3d, 0x6a, 0xc5,
    0x67, 0x3d, 0x9f, 0x62, 0x8d, 0x3d, 0xa1, 0xd0, 0xb8, 0xbc,
    0xae, 0xff, 0x93, 0x3d, 0x57, 0xb8, 0xb4, 0xbd, 0x33, 0xde,
    0xd1, 0x3d, 0x3d, 0x48, 0x5a, 0xbd, 0x67, 0xc9, 0x1d, 0x3d,
    0xb6, 0xe6, 0xf6, 0x3c, 0x19, 0x8b, 0xfb, 0xbd, 0x8e, 0x36,
    0x80, 0xbc, 0x14, 0x54, 0x85, 0xbd, 0x78, 0x20, 0x92, 0xbd,
    0x91, 0xfe, 0xd3, 0x3d, 0xe4, 0x99, 0xed, 0xbd, 0x9c, 0x05,
    0xbf, 0xbc, 0xf4, 0x44, 0x6f, 0x3d, 0x7d, 0xa7, 0x33, 0x3d,
    0xdd, 0xd2, 0x46, 0x3c, 0xc5, 0xc8, 0xb3, 0xbd, 0x37, 0xaa,
    0x86, 0xbc, 0xb3, 0xbb, 0x94, 0x3b, 0x82, 0x2b, 0x80, 0x3d,
    0x10, 0x20, 0xcc, 0x3b, 0x5b, 0x97, 0x28, 0xbd, 0x2a, 0x52,
    0x2b, 0x3c, 0xe5, 0xab, 0xb5, 0x3d, 0x61, 0x3d, 0xa2, 0x3c,
    0xf2, 0x58, 0xaf, 0xbd, 0x1f, 0xb1, 0x53, 0x3d, 0x8e, 0x32,
    0x58, 0xbd, 0xfa, 0x13, 0x4e, 0xbc, 0xe8, 0x76, 0xf8, 0x3d,
    0x72, 0x53, 0x85, 0x3d, 0x82, 0x19, 0x95, 0x3d, 0x53, 0xb5,
    0x16, 0xbc, 0x74, 0x29, 0x95, 0xbd, 0x9d, 0xa9, 0xc8, 0xbc,
    0xcb, 0x66, 0xbd, 0x3c, 0xfe, 0x18, 0x49, 0xbd, 0xae, 0x25,
    0xe0, 0x3c, 0x57, 0x40, 0x8e, 0x3d, 0x57, 0xbe, 0x72, 0xbd,
    0xc2, 0x52, 0xcf, 0xbc, 0x5e, 0x56, 0x3c, 0x3b, 0xcc, 0xbc,
    0x88, 0xbd, 0xba, 0xcd, 0x02, 0xbd, 0xfa, 0xef, 0x97, 0x3c,
    0x25, 0xbf, 0x19, 0xbe, 0x13, 0xbc, 0x0a, 0x3e, 0x2b, 0x72,
    0xa5, 0xbb, 0x2b, 0xa4, 0x35, 0xbe, 0xea, 0xb2, 0x6e, 0x3d,
    0x85, 0xe1, 0xe7, 0x3d, 0x61, 0x85, 0x19, 0xbd, 0xf5, 0x8f,
    0xb5, 0xbd, 0x41, 0xc8, 0x03, 0x3d, 0x85, 0x1b, 0x37, 0x3d,
    0x6a, 0x39, 0x99, 0xbb, 0x80, 0x5d, 0x9f, 0xbc, 0xd1, 0x0d,
    0x02, 0x3d, 0x69, 0x9f, 0xbf, 0xbd, 0xbc, 0xc2, 0xf7, 0x3d,
    0x1c, 0xcd, 0xea, 0xbd, 0x6d, 0x8b, 0xd0, 0xbd, 0xd6, 0x86,
    0xa4, 0xbd, 0x5f, 0x5d, 0x46, 0xbd, 0xac, 0x78, 0x8f, 0x3d,
    0x6d, 0xdb, 0xb9, 0xbd, 0xed, 0x83, 0xee, 0x3d, 0x1d, 0x92,
    0xe4, 0xbd, 0x58, 0x2c, 0x77, 0xbd, 0x05, 0x36, 0x87, 0xbd,
    0xd2, 0x6b, 0x1f, 0xba, 0x2e, 0x96, 0xf9, 0xbc, 0x16, 0x75,
    0x81, 0xbd, 0x5c, 0x9b, 0xd4, 0xba, 0x91, 0x34, 0x04, 0xbd,
    0x69, 0x5b, 0x67, 0x3c, 0x41, 0xfe, 0x48, 0x3d, 0x4e, 0x8c,
    0x52, 0x3d, 0x9a, 0x41, 0xf6, 0xbd, 0x3e, 0x8a, 0x37, 0xbd,
    0x30, 0x00, 0xc5, 0x3c, 0x17, 0x8d, 0xcc, 0xbd, 0x5d, 0xbe,
    0x10, 0xbd, 0x1e, 0x76, 0x84, 0x3d, 0xbe, 0x5a, 0xe7, 0x3d,
    0xb8, 0x3a, 0x37, 0x3c, 0x3c, 0xba, 0xe2, 0xbd, 0x55, 0x19,
    0xd5, 0xbd, 0x75, 0xaf, 0x98, 0x3d, 0x14, 0xfe, 0x06, 0xbe,
    0x87, 0x24, 0x88, 0x3d, 0x22, 0x18, 0x24, 0xbe, 0x2a, 0xc4,
    0x95, 0xbd, 0x7c, 0x7f, 0xbe, 0xbd, 0xe3, 0x6d, 0x87, 0xbd,
    0xfd, 0xb3, 0x05, 0xbd, 0x19, 0xe7, 0x0b, 0xbe, 0x78, 0xa3,
    0x8d, 0xb8, 0x68, 0xd7, 0x45, 0xbd, 0x14, 0x1f, 0xc1, 0xbd,
    0xb3, 0x1e, 0xd2, 0x3d, 0x50, 0xd2, 0xec, 0xbd, 0xb7, 0xdb,
    0xc9, 0x3d, 0x20, 0xac, 0x48, 0xbd, 0x83, 0x2c, 0x17, 0x3e,
    0xf7, 0x9b, 0xd9, 0x3d, 0xb0, 0xfe, 0x18, 0x3e, 0xa9, 0xc6,
    0xa4, 0x3c, 0x1b, 0xfe, 0x13, 0xbd, 0xa1, 0x0b, 0x58, 0x3d,
    0xb0, 0xd2, 0x9c, 0xbd, 0xdc, 0x68, 0xef, 0xb8, 0x64, 0xc6,
    0x36, 0x3c, 0xb2, 0xac, 0xa2, 0xbd, 0x00, 0x50, 0xd0, 0x3c,
    0x35, 0x85, 0xec, 0xbd, 0xb6, 0x62, 0x20, 0x3d, 0x28, 0xab,
    0x6d, 0xbd, 0x24, 0x5c, 0x8f, 0x3d, 0xad, 0x7b, 0xaf, 0xbd,
    0x1b, 0x63, 0x92, 0x3d, 0x8a, 0xf8, 0xee, 0x3d, 0x28, 0x83,
    0xa3, 0xbd, 0x45, 0x88, 0x01, 0xbe, 0x38, 0x3d, 0x8e, 0xbd,
    0x38, 0xbb, 0xa0, 0x3d, 0x62, 0x85, 0xaf, 0x3d, 0xd4, 0xe7,
    0xce, 0xbd, 0xef, 0x4c, 0x24, 0x3d, 0x1f, 0xb1, 0xb5, 0x3c,
    0x7d, 0xb9, 0x92, 0xbd, 0x48, 0xe2, 0x58, 0xbd, 0xb3, 0x40,
    0x30, 0x3d, 0x2f, 0x22, 0x4b, 0x3d, 0xad, 0xc5, 0x14, 0x3d,
    0x95, 0x97, 0xff, 0xbd, 0xaa, 0x6c, 0xeb, 0x3c, 0x36, 0x11,
    0x8e, 0x3c, 0xc2, 0x4b, 0xae, 0x3d, 0xe5, 0xfd, 0x18, 0x3d,
    0x62, 0x02, 0x0f, 0xbe, 0x56, 0x34, 0x96, 0xbd, 0x2b, 0xbc,
    0x10, 0x3e, 0xa7, 0x6d, 0xf9, 0xbc, 0x6d, 0x31, 0x0b, 0x3e,
    0x84, 0x77, 0xe8, 0x3b, 0x0c, 0x14, 0xad, 0xbb, 0xbf, 0xf7,
    0xe6, 0x3d, 0x8d, 0x71, 0x6c, 0x3d, 0x11, 0xe4, 0xaa, 0xbc,
    0x9b, 0x3a, 0x95, 0x3d, 0xb8, 0x4b, 0xcc, 0x3d, 0x0d, 0x38,
    0xa6, 0x3d, 0x4d, 0x37, 0x1f, 0xbd, 0x02, 0x6a, 0x47, 0x3d,
    0xe0, 0x71, 0xc2, 0x3d, 0x00, 0xab, 0x4a, 0xbd, 0x9d, 0x72,
    0x1e, 0x3e, 0xdf, 0x89, 0xc6, 0x3c, 0xbb, 0x9f, 0xc0, 0x3d,
    0x14, 0x3f, 0x26, 0x3e, 0x02, 0xb3, 0x06, 0x3e, 0x37, 0x08,
    0xd9, 0x3d, 0x0e, 0xf1, 0x86, 0xbc, 0x7f, 0x26, 0x94, 0x3d,
    0xad, 0x63, 0xa6, 0x3b, 0x3e, 0x8e, 0x62, 0x3d, 0xdf, 0x5a,
    0xd0, 0xbd, 0x7d, 0x57, 0xf5, 0x3d, 0xd6, 0xba, 0x96, 0x3d,
    0x7c, 0x94, 0x8e, 0x3d, 0xeb, 0xda, 0xe0, 0x3d, 0x36, 0x9d,
    0x30, 0x3d, 0x8d, 0xe6, 0x43, 0xbd, 0x47, 0xe1, 0x55, 0x3d,
    0x0b, 0xf9, 0x79, 0xbb, 0xbd, 0x56, 0x01, 0x3d, 0xaf, 0x6e,
    0xad, 0xbb, 0x1a, 0x26, 0x30, 0x3d, 0x7b, 0x94, 0xda, 0x3d,
    0x57, 0x1b, 0x2a, 0xbc, 0xcf, 0x62, 0x4e, 0xbd, 0xfa, 0x45,
    0x81, 0x3c, 0x17, 0xeb, 0x28, 0xbd, 0xed, 0x5d, 0x87, 0xbd,
    0xda, 0x4c, 0x8c, 0xbc, 0x70, 0xe7, 0xc8, 0xbb, 0xd2, 0xe9,
    0x83, 0xbd, 0xe8, 0xa1, 0x61, 0xbd, 0x60, 0xe9, 0x8c, 0x3d,
    0xa8, 0xde, 0x6a, 0xbd, 0xdc, 0x03, 0x96, 0xbd, 0x90, 0x6d,
    0x00, 0xbd, 0xa9, 0x01, 0x9b, 0xbd, 0xb1, 0x45, 0x44, 0x3d,
    0x7c, 0xf2, 0xb0, 0x3d, 0xb2, 0x40, 0xa1, 0x3d, 0x4f, 0xf8,
    0xa4, 0x3d, 0xa6, 0x53, 0x4a, 0x3c, 0xc6, 0xa6, 0xa4, 0xbd,
    0xc9, 0xee, 0x3b, 0xbd, 0xb2, 0x98, 0xd1, 0xbd, 0x17, 0x95,
    0x2e, 0xbd, 0xc1, 0xf2, 0xd6, 0xbc, 0xfc, 0xa2, 0xc1, 0xbc,
    0xf2, 0x94, 0x32, 0xbe, 0xe2, 0x7d, 0x44, 0xbe, 0xae, 0x51,
    0xa3, 0x3d, 0x76, 0xcf, 0x33, 0x3d, 0x74, 0xb2, 0x90, 0xbd,
    0x31, 0x4b, 0xba, 0xbc, 0xf9, 0xbc, 0xd7, 0xbd, 0xbc, 0xf7,
    0xc1, 0x3c, 0x32, 0x5a, 0xd5, 0xbd, 0x58, 0xea, 0x93, 0x3d,
    0x01, 0x2a, 0x4e, 0xbc, 0xdf, 0xdb, 0xec, 0xbd, 0x62, 0x6e,
    0x92, 0xbd, 0x3c, 0xf5, 0x7a, 0x3d, 0xff, 0x98, 0x09, 0xbc,
    0x4b, 0x24, 0xb6, 0x3c, 0x4c, 0xa9, 0x82, 0xbd, 0x2e, 0x65,
    0x46, 0x3d, 0x6c, 0x58, 0x19, 0x3d, 0xf1, 0x95, 0x81, 0xbd,
    0x67, 0x7e, 0xdf, 0x3c, 0x3c, 0x30, 0xdb, 0x3d, 0x02, 0x82,
    0x83, 0xbc, 0x57, 0xf3, 0x83, 0x3d, 0xb9, 0x2c, 0x4e, 0x3d,
    0xb7, 0x2c, 0x8d, 0xbd, 0x51, 0xe7, 0xe1, 0x3d, 0x3f, 0x81,
    0x2d, 0xbd, 0x3c, 0xb9, 0xe4, 0x3d, 0xaf, 0x3d, 0xcb, 0x3d,
    0x56, 0x84, 0xd4, 0xbd, 0x48, 0x55, 0xe6, 0xbc, 0x98, 0x0d,
    0xe0, 0x3d, 0xd5, 0x02, 0x43, 0x3d, 0x18, 0x0c, 0xa1, 0x3c,
    0x76, 0x4e, 0x16, 0x3a, 0xfb, 0x4e, 0xab, 0xbd, 0xea, 0xa0,
    0x09, 0xbd, 0x19, 0xfa, 0xd7, 0x3d, 0xb3, 0x42, 0xb8, 0x3d,
    0x20, 0x54, 0xe9, 0x3d, 0xd7, 0x25, 0x80, 0x3d, 0x61, 0x26,
    0x40, 0x3d, 0x6d, 0x2c, 0xa1, 0x3c, 0xa5, 0x58, 0xde, 0xbd,
    0x7d, 0x81, 0x83, 0xbd, 0xeb, 0x3c, 0xbc, 0xbd, 0xbc, 0xf3,
    0x85, 0x3d, 0x31, 0x25, 0x01, 0xbd, 0xcb, 0x16, 0xb5, 0xbd,
    0xfb, 0x8a, 0xc8, 0xbc, 0x88, 0x7a, 0x1f, 0xbd, 0xc0, 0x3d,
    0xb9, 0x3c, 0x61, 0xf2, 0x9e, 0xbd, 0x20, 0x36, 0xe8, 0xbc,
    0xbb, 0x4a, 0xb9, 0xbc, 0x43, 0xc4, 0x0e, 0x3e, 0x43, 0x2e,
    0xb7, 0xbd, 0x26, 0xdc, 0x84, 0xbc, 0xa6, 0x5b, 0xfb, 0xbc,
    0x23, 0xb7, 0xe6, 0xbd, 0xcd, 0x17, 0xea, 0xbd, 0xbb, 0x3c,
    0xd6, 0xbd, 0x22, 0x6e, 0x72, 0x3a, 0xe7, 0x5f, 0x4b, 0x3d,
    0x20, 0x44, 0xb9, 0x3d, 0xf8, 0xbf, 0x39, 0xbd, 0x51, 0x52,
    0xe8, 0x3c, 0x62, 0xb3, 0x89, 0xbd, 0xf0, 0x39, 0x08, 0xbd,
    0x22, 0x85, 0x15, 0x3e, 0xd8, 0xfc, 0x9a, 0xbc, 0x94, 0xf3,
    0x85, 0x3d, 0xa9, 0xfd, 0xce, 0x3d, 0xc7, 0x77, 0x1e, 0xbd,
    0xfd, 0x56, 0xff, 0x3d, 0xa5, 0x5b, 0x9e, 0xbc, 0xcf, 0x7e,
    0xe5, 0x3d, 0x61, 0x6f, 0xa2, 0xbd, 0x80, 0x92, 0xae, 0xbd,
    0x68, 0xff, 0xfa, 0xbc, 0x39, 0x7a, 0xed, 0xbc, 0x4a, 0xb4,
    0xc4, 0x3d, 0xb4, 0x0a, 0x76, 0xbd, 0x1e, 0x80, 0x9d, 0xbd,
    0x61, 0x48, 0x04, 0xbd, 0xf4, 0x74, 0x2a, 0xbe, 0x21, 0x3e,
    0x48, 0xbd, 0xda, 0x15, 0xd3, 0x3d, 0x96, 0x27, 0xc3, 0x3b,
    0x03, 0x34, 0xde, 0xbd, 0x8d, 0x8c, 0x39, 0x3c, 0x73, 0x83,
    0xba, 0xbc, 0x01, 0xcc, 0x32, 0xbd, 0x2c, 0xba, 0x63, 0x3d,
    0xc4, 0x67, 0x10, 0xbd, 0x6d, 0x00, 0x03, 0xbd, 0xb0, 0x78,
    0x8e, 0x3d, 0x7f, 0xec, 0x55, 0x3d, 0x4a, 0xcf, 0xdc, 0xbc,
    0xdb, 0x3a, 0x67, 0xbd, 0x1e, 0xb0, 0x43, 0x3d, 0x4f, 0x54,
    0x94, 0xbd, 0x1b, 0xfc, 0xe0, 0x3d, 0x4d, 0x7f, 0xb3, 0x3d,
    0x4b, 0x00, 0x09, 0xbd, 0x4b, 0x3e, 0xd1, 0x3d, 0xfa, 0x7f,
    0x5b, 0x3d, 0x4e, 0x62, 0x08, 0xbc, 0x8f, 0x31, 0x6b, 0x3c,
    0x50, 0x48, 0x07, 0x3d, 0xaa, 0x82, 0x35, 0x3d, 0x77, 0x96,
    0x8a, 0xbd, 0x56, 0x59, 0x84, 0x3d, 0xb6, 0x06, 0xbe, 0xbd,
    0xb2, 0x8c, 0x19, 0x3d, 0x99, 0x72, 0x75, 0x3d, 0xbf, 0xf6,
    0x83, 0x3d, 0xbe, 0x76, 0xac, 0xbd, 0xd9, 0xc9, 0x48, 0xbd,
    0x8f, 0xc7, 0xae, 0xbc, 0xa4, 0x44, 0x91, 0x3d, 0x62, 0x01,
    0xce, 0x3c, 0x64, 0xef, 0xa7, 0xbd, 0x51, 0x34, 0x56, 0xbd,
    0xff, 0xb9, 0xcf, 0xbd, 0x87, 0x69, 0xe7, 0x3c, 0xcb, 0x6d,
    0xe0, 0x3d, 0xe0, 0x42, 0x85, 0x3d, 0x35, 0xf2, 0xc7, 0xbd,
    0x35, 0x21, 0xb4, 0xbd, 0xea, 0x2c, 0x1b, 0xbd, 0x08, 0xe0,
    0x03, 0x3e, 0x50, 0xa7, 0xcc, 0xbd, 0x90, 0x84, 0x14, 0x3e,
    0x1a, 0xe1, 0x8e, 0x3d, 0xea, 0x13, 0xe5, 0x3b, 0x79, 0x2b,
    0xa0, 0xbd, 0x3d, 0x3c, 0xb2, 0x3d, 0x2b, 0x7e, 0xc7, 0xbd,
    0x98, 0xaf, 0x11, 0x3e, 0x86, 0x0a, 0x64, 0x3d, 0x27, 0x72,
    0xaf, 0xbd, 0x4e, 0x51, 0xff, 0x3c, 0xdd, 0x4b, 0xd3, 0xbd,
    0x70, 0x0e, 0x55, 0x3c, 0xe8, 0xf5, 0xb5, 0x3d, 0xc8, 0xc3,
    0xeb, 0x3d, 0xdd, 0xf7, 0xe7, 0xbc, 0xa6, 0xa2, 0xf7, 0xbc,
    0x2c, 0x12, 0x93, 0xbd, 0x79, 0x5b, 0x41, 0xbd, 0xa0, 0x7d,
    0xbd, 0x3d, 0xe6, 0xa3, 0x31, 0xbe, 0xac, 0x1a, 0xc6, 0x3a,
    0x37, 0x62, 0xc2, 0x3d, 0xc2, 0x26, 0x6b, 0x3d, 0xfe, 0x6f,
    0xc7, 0x3d, 0x5b, 0xab, 0x0f, 0xbe, 0x15, 0x8b, 0xd0, 0xbc,
    0x23, 0xf0, 0x86, 0xbd, 0xb9, 0x87, 0x9b, 0xbd, 0x0d, 0x32,
    0xb6, 0xbd, 0x19, 0x11, 0x94, 0xbd, 0xd5, 0x68, 0xa7, 0x3d,
    0xb8, 0xd7, 0xde, 0xbd, 0xf2, 0x5f, 0xdc, 0xbd, 0x34, 0x0e,
    0xc2, 0x3d, 0xe0, 0xd0, 0xc5, 0xbd, 0x7e, 0x9f, 0x9f, 0xbd,
    0x44, 0x63, 0x21, 0x3d, 0xef, 0x2c, 0x5d, 0x3c, 0x73, 0xa5,
    0xd1, 0xbd, 0x9e, 0xe6, 0xa8, 0xbd, 0x59, 0xc7, 0xfe, 0xbc,
    0xfb, 0x0f, 0xb3, 0xbd, 0x75, 0xd0, 0x89, 0x3c, 0xa6, 0x84,
    0x2e, 0x3b, 0x55, 0x1d, 0x99, 0x3d, 0x74, 0xb7, 0x85, 0xbd,
    0xc5, 0x54, 0x63, 0x3d, 0x84, 0x28, 0xbe, 0xbd, 0xbe, 0x43,
    0x01, 0xbc, 0xd6, 0x61, 0x4e, 0x3d, 0xdf, 0x18, 0xb1, 0x3d,
    0x64, 0xbd, 0x93, 0x3c, 0x3b, 0xd3, 0x5a, 0xbd, 0x57, 0xb8,
    0xb0, 0x3d, 0x99, 0x8a, 0xdc, 0x3d, 0xc0, 0x6c, 0xdd, 0x3b,
    0x0f, 0x4b, 0x02, 0x3e, 0x22, 0x4b, 0x37, 0x3d, 0xcd, 0x69,
    0xb8, 0x3d, 0x1f, 0xe0, 0x87, 0x3d, 0x8e, 0x0e, 0x41, 0x3d,
    0x14, 0xc2, 0xda, 0x3d, 0x74, 0x17, 0x11, 0xbe, 0x1c, 0x55,
    0xef, 0xbb, 0xbe, 0x77, 0xe1, 0xbd, 0x20, 0xb3, 0x01, 0xbe,
    0x94, 0x84, 0xb1, 0xbc, 0x60, 0xfc, 0x04, 0xbe, 0xf0, 0xf0,
    0x86, 0xbd, 0xa8, 0x77, 0x8d, 0x3d, 0x5f, 0x18, 0xaa, 0xbd,
    0x08, 0x3d, 0xab, 0x3d, 0xa3, 0x0c, 0xd6, 0x3c, 0xe3, 0x9c,
    0x90, 0xba, 0x3e, 0x92, 0x43, 0x3d, 0xe6, 0x44, 0xae, 0xbd,
    0x2d, 0x45, 0x59, 0xbc, 0x76, 0xb1, 0xe2, 0xba, 0xe7, 0x16,
    0x06, 0x3c, 0x7e, 0xbd, 0x2d, 0xbb, 0x7f, 0x64, 0x85, 0x3d,
    0x0c, 0x4f, 0x90, 0xba, 0x5d, 0xb6, 0xee, 0xbd, 0xec, 0x64,
    0xaf, 0x3c, 0x79, 0xbf, 0x79, 0xbc, 0xce, 0x46, 0x83, 0x3d,
    0xc8, 0x4d, 0xd3, 0x3d, 0x28, 0xc7, 0xc2, 0xbb, 0x29, 0x79,
    0xc7, 0xbc, 0x6c, 0xa3, 0x6b, 0xbc, 0x55, 0x07, 0xa7, 0x3d,
    0x96, 0x27, 0x38, 0xbd, 0xb3, 0x73, 0xc4, 0xbd, 0x81, 0xc4,
    0x97, 0x3c, 0xe6, 0x76, 0xc7, 0xbd, 0x68, 0xbb, 0x54, 0x3d,
    0xcb, 0x98, 0x14, 0x3e, 0x71, 0x4b, 0x93, 0xbd, 0xf3, 0x34,
    0x8e, 0x3c, 0xf5, 0x77, 0x90, 0x3d, 0x7b, 0x9c, 0x5a, 0xbc,
    0xc4, 0x9f, 0xed, 0x3d, 0x32, 0x58, 0x10, 0x3e, 0x06, 0xb9,
    0xc6, 0x3d, 0x03, 0x78, 0xea, 0x3c, 0xdc, 0x06, 0x35, 0x3d,
    0x9f, 0x72, 0x84, 0x3d, 0xf7, 0x74, 0xc5, 0xbd, 0x0d, 0xbe,
    0x1f, 0xbd, 0x08, 0x41, 0x2c, 0x3e, 0xed, 0xa6, 0x06, 0xbd,
    0xa1, 0x0e, 0x82, 0x3c, 0xf9, 0xa4, 0xd3, 0xbd, 0x46, 0x03,
    0xd7, 0xbd, 0x71, 0x0f, 0xbf, 0xbd, 0x0a, 0x61, 0xf0, 0x3d,
    0x9a, 0x2b, 0x07, 0xbd, 0xf3, 0xc8, 0xe8, 0xbd, 0xd0, 0x31,
    0xf2, 0x3d, 0x4a, 0x1c, 0xcb, 0x3d, 0x10, 0xdf, 0x58, 0x3d,
    0x19, 0x07, 0xe3, 0x3c, 0xff, 0x69, 0x45, 0xbd, 0xb0, 0x54,
    0xbf, 0xbd, 0xb1, 0x53, 0x37, 0xbd, 0x18, 0xaa, 0x09, 0x3e,
    0x9b, 0x59, 0xe3, 0xbd, 0x75, 0x73, 0x5b, 0xbd, 0x66, 0x91,
    0x86, 0xbc, 0xa0, 0xee, 0xb0, 0x3c, 0xfb, 0x41, 0x39, 0x3c,
    0x76, 0x7d, 0xe5, 0xbd, 0x94, 0xd8, 0x37, 0x3d, 0x14, 0x3e,
    0xf3, 0x3d, 0x89, 0x75, 0x03, 0xbe, 0xd7, 0x77, 0x6b, 0x3b,
    0x38, 0xcc, 0x9a, 0xbd, 0xf5, 0xa0, 0x5f, 0xbd, 0xed, 0xeb,
    0x86, 0xbb, 0x0c, 0x54, 0x30, 0xbc, 0xbe, 0x10, 0xf0, 0x3c,
    0xb2, 0x6d, 0xc9, 0xbc, 0x2d, 0x1c, 0x15, 0x3d, 0xab, 0x77,
    0xfa, 0x3c, 0x26, 0xd4, 0x0c, 0x3e, 0x6f, 0x84, 0xa3, 0xbd,
    0x6b, 0x55, 0x65, 0x3d, 0x3f, 0xaf, 0x85, 0x3d, 0x29, 0x7c,
    0x9c, 0xbb, 0x61, 0x28, 0xc9, 0x3d, 0xd1, 0x88, 0x06, 0x3e,
    0xb5, 0x57, 0x8c, 0xbd, 0xd0, 0x8d, 0xa7, 0xbd, 0xd8, 0x6f,
    0x5c, 0xbd, 0x9a, 0x40, 0xde, 0x3d, 0x24, 0x73, 0xbb, 0x3d,
    0x26, 0xd1, 0xc4, 0xbd, 0xa4, 0xbb, 0x05, 0xbd, 0xd8, 0xf3,
    0xc1, 0xbd, 0x60, 0xe0, 0xca, 0xbd, 0x43, 0xe5, 0x02, 0xbe,
    0xeb, 0xb7, 0x87, 0xbd, 0x1c, 0xc0, 0x8e, 0x3d, 0xf5, 0xf9,
    0xd5, 0x3d, 0xf7, 0xd7, 0xd1, 0x3c, 0x6f, 0x49, 0xa3, 0xbd,
    0xcd, 0x36, 0x2b, 0x3d, 0xe5, 0xfd, 0xeb, 0xbc, 0x12, 0x4b,
    0xef, 0xbd, 0x93, 0xe7, 0x2f, 0xbd, 0x2a, 0x43, 0xa1, 0x3d,
    0x95, 0xff, 0x5b, 0xbc, 0x27, 0xf2, 0x78, 0xbd, 0xda, 0x43,
    0x86, 0x3d, 0x20, 0xc6, 0x87, 0x3c, 0xeb, 0x26, 0x23, 0xbe,
    0xa5, 0x90, 0xaf, 0xbc, 0x38, 0xd9, 0xff, 0x3d, 0x45, 0xdd,
    0xa9, 0x3d, 0xd0, 0xd3, 0x17, 0xbc, 0x8d, 0x1f, 0x8c, 0xbd,
    0x28, 0x4c, 0x0e, 0xbd, 0x8d, 0x04, 0x80, 0x3d, 0x11, 0x41,
    0x88, 0x3d, 0x90, 0xf4, 0xd6, 0x3d, 0x66, 0xc9, 0xaa, 0xbd,
    0xfd, 0xa6, 0x00, 0xbe, 0xc1, 0xae, 0x37, 0xbc, 0xbf, 0x3a,
    0xe4, 0x3c, 0x31, 0x95, 0xd2, 0xbd, 0x0e, 0xcb, 0x33, 0x3d,
    0xba, 0xc4, 0xd0, 0xba, 0x61, 0x52, 0xb3, 0x3d, 0xca, 0x03,
    0x89, 0xbc, 0x11, 0xbd, 0x9c, 0x3d, 0x15, 0x21, 0xe6, 0x3d,
    0xf9, 0x77, 0xba, 0x3c, 0xeb, 0x71, 0xac, 0xba, 0xec, 0x24,
    0x68, 0xbc, 0x34, 0x6b, 0xe1, 0x3a, 0xd4, 0x36, 0x22, 0x3c,
    0xc9, 0xbd, 0x04, 0x3d, 0x76, 0x3f, 0x8a, 0x3d, 0xe4, 0x17,
    0x01, 0xbe, 0x6e, 0x13, 0x65, 0xbd, 0x4d, 0xeb, 0xd1, 0xbd,
    0xa0, 0xf0, 0x8a, 0x3d, 0x35, 0x9d, 0x94, 0x3d, 0xe2, 0x20,
    0x90, 0xbd, 0xae, 0x75, 0xbd, 0xbd, 0x8a, 0xa6, 0x75, 0x3d,
    0xc3, 0xd5, 0xaf, 0xbc, 0x37, 0xec, 0xab, 0x3d, 0xf1, 0xbb,
    0xf0, 0x3d, 0x8e, 0x14, 0x83, 0x3c, 0x7e, 0x36, 0x41, 0xbc,
    0xb7, 0xc6, 0x66, 0xbd, 0xed, 0x2e, 0x98, 0xbd, 0x78, 0xc1,
    0xa5, 0x3c, 0x81, 0xee, 0xb8, 0xbd, 0x4d, 0x74, 0xfa, 0xbd,
    0x62, 0xd9, 0x57, 0xbc, 0x4d, 0xfc, 0xed, 0xbd, 0x5b, 0x5e,
    0x3f, 0xbe, 0x6c, 0x1f, 0x8b, 0xbd, 0x25, 0x5a, 0xc4, 0x3c,
    0x81, 0x3b, 0xfb, 0xbc, 0x62, 0x6d, 0xd5, 0xbd, 0x69, 0x1f,
    0xfa, 0xbd, 0xd4, 0x0d, 0xa5, 0xbd, 0xf0, 0x67, 0x1a, 0x3d,
    0xe7, 0x8a, 0x1a, 0xbd, 0x74, 0xce, 0x43, 0x3d, 0x69, 0x31,
    0xab, 0xbd, 0xc6, 0xf7, 0x9d, 0xbd, 0xcf, 0x57, 0x38, 0x3b,
    0x62, 0x97, 0x96, 0x3d, 0x2c, 0xfd, 0x9a, 0x3d, 0x12, 0xba,
    0xbd, 0x3b, 0xbc, 0x8f, 0x8d, 0x3d, 0x02, 0x09, 0x87, 0xbd,
    0x01, 0x32, 0xb8, 0x3d, 0x75, 0x2d, 0x3e, 0xbc, 0x2f, 0xc8,
    0xc4, 0x3d, 0xc0, 0x50, 0x21, 0x3d, 0xf3, 0x3f, 0xa9, 0x3b,
    0x75, 0x96, 0xea, 0xbd, 0xbf, 0x97, 0x9b, 0x3d, 0x1d, 0xd5,
    0x37, 0xbc, 0xd2, 0xd4, 0x86, 0x3c, 0x17, 0x2b, 0xf5, 0x3d,
    0xea, 0x6c, 0xcc, 0x3d, 0x6a, 0x3b, 0x89, 0xbd, 0xd3, 0x65,
    0xfd, 0xbd, 0x9f, 0x4a, 0xef, 0xbc, 0xb8, 0x13, 0xea, 0x3c,
    0x2f, 0xcb, 0x85, 0xbd, 0xc2, 0xac, 0x1c, 0x3c, 0x23, 0x5a,
    0x71, 0xbd, 0x21, 0xf9, 0x3f, 0xbd, 0xa3, 0xd1, 0x0c, 0xbb,
    0xf0, 0x6a, 0xd5, 0x3d, 0x08, 0x87, 0xd5, 0x3c, 0xec, 0x62,
    0x02, 0xbe, 0xcf, 0x6b, 0xad, 0x3c, 0xb5, 0x3d, 0x56, 0xbd,
    0xc0, 0xcc, 0xce, 0xbd, 0x60, 0x8e, 0xa6, 0xbd, 0xfa, 0xe3,
    0xa8, 0xbd, 0xc7, 0x49, 0xf2, 0x3d, 0xe6, 0x4a, 0x5c, 0xbd,
    0x21, 0xfd, 0x36, 0x3e, 0xa8, 0xbe, 0x4b, 0xbd, 0x11, 0x96,
    0xf2, 0xbb, 0xf6, 0x52, 0x42, 0x3d, 0xdf, 0xa0, 0x7d, 0x3d,
    0x2e, 0x27, 0x78, 0xbd, 0x82, 0xb1, 0x2c, 0x3d, 0xf6, 0x4a,
    0x86, 0x3d, 0x63, 0x53, 0xb4, 0xbd, 0x85, 0xb3, 0x27, 0xbe,
    0x1b, 0x0c, 0x91, 0x3d, 0x40, 0x78, 0x53, 0xbd, 0xd5, 0x8c,
    0x74, 0xbd, 0x67, 0xf1, 0x06, 0x3b, 0x14, 0x8e, 0x37, 0xbd,
    0x80, 0xd3, 0xba, 0xbd, 0xe2, 0xee, 0xe6, 0xbc, 0x70, 0xe7,
    0xa9, 0x3d, 0xc9, 0xe1, 0x7b, 0x3d, 0x68, 0x02, 0x82, 0x3d,
    0xc2, 0x4d, 0x1a, 0x3e, 0x97, 0x94, 0xd0, 0xbd, 0xc9, 0xc7,
    0x0c, 0x3c, 0xc9, 0xd3, 0x00, 0x3e, 0xf9, 0xed, 0x10, 0x3d,
    0x7c, 0x0e, 0x71, 0x3d, 0x32, 0x23, 0x3e, 0x3d, 0xef, 0xa7,
    0xc5, 0x3d, 0xa2, 0x23, 0xea, 0x3d, 0x9b, 0xbf, 0x91, 0x3c,
    0x16, 0xa6, 0x23, 0x3d, 0x95, 0x08, 0xa2, 0xbd, 0xac, 0xb2,
    0x68, 0x3b, 0xe7, 0xbe, 0x00, 0x3d, 0x65, 0x5d, 0x1f, 0xbe,
    0x0c, 0xd8, 0x26, 0xbd, 0x82, 0x7c, 0x1a, 0xbe, 0xee, 0x1d,
    0xbb, 0xbd, 0xe0, 0xab, 0x06, 0x3d, 0xd1, 0x5b, 0xc4, 0xbc,
    0x65, 0xa4, 0xc0, 0x3d, 0x88, 0xd7, 0xe1, 0x3b, 0x02, 0x72,
    0x18, 0xbe, 0x0d, 0x70, 0xc0, 0xbd, 0xc3, 0xb1, 0xe2, 0xbd,
    0xdf, 0x4a, 0xda, 0x3d, 0xa1, 0x7c, 0xe0, 0xbc, 0xfd, 0xca,
    0x4c, 0x3d, 0xdb, 0xe2, 0x4a, 0x3c, 0x75, 0x9b, 0xcf, 0xbc,
    0xe8, 0x51, 0xc7, 0xbd, 0x9f, 0xdd, 0x38, 0x3d, 0x6e, 0x32,
    0x11, 0xbc, 0xd4, 0x0d, 0x93, 0x3c, 0xca, 0x90, 0x85, 0x3d,
    0x72, 0x32, 0xfe, 0x3b, 0xf3, 0x81, 0xc7, 0x3c, 0xa4, 0xef,
    0xd5, 0xbd, 0xa5, 0x3d, 0xed, 0x3c, 0x5c, 0x3a, 0x42, 0x3d,
    0x3c, 0xda, 0x91, 0xbc, 0x5f, 0xb6, 0x49, 0xbd, 0x21, 0x4b,
    0xe7, 0xbc, 0xd9, 0x48, 0xb7, 0x3a, 0x79, 0x17, 0xb5, 0xbc,
    0xe0, 0xc3, 0x0f, 0xbe, 0x8d, 0xd8, 0x14, 0xbd, 0x23, 0xbd,
    0xea, 0x3c, 0xe7, 0xfe, 0x7e, 0xba, 0x14, 0xfa, 0xef, 0xbd,
    0x07, 0x17, 0xd3, 0xbd, 0x32, 0x87, 0x74, 0x3d, 0x78, 0x94,
    0x1b, 0x3d, 0xa1, 0x30, 0xe7, 0x3b, 0x47, 0xa2, 0x08, 0x3e,
    0x0d, 0x5f, 0x19, 0xbc, 0xc4, 0xb4, 0xf7, 0x3c, 0x55, 0xcc,
    0xfa, 0xbd, 0x19, 0xe3, 0x3b, 0x3d, 0xd9, 0xea, 0xbb, 0x3d,
    0x7d, 0xe4, 0x29, 0x3d, 0xc4, 0x19, 0x2f, 0x3e, 0x58, 0x84,
    0xd6, 0x3c, 0xe2, 0xe2, 0x1f, 0x3e, 0xbf, 0x92, 0x15, 0xbe,
    0xf2, 0xe8, 0x9a, 0xbd, 0x07, 0x1c, 0xcf, 0x3d, 0xe2, 0x96,
    0x73, 0x3d, 0x03, 0x90, 0xba, 0x3d, 0x6b, 0xf5, 0xec, 0xbc,
    0xfc, 0x4e, 0x69, 0xbe, 0x7e, 0xc4, 0xa5, 0xbd, 0x11, 0x3b,
    0x0c, 0x3d, 0x68, 0xe8, 0xfc, 0x3d, 0x21, 0x7c, 0xab, 0xbd,
    0x1d, 0x3a, 0x34, 0xbc, 0x73, 0xec, 0x1d, 0xbd, 0x64, 0xb0,
    0xa3, 0x3d, 0xcc, 0x09, 0xc3, 0x3d, 0x8d, 0xb6, 0x22, 0x3d,
    0x68, 0xc7, 0xe8, 0x3d, 0x10, 0x85, 0x8f, 0x3d, 0xd5, 0x96,
    0xf4, 0x3d, 0xc4, 0x97, 0x06, 0xbd, 0xa3, 0x92, 0x8e, 0x3d,
    0x47, 0x5f, 0x07, 0xbd, 0x37, 0x04, 0xa5, 0xbd, 0x3a, 0x60,
    0x79, 0xbd, 0x6b, 0x7b, 0x69, 0xbc, 0x97, 0x6b, 0x16, 0x3d,
    0xb8, 0x8a, 0xd0, 0xbc, 0x9c, 0x68, 0xcf, 0x3c, 0x19, 0x29,
    0x2a, 0xbd, 0xbe, 0xc5, 0x9c, 0xbd, 0x91, 0x52, 0x12, 0x3e,
    0xa3, 0xcb, 0x77, 0x3b, 0x50, 0x4f, 0x11, 0x3d, 0x8f, 0x8b,
    0xaf, 0xbd, 0xce, 0x3c, 0x8d, 0xbd, 0x47, 0x2a, 0x46, 0xbc,
    0x53, 0x08, 0xed, 0xbd, 0x2b, 0x16, 0x1e, 0xbd, 0x5b, 0x5b,
    0x28, 0x3d, 0x36, 0x81, 0x81, 0xbd, 0xd2, 0x90, 0x5c, 0xba,
    0xe4, 0xce, 0x41, 0x3d, 0xb8, 0x93, 0xc8, 0xbc, 0x0d, 0x6e,
    0x64, 0xbd, 0x35, 0x32, 0xca, 0x3c, 0xa3, 0x8c, 0x3c, 0x3e,
    0x92, 0x0f, 0x52, 0xbd, 0x0c, 0xf5, 0x36, 0x3e, 0xbf, 0xf0,
    0x1f, 0xbd, 0x59, 0x84, 0x06, 0x3d, 0xc0, 0xf8, 0x31, 0x3d,
    0x1b, 0x73, 0xb0, 0x3d, 0x0d, 0xe6, 0xaf, 0x3d, 0x1a, 0xe1,
    0x79, 0x3d, 0x64, 0x21, 0x5c, 0xbd, 0xfc, 0xe8, 0x8b, 0x3d,
    0x62, 0x93, 0x87, 0xbd, 0x4e, 0x55, 0x5b, 0xbd, 0x4b, 0x0b,
    0x64, 0x3a, 0x4c, 0x05, 0x35, 0xbd, 0xf6, 0xc8, 0x9d, 0xbd,
    0x7e, 0xf8, 0xf0, 0xbb, 0xb2, 0x61, 0xba, 0x3c, 0xf4, 0x10,
    0x8b, 0x3d, 0x3a, 0xfe, 0x24, 0xbe, 0x9a, 0x28, 0x75, 0xbd,
    0x82, 0xe3, 0x03, 0x3e, 0x03, 0x8a, 0xec, 0xbd, 0x04, 0xcc,
    0xea, 0x3d, 0xce, 0x52, 0x9e, 0xbd, 0x6e, 0xcc, 0x34, 0xbe,
    0x40, 0xb6, 0x7b, 0xbb, 0x3a, 0xeb, 0x56, 0xbd, 0x76, 0x1c,
    0x72, 0xbd, 0x8d, 0x86, 0x2e, 0xbd, 0x60, 0x7f, 0xdf, 0x3d,
    0xab, 0x54, 0xd5, 0x3d, 0xee, 0x95, 0x9a, 0x3d, 0xb3, 0xf2,
    0x70, 0x3d, 0x7f, 0x9a, 0xc1, 0x3c, 0xd2, 0x97, 0xdc, 0xbc,
    0xd8, 0x2d, 0xe4, 0xbd, 0xeb, 0xcb, 0x0b, 0x3c, 0xb8, 0x84,
    0x19, 0xbe, 0x82, 0x13, 0x1a, 0x3c, 0x97, 0xe2, 0x9b, 0x3d,
    0x1a, 0x2d, 0x43, 0x3d, 0x5a, 0x9e, 0x4a, 0x3d, 0x51, 0x73,
    0x9b, 0x3d, 0x9d, 0x96, 0x0d, 0x3b, 0x8c, 0xb8, 0xe8, 0xbd,
    0xfc, 0xba, 0x98, 0x3c, 0xc3, 0xb4, 0xb0, 0x3d, 0x16, 0xa7,
    0xc2, 0x3d, 0x88, 0xeb, 0x7d, 0xba, 0xdd, 0x69, 0x11, 0x3e,
    0x92, 0xf0, 0x51, 0x3d, 0x1f, 0x10, 0xb2, 0xbd, 0x9d, 0x8e,
    0xc8, 0x3d, 0xbe, 0x04, 0x97, 0x3d, 0xa8, 0xee, 0xe3, 0x3d,
    0xbc, 0x97, 0x19, 0xbe, 0x88, 0x5c, 0xf7, 0x3c, 0x40, 0x4b,
    0x14, 0xbc, 0x01, 0x2c, 0x44, 0x3d, 0x34, 0x12, 0xe9, 0x3d,
    0xed, 0x07, 0x47, 0x3d, 0x2e, 0xa4, 0x7b, 0xbc, 0xa9, 0xf0,
    0xd9, 0xbd, 0x47, 0x8b, 0xf4, 0x3d, 0x67, 0xb8, 0xce, 0xbd,
    0x9d, 0xe6, 0x06, 0xbe, 0x35, 0x49, 0x04, 0xbe, 0x5a, 0x2c,
    0xb6, 0x3c, 0x48, 0x3d, 0x68, 0xbc, 0x3c, 0x84, 0xc9, 0x3c,
    0x7d, 0xb5, 0x10, 0x3e, 0xc4, 0xfb, 0x3c, 0xbd, 0x06, 0x64,
    0xb8, 0xbc, 0x2f, 0xa2, 0x11, 0xbd, 0xbd, 0x91, 0x8c, 0x3c,
    0x51, 0x99, 0x15, 0xbd, 0xb6, 0xa0, 0x28, 0x3d, 0xca, 0xc3,
    0x4e, 0xbd, 0x22, 0x99, 0xed, 0x3d, 0x9b, 0x76, 0xfd, 0xbc,
    0x1c, 0x07, 0xe9, 0xbc, 0xa1, 0x21, 0x34, 0xbc, 0x92, 0xcf,
    0x23, 0xbd, 0x3a, 0xa1, 0x2c, 0x3b, 0x4a, 0x7f, 0xd2, 0x3d,
    0x18, 0x0a, 0xb2, 0xbd, 0x7a, 0x09, 0x0c, 0xbd, 0x1a, 0xcd,
    0xdd, 0x3d, 0x3b, 0x39, 0xe6, 0xbc, 0x43, 0xb6, 0xdf, 0xbc,
    0x26, 0xd1, 0x10, 0xbe, 0x0d, 0x8d, 0xd6, 0x3d, 0xea, 0x76,
    0x26, 0x3d, 0x23, 0xb0, 0x6e, 0x3d, 0x58, 0x3c, 0x94, 0xbd,
    0xec, 0x8d, 0xbc, 0x3c, 0x26, 0x36, 0x83, 0x3d, 0xc8, 0x83,
    0xe1, 0x3d, 0x08, 0xa4, 0x57, 0xbd, 0xd8, 0x63, 0x88, 0xbd,
    0x17, 0x0f, 0x9d, 0xbc, 0xc9, 0x7c, 0xe2, 0xbb, 0x56, 0xf4,
    0x43, 0x3d, 0x2d, 0x34, 0x09, 0xbd, 0xac, 0x8a, 0xee, 0xbd,
    0xae, 0xda, 0x06, 0xbd, 0xdc, 0x9b, 0x2e, 0x3d, 0x81, 0x73,
    0xe7, 0xbc, 0xf9, 0x4b, 0xc5, 0xbd, 0x78, 0x14, 0xc9, 0xbd,
    0x7f, 0x73, 0x9b, 0x3c, 0x53, 0x6c, 0x36, 0x3d, 0xd4, 0xcf,
    0xd3, 0x3b, 0x0d, 0x64, 0x97, 0x3d, 0x00, 0x3d, 0x7e, 0xbd,
    0x5d, 0x76, 0xc0, 0xbd, 0x24, 0x94, 0xaf, 0x3d, 0x03, 0x69,
    0xa2, 0xbd, 0xb7, 0xf3, 0xfb, 0x3d, 0xc0, 0x07, 0xdd, 0xbd,
    0xa5, 0x7c, 0x2e, 0xbe, 0xcb, 0x97, 0x5a, 0xbd, 0x80, 0x0f,
    0xa5, 0xbd, 0xee, 0x9a, 0x90, 0x3d, 0xd4, 0xb7, 0xaf, 0x3d,
    0xe8, 0x3e, 0xe6, 0x3d, 0xba, 0xd5, 0xbd, 0xb9, 0xc1, 0x7e,
    0x47, 0x3c, 0xa1, 0x06, 0x46, 0x3c, 0x89, 0xa2, 0xc4, 0x3d,
    0x17, 0x59, 0xe4, 0x3c, 0x4f, 0x95, 0x43, 0x3d, 0xdc, 0xeb,
    0x03, 0xbd, 0x7d, 0xaa, 0x06, 0x3c, 0xcb, 0xe1, 0x52, 0xbd,
    0xde, 0x8f, 0x8d, 0xbd, 0x90, 0x37, 0xd1, 0x3d, 0x1e, 0xcd,
    0x24, 0xbe, 0x92, 0xe8, 0x87, 0xbd, 0x3a, 0xf2, 0x94, 0xbd,
    0xd9, 0xa6, 0x51, 0xbc, 0x6d, 0x67, 0xcf, 0x3d, 0x45, 0xf1,
    0x4b, 0x3d, 0x90, 0xe6, 0xa2, 0x3d, 0xfb, 0x20, 0xb8, 0xbd,
    0x25, 0xe6, 0xc3, 0xbc, 0x4b, 0xf8, 0x51, 0x3d, 0x82, 0xdd,
    0xab, 0x3b, 0x49, 0x9a, 0x9f, 0x3c, 0xd7, 0xdc, 0xc1, 0x3d,
    0xed, 0x6b, 0x04, 0xbd, 0xa1, 0x6b, 0x45, 0xbc, 0x51, 0x0a,
    0x60, 0x3d, 0xc3, 0xa1, 0x8b, 0x3d, 0x1a, 0x4f, 0x2f, 0xbb,
    0xa8, 0x13, 0x5c, 0x3d, 0xfc, 0xc2, 0xd7, 0x3d, 0xb3, 0x0b,
    0x67, 0x3b, 0x35, 0x12, 0xf6, 0xbc, 0xfd, 0xa1, 0xc8, 0x3b,
    0x40, 0xec, 0x11, 0x3e, 0x1c, 0x0d, 0xb0, 0x3d, 0x97, 0xd3,
    0x9b, 0xbd, 0x6b, 0xa5, 0xf7, 0xbd, 0x59, 0xcd, 0xd2, 0x3d,
    0x1c, 0x65, 0xa2, 0xbd, 0x01, 0x21, 0x9e, 0xbd, 0x7d, 0xc2,
    0x1b, 0x3d, 0x09, 0x6f, 0x8f, 0xbd, 0x99, 0x07, 0x22, 0xbd,
    0x3d, 0x72, 0xf9, 0x3d, 0xbe, 0x9f, 0x7b, 0x3d, 0xd9, 0x05,
    0x2c, 0x3d, 0x80, 0x20, 0xd2, 0x3d, 0xb0, 0xa7, 0x8c, 0xbd,
    0x1b, 0xa9, 0x4d, 0xbd, 0xf6, 0x19, 0x85, 0xbd, 0x28, 0x39,
    0xb1, 0xbd, 0x54, 0x7c, 0x13, 0xbe, 0xa5, 0x76, 0xa9, 0x3d,
    0x48, 0x81, 0xe1, 0x3d, 0xe6, 0xfb, 0x8b, 0xbd, 0x65, 0xe7,
    0xa4, 0x3c, 0xc1, 0x08, 0xe0, 0x3d, 0xee, 0xc9, 0xed, 0x3d,
    0xe2, 0x58, 0x27, 0x3d, 0xcb, 0x18, 0x8f, 0xbc, 0x52, 0xb4,
    0x7c, 0x3d, 0x44, 0xce, 0x70, 0xbd, 0x64, 0x0c, 0x83, 0xbc,
    0x32, 0x81, 0xb3, 0x3d, 0x13, 0xb6, 0xb7, 0x3d, 0xab, 0x60,
    0x74, 0xbd, 0xc9, 0xc4, 0x03, 0xbe, 0x63, 0xdd, 0x96, 0x3d,
    0x70, 0x90, 0xcf, 0x3d, 0x56, 0x87, 0xda, 0xbc, 0x48, 0x77,
    0x8d, 0xbd, 0x12, 0x92, 0xfa, 0xbd, 0x47, 0x23, 0x7a, 0x3d,
    0x29, 0xec, 0xdf, 0xbc, 0xbb, 0x32, 0xdd, 0x3d, 0xa6, 0x77,
    0x27, 0xbd, 0x0f, 0x4f, 0x91, 0x3d, 0x9b, 0x92, 0xf6, 0x3b,
    0x7f, 0x09, 0xed, 0x3d, 0xa5, 0xe9, 0xe8, 0x3b, 0xa9, 0x0a,
    0x89, 0x3c, 0x63, 0x69, 0x35, 0x3d, 0x3e, 0x68, 0x01, 0xbe,
    0xa2, 0x67, 0x24, 0xbe, 0xa1, 0x1c, 0xff, 0xbd, 0x88, 0x16,
    0x96, 0xbd, 0xe5, 0xe5, 0x63, 0x3d, 0x8d, 0xe8, 0xf0, 0x3b,
    0x0b, 0x3b, 0xbc, 0xbc, 0x95, 0xe8, 0xa4, 0xbb, 0x4a, 0x04,
    0x89, 0xbd, 0x08, 0xdc, 0x6b, 0x3d, 0xc5, 0x15, 0x55, 0xbc,
    0xec, 0x75, 0xd3, 0xbd, 0x36, 0x38, 0xd0, 0x3d, 0xf4, 0x05,
    0xf6, 0x3c, 0x2c, 0xbd, 0xb7, 0xbd, 0xe6, 0xda, 0x8e, 0xbc,
    0x4f, 0x6d, 0x8b, 0x3d, 0x8f, 0xcd, 0x8d, 0xbc, 0x44, 0xe5,
    0x21, 0xbd, 0x2d, 0x16, 0xf0, 0x3c, 0x43, 0x77, 0x74, 0x3d,
    0x26, 0x7c, 0x20, 0xbd, 0x75, 0x91, 0xb5, 0xbd, 0x23, 0xec,
    0xd8, 0x3d, 0xaf, 0x72, 0x1c, 0x3d, 0x74, 0x45, 0x79, 0x3d,
    0xcf, 0x7b, 0xcd, 0x3d, 0x72, 0x61, 0xac, 0xbd, 0x85, 0x20,
    0x34, 0x3d, 0xa7, 0x72, 0x77, 0xbd, 0x2a, 0xa6, 0x62, 0x3b,
    0x0c, 0x03, 0xaa, 0xbd, 0xaf, 0xf9, 0xac, 0xbd, 0xa2, 0x49,
    0x83, 0xbc, 0x31, 0x76, 0x96, 0x3d, 0x44, 0x24, 0x08, 0xbe,
    0xda, 0x48, 0xf5, 0x3d, 0x55, 0xd4, 0xd8, 0xbd, 0x0a, 0x3c,
    0x81, 0x3c, 0x56, 0x3e, 0xc8, 0xbb, 0xb0, 0xf3, 0x9c, 0x3c,
    0xd8, 0xd2, 0x35, 0xbe, 0x70, 0x95, 0xaa, 0x3d, 0xc1, 0x4f,
    0xda, 0xbd, 0x97, 0x7f, 0xfe, 0xbd, 0xf5, 0x0c, 0x4e, 0xbd,
    0xfc, 0xc6, 0x9c, 0xbc, 0x64, 0x14, 0x14, 0x3e, 0x4e, 0x13,
    0x15, 0x3d, 0x71, 0x5d, 0x6b, 0x3d, 0xd4, 0x92, 0x85, 0xbd,
    0x21, 0xf6, 0x4f, 0xbd, 0x23, 0x8f, 0x18, 0xbe, 0xba, 0x10,
    0xdd, 0xbd, 0x33, 0x51, 0x41, 0xbd, 0x35, 0xae, 0x91, 0xbd,
    0x91, 0x85, 0xf1, 0xbd, 0xb1, 0x60, 0x07, 0x3b, 0x5b, 0x89,
    0x0a, 0x3e, 0xf1, 0x10, 0x1a, 0xbe, 0xf4, 0x9f, 0x0d, 0xbe,
    0xd9, 0xaa, 0xc3, 0x3d, 0x2e, 0x0c, 0xdb, 0xbd, 0x8a, 0x9e,
    0x97, 0xbc, 0x98, 0x39, 0xd9, 0xbd, 0xb2, 0xaf, 0x50, 0xbd,
    0x2e, 0xc5, 0x3a, 0x3d, 0xc1, 0x78, 0x0d, 0xbd, 0xc1, 0x8d,
    0xcb, 0xbd, 0xca, 0x2f, 0x2b, 0x3d, 0xbc, 0x1d, 0x99, 0xbd,
    0x73, 0xa7, 0xd0, 0xbc, 0x4b, 0xda, 0x74, 0x3c, 0xdd, 0x8f,
    0xf0, 0xbd, 0x2a, 0x54, 0x9d, 0xbd, 0x51, 0x96, 0x9b, 0xbc,
    0xf7, 0xb0, 0xcc, 0xbd, 0x9d, 0x4a, 0x13, 0xbe, 0x15, 0xa2,
    0x87, 0xbd, 0xaf, 0x08, 0x3f, 0x3b, 0xeb, 0xbc, 0x53, 0x3b,
    0x7a, 0x70, 0xb1, 0xbc, 0xd5, 0x2e, 0xc3, 0xbd, 0x8e, 0xe1,
    0xb9, 0xbd, 0x28, 0x56, 0xc7, 0x3c, 0x94, 0x65, 0xa1, 0x3d,
    0x32, 0xc3, 0x52, 0xbe, 0x9c, 0x13, 0xee, 0x3c, 0x08, 0xeb,
    0xa6, 0xbd, 0x86, 0x28, 0x10, 0x3e, 0xe7, 0x84, 0x0d, 0x3e,
    0xbe, 0xf8, 0x9d, 0x3d, 0xc6, 0xdf, 0x92, 0xbd, 0xf0, 0xfb,
    0xbb, 0x3c, 0x66, 0xff, 0xd2, 0xbd, 0xce, 0xf0, 0xd0, 0xbd,
    0x46, 0xfa, 0x3e, 0x3d, 0x6d, 0xd5, 0x72, 0x3d, 0x00, 0x21,
    0x9b, 0x3b, 0xc8, 0xdf, 0xa7, 0x3d, 0x1a, 0xd8, 0xdc, 0xbd,
    0x8a, 0x81, 0x6b, 0x3d, 0x18, 0xbc, 0xcb, 0xbd, 0x89, 0xde,
    0x7a, 0x3d, 0x48, 0x5a, 0xec, 0x3d, 0xae, 0x51, 0x46, 0x3d,
    0xb8, 0xcb, 0x14, 0xbd, 0xfb, 0xc5, 0xba, 0xbd, 0x1b, 0x0d,
    0x16, 0x3c, 0x17, 0x8c, 0x90, 0xbd, 0x62, 0x1a, 0x0f, 0x3e,
    0x1c, 0x74, 0xf4, 0x3d, 0xd6, 0xb0, 0x7e, 0x3d, 0xe8, 0x2a,
    0x19, 0xbe, 0x0f, 0x48, 0xc4, 0x3d, 0x07, 0xe8, 0x92, 0x3d,
    0xcf, 0xb0, 0xeb, 0xbd, 0x47, 0x77, 0xb1, 0x3c, 0x35, 0x14,
    0xbe, 0x3c, 0x78, 0xca, 0x6c, 0xbc, 0xc3, 0xce, 0x17, 0xbe,
    0x0a, 0xbd, 0x6c, 0x3d, 0xa5, 0x0e, 0x93, 0xbd, 0xa7, 0x7f,
    0x07, 0xbe, 0xa6, 0x42, 0x84, 0xbc, 0x36, 0x07, 0x74, 0xbd,
    0x4d, 0x8a, 0x06, 0xbe, 0xb9, 0xae, 0x36, 0x3c, 0xf4, 0x1a,
    0x0f, 0x3c, 0x5d, 0x98, 0x06, 0xbd, 0x24, 0x03, 0x33, 0xbd,
    0xfe, 0xb5, 0x0c, 0x3d, 0x2a, 0x50, 0xc8, 0xbd, 0x19, 0x53,
    0x89, 0x3d, 0x2c, 0x5c, 0x88, 0xbd, 0x8e, 0x2a, 0x63, 0xbd,
    0xc8, 0xbb, 0xdc, 0x3d, 0x5d, 0xc6, 0x97, 0x3d, 0x5e, 0xe6,
    0x9c, 0x3d, 0xb5, 0x1e, 0xe0, 0x3b, 0xb6, 0xd0, 0xed, 0x3c,
    0x47, 0x00, 0xc1, 0xbd, 0x70, 0x96, 0x4e, 0xbe, 0xe3, 0xca,
    0xac, 0x3d, 0xc4, 0x33, 0x98, 0xbd, 0x35, 0xe6, 0xd6, 0x3d,
    0x3c, 0x5b, 0x31, 0xbc, 0xe4, 0xb1, 0xc1, 0x3d, 0x19, 0x5a,
    0x74, 0x3d, 0x03, 0x3d, 0x8e, 0xbb, 0xac, 0xb6, 0xa5, 0x3d,
    0xb1, 0x0e, 0x42, 0x3c, 0x9c, 0xa4, 0xf5, 0x3d, 0xf1, 0x7c,
    0xfd, 0xbc, 0x29, 0xa8, 0x9b, 0xbc, 0x82, 0x90, 0x72, 0xbd,
    0x24, 0xf4, 0xce, 0x3d, 0x7e, 0x02, 0x47, 0x3d, 0x4a, 0x93,
    0xdf, 0x3c, 0xd4, 0x5a, 0x95, 0x3d, 0x2e, 0xe4, 0x9e, 0x3b,
    0xad, 0x9d, 0xa2, 0xbd, 0x7c, 0xdb, 0x67, 0xbd, 0x3d, 0x04,
    0x92, 0xbb, 0x40, 0xf2, 0x48, 0xbe, 0x99, 0x88, 0xe7, 0x3c,
    0x54, 0x6f, 0xc0, 0x3d, 0x10, 0x2f, 0xd4, 0x3c, 0xbd, 0x7d,
    0xd9, 0x3c, 0x0f, 0x5c, 0x72, 0x3d, 0xd7, 0xde, 0xb3, 0x3d,
    0x43, 0xc4, 0xbd, 0xbd, 0x7b, 0x1c, 0x93, 0xbd, 0xd9, 0x90,
    0xc8, 0xbd, 0x8f, 0x26, 0x2b, 0x3d, 0xf8, 0x0a, 0xed, 0x3d,
    0xf2, 0x5e, 0x23, 0x3b, 0x25, 0xf3, 0x14, 0xbd, 0x68, 0xa8,
    0xe4, 0xbc, 0x56, 0x50, 0x0a, 0xbe, 0x17, 0x84, 0xaa, 0xbc,
    0x3a, 0x90, 0x00, 0x3e, 0x1b, 0x33, 0x30, 0xbe, 0xf4, 0x58,
    0xbb, 0xbb, 0x4b, 0x3a, 0xbd, 0xbd, 0x21, 0x73, 0xe6, 0x3d,
    0x6a, 0xd6, 0xde, 0x3c, 0x87, 0x96, 0x0b, 0xbe, 0xa1, 0x92,
    0x82, 0xbd, 0x8e, 0x75, 0x18, 0x3d, 0x54, 0x5e, 0x49, 0xbe,
    0x62, 0xfc, 0x56, 0x3d, 0x13, 0xc6, 0x0e, 0xbc, 0x01, 0x37,
    0x97, 0x3d, 0x65, 0xae, 0x7a, 0xbd, 0x73, 0xc2, 0xf0, 0xbd,
    0xc9, 0xd3, 0xbe, 0x3d, 0x0c, 0x93, 0xa2, 0xbc, 0xfd, 0xd0,
    0x82, 0x3d, 0xb5, 0xa2, 0x1a, 0x3b, 0x6c, 0x2f, 0x25, 0xbd,
    0x5b, 0x4b, 0x0b, 0x3d, 0xc3, 0xac, 0x88, 0xbd, 0x7f, 0x50,
    0x51, 0xbc, 0x60, 0x5b, 0xf8, 0x3d, 0xac, 0x04, 0xe3, 0xbc,
    0x0e, 0x3e, 0x91, 0x3d, 0x5d, 0xa8, 0x69, 0x3d, 0xeb, 0x8a,
    0x37, 0xbe, 0xeb, 0x66, 0x5c, 0xbe, 0xa3, 0x15, 0x6a, 0xbd,
    0xfc, 0x28, 0x28, 0x3c, 0xb2, 0x27, 0xe2, 0xbd, 0xa9, 0x10,
    0xe8, 0x3c, 0x5a, 0xb4, 0xec, 0x3d, 0xfd, 0x8f, 0xa5, 0xbd,
    0x03, 0x37, 0x26, 0xbd, 0xd9, 0xbf, 0x84, 0x3c, 0xab, 0x90,
    0x85, 0x3d, 0xee, 0xaa, 0x0b, 0xbe, 0x2e, 0xf8, 0xc8, 0xbd,
    0x90, 0xcd, 0xdf, 0x3c, 0x2f, 0x2b, 0x85, 0xbd, 0xc9, 0x47,
    0xc2, 0xbd, 0x60, 0xff, 0x75, 0x3d, 0x58, 0x7b, 0x49, 0x3d,
    0x6e, 0xc1, 0xd2, 0xbd, 0x6d, 0x1b, 0x8d, 0x3d, 0x6e, 0xa3,
    0x5e, 0x3d, 0x84, 0xe1, 0x61, 0xbd, 0xdf, 0x8f, 0xcb, 0x3d,
    0x9e, 0xb6, 0x8b, 0xba, 0xb0, 0x1d, 0x56, 0x3c, 0x89, 0xba,
    0x42, 0x3d, 0xb0, 0x2e, 0xbf, 0x3d, 0xea, 0xcd, 0x03, 0xbe,
    0x06, 0x9e, 0xe7, 0x3d, 0xb9, 0xf8, 0xa6, 0x3d, 0xc7, 0x5f,
    0xe3, 0xbd, 0xbd, 0x47, 0xb9, 0xbd, 0x33, 0x97, 0x47, 0xbc,
    0x2c, 0x32, 0x83, 0x3b, 0x32, 0x2a, 0x42, 0xbd, 0xc1, 0x62,
    0x9c, 0x3d, 0x0d, 0xd1, 0x95, 0xbb, 0x1f, 0x0a, 0x7b, 0xbd,
    0x6a, 0xe1, 0x09, 0x3d, 0xed, 0xd9, 0x7a, 0x3d, 0x25, 0x91,
    0x91, 0xbd, 0xdc, 0x22, 0x53, 0xbe, 0x4a, 0xb4, 0x0c, 0x3b,
    0xf2, 0x95, 0xbd, 0x3a, 0x07, 0x59, 0x04, 0xbe, 0x96, 0x73,
    0x10, 0xbc, 0xac, 0x7f, 0x0d, 0x3c, 0x5d, 0xc1, 0x86, 0x3d,
    0x0c, 0x28, 0x04, 0x3d, 0x2a, 0x96, 0x63, 0xbd, 0xa6, 0x87,
    0x00, 0x3d, 0x73, 0x07, 0xfe, 0xbc, 0x54, 0x96, 0xae, 0xbd,
    0x61, 0x14, 0x91, 0x3d, 0xed, 0x85, 0x8d, 0x3d, 0x5a, 0x43,
    0x0e, 0x3e, 0xc6, 0x3a, 0xb3, 0xbd, 0xf3, 0xac, 0xcb, 0x3c,
    0x38, 0xd0, 0x78, 0xbc, 0x3b, 0x02, 0xea, 0x3d, 0x78, 0xe9,
    0x69, 0xbb, 0x6f, 0x2d, 0xb8, 0xbd, 0x10, 0x60, 0x1d, 0x3d,
    0xb8, 0xa5, 0xf1, 0xbd, 0xe5, 0xcb, 0x44, 0x3d, 0x9c, 0x49,
    0x70, 0x3d, 0xc3, 0xce, 0x90, 0x3c, 0x00, 0x47, 0x35, 0x3d,
    0x38, 0x36, 0x3a, 0x3d, 0x41, 0x1b, 0x04, 0xbe, 0x02, 0xca,
    0xe4, 0x3d, 0xec, 0x75, 0x9c, 0x3d, 0x84, 0xe5, 0xa6, 0xbc,
    0xf1, 0x9a, 0x34, 0xbd, 0x64, 0x53, 0xc8, 0x3d, 0x3b, 0x14,
    0x0f, 0xbe, 0xf7, 0xf1, 0xaf, 0x3d, 0x18, 0xb5, 0xb3, 0x3c,
    0xb7, 0xb3, 0x98, 0xbd, 0x9c, 0xda, 0x2e, 0xbd, 0xbd, 0x64,
    0x0d, 0xbd, 0x02, 0x2d, 0x21, 0x3d, 0x7e, 0x9e, 0x22, 0x3d,
    0x73, 0x6b, 0x3b, 0x3d, 0xbd, 0x6d, 0x6b, 0x3d, 0xd5, 0x78,
    0x9e, 0x3d, 0xbb, 0x66, 0xe3, 0xbd, 0xc9, 0xa1, 0x6c, 0x3c,
    0x65, 0x9e, 0x72, 0xbc, 0xbb, 0x15, 0x0c, 0xbd, 0x75, 0xf9,
    0x84, 0xbd, 0x7e, 0xe1, 0xc5, 0x3d, 0x5f, 0x59, 0x80, 0xbd,
    0x06, 0xf7, 0x89, 0x3d, 0x7c, 0xd2, 0x15, 0xbe, 0x11, 0xc7,
    0x00, 0xbe, 0x08, 0x46, 0x03, 0x3e, 0xf6, 0x2f, 0x82, 0x3d,
    0x37, 0xb7, 0xd6, 0xbc, 0x4e, 0xda, 0xfc, 0xbc, 0xae, 0x47,
    0xb9, 0x3d, 0x8e, 0x07, 0x85, 0xbc, 0xf2, 0x0a, 0x2b, 0xbd,
    0x9c, 0xf2, 0x99, 0x3d, 0x6c, 0x31, 0xa5, 0xbd, 0xe3, 0xda,
    0x2d, 0xbd, 0xca, 0xb6, 0x0e, 0x3e, 0x8c, 0x3e, 0x9a, 0xbc,
    0xb4, 0xc2, 0xa9, 0x3d, 0xe6, 0x7d, 0x2c, 0x3b, 0x0c, 0xee,
    0x91, 0xbd, 0x2c, 0x32, 0xd1, 0xbc, 0x9d, 0x80, 0xe5, 0x3d,
    0xc2, 0x98, 0x9c, 0x3d, 0x74, 0xe2, 0x0b, 0xbe, 0xbc, 0xc0,
    0x04, 0x3d, 0x2d, 0xe3, 0xcb, 0xbb, 0x63, 0x93, 0x32, 0x3d,
    0x83, 0xb0, 0x39, 0x3d, 0x85, 0xfb, 0xb9, 0x3d, 0x38, 0xa5,
    0x7b, 0x3d, 0x55, 0xf5, 0xa6, 0xbd, 0xc0, 0x10, 0xb9, 0xbb,
    0xab, 0xac, 0x1b, 0xbd, 0x16, 0x30, 0xb6, 0x3d, 0x87, 0x39,
    0x5a, 0xbd, 0x3d, 0xc2, 0xae, 0x3d, 0x00, 0x53, 0x01, 0xbe,
    0xe3, 0xf5, 0x20, 0x3d, 0xfb, 0x08, 0xd1, 0xbd, 0x62, 0x2c,
    0x2d, 0xbd, 0x89, 0x23, 0x71, 0xba, 0x5e, 0xcf, 0x75, 0x3c,
    0x3a, 0x2e, 0x3d, 0x3c, 0xa6, 0x70, 0x27, 0x3d, 0xce, 0xce,
    0x86, 0xbd, 0x49, 0x3a, 0x0c, 0xbc, 0x1b, 0x85, 0x38, 0xbe,
    0x5b, 0x65, 0xdc, 0xbc, 0xf9, 0xb2, 0x85, 0xbd, 0xa6, 0x22,
    0x33, 0xbd, 0xc6, 0x50, 0xc3, 0xbd, 0x37, 0xa7, 0xc6, 0xbb,
    0xed, 0xd6, 0x22, 0x3d, 0x78, 0xb6, 0x6b, 0x3b, 0xb1, 0x00,
    0xd8, 0xbd, 0xf6, 0x89, 0x0e, 0x3e, 0x80, 0xe3, 0xef, 0x3c,
    0x1d, 0x03, 0x46, 0xbd, 0x06, 0x08, 0xf2, 0x3d, 0x0a, 0x2c,
    0x19, 0xbe, 0x45, 0x15, 0x11, 0x3c, 0x3d, 0xe0, 0x03, 0xbd,
    0xe9, 0xd7, 0xf4, 0x3c, 0xa3, 0xed, 0xdc, 0x3d, 0x8f, 0x42,
    0xdf, 0x3d, 0xa3, 0xe4, 0x66, 0xbd, 0x55, 0xf4, 0xf9, 0x3a,
    0x51, 0x8e, 0xa3, 0x3c, 0xcf, 0xf6, 0x83, 0x3d, 0x8c, 0x43,
    0x61, 0xbd, 0xa4, 0x7c, 0x7b, 0xba, 0x87, 0x5b, 0x18, 0xbe,
    0x4c, 0x16, 0x97, 0x3d, 0x1b, 0x67, 0x2a, 0x3d, 0xaa, 0x50,
    0xd6, 0xbd, 0xfe, 0xa5, 0x81, 0xbd, 0x5a, 0xd7, 0x4f, 0xbd,
    0x3c, 0x54, 0xf6, 0x3c, 0xc4, 0x18, 0x85, 0x3d, 0xb3, 0x99,
    0x82, 0xbd, 0xf0, 0xa2, 0x7e, 0x3d, 0xe1, 0x8d, 0xba, 0x3b,
    0x60, 0x92, 0x85, 0xbd, 0x24, 0x6d, 0x50, 0xbd, 0xaf, 0x04,
    0x1c, 0x3d, 0xd7, 0xcc, 0x04, 0x3d, 0xe6, 0x7f, 0xc0, 0x3d,
    0x55, 0x80, 0x75, 0x3d, 0xc5, 0x69, 0x82, 0xbd, 0x19, 0x51,
    0xfe, 0x3d, 0x91, 0x6a, 0xe3, 0x3d, 0x34, 0x58, 0xda, 0x3c,
    0xf8, 0xa9, 0xdb, 0xbd, 0xaf, 0xf5, 0x3a, 0x3c, 0xc4, 0x73,
    0x45, 0xbd, 0xd5, 0xea, 0x41, 0x3d, 0x04, 0x8c, 0xa3, 0x3d,
    0xc9, 0x4c, 0x4e, 0x3d, 0xd6, 0x11, 0xe9, 0x3d, 0x42, 0xa4,
    0x43, 0xbc, 0xfe, 0xba, 0x0f, 0x3d, 0xcd, 0xc1, 0x24, 0xbd,
    0x7f, 0x78, 0xc2, 0xbd, 0x37, 0x1b, 0x3d, 0xbd, 0x0b, 0x20,
    0x94, 0x3c, 0xee, 0x03, 0x9f, 0x3c, 0x8e, 0x2c, 0xc6, 0x3b,
    0x5e, 0xc6, 0x36, 0xbd, 0xad, 0xfa, 0x12, 0x3d, 0x8a, 0xce,
    0xb6, 0xbc, 0x03, 0xf0, 0xc0, 0x3c, 0x94, 0x12, 0xa7, 0xbd,
    0xcb, 0xe4, 0x4e, 0x3b, 0xb0, 0x05, 0x1d, 0xbd, 0x7f, 0xa7,
    0xb0, 0xbd, 0xbb, 0x4b, 0xdb, 0xbd, 0x4d, 0x0f, 0xde, 0x3d,
    0xc5, 0xdd, 0x73, 0xbd, 0x9e, 0x9c, 0xf2, 0xbc, 0xd7, 0xb8,
    0x8d, 0x3d, 0x7f, 0xb5, 0x70, 0x3c, 0x58, 0x92, 0xe8, 0xbd,
    0x8d, 0x23, 0xe7, 0x3c, 0xe8, 0xba, 0x6c, 0x3d, 0xa6, 0x77,
    0xa4, 0x3c, 0xd3, 0xfd, 0x1b, 0xbe, 0x72, 0xd5, 0x30, 0x3d,
    0xa5, 0xac, 0xa6, 0xbd, 0xa5, 0x13, 0x03, 0xbe, 0xc7, 0x0d,
    0x57, 0x3d, 0x6d, 0x8b, 0x15, 0x3d, 0xb5, 0x54, 0xb0, 0x3d,
    0x3f, 0x80, 0xb7, 0xbc, 0xd6, 0xf8, 0x26, 0xbe, 0xbb, 0x2e,
    0xe2, 0x3d, 0xbf, 0x1c, 0x50, 0x3d, 0xff, 0x32, 0x6a, 0xbd,
    0x98, 0xa1, 0x99, 0x3d, 0x6f, 0x88, 0x8e, 0x3d, 0x84, 0xe7,
    0xf9, 0xbd, 0x82, 0xc4, 0x59, 0xbd, 0xbf, 0xe5, 0x2b, 0x3d,
    0x98, 0x6d, 0xa1, 0xbc, 0x58, 0xb4, 0xae, 0x3d, 0x65, 0xf3,
    0x87, 0x3c, 0x18, 0x47, 0x85, 0x3d, 0x0a, 0x5d, 0xd0, 0x3d,
    0x60, 0xfe, 0x4a, 0x3d, 0x2d, 0x4a, 0xa6, 0x3d, 0x23, 0x0d,
    0x96, 0x3d, 0x18, 0xcd, 0xdd, 0xbc, 0xf5, 0xfc, 0xc5, 0x3c,
    0xb0, 0xce, 0x19, 0x3d, 0x38, 0x24, 0x83, 0xbd, 0x5b, 0x61,
    0xde, 0xbd, 0x18, 0x7b, 0x50, 0xbd, 0x45, 0x82, 0x97, 0x3d,
    0x12, 0x54, 0xe4, 0x3d, 0x0e, 0x1d, 0xdc, 0x3d, 0xd0, 0x70,
    0x00, 0xbe, 0x8c, 0xef, 0xe5, 0x3c, 0x3f, 0x3b, 0xa0, 0x3d,
    0x73, 0x64, 0x90, 0x3d, 0x92, 0xa3, 0x90, 0x3d, 0xf8, 0x67,
    0x87, 0x3d, 0x5b, 0x49, 0x9c, 0x3d, 0x2d, 0x03, 0x27, 0xbe,
    0x3b, 0xe5, 0x30, 0xbd, 0x45, 0xf1, 0xf1, 0xbc, 0xe8, 0x53,
    0x82, 0xbd, 0x02, 0x7b, 0xc2, 0x3c, 0xd7, 0x59, 0x64, 0xba,
    0x77, 0xe0, 0x72, 0x3c, 0x6c, 0xec, 0xfb, 0xbd, 0x0a, 0x30,
    0x7a, 0xbd, 0x25, 0xdb, 0x8f, 0x3b, 0x48, 0x58, 0x11, 0xbd,
    0x33, 0xa0, 0x30, 0x3c, 0xfe, 0x68, 0x12, 0xbe, 0x98, 0x77,
    0x73, 0x3d, 0x58, 0x14, 0xc2, 0x3c, 0x6a, 0xd5, 0x92, 0x3c,
    0xd2, 0x3c, 0x69, 0x3d, 0x54, 0x45, 0xe0, 0xbc, 0xd4, 0x10,
    0xa3, 0x3c, 0xa6, 0xef, 0xf9, 0xbd, 0x1b, 0x3d, 0xbb, 0xbd,
    0xf8, 0x7a, 0x9a, 0xbd, 0x77, 0xeb, 0xfe, 0xbd, 0x34, 0xe6,
    0xbf, 0xbd, 0xa8, 0xee, 0xfc, 0x3d, 0x6c, 0x1e, 0x81, 0x3d,
    0x55, 0xf7, 0x98, 0xbc, 0x6b, 0x6c, 0x06, 0x3e, 0xa0, 0x1e,
    0x06, 0xbd, 0xab, 0x99, 0xa0, 0xbd, 0xa1, 0xf8, 0x6a, 0xbd,
    0x91, 0x89, 0x04, 0x3e, 0xaf, 0x0a, 0x58, 0xbd, 0xff, 0x4f,
    0x08, 0xbd, 0xfb, 0x73, 0xfa, 0x3c, 0x1a, 0xbd, 0x69, 0x3c,
    0x2d, 0x0a, 0x92, 0x3d, 0x4e, 0xd7, 0x3e, 0xbb, 0xb5, 0xfd,
    0xbd, 0xbd, 0x5c, 0x24, 0xd0, 0xbd, 0xcd, 0xd1, 0x79, 0x3b,
    0xb0, 0x91, 0x9f, 0x3d, 0x5e, 0x4e, 0x44, 0xbd, 0xf9, 0x4a,
    0x44, 0xbd, 0xce, 0xfc, 0xb3, 0xbd, 0x98, 0x41, 0x00, 0xbe,
    0xf7, 0x02, 0xc0, 0x3d, 0x48, 0xdc, 0xa7, 0x3c, 0x21, 0xff,
    0x0f, 0x3d, 0xc2, 0x04, 0x8f, 0xbb, 0xea, 0x12, 0x0e, 0xbe,
    0x44, 0xfa, 0x0e, 0xbe, 0x1c, 0xe0, 0xba, 0xbd, 0x58, 0xb5,
    0xc8, 0xbc, 0x6d, 0xac, 0xeb, 0xbd, 0xa0, 0x52, 0x0d, 0x3d,
    0xa2, 0xaa, 0x0a, 0x3e, 0xc8, 0x07, 0xc3, 0xbd, 0xac, 0xbb,
    0x6d, 0xbd, 0x6d, 0xac, 0xb0, 0xbc, 0xff, 0x56, 0x43, 0xbd,
    0x59, 0x29, 0xc6, 0x3b, 0xb8, 0x0f, 0x56, 0xbe, 0x37, 0x91,
    0xf1, 0xbd, 0xda, 0xb4, 0xac, 0xbd, 0x1b, 0x93, 0x91, 0xbd,
    0x4f, 0x98, 0x93, 0xbd, 0x61, 0x2a, 0x9c, 0x3c, 0x4c, 0x95,
    0xfd, 0x3d, 0xf0, 0x29, 0xdc, 0xbd, 0x74, 0xad, 0x40, 0xbe,
    0x51, 0xaa, 0x0f, 0xbd, 0x91, 0x08, 0xe6, 0xbd, 0x52, 0x47,
    0x6c, 0x3d, 0x63, 0x25, 0x6f, 0xbd, 0x8d, 0x3f, 0xc8, 0xbd,
    0xbc, 0xd3, 0x42, 0xbd, 0x10, 0x97, 0x02, 0xbe, 0x78, 0xda,
    0x7f, 0x3c, 0xdc, 0xf7, 0x8d, 0xbd, 0xd1, 0x10, 0x91, 0x3d,
    0xfa, 0xa4, 0x18, 0x3e, 0x20, 0xcd, 0xc7, 0xbd, 0x44, 0x38,
    0x8b, 0x3d, 0x7f, 0xd8, 0x02, 0x3e, 0xd1, 0xee, 0x9f, 0x3c,
    0x2f, 0x9b, 0x2a, 0xbc, 0x30, 0x92, 0xa0, 0x3d, 0x63, 0xa9,
    0xbd, 0xbd, 0x98, 0x49, 0xb0, 0xbd, 0x42, 0xf7, 0xae, 0x3c,
    0x7f, 0x94, 0x96, 0x3d, 0x28, 0x02, 0x2e, 0xbe, 0x0b, 0x0d,
    0xca, 0x3d, 0x09, 0x82, 0x49, 0x3d, 0x8e, 0x74, 0x24, 0x3d,
    0x7c, 0x94, 0x4c, 0xbc, 0x96, 0x64, 0xff, 0xbb, 0xa0, 0xc5,
    0xb0, 0xbd, 0xc5, 0xdc, 0x6b, 0x3d, 0x8c, 0xa6, 0xd7, 0xbb,
    0x3c, 0x32, 0x5a, 0xbd, 0x84, 0x48, 0x0c, 0xbd, 0x6d, 0x93,
    0x45, 0xbd, 0x71, 0x9f, 0x31, 0xbd, 0x0e, 0xb9, 0x7e, 0x3d,
    0x1e, 0x4a, 0xb2, 0xbd, 0x4e, 0x5c, 0xa3, 0xbc, 0x88, 0xf3,
    0xd9, 0xbd, 0x99, 0x10, 0x2c, 0x3e, 0x95, 0x53, 0x4e, 0xbd,
    0x45, 0xe6, 0x93, 0xbd, 0xef, 0xa2, 0x91, 0xbc, 0x93, 0x78,
    0xf1, 0x3d, 0x41, 0xde, 0xa3, 0x3b, 0x4e, 0x47, 0x30, 0xbd,
    0x24, 0xa5, 0x2d, 0xbc, 0x06, 0xdf, 0xb2, 0x3d, 0xc0, 0x48,
    0xdf, 0xbb, 0x06, 0x57, 0xab, 0x3d, 0xe2, 0x75, 0xcb, 0x3d,
    0xe6, 0xd5, 0xa6, 0x3d, 0x86, 0x45, 0x24, 0xbd, 0xf2, 0xe6,
    0xc0, 0xbd, 0xe9, 0x72, 0x27, 0x3e, 0x0b, 0x8f, 0x9c, 0xbb,
    0xba, 0x86, 0x88, 0x3c, 0x5a, 0x08, 0xff, 0xbb, 0x7f, 0xa4,
    0x1a, 0x3e, 0x80, 0x23, 0x9e, 0x3d, 0x2d, 0x21, 0x63, 0x3d,
    0xf5, 0x13, 0x14, 0x3e, 0xc3, 0xa7, 0x4c, 0x3d, 0x20, 0x8c,
    0x9e, 0xbd, 0xea, 0xaf, 0xa7, 0xbc, 0x8d, 0xb6, 0x1f, 0x3e,
    0x31, 0x6d, 0x15, 0xbd, 0x7d, 0x30, 0xcd, 0x3d, 0xc8, 0x69,
    0x70, 0x3d, 0x83, 0x0e, 0xbe, 0x3b, 0x7e, 0x99, 0x4c, 0xbd,
    0xc8, 0x82, 0xb1, 0x3d, 0x33, 0xb2, 0x84, 0x3c, 0x5b, 0xcf,
    0x36, 0xbc, 0x55, 0x9d, 0xca, 0xbd, 0xed, 0xc9, 0x8c, 0x3c,
    0xc7, 0x32, 0x18, 0xbe, 0x00, 0xf4, 0x47, 0xbc, 0xe4, 0x52,
    0xc7, 0x3c, 0x87, 0x17, 0x87, 0x3d, 0xfc, 0x6a, 0xcc, 0xbd,
    0xed, 0xa9, 0x60, 0xbc, 0x3a, 0xe5, 0x53, 0xbd, 0xd7, 0x15,
    0x16, 0xbc, 0xd1, 0x51, 0x0d, 0x3b, 0x0f, 0xb9, 0xdd, 0x3d,
    0x60, 0x44, 0x78, 0xbd, 0x35, 0x63, 0xa3, 0x3d, 0xeb, 0xf3,
    0xea, 0xbd, 0x14, 0x45, 0x04, 0xbd, 0xd2, 0x85, 0x9f, 0xbc,
    0xc1, 0x2a, 0x9c, 0xbd, 0x5a, 0x5d, 0x75, 0x3d, 0xeb, 0x77,
    0x14, 0x3b, 0x6e, 0x06, 0xc3, 0x3a, 0x45, 0x15, 0x83, 0xbd,
    0xd2, 0xad, 0xe6, 0xbd, 0xd5, 0x67, 0x7a, 0x3c, 0x18, 0x50,
    0xd1, 0x3d, 0xe6, 0x3b, 0xba, 0x3d, 0xae, 0xf3, 0xbd, 0x3c,
    0x32, 0x59, 0x40, 0xbd, 0xfc, 0xaf, 0xad, 0x3c, 0xab, 0xd5,
    0x1e, 0x3e, 0x3d, 0xf5, 0x38, 0x3d, 0x99, 0x64, 0xa6, 0xbd,
    0x50, 0x3b, 0x0c, 0x3e, 0x1b, 0xe5, 0xf8, 0xbd, 0xb3, 0x4e,
    0x03, 0x3d, 0x12, 0x8c, 0x2c, 0x3d, 0xf2, 0x8c, 0x55, 0x3c,
    0x5c, 0xd5, 0x41, 0xbd, 0xc0, 0x4f, 0x5d, 0xbd, 0xce, 0x5f,
    0xcf, 0x3d, 0x57, 0xb0, 0x8d, 0xbb, 0x7e, 0x29, 0xc1, 0xbc,
    0xdc, 0xe6, 0x39, 0x3d, 0xa8, 0xb0, 0x44, 0x3d, 0xed, 0x92,
    0x9b, 0xbd, 0xe4, 0xd9, 0x64, 0x3d, 0xfd, 0x76, 0x38, 0xbb,
    0xad, 0xae, 0x8c, 0x3c, 0x01, 0x36, 0x23, 0xbd, 0x35, 0x55,
    0xca, 0x3c, 0xfd, 0x54, 0xce, 0x3c, 0xd6, 0xb0, 0xdb, 0x3d,
    0x88, 0x97, 0x69, 0xbb, 0x8d, 0x80, 0xd8, 0x3c, 0x77, 0x63,
    0xb4, 0x3c, 0xf8, 0x4c, 0x64, 0xbc, 0x80, 0x83, 0x22, 0x3e,
    0xe0, 0x95, 0xca, 0xbd, 0x8f, 0x78, 0x2f, 0x3c, 0x82, 0xaa,
    0x32, 0x3d, 0x2e, 0x58, 0xd1, 0x3d, 0xc2, 0xf1, 0xcb, 0x3b,
    0x78, 0xe0, 0xfe, 0x3d, 0x65, 0x19, 0xc1, 0xbc, 0xca, 0x08,
    0x45, 0x3d, 0xf5, 0xca, 0x0c, 0xbd, 0x1a, 0x70, 0x94, 0xbd,
    0x68, 0xdf, 0x1e, 0xbe, 0xac, 0x40, 0x10, 0xbd, 0x4d, 0x22,
    0xc1, 0x3c, 0x0b, 0x4f, 0x47, 0x3c, 0x12, 0xcc, 0xd7, 0xbb,
    0x4c, 0x67, 0xfc, 0x3d, 0x6e, 0xf5, 0x08, 0xbd, 0xd2, 0xb9,
    0xc6, 0x3d, 0x65, 0xcf, 0xb6, 0x3d, 0xf9, 0x26, 0xf9, 0x3c,
    0x76, 0x5d, 0x54, 0xbd, 0xd2, 0x1f, 0xdf, 0x3d, 0xfe, 0x5f,
    0xa3, 0x3d, 0x25, 0x76, 0x55, 0xbb, 0xcd, 0x42, 0x06, 0x3d,
    0x92, 0x40, 0xfd, 0xbd, 0x12, 0xbf, 0x94, 0xbd, 0x35, 0x12,
    0xb4, 0xbd, 0xdd, 0x07, 0xa7, 0xbd, 0x42, 0xc4, 0x62, 0x3c,
    0xaf, 0x68, 0x29, 0x3d, 0x0c, 0xb3, 0xe8, 0x3d, 0xa4, 0x51,
    0xe3, 0xbd, 0xcb, 0xe7, 0xb2, 0xbd, 0x6c, 0xfe, 0x2f, 0x3d,
    0x6f, 0x2a, 0x2d, 0xbe, 0xe9, 0xfc, 0x87, 0xbd, 0x20, 0xbb,
    0x25, 0xbc, 0xb1, 0x4d, 0x97, 0xbc, 0xb9, 0x5b, 0x71, 0xbd,
    0x50, 0x12, 0xab, 0x3d, 0x0f, 0x91, 0xbf, 0xbc, 0x5a, 0xa0,
    0x5a, 0xbc, 0x7e, 0x18, 0xcf, 0xbd, 0x9d, 0x66, 0xe7, 0x3d,
    0xcf, 0x2d, 0xfb, 0x3c, 0xdc, 0x8f, 0x01, 0xbc, 0x6d, 0x53,
    0xdb, 0xbb, 0xbf, 0x98, 0xf2, 0x3d, 0x05, 0xa3, 0x55, 0xbc,
    0x1b, 0xc1, 0xeb, 0x3d, 0x5f, 0xee, 0x68, 0xbd, 0xb2, 0x73,
    0x80, 0x3d, 0x1e, 0xde, 0xe8, 0x3d, 0x63, 0xc3, 0x36, 0xbd,
    0x29, 0x92, 0x0e, 0xbe, 0x26, 0x76, 0xde, 0xbc, 0x60, 0x4e,
    0x19, 0x3d, 0x71, 0x87, 0x47, 0xbd, 0x1d, 0x5d, 0xc0, 0x3d,
    0x0a, 0x0f, 0xb2, 0x3d, 0xd5, 0xe8, 0xce, 0xbd, 0x72, 0xd6,
    0x8a, 0x3d, 0x59, 0x73, 0xba, 0x3d, 0x40, 0x94, 0x74, 0x3d,
    0x7b, 0x29, 0x62, 0x3d, 0x4c, 0x63, 0x98, 0x3d, 0xcf, 0xca,
    0xd0, 0x3b, 0x7e, 0xaf, 0x67, 0x3d, 0xde, 0x6a, 0x75, 0x3d,
    0x4e, 0xc3, 0x12, 0x3d, 0xf5, 0xdb, 0x52, 0x3d, 0xdb, 0xe9,
    0xcd, 0xbd, 0x51, 0x67, 0xee, 0xbd, 0x94, 0x3b, 0xd4, 0xbc,
    0x61, 0xd6, 0x90, 0xbc, 0x59, 0xd0, 0x9a, 0x3d, 0xb2, 0x08,
    0x1d, 0xbd, 0x8d, 0x4a, 0x25, 0xbd, 0x4e, 0x69, 0xe3, 0xbd,
    0x3d, 0xc7, 0xa0, 0x3d, 0xd6, 0xf3, 0x50, 0xbd, 0xe3, 0xea,
    0xb0, 0xbd, 0x4b, 0xaf, 0x18, 0xbe, 0xe0, 0x0d, 0x8e, 0x3d,
    0x1e, 0x12, 0x32, 0xbb, 0x3f, 0xca, 0xce, 0xbd, 0x92, 0x7f,
    0xb1, 0x3d, 0x3e, 0x81, 0x7c, 0xbd, 0x00, 0xab, 0x2b, 0xbd,
    0x9c, 0xac, 0x1f, 0x3d, 0x17, 0xfd, 0x42, 0xbd, 0x29, 0x37,
    0x6a, 0xbd, 0xf9, 0xc9, 0x65, 0xbd, 0x67, 0x76, 0xc1, 0xbd,
    0x7c, 0x55, 0x2c, 0xbd, 0xf4, 0x5b, 0x0b, 0x3c, 0x8c, 0x0b,
    0xc7, 0x3d, 0x0e, 0xd5, 0xcc, 0x3d, 0xca, 0xda, 0x69, 0xbd,
    0xc0, 0x75, 0xe5, 0xbd, 0xb7, 0xf1, 0x01, 0x3e, 0x1f, 0x0c,
    0x19, 0xbe, 0x8a, 0x50, 0x80, 0xbd, 0xc6, 0x2a, 0xc3, 0xbb,
    0x00, 0xf9, 0x0f, 0xbe, 0xe1, 0x91, 0xbd, 0xbd, 0x32, 0xc1,
    0x57, 0xbb, 0x3d, 0xde, 0x9e, 0xbd, 0xe0, 0xe2, 0xf6, 0x3b,
    0xad, 0xc4, 0xd7, 0xbd, 0x8b, 0xe0, 0x38, 0xbd, 0xed, 0x8e,
    0xae, 0x3d, 0x44, 0x56, 0x14, 0xbe, 0xe4, 0x5a, 0x2c, 0xbe,
    0x91, 0x08, 0xd4, 0xbd, 0x0c, 0x3f, 0x64, 0xbd, 0xfd, 0x71,
    0xac, 0x3d, 0xc2, 0x0f, 0x8e, 0xbd, 0x83, 0x90, 0xaf, 0x3c,
    0xb2, 0x8a, 0x3c, 0x3d, 0x05, 0x3d, 0x18, 0xbe, 0xf5, 0xa2,
    0x2d, 0x3d, 0x1b, 0x68, 0xce, 0x3c, 0x45, 0xc5, 0x4c, 0xbd,
    0xc1, 0x64, 0x13, 0x3d, 0x90, 0x34, 0x7b, 0x3d, 0x21, 0xde,
    0xc9, 0x3c, 0x64, 0x7f, 0x57, 0x3d, 0x7b, 0xbd, 0x05, 0xbd,
    0x98, 0x1d, 0x4b, 0x3d, 0x36, 0x18, 0x17, 0xbe, 0x8e, 0x21,
    0x1e, 0xbe, 0x13, 0x6c, 0xb0, 0xbb, 0x38, 0x3e, 0xd0, 0xbd,
    0x6f, 0x7d, 0xf4, 0x3d, 0x29, 0x84, 0x6a, 0x3d, 0xe5, 0x7d,
    0xe9, 0xbd, 0x6e, 0x07, 0xf9, 0x3d, 0x5f, 0xce, 0x53, 0x3d,
    0xdb, 0x77, 0xf8, 0xbd, 0x22, 0xeb, 0x49, 0xbc, 0x59, 0xed,
    0x97, 0xbd, 0x2c, 0x90, 0x22, 0x3d, 0x75, 0x51, 0xfd, 0xbc,
    0x73, 0x60, 0x2c, 0x3d, 0x3a, 0x4e, 0xf3, 0xbd, 0xb3, 0xed,
    0xdd, 0xbd, 0xd4, 0x32, 0x90, 0x3d, 0x70, 0x69, 0xbc, 0xbd,
    0xfc, 0x7f, 0xa4, 0x3d, 0xee, 0x77, 0xcc, 0xbc, 0x0b, 0x31,
    0xc7, 0xbc, 0x94, 0xd7, 0xae, 0x3d, 0xb9, 0x1a, 0xc0, 0x3d,
    0x8b, 0xbf, 0xcf, 0xbd, 0xd1, 0xa4, 0x0a, 0xbd, 0x37, 0xf9,
    0xc9, 0x3d, 0xc8, 0x70, 0xef, 0xbc, 0xe7, 0xad, 0xc8, 0xbc,
    0x56, 0x8d, 0xa4, 0xbd, 0x33, 0x00, 0x44, 0xbd, 0x2a, 0xc0,
    0x55, 0x3d, 0x9a, 0x94, 0xcb, 0x3d, 0x06, 0xc9, 0xeb, 0x3d,
    0x7b, 0x43, 0x4d, 0x3d, 0x34, 0x53, 0x8b, 0xbd, 0xa7, 0x42,
    0xe4, 0xbb, 0xa4, 0x66, 0xb6, 0x3d, 0x5b, 0x09, 0x06, 0xbd,
    0x39, 0xf8, 0x8d, 0x3d, 0xdc, 0x20, 0x68, 0xbd, 0x04, 0x7c,
    0x81, 0xbc, 0x64, 0xbf, 0x06, 0x3e, 0x3f, 0xdd, 0x01, 0xbc,
    0x01, 0x3d, 0xaf, 0x3d, 0x46, 0x53, 0xe6, 0x3c, 0x2e, 0x45,
    0xc4, 0x3c, 0x5f, 0x87, 0xbc, 0xbb, 0x3b, 0xeb, 0xff, 0xbc,
    0x99, 0xa4, 0x4c, 0x3a, 0x65, 0x3c, 0xcd, 0xbd, 0xbe, 0xdf,
    0xf4, 0xbb, 0x27, 0x6f, 0x65, 0xbd, 0xfc, 0x4d, 0x14, 0xbc,
    0x09, 0xbe, 0x4f, 0x3c, 0xd5, 0xff, 0x94, 0xbd, 0x40, 0x38,
    0x14, 0xbe, 0x4b, 0x7c, 0xef, 0xbd, 0x6c, 0x78, 0x2d, 0x3d,
    0xc8, 0x41, 0x2f, 0x3d, 0x0f, 0x02, 0xa2, 0x3d, 0x88, 0x52,
    0xae, 0xbd, 0x3b, 0xfe, 0x72, 0xbd, 0x1d, 0xcd, 0x5a, 0x3c,
    0xa9, 0x2d, 0xcd, 0x3d, 0x6a, 0xdd, 0xcf, 0xbd, 0xcf, 0x0d,
    0x83, 0xbc, 0xe7, 0x91, 0xa0, 0x3c, 0xa5, 0xd6, 0x0d, 0x3d,
    0xc2, 0x73, 0x55, 0x3c, 0x2a, 0xc5, 0xa1, 0xbd, 0x5a, 0xb6,
    0x0a, 0x3e, 0xc7, 0xe9, 0xd8, 0x3d, 0xd9, 0x0b, 0xb2, 0xbd,
    0xf7, 0xf1, 0xca, 0xbb, 0xeb, 0x51, 0x95, 0xbd, 0x22, 0x81,
    0x7e, 0x3d, 0x40, 0x8a, 0x93, 0x3d, 0x71, 0xeb, 0xd7, 0x3d,
    0x43, 0xc1, 0x7f, 0x3d, 0xa9, 0x78, 0xb0, 0x3d, 0x7f, 0x3a,
    0xdc, 0x3d, 0x7b, 0x9d, 0x59, 0x3d, 0x29, 0xf2, 0x0e, 0x3d,
    0xef, 0x03, 0x71, 0xbd, 0x05, 0xce, 0x70, 0xbd, 0x2f, 0x63,
    0x9b, 0x3d, 0x63, 0xf5, 0x4e, 0xbd, 0x4d, 0x84, 0xd8, 0x3d,
    0xca, 0x2a, 0x72, 0x3d, 0x78, 0x5a, 0xa3, 0x3d, 0x14, 0x48,
    0x24, 0xbc, 0x7e, 0xb4, 0x26, 0x3d, 0xbc, 0xc8, 0x1f, 0x3d,
    0xdc, 0x2a, 0x13, 0x3e, 0x1b, 0xc4, 0x11, 0x3c, 0x43, 0x3d,
    0xfa, 0x3d, 0x7f, 0x34, 0x09, 0xbe, 0x59, 0x6f, 0x9b, 0xbc,
    0x7c, 0xc4, 0x07, 0x3e, 0x16, 0xdd, 0xdc, 0xbd, 0x7d, 0xb4,
    0x10, 0xbe, 0x64, 0x96, 0x1e, 0x3c, 0xc1, 0xc1, 0xce, 0x3b,
    0x11, 0x56, 0xde, 0xbd, 0x30, 0x92, 0xe6, 0xbd, 0x02, 0xfa,
    0x82, 0x3d, 0x2b, 0x51, 0x3c, 0xbc, 0xe9, 0xd4, 0x6e, 0xbd,
    0x4a, 0xa5, 0x9e, 0xbd, 0x7e, 0x67, 0xfc, 0xbc, 0x69, 0xb3,
    0x75, 0x3c, 0xf2, 0x0a, 0x22, 0x3d, 0xe5, 0xe2, 0x87, 0xbd,
    0xac, 0x74, 0x16, 0x3c, 0x48, 0x42, 0x86, 0xbc, 0x14, 0x52,
    0x80, 0x3d, 0xa2, 0x88, 0x51, 0xbd, 0x99, 0x1e, 0x5a, 0xbd,
    0x33, 0xb8, 0x46, 0x3d, 0xde, 0xda, 0xc0, 0xbd, 0x7d, 0x43,
    0x1d, 0xbe, 0x6a, 0x33, 0xe2, 0xbc, 0x18, 0x57, 0x09, 0xbe,
    0x69, 0x45, 0x9b, 0x3c, 0x22, 0x60, 0x9a, 0x3c, 0x31, 0x45,
    0xbc, 0x3d, 0x74, 0xca, 0x1d, 0xbe, 0xa3, 0x0e, 0xa4, 0x3d,
    0x88, 0x06, 0xda, 0xbc, 0x01, 0xfc, 0x6f, 0x3d, 0x05, 0x71,
    0xf6, 0xbb, 0xd4, 0xdb, 0xf8, 0xbd, 0x1a, 0x7b, 0x1b, 0x3e,
    0xdc, 0x47, 0x0e, 0xbe, 0x67, 0xb3, 0x85, 0xbc, 0x79, 0x09,
    0x3b, 0x3d, 0x62, 0x15, 0xc2, 0xbd, 0xb0, 0xd4, 0x83, 0xbc,
    0x8a, 0x23, 0x19, 0x3c, 0xc9, 0x32, 0xad, 0x3b, 0x88, 0x3d,
    0xee, 0x3c, 0x5d, 0xd2, 0x8d, 0x3d, 0xee, 0x34, 0xed, 0xbc,
    0xbb, 0xf4, 0x0c, 0x3e, 0x41, 0x77, 0x49, 0xbe, 0xeb, 0x1c,
    0xd5, 0x3d, 0x6b, 0x96, 0x12, 0x3e, 0x1c, 0x52, 0x21, 0xbc,
    0x7a, 0x81, 0x10, 0xbe, 0x13, 0xfd, 0xce, 0x3d, 0xbe, 0x9c,
    0xd8, 0x3b, 0xac, 0xed, 0x2c, 0xbd, 0x38, 0x3d, 0xac, 0xbd,
    0x36, 0x38, 0x0a, 0xbe, 0xfe, 0x06, 0x0a, 0xbc, 0x6c, 0xaf,
    0xc0, 0x3d, 0x22, 0x58, 0xe4, 0xbd, 0xbd, 0xc5, 0xb7, 0x3d,
    0x36, 0xb2, 0xb5, 0x3d, 0x64, 0x5c, 0x32, 0x3b, 0x11, 0x6c,
    0xbe, 0xbc, 0x43, 0xd5, 0xd2, 0xbd, 0xfa, 0x3f, 0xf0, 0x3d,
    0xab, 0x6e, 0x49, 0xbd, 0xa0, 0xfa, 0x77, 0x3c, 0xa9, 0xcb,
    0xf6, 0x3d, 0x64, 0x51, 0x64, 0x3c, 0x4d, 0x97, 0x02, 0x3d,
    0x21, 0xea, 0x89, 0x3c, 0x91, 0x7b, 0xc2, 0x3d, 0xd9, 0x39,
    0x95, 0x3c, 0x99, 0x9a, 0xab, 0xbd, 0xa9, 0x39, 0x9a, 0x3d,
    0xa2, 0x23, 0x34, 0x3d, 0xd9, 0xf7, 0x9c, 0xbd, 0xdc, 0x7e,
    0xe9, 0x3d, 0x8e, 0xff, 0x87, 0x3d, 0x5f, 0x9a, 0x9b, 0xbd,
    0xc5, 0xa2, 0x5c, 0xbc, 0x35, 0x33, 0xcd, 0xbc, 0xd7, 0xdd,
    0x3f, 0x3d, 0x61, 0x1a, 0x91, 0x3d, 0x05, 0x18, 0xce, 0x3d,
    0x6c, 0xf7, 0xd0, 0xbd, 0xc5, 0xee, 0xa1, 0x3d, 0x54, 0x06,
    0x05, 0x3e, 0x16, 0xd4, 0x2f, 0x3d, 0x26, 0x72, 0xdc, 0xbd,
    0xf4, 0x01, 0x00, 0xbd, 0x72, 0x4a, 0xf4, 0x3d, 0xcf, 0x8d,
    0xfd, 0x3a, 0xbc, 0xf0, 0x92, 0x3c, 0x32, 0x21, 0x46, 0xbd,
    0x63, 0xf4, 0xd8, 0x3c, 0x8c, 0x54, 0x90, 0xbd, 0x37, 0x39,
    0x0b, 0xba, 0x18, 0xf5, 0x81, 0xbc, 0x3d, 0x25, 0xdb, 0xbd,
    0x7e, 0xe6, 0xc9, 0x3d, 0x20, 0xba, 0x3d, 0xbd, 0x16, 0x49,
    0x0a, 0xbe, 0x20, 0x53, 0xd1, 0xbd, 0x8a, 0x17, 0x8c, 0x3d,
    0xda, 0xcc, 0xf7, 0xbd, 0xd6, 0x2b, 0x61, 0xbc, 0x17, 0x5c,
    0x87, 0x3d, 0xbc, 0xb3, 0xfb, 0x3b, 0x03, 0x4b, 0xd2, 0xbc,
    0x50, 0x76, 0xd8, 0xbd, 0xda, 0xe9, 0x27, 0xbe, 0x95, 0x34,
    0x00, 0xbe, 0xa7, 0xe7, 0xfa, 0x3d, 0x72, 0xae, 0xe1, 0xbc,
    0x82, 0x32, 0xb9, 0xbd, 0xc0, 0x8b, 0x85, 0xbc, 0x40, 0xfc,
    0x66, 0x3c, 0x7e, 0x18, 0xb6, 0x3c, 0xc2, 0x63, 0x08, 0xbd,
    0xff, 0xbf, 0xed, 0x3d, 0x29, 0x5a, 0x83, 0xbd, 0x49, 0xb1,
    0xe5, 0x3d, 0x3e, 0x75, 0x83, 0x3d, 0xf9, 0x04, 0x70, 0x3d,
    0x6f, 0x06, 0x4d, 0xbd, 0x8e, 0x4d, 0x25, 0x3d, 0xb4, 0xb4,
    0x44, 0xbd, 0xb8, 0xdc, 0x08, 0xbd, 0x71, 0xe9, 0xa1, 0x3d,
    0x5e, 0xb8, 0xa5, 0x3d, 0x42, 0xa1, 0xb9, 0xbd, 0xfe, 0x65,
    0xd3, 0x3c, 0x5f, 0x2f, 0xdc, 0x3d, 0x5f, 0x87, 0x0a, 0x3e,
    0x74, 0xd7, 0xc9, 0x3d, 0xa0, 0xff, 0xda, 0x3d, 0x55, 0xa4,
    0xea, 0xbd, 0xe5, 0xb1, 0x1a, 0x3e, 0x5d, 0x34, 0x0d, 0x3e,
    0x9b, 0x5d, 0xcd, 0xbd, 0x96, 0x9c, 0xd6, 0xbd, 0x7f, 0x33,
    0x71, 0x3c, 0x48, 0xd2, 0x97, 0x3b, 0xc1, 0x4f, 0xc5, 0xbc,
    0xae, 0xc0, 0x92, 0xbd, 0x0a, 0x29, 0x0e, 0xbe, 0x3c, 0xba,
    0xd6, 0x3d, 0x0d, 0xc7, 0x8b, 0xbd, 0x6b, 0x06, 0xb5, 0xbd,
    0x3e, 0xf2, 0x7c, 0x3d, 0x5e, 0xbd, 0x85, 0xbd, 0x97, 0x20,
    0x94, 0xbb, 0x7d, 0xdd, 0x5d, 0x3d, 0xe0, 0x6e, 0x12, 0xbc,
    0xf0, 0x70, 0x30, 0x3d, 0x31, 0xff, 0x81, 0xbd, 0xea, 0x48,
    0xbb, 0x3c, 0x25, 0x19, 0xd9, 0xbd, 0x18, 0xbc, 0x97, 0x3c,
    0x25, 0x57, 0xff, 0x3d, 0xaa, 0xe3, 0x4d, 0x3c, 0x6e, 0x6a,
    0x80, 0xbd, 0xe8, 0x37, 0xca, 0x3c, 0xa4, 0x0b, 0xf0, 0x3d,
    0xd0, 0x82, 0xd9, 0x3d, 0x58, 0xbb, 0x95, 0x3c, 0xd4, 0x06,
    0xda, 0x3d, 0x02, 0xe1, 0x91, 0x3d, 0x8b, 0x6f, 0xc0, 0x3d,
    0x6e, 0x19, 0xa0, 0x3d, 0xfa, 0xf7, 0x4d, 0x3e, 0x2f, 0x38,
    0x92, 0x3c, 0x74, 0xf5, 0xf3, 0xbb, 0x03, 0x83, 0xb9, 0xbc,
    0x89, 0x8a, 0x84, 0x3d, 0x79, 0x66, 0x22, 0x3c, 0xa5, 0x79,
    0xf7, 0x3d, 0x4c, 0xcb, 0xd3, 0xbc, 0x30, 0xec, 0xbe, 0x3d,
    0x4d, 0xf8, 0x26, 0x3d, 0xc9, 0x31, 0x90, 0x3d, 0xf1, 0x5d,
    0xb6, 0x3d, 0xff, 0xa9, 0x3d, 0xbd, 0xc8, 0x32, 0x90, 0xbd,
    0xe0, 0x26, 0xa0, 0x3d, 0xd1, 0xf7, 0x15, 0x3d, 0x2a, 0xd3,
    0x81, 0x3d, 0x6b, 0x2f, 0xae, 0xbd, 0x90, 0x6c, 0x0a, 0xbd,
    0x9e, 0x75, 0xa7, 0x3d, 0x51, 0x4f, 0xe2, 0x3d, 0xed, 0xa1,
    0xdc, 0xbd, 0xae, 0x72, 0x3d, 0x3d, 0x9a, 0x99, 0x94, 0x3d,
    0x75, 0x8d, 0x57, 0x3d, 0x20, 0x19, 0x0b, 0xbe, 0x5b, 0xf7,
    0xc9, 0xbc, 0x4c, 0x59, 0x98, 0xbd, 0xbf, 0x81, 0x7b, 0x3d,
    0x64, 0xb7, 0xa2, 0xbd, 0xce, 0x1a, 0xd7, 0x3d, 0x8a, 0x41,
    0x1d, 0x3d, 0x86, 0x7a, 0x21, 0xbe, 0xa0, 0x0c, 0xc0, 0x3d,
    0xbb, 0x3b, 0xc2, 0x3c, 0xc2, 0xd9, 0xf9, 0xbc, 0x96, 0xb3,
    0xec, 0x3d, 0xf4, 0xd5, 0xed, 0xbd, 0x2b, 0x0b, 0xdf, 0xbd,
    0x3e, 0x45, 0x2d, 0x3d, 0x77, 0x4d, 0x97, 0x3d, 0x88, 0xcf,
    0xa8, 0x3c, 0xd2, 0x40, 0xad, 0xbc, 0x7d, 0x4f, 0xb1, 0x3c,
    0xd2, 0x8f, 0xb0, 0xbc, 0xf6, 0xfc, 0xaf, 0xbb, 0x61, 0x11,
    0xc3, 0xbd, 0xb2, 0xe4, 0xc0, 0xbd, 0xc0, 0x8c, 0xc2, 0xbd,
    0xa1, 0xf0, 0x03, 0xbe, 0x28, 0x02, 0x85, 0xbd, 0x8a, 0x94,
    0xa3, 0xbb, 0xea, 0x1f, 0x42, 0x3d, 0x05, 0xc0, 0x02, 0xbd,
    0x37, 0x65, 0xa1, 0x3d, 0x83, 0x70, 0x6f, 0x3d, 0xeb, 0xec,
    0x46, 0x3c, 0x0e, 0x83, 0xf4, 0xbd, 0xad, 0x8b, 0x85, 0xbd,
    0x60, 0x7f, 0x47, 0x3c, 0x9a, 0xce, 0x82, 0xbd, 0x52, 0x18,
    0xe6, 0xbd, 0xa2, 0x70, 0x0e, 0xbe, 0xc0, 0xbe, 0xd8, 0x3d,
    0xcd, 0x7f, 0xa6, 0x3d, 0x3b, 0x39, 0x0b, 0xbd, 0x37, 0xaf,
    0x24, 0xbd, 0x4b, 0x6a, 0x97, 0x3c, 0xb8, 0x0d, 0xb1, 0x3d,
    0x03, 0x31, 0x83, 0xbd, 0x9b, 0xbc, 0x62, 0xbb, 0xe2, 0xb8,
    0xcb, 0x3d, 0x1a, 0x8c, 0x90, 0xbb, 0x9c, 0x21, 0x0d, 0x3b,
    0x6b, 0xd7, 0xbd, 0x3c, 0xf8, 0x38, 0x7a, 0x3d, 0x74, 0xf1,
    0xbb, 0x3d, 0xd8, 0x27, 0x2f, 0xbe, 0xf6, 0x8d, 0x04, 0x3e,
    0xf5, 0x7a, 0x13, 0xbd, 0x41, 0xcd, 0xf4, 0xbd, 0xa0, 0x3c,
    0x57, 0x3b, 0x55, 0x60, 0xd1, 0x3d, 0x20, 0x15, 0xaa, 0x3c,
    0xfd, 0x26, 0x97, 0xbc, 0x6f, 0x0d, 0x24, 0xbe, 0xac, 0x9a,
    0xa3, 0x3c, 0xfe, 0x5e, 0xb3, 0xbd, 0xc1, 0x7a, 0xa1, 0xbd,
    0x2d, 0xbe, 0x6b, 0xbd, 0x93, 0x45, 0x05, 0xbe, 0x2d, 0x1f,
    0xbd, 0x3d, 0x0d, 0x79, 0x44, 0x3e, 0x28, 0xce, 0x06, 0xbc,
    0xc5, 0x0e, 0x7d, 0xbd, 0x64, 0xc0, 0xb6, 0xbd, 0x6e, 0xb5,
    0x5f, 0x3b, 0x51, 0x2d, 0x7c, 0x3d, 0x99, 0x71, 0xdc, 0xbd,
    0xa3, 0x8f, 0xd1, 0xbd, 0x9f, 0xa7, 0x12, 0xbe, 0x22, 0x55,
    0xa0, 0xbd, 0x0f, 0xc2, 0x1f, 0x3c, 0x55, 0xa7, 0xce, 0x3d,
    0x25, 0x07, 0x9b, 0xbd, 0xac, 0x1f, 0x3f, 0x3d, 0xf2, 0x31,
    0x90, 0xbd, 0xf1, 0x67, 0x6f, 0x3d, 0x40, 0xec, 0xd1, 0x3d,
    0x2f, 0xd9, 0x0b, 0xbc, 0xeb, 0x18, 0x75, 0xbd, 0x9e, 0x9f,
    0x0c, 0xbd, 0xdb, 0xa0, 0x59, 0x3d, 0x39, 0xbc, 0x2c, 0xbc,
    0x08, 0x44, 0x2d, 0xbd, 0x13, 0x1d, 0xcb, 0x3c, 0xde, 0x80,
    0xa0, 0x3d, 0xb4, 0xfa, 0x2d, 0xbd, 0xe3, 0xd8, 0x16, 0xbc,
    0xf4, 0x03, 0x8c, 0x3d, 0x55, 0x31, 0x13, 0x3d, 0xe7, 0x93,
    0xb1, 0x3d, 0xff, 0xab, 0xff, 0x3d, 0x2d, 0x1e, 0x89, 0x3d,
    0xc1, 0x22, 0xed, 0x3d, 0x63, 0x27, 0x58, 0x3d, 0x57, 0xc4,
    0xd2, 0x3d, 0xd3, 0x44, 0x3b, 0xbd, 0xcc, 0x64, 0x55, 0x3d,
    0x7d, 0x80, 0x83, 0xbc, 0x2b, 0x4d, 0xf9, 0x3d, 0x00, 0xcc,
    0xc0, 0xbd, 0x3e, 0xaf, 0xfd, 0x3d, 0x1b, 0xc9, 0xae, 0xbd,
    0x2d, 0xf1, 0x34, 0x3c, 0x8b, 0x67, 0x88, 0xbd, 0xb7, 0x11,
    0xf8, 0xbc, 0x48, 0xd2, 0x57, 0xbd, 0xdc, 0x41, 0x0c, 0xbe,
    0xb8, 0x35, 0xcf, 0xbd, 0xb3, 0x65, 0x34, 0x3d, 0x12, 0x87,
    0x2f, 0xbd, 0xcf, 0x0c, 0x2c, 0xbd, 0x8e, 0x31, 0xbe, 0xbd,
    0x15, 0x3b, 0xe2, 0x3d, 0x6f, 0x66, 0x4d, 0xbd, 0xb6, 0x42,
    0x15, 0xbe, 0x62, 0x74, 0xcf, 0xbc, 0x3c, 0x95, 0xc7, 0xbd,
    0x64, 0xfe, 0x7b, 0xbd, 0xc0, 0x80, 0xd7, 0x3d, 0xf1, 0x62,
    0x06, 0xbe, 0x1d, 0xfa, 0xdf, 0x3d, 0x07, 0x43, 0x1d, 0xbd,
    0xd5, 0x5a, 0x36, 0xbc, 0xcf, 0xd9, 0x82, 0x3d, 0x43, 0x8c,
    0xc6, 0xbd, 0xd9, 0xc9, 0x43, 0x3d, 0xca, 0x7b, 0xbd, 0xbc,
    0xfa, 0x2a, 0x20, 0x3d, 0x06, 0x64, 0x62, 0xbd, 0x45, 0x7d,
    0xba, 0x3d, 0xc1, 0x01, 0x10, 0x3d, 0xf9, 0x6d, 0xe8, 0xbd,
    0x54, 0x11, 0x08, 0x3d, 0xf6, 0x13, 0xd6, 0xbc, 0x32, 0x1b,
    0x6e, 0xbd, 0x66, 0xf9, 0x9c, 0xbc, 0xe9, 0x1a, 0xfa, 0xbd,
    0xb2, 0x75, 0x0c, 0xbd, 0x4d, 0xf3, 0x82, 0x3d, 0x8d, 0xac,
    0xb1, 0x3c, 0x3e, 0x53, 0x0c, 0xbe, 0xe1, 0x31, 0x90, 0x3d,
    0xe8, 0xbf, 0x18, 0x3e, 0x60, 0x27, 0x1d, 0xbd, 0x87, 0xdb,
    0xd5, 0xbd, 0x99, 0x68, 0xf7, 0x3d, 0x26, 0x4b, 0xa4, 0x3c,
    0x2d, 0x2d, 0x7a, 0x3c, 0xaa, 0xe8, 0xe6, 0x3d, 0xfe, 0x6b,
    0xf2, 0x3c, 0x52, 0x5d, 0x29, 0xbd, 0x9a, 0x1a, 0x44, 0xbd,
    0x1d, 0x6d, 0xf7, 0x3d, 0x04, 0xa0, 0x1a, 0x3d, 0xff, 0xaa,
    0xe6, 0xbb, 0x7e, 0x8e, 0x45, 0x3d, 0xca, 0xe5, 0x2f, 0x3d,
    0x3e, 0xd6, 0x31, 0xbd, 0x9c, 0xa2, 0xd0, 0x3d, 0xe3, 0xf7,
    0xb0, 0xbc, 0x0c, 0xe3, 0xf5, 0xbd, 0x9a, 0x27, 0xfd, 0x39,
    0x9d, 0x6d, 0xa6, 0x3d, 0x11, 0x35, 0x5b, 0x3c, 0x8c, 0xcf,
    0xe0, 0xbc, 0xa4, 0x8e, 0x62, 0xbc, 0x75, 0x03, 0x98, 0xbd,
    0x76, 0xe3, 0xf9, 0x3c, 0x43, 0x5d, 0xa9, 0xbd, 0xc5, 0xd9,
    0x72, 0xbe, 0x52, 0xe7, 0x11, 0xbe, 0x21, 0x4c, 0xda, 0x3d,
    0xb6, 0x95, 0x52, 0x3d, 0x51, 0x72, 0x98, 0x3c, 0xa7, 0xb0,
    0x3a, 0xbd, 0xf8, 0x23, 0x3d, 0xbc, 0xe8, 0x85, 0x7d, 0x3d,
    0x5c, 0x07, 0xe0, 0xbd, 0xbd, 0xc6, 0x7c, 0xbd, 0x31, 0x07,
    0xaa, 0x3d, 0xec, 0xc3, 0x82, 0x3d, 0x99, 0x16, 0x2f, 0x3e,
    0xa9, 0x82, 0x04, 0xbd, 0xd3, 0x3a, 0xc1, 0x3d, 0x32, 0xa9,
    0x95, 0x3d, 0x54, 0x49, 0xec, 0x3d, 0x67, 0x32, 0x57, 0xbc,
    0x17, 0xf1, 0xba, 0xbd, 0x3c, 0x3b, 0x41, 0xbe, 0x5b, 0x28,
    0xab, 0xbd, 0xe3, 0x35, 0x92, 0xbc, 0xc4, 0x50, 0x31, 0xbd,
    0x17, 0xc1, 0xba, 0xbd, 0xe2, 0x48, 0xf3, 0xbc, 0xee, 0x29,
    0xdd, 0xbd, 0xcd, 0x38, 0x02, 0x3d, 0x7e, 0x33, 0x8a, 0xbd,
    0xc7, 0xcc, 0x06, 0x3c, 0x71, 0x2d, 0x50, 0xbc, 0x0b, 0xd8,
    0x08, 0x3c, 0xc4, 0x97, 0x06, 0x3e, 0x0a, 0x8a, 0x64, 0x3c,
    0x64, 0xcd, 0xa6, 0x3d, 0x4e, 0x6a, 0x87, 0xbd, 0x49, 0x8a,
    0x21, 0xbe, 0x85, 0x16, 0x6b, 0x3d, 0x77, 0xd5, 0x91, 0x3d,
    0xdc, 0x5b, 0xcf, 0x3d, 0xa8, 0x13, 0x24, 0x3d, 0x29, 0x27,
    0x44, 0xbb, 0x3a, 0xab, 0xb9, 0x3c, 0x6f, 0xd4, 0x64, 0xbc,
    0xab, 0x12, 0xe2, 0xbc, 0x6d, 0x2e, 0xd7, 0x3d, 0x95, 0x98,
    0xe8, 0x3d, 0x79, 0x43, 0x16, 0xbe, 0xc0, 0xa3, 0x8a, 0xbd,
    0x5a, 0x50, 0x53, 0xbe, 0xa4, 0xfc, 0x2d, 0x3d, 0x67, 0x79,
    0x05, 0x3e, 0xbf, 0xfa, 0xb0, 0x3c, 0x71, 0x17, 0x47, 0x3b,
    0xf3, 0x31, 0xbc, 0xbd, 0x10, 0xb6, 0x03, 0xbd, 0xf8, 0x7b,
    0xcc, 0xbc, 0x63, 0x97, 0xe5, 0x3b, 0x82, 0xe9, 0x1f, 0x3d,
    0x94, 0x7c, 0x3a, 0x3b, 0x8b, 0x27, 0x0b, 0x3e, 0x40, 0xa3,
    0x0d, 0x3e, 0x88, 0x19, 0xed, 0x3b, 0x7f, 0x90, 0x64, 0x3b,
    0xe1, 0x76, 0x03, 0x3d, 0x0e, 0xd4, 0xdb, 0x3d, 0x1d, 0x91,
    0x30, 0xbd, 0xdb, 0x9a, 0x08, 0x3d, 0xc8, 0x4e, 0x87, 0x3c,
    0x7b, 0xef, 0x73, 0x3b, 0x93, 0xc0, 0x7d, 0x3c, 0x04, 0x70,
    0xdd, 0x3c, 0xb5, 0x9f, 0x0f, 0x3d, 0x13, 0x18, 0xc4, 0x3d,
    0x6f, 0xeb, 0x7c, 0x3d, 0xc6, 0x30, 0xb5, 0x3b, 0xcc, 0x9a,
    0x50, 0x3c, 0x0c, 0x5b, 0xe8, 0x3d, 0x4c, 0x87, 0x38, 0xbd,
    0x42, 0xd6, 0x65, 0xbd, 0x16, 0x7a, 0x81, 0x3d, 0x18, 0x4a,
    0xd7, 0x3c, 0x20, 0x48, 0x5d, 0x3d, 0x3f, 0xd4, 0xc3, 0xbd,
    0x29, 0xe3, 0x10, 0xbe, 0xbd, 0x57, 0xaa, 0xbd, 0x97, 0x22,
    0xb7, 0x3d, 0x3d, 0x2e, 0xe8, 0xbd, 0xa9, 0x40, 0xb0, 0xbd,
    0xe6, 0x01, 0x83, 0x3d, 0xf6, 0x3c, 0x9c, 0xb7, 0xf8, 0xf8,
    0x15, 0x3d, 0x4b, 0x35, 0x0b, 0x3e, 0xbd, 0xe8, 0x0c, 0x3d,
    0x56, 0x0c, 0x80, 0x3d, 0xf0, 0x82, 0xb2, 0xbd, 0xff, 0x7c,
    0xdb, 0xbb, 0x90, 0x64, 0x2b, 0xbc, 0x68, 0x15, 0x03, 0xbe,
    0xb8, 0x8e, 0xc9, 0xbd, 0xb6, 0x66, 0x5d, 0xbd, 0x2f, 0x9e,
    0x0c, 0x3c, 0x82, 0x5d, 0xc5, 0xbd, 0x05, 0x15, 0x2a, 0xbd,
    0xe8, 0x54, 0xbc, 0xbd, 0xb6, 0x27, 0x38, 0xbd, 0x1b, 0x09,
    0x75, 0x3d, 0x1f, 0xdd, 0x66, 0x3d, 0xd8, 0x9a, 0x25, 0x3d,
    0xa3, 0x0c, 0x2d, 0x3e, 0x73, 0x26, 0x53, 0xbb, 0x37, 0xd5,
    0xd7, 0xbd, 0xfe, 0x35, 0x45, 0xbd, 0xd7, 0xe0, 0x22, 0x3e,
    0x59, 0x3a, 0x12, 0x3d, 0xec, 0x9c, 0x11, 0xbd, 0x98, 0xe2,
    0x7b, 0xbc, 0x95, 0x8a, 0x8b, 0x3d, 0xa5, 0xc6, 0x1f, 0xbd,
    0x00, 0x61, 0x8d, 0xbd, 0xd5, 0x8c, 0x78, 0x3d, 0xa9, 0x8e,
    0xbc, 0xbd, 0xf6, 0x63, 0xb2, 0xbc, 0x50, 0x42, 0x8c, 0x3c,
    0x45, 0x7e, 0x4d, 0xbe, 0x74, 0xe1, 0x3f, 0xbd, 0x85, 0x37,
    0x74, 0xbc, 0x5e, 0x1b, 0xd8, 0xbd, 0x5f, 0x4c, 0x03, 0x3e,
    0x8e, 0x75, 0x38, 0x3b, 0x3f, 0xc7, 0xab, 0x3d, 0x59, 0xa3,
    0x0b, 0x3d, 0xe7, 0xa8, 0x17, 0xbe, 0xbd, 0xd2, 0x58, 0xbd,
    0xf7, 0xbb, 0xf9, 0x3d, 0x44, 0x3c, 0x6e, 0xbd, 0x23, 0xdc,
    0x84, 0xbd, 0x08, 0x3f, 0xdf, 0xbc, 0x9c, 0xe7, 0x2f, 0x3d,
    0x45, 0x5e, 0x18, 0x3e, 0xfb, 0x20, 0xa2, 0xbc, 0x87, 0x64,
    0xb7, 0xbc, 0x69, 0x0c, 0xf3, 0x3c, 0x1c, 0x52, 0x0e, 0xbd,
    0xc6, 0x4a, 0x96, 0x3d, 0xd1, 0xc8, 0x26, 0xbe, 0xe6, 0xf4,
    0xe2, 0xbc, 0xc5, 0x7e, 0x8b, 0x3d, 0x13, 0xec, 0x11, 0x3d,
    0xc1, 0xa8, 0x86, 0x3c, 0x8c, 0xe7, 0xea, 0x3d, 0x88, 0xe4,
    0x27, 0xbb, 0xaf, 0x72, 0x29, 0xbe, 0x34, 0x50, 0x84, 0xbd,
    0xed, 0x1e, 0xc5, 0x3d, 0xd2, 0xb1, 0x16, 0x3e, 0xd2, 0x9f,
    0x84, 0xbd, 0xc0, 0xaf, 0xb1, 0x3c, 0x88, 0xcb, 0x0b, 0x3e,
    0x48, 0x99, 0xa2, 0xbd, 0xae, 0x82, 0xac, 0x3d, 0x39, 0xb0,
    0x5c, 0x3d, 0xff, 0x79, 0x4a, 0x3d, 0x61, 0x1a, 0x3f, 0x3d,
    0x53, 0xf2, 0xd0, 0xbd, 0xc9, 0x8c, 0xce, 0xbc, 0x61, 0x8f,
    0xdf, 0xba, 0xde, 0x59, 0x83, 0x3c, 0x7a, 0x1b, 0x7d, 0x3d,
    0x6a, 0x50, 0xeb, 0xbc, 0x0e, 0x5b, 0x2c, 0xbd, 0x8f, 0x99,
    0x7d, 0x3d, 0x3f, 0x24, 0xb0, 0xbd, 0xee, 0x2e, 0xe2, 0xbc,
    0x1f, 0x63, 0xca, 0x3d, 0x64, 0x1e, 0x1b, 0x3d, 0x97, 0x80,
    0x8e, 0x3d, 0xc3, 0x73, 0xe8, 0x3c, 0x92, 0x46, 0x38, 0x3d,
    0x08, 0xe2, 0x85, 0x3d, 0x5a, 0x60, 0x43, 0xbd, 0x3a, 0xc9,
    0x6b, 0xbd, 0x75, 0xb0, 0x3b, 0x3d, 0x2e, 0xf8, 0xdb, 0xbd,
    0x9d, 0xe0, 0xa1, 0xbb, 0x2d, 0xcb, 0xf2, 0x3d, 0x0a, 0x3a,
    0xa8, 0xbd, 0xc1, 0x9f, 0x86, 0xbc, 0x94, 0x83, 0xeb, 0xbc,
    0x5e, 0xd5, 0xb4, 0x3a, 0xa6, 0xc3, 0x0a, 0xbe, 0x80, 0x58,
    0xb5, 0xbd, 0xfa, 0x02, 0x44, 0xbd, 0x1e, 0xe2, 0x2c, 0xbe,
    0x7c, 0x57, 0xde, 0xbd, 0xdb, 0x40, 0x7f, 0xbd, 0xa9, 0x93,
    0xc9, 0x3d, 0xec, 0x5b, 0x17, 0xbc, 0x17, 0x02, 0x97, 0xbd,
    0xfc, 0x47, 0x37, 0xbd, 0xba, 0x16, 0xb4, 0xbd, 0xbb, 0xf5,
    0x2f, 0xbd, 0x60, 0xa3, 0x3f, 0x3b, 0xf4, 0x49, 0xc1, 0x3d,
    0xe4, 0xed, 0xf5, 0xbd, 0x93, 0x29, 0xed, 0x3c, 0xb5, 0x2c,
    0xad, 0xbc, 0x9c, 0x5b, 0xab, 0x3c, 0x35, 0x80, 0x77, 0xbd,
    0x90, 0x4c, 0x6c, 0x3d, 0xc9, 0xbc, 0x78, 0x3d, 0xb9, 0xdd,
    0x8d, 0x3d, 0x0b, 0x66, 0xbb, 0x3c, 0x2b, 0x5d, 0x03, 0x3e,
    0x67, 0xd5, 0xb5, 0xbd, 0xf3, 0xc6, 0x04, 0x3c, 0x40, 0x8b,
    0x18, 0x3c, 0x1c, 0x94, 0x85, 0xbd, 0xbd, 0x07, 0x5e, 0xbd,
    0xf9, 0x3a, 0x97, 0x3d, 0x38, 0x71, 0x2f, 0x3c, 0x9d, 0x92,
    0x80, 0x3d, 0x98, 0x6d, 0x5e, 0x3d, 0x39, 0x1b, 0x01, 0xbe,
    0xfe, 0xb6, 0x12, 0x3e, 0x11, 0x30, 0xde, 0x3d, 0xd6, 0x5b,
    0x9b, 0xbd, 0x6c, 0x03, 0x1a, 0x3d, 0xc7, 0x12, 0xd1, 0xbd,
    0xab, 0x2d, 0xb0, 0xbd, 0xed, 0xfd, 0xac, 0xbb, 0x0c, 0x5f,
    0x76, 0x3d, 0xa3, 0xf2, 0x12, 0xbd, 0x56, 0x9e, 0x24, 0x3d,
    0x84, 0xfd, 0x20, 0x3d, 0x29, 0x84, 0x1c, 0x3e, 0xe6, 0x78,
    0x46, 0xbc, 0x28, 0x77, 0xaf, 0xbd, 0x28, 0x6f, 0x0e, 0x3d,
    0x61, 0x91, 0x08, 0xbe, 0x4f, 0x6c, 0x6e, 0x3d, 0x82, 0x84,
    0xde, 0xbc, 0x4a, 0xeb, 0xc6, 0x3b, 0x75, 0x4c, 0x4e, 0x3c,
    0x0e, 0x82, 0x92, 0xbd, 0x61, 0x51, 0x67, 0xbd, 0xe0, 0x35,
    0xee, 0xbc, 0xee, 0x45, 0x7b, 0xbd, 0xaf, 0xcc, 0xdd, 0xbd,
    0x11, 0x48, 0x57, 0x3d, 0xac, 0x50, 0xcd, 0xbc, 0xdf, 0xf7,
    0x83, 0xbd, 0xd6, 0x5d, 0xc2, 0xbd, 0x14, 0x08, 0xd8, 0x3c,
    0x3d, 0x83, 0x9d, 0x3c, 0x5c, 0xeb, 0xab, 0xbd, 0x70, 0x05,
    0xa2, 0xbd, 0x7f, 0xec, 0x57, 0x3d, 0x9b, 0x37, 0xd4, 0x3d,
    0x4a, 0xb6, 0xdb, 0x3c, 0x0f, 0xb7, 0xde, 0x3b, 0x13, 0x71,
    0x89, 0x3d, 0xca, 0xe3, 0xf8, 0xbc, 0xd6, 0xcd, 0x25, 0xbd,
    0x44, 0x18, 0x8d, 0xbd, 0xe3, 0x47, 0x02, 0x3d, 0x74, 0xb1,
    0x8b, 0x3d, 0x8e, 0xbf, 0xca, 0xbd, 0x09, 0x33, 0x25, 0x3e,
    0xce, 0x7f, 0x0d, 0xbd, 0xa2, 0x7a, 0xf8, 0x3c, 0x1f, 0x67,
    0x00, 0xbe, 0xc1, 0xb5, 0x5c, 0x3d, 0xf1, 0xbe, 0x1a, 0xbd,
    0x6c, 0xc4, 0x6f, 0xbc, 0xf4, 0xd0, 0x8c, 0x3d, 0x96, 0xb1,
    0xa0, 0xbd, 0xaf, 0x8e, 0x86, 0x3c, 0x4b, 0x2e, 0xa9, 0xbd,
    0x73, 0x34, 0xe2, 0xbd, 0xf4, 0xf2, 0xd7, 0xbd, 0x48, 0x74,
    0x53, 0x3c, 0x70, 0xf5, 0x86, 0xbd, 0x6b, 0xd2, 0xfc, 0x3d,
    0xc3, 0x75, 0x72, 0x3c, 0x71, 0x33, 0x81, 0x3d, 0xf6, 0xab,
    0xc7, 0x3d, 0xdc, 0x1f, 0xdf, 0x3c, 0xfa, 0x6b, 0x68, 0x3c,
    0x8c, 0x04, 0x00, 0xbd, 0x8e, 0x7f, 0xbe, 0xbd, 0x63, 0xcf,
    0x36, 0xbe, 0x3f, 0xfb, 0x0e, 0x3e, 0xc7, 0x93, 0x2f, 0xbd,
    0x98, 0x23, 0x26, 0x3b, 0x35, 0x0d, 0xb2, 0xbd, 0x24, 0x81,
    0x09, 0xbd, 0x4b, 0x9b, 0x9a, 0x3d, 0xaf, 0x96, 0x0d, 0xbe,
    0x1b, 0x2f, 0xa4, 0xbd, 0x13, 0x73, 0xf8, 0x3d, 0xfd, 0xde,
    0x08, 0xbe, 0xcb, 0x2f, 0xf3, 0x3d, 0x41, 0xe5, 0x89, 0xbc,
    0xab, 0xca, 0xf8, 0x3c, 0x59, 0x66, 0x43, 0xbd, 0xa5, 0x0e,
    0x1d, 0xba, 0xb6, 0x18, 0x2b, 0x3e, 0x44, 0x09, 0x44, 0x3d,
    0x22, 0x1b, 0xb2, 0xbd, 0x94, 0x5f, 0xce, 0xbc, 0x0b, 0x09,
    0xde, 0xbc, 0x37, 0x08, 0x2f, 0xbd, 0x74, 0xc8, 0x27, 0x3e,
