#include "network_data.h"

ai_handle ai_network_data_weights_get(void)
{

  AI_ALIGNED(4)
  static const ai_u8 s_network_weights[ 8792 ] = {
    0xd8, 0xd4, 0xe1, 0x3d, 0x25, 0x5d, 0x75, 0x3c, 0x6f, 0xfe,
    0x40, 0x3e, 0xb3, 0x75, 0x7a, 0xbe, 0xd6, 0x24, 0xb0, 0xbb,
    0x81, 0x52, 0x66, 0x3e, 0x68, 0x4f, 0x90, 0x3e, 0xa8, 0x6e,
    0x8b, 0xbd, 0xe6, 0x92, 0x9c, 0x3e, 0x5e, 0xba, 0xbf, 0xbe,
    0xfd, 0x74, 0x91, 0xbe, 0x24, 0xee, 0x20, 0xbe, 0xe3, 0xe7,
    0xef, 0xbe, 0xca, 0x7a, 0xc4, 0xbe, 0x0c, 0x90, 0x0d, 0xbe,
    0xe2, 0x1a, 0x3d, 0x3e, 0x9e, 0x45, 0xc3, 0xbe, 0x4c, 0xad,
    0xaa, 0x3e, 0xf9, 0x80, 0x85, 0xbe, 0x20, 0x87, 0xad, 0x3d,
    0x92, 0xa0, 0xb9, 0xbc, 0x41, 0x9f, 0xd1, 0xbe, 0xfb, 0x29,
    0x51, 0xbe, 0xbb, 0x99, 0xb1, 0x3e, 0x63, 0xf1, 0x52, 0x3c,
    0x00, 0x1c, 0x79, 0x3e, 0x11, 0x85, 0xdc, 0x3e, 0x0c, 0x74,
    0x88, 0xbd, 0xaf, 0x4e, 0x85, 0xbe, 0xa3, 0x10, 0x23, 0x3e,
    0x30, 0xbe, 0xa3, 0x3e, 0x76, 0x2d, 0xc4, 0x3d, 0x7e, 0x83,
    0x92, 0xbe, 0x5a, 0xd4, 0x45, 0xbe, 0x14, 0xaa, 0x67, 0xbd,
    0x0f, 0x8e, 0xa9, 0xbe, 0x2f, 0x18, 0xff, 0x3c, 0x6e, 0x8c,
    0xd2, 0x3d, 0xa7, 0x27, 0x50, 0x3d, 0x01, 0x60, 0x85, 0x3d,
    0xed, 0x86, 0x86, 0x3d, 0xb4, 0xac, 0xa6, 0x3d, 0x69, 0x55,
    0xa1, 0x3c, 0xa9, 0x02, 0x6f, 0x3e, 0xd5, 0x0e, 0x8d, 0xbd,
    0x1f, 0x63, 0xe0, 0xbd, 0xec, 0x8d, 0x7e, 0x3e, 0x5f, 0x0e,
    0x77, 0xbe, 0xf3, 0x66, 0x19, 0xbe, 0x33, 0x65, 0x67, 0x3d,
    0x82, 0xcd, 0x09, 0x3e, 0x74, 0x9b, 0x28, 0x3d, 0xa3, 0xbe,
    0x79, 0xbe, 0xae, 0x14, 0x3c, 0x3e, 0xb2, 0xb5, 0x81, 0xbe,
    0x2f, 0x93, 0x04, 0xbe, 0x75, 0xf1, 0x8c, 0x3e, 0x2c, 0xea,
    0x7f, 0x3e, 0x42, 0xe0, 0x86, 0xbd, 0xb4, 0x07, 0x2e, 0x3e,
    0x5a, 0x2b, 0x2e, 0x3e, 0x5b, 0xe5, 0x2a, 0xbe, 0x3b, 0x91,
    0x14, 0x3e, 0x9d, 0xcd, 0xe7, 0xbd, 0x67, 0x4d, 0xef, 0xbc,
    0x92, 0xbf, 0x22, 0xbe, 0x7d, 0x63, 0xf1, 0x3c, 0x4e, 0xb0,
    0x0e, 0xbd, 0xc7, 0xe4, 0x41, 0x3e, 0x4d, 0x73, 0x16, 0x3e,
    0xa9, 0x3c, 0x80, 0x3e, 0x4c, 0x15, 0x09, 0x3e, 0x1e, 0x46,
    0xb6, 0x3c, 0x72, 0x63, 0x8c, 0xbe, 0x7c, 0x74, 0xdf, 0x3d,
    0xa1, 0xea, 0xa3, 0xbd, 0xc5, 0x94, 0x8c, 0x3d, 0xb3, 0x14,
    0x67, 0xbe, 0x4d, 0x80, 0x01, 0xbe, 0x0c, 0xa6, 0x86, 0x3e,
    0x7e, 0xcc, 0xa5, 0xbd, 0x6c, 0x2f, 0x85, 0xbd, 0x81, 0x24,
    0x19, 0xbe, 0x6c, 0x5e, 0x69, 0x3c, 0x33, 0x1f, 0x74, 0x3d,
    0x06, 0xe1, 0xea, 0xbd, 0x7f, 0x81, 0x1e, 0xbd, 0x18, 0x1b,
    0xdb, 0x3d, 0xc3, 0x96, 0x2f, 0x3e, 0x4b, 0x50, 0xce, 0x3d,
    0xea, 0xd7, 0xa2, 0x3d, 0x18, 0x21, 0x01, 0x3e, 0x92, 0x52,
    0x50, 0xba, 0x28, 0xd6, 0xfe, 0xbb, 0x31, 0x10, 0x9c, 0xba,
    0xcc, 0x59, 0xd8, 0x3c, 0x93, 0x1a, 0xe4, 0x3d, 0x6b, 0x3d,
    0xc0, 0x3b, 0x0a, 0xfd, 0x28, 0xbe, 0x57, 0xb5, 0x10, 0x3e,
    0xb1, 0x58, 0xa4, 0x3d, 0xa3, 0x3d, 0x8d, 0xbe, 0x70, 0xd0,
    0xa6, 0xbd, 0x49, 0x46, 0x09, 0xbe, 0x6c, 0xb9, 0x5d, 0x3e,
    0x8c, 0x35, 0x14, 0xbe, 0x3b, 0x08, 0xd5, 0x3d, 0xd5, 0x2d,
    0x23, 0xbd, 0xa9, 0xec, 0x3c, 0xbe, 0x6d, 0x75, 0x73, 0x3e,
    0x54, 0xf5, 0xe5, 0x3d, 0x7d, 0xe9, 0x9d, 0xbc, 0xdb, 0x56,
    0x7a, 0xbe, 0x91, 0x27, 0x50, 0x3e, 0x7b, 0xba, 0x05, 0x3e,
    0x46, 0xc5, 0xb0, 0xbd, 0x52, 0xb7, 0x02, 0x3e, 0x07, 0x37,
    0x03, 0xbe, 0x06, 0xed, 0x18, 0xbe, 0xf0, 0x98, 0x90, 0x3d,
    0xf9, 0x07, 0x7d, 0x3e, 0x3c, 0x6c, 0xf6, 0xbc, 0x6b, 0x49,
    0xcc, 0x3d, 0xf0, 0x14, 0x56, 0xbe, 0x7c, 0xde, 0x19, 0x3e,
    0x8d, 0x27, 0x48, 0x3e, 0x3d, 0xf2, 0x86, 0x3e, 0x8c, 0x3a,
    0x95, 0x3d, 0xe0, 0x2c, 0xc0, 0x3d, 0x20, 0x15, 0x6b, 0xbe,
    0x19, 0xf7, 0x4f, 0x3e, 0xb0, 0xa4, 0xe3, 0xbd, 0xee, 0xd1,
    0x37, 0x3c, 0x96, 0x4a, 0x9c, 0x3d, 0x40, 0x84, 0x5b, 0x3d,
    0x72, 0xc4, 0x8e, 0x39, 0x05, 0xac, 0xff, 0x3d, 0x72, 0x0d,
    0xdd, 0xbd, 0x1f, 0xf5, 0x97, 0x3d, 0xc4, 0x03, 0x5c, 0x3e,
    0xeb, 0xf7, 0x4e, 0xbe, 0xbc, 0x4d, 0x98, 0xbe, 0xc7, 0x55,
    0xa2, 0xbd, 0xfc, 0x4f, 0x04, 0x3e, 0x03, 0x6c, 0x89, 0x3e,
    0x07, 0xec, 0x87, 0x3c, 0xc5, 0xdb, 0x7f, 0xbe, 0xd8, 0x97,
    0x28, 0x3e, 0x30, 0x42, 0xea, 0xbc, 0x0c, 0x11, 0x4b, 0x3c,
    0x0a, 0x55, 0x80, 0x3e, 0x29, 0xee, 0x82, 0xbd, 0xda, 0xb4,
    0xaf, 0x3d, 0x77, 0xe0, 0xcb, 0xbd, 0xd5, 0x85, 0x14, 0x3e,
    0x25, 0x78, 0x09, 0xbc, 0x3f, 0xc3, 0x59, 0x3e, 0x2b, 0xfe,
    0xe3, 0xbd, 0x18, 0x61, 0x89, 0xbd, 0xcb, 0x58, 0x33, 0x3e,
    0xa0, 0xed, 0x27, 0x3d, 0x57, 0xbf, 0x9a, 0x3d, 0x40, 0x55,
    0x6a, 0x3e, 0x06, 0x5d, 0x08, 0xbe, 0x42, 0x65, 0xa9, 0x3d,
    0x96, 0xde, 0xa4, 0xbd, 0xca, 0xd8, 0x96, 0xbc, 0x5c, 0xe2,
    0xba, 0xbd, 0xb2, 0xdd, 0xf6, 0xbd, 0x79, 0x33, 0x36, 0x3e,
    0x15, 0xdb, 0x1f, 0x3d, 0x2e, 0xce, 0x9f, 0x3d, 0x46, 0x1b,
    0x1e, 0x3e, 0x08, 0x37, 0x24, 0x3e, 0x3d, 0xe1, 0xe7, 0x3d,
    0x5d, 0x72, 0x57, 0xbe, 0x84, 0x57, 0x90, 0x3e, 0xbd, 0xdf,
    0x28, 0xbe, 0x38, 0x6d, 0xdc, 0x3d, 0x15, 0x45, 0x7a, 0xbe,
    0x34, 0x84, 0x22, 0x3e, 0xde, 0x4a, 0x31, 0xbe, 0xa3, 0x20,
    0x15, 0xbe, 0xad, 0x6d, 0x0b, 0x3e, 0xde, 0xbd, 0xe2, 0x3d,
    0xfa, 0xdb, 0x5b, 0x3e, 0x37, 0x21, 0x84, 0x3d, 0xb1, 0xb0,
    0xac, 0x3d, 0x87, 0x88, 0xa5, 0xbd, 0x95, 0xff, 0x24, 0x3e,
    0x32, 0x67, 0xce, 0x3d, 0xa9, 0x0a, 0x76, 0x3e, 0x6c, 0xe3,
    0xb2, 0xbc, 0xb7, 0xe3, 0x9b, 0xbd, 0x3c, 0xf0, 0xb2, 0xbc,
    0xda, 0x5d, 0xbb, 0xbd, 0x9b, 0xa9, 0x0a, 0x3e, 0x81, 0x8a,
    0xc0, 0x3d, 0x27, 0x93, 0xa4, 0x3c, 0x09, 0xd0, 0x29, 0xbe,
    0x68, 0x53, 0xbf, 0xbc, 0x53, 0xf6, 0xf0, 0xbd, 0x1e, 0xa4,
    0x75, 0xbd, 0x15, 0x2e, 0x4a, 0x3e, 0xb5, 0x0d, 0x96, 0x3b,
    0x8f, 0xc0, 0xa0, 0xbd, 0x4d, 0xe6, 0xa0, 0xbc, 0xa3, 0x1d,
    0x22, 0x3e, 0x1b, 0x4f, 0x3e, 0xbd, 0xb7, 0x22, 0x71, 0xbd,
    0xe6, 0x6b, 0x55, 0x3e, 0xad, 0xcb, 0x6a, 0x3e, 0x57, 0x9f,
    0x5c, 0xbe, 0xef, 0x70, 0x54, 0xbe, 0xed, 0xa1, 0x54, 0x3e,
    0xd6, 0x51, 0x2e, 0xbe, 0x09, 0x0b, 0x8b, 0x3e, 0x1a, 0xbe,
    0x46, 0xbe, 0x9e, 0xf1, 0x7d, 0xbc, 0x96, 0xea, 0x81, 0xbe,
    0x6d, 0xbd, 0xbb, 0xba, 0xed, 0xad, 0xd8, 0x3c, 0x9b, 0xd9,
    0x68, 0x3e, 0x32, 0x48, 0x4f, 0xbe, 0x94, 0x57, 0x59, 0xbe,
    0x14, 0x4c, 0xae, 0x3c, 0x1c, 0xcf, 0x3c, 0x3e, 0xd9, 0xc3,
    0x67, 0x3d, 0x75, 0xbc, 0x4d, 0xbc, 0x74, 0x8f, 0x3b, 0xbd,
    0x6e, 0xfa, 0x14, 0x3e, 0x9d, 0x05, 0xbb, 0x3d, 0x10, 0x6b,
    0xf0, 0xba, 0xfb, 0xeb, 0x01, 0xbd, 0x70, 0xcf, 0x62, 0xbd,
    0x33, 0x43, 0xdd, 0xbd, 0xae, 0x6d, 0xe2, 0xbd, 0xaa, 0x77,
    0x89, 0x3d, 0x2f, 0xcb, 0x38, 0xbe, 0x92, 0x33, 0x46, 0xbe,
    0xa5, 0x42, 0x1a, 0xbe, 0xbd, 0x93, 0x84, 0x3d, 0x5c, 0xe2,
    0x34, 0x3e, 0x84, 0x3c, 0x53, 0xbd, 0xc1, 0x54, 0xab, 0xbd,
    0x7a, 0x0f, 0x84, 0x3e, 0x58, 0x40, 0x57, 0x3e, 0x85, 0x35,
    0x1d, 0x3e, 0x91, 0x6d, 0xd2, 0x3a, 0x66, 0x31, 0x7d, 0xbd,
    0x79, 0x61, 0x6d, 0x3d, 0x7a, 0xa8, 0xf3, 0x3c, 0x67, 0x72,
    0x58, 0x3e, 0xdc, 0xa6, 0x81, 0xbe, 0x69, 0x5f, 0x64, 0xbd,
    0xab, 0x84, 0x7b, 0x3d, 0x23, 0xd2, 0x4d, 0xbe, 0xe2, 0x81,
    0xd2, 0x3d, 0xce, 0x42, 0x6d, 0xbd, 0x52, 0x30, 0x35, 0x3e,
    0x23, 0x01, 0x6c, 0x3d, 0xad, 0x92, 0xc5, 0xbd, 0x9c, 0x11,
    0x2c, 0xbe, 0xae, 0x54, 0x99, 0x3c, 0x98, 0x94, 0x30, 0x3e,
    0xdc, 0x66, 0x73, 0xbd, 0xa9, 0x1b, 0xea, 0xbc, 0x68, 0x05,
    0x0b, 0xbe, 0x5c, 0x50, 0x03, 0xbe, 0xd9, 0x03, 0x96, 0x3e,
    0xb1, 0x52, 0x87, 0x3e, 0x77, 0xfe, 0x1a, 0x3e, 0x83, 0x62,
    0x63, 0xbc, 0x8a, 0x4e, 0x3d, 0xbc, 0xae, 0x79, 0xa0, 0x3e,
    0x70, 0xd9, 0x4a, 0x3e, 0xb3, 0x0d, 0xd5, 0x3d, 0xad, 0xca,
    0x2c, 0x3e, 0x88, 0x17, 0x41, 0x3d, 0xcb, 0xbb, 0x3f, 0x3e,
    0xde, 0xeb, 0x52, 0xbe, 0xd9, 0xea, 0x80, 0x3e, 0xad, 0x29,
    0x68, 0xba, 0xdb, 0xb3, 0x2d, 0x3e, 0x3d, 0x18, 0x83, 0xbd,
    0x45, 0x9c, 0x92, 0xbd, 0x71, 0x8a, 0x99, 0x3c, 0x04, 0x4a,
    0x53, 0xbe, 0x3d, 0xe4, 0xff, 0x3d, 0xe8, 0x48, 0x01, 0xbb,
    0x44, 0xa7, 0x43, 0xbe, 0xf8, 0x37, 0x5e, 0x3e, 0xda, 0x21,
    0x44, 0xbe, 0x40, 0x5a, 0x0a, 0xbe, 0xf4, 0x0f, 0x32, 0x3e,
    0x91, 0xbb, 0x16, 0x3d, 0x2c, 0xfb, 0x92, 0x3d, 0x14, 0x39,
    0x96, 0x3e, 0xc8, 0x4b, 0x99, 0xbc, 0x9e, 0xaf, 0x00, 0x3e,
    0xfe, 0xdf, 0x57, 0x3e, 0x71, 0x88, 0x74, 0x3e, 0x5b, 0x94,
    0x2f, 0xbd, 0x52, 0x63, 0x4e, 0x3e, 0xc5, 0x2f, 0x3b, 0xbe,
    0x21, 0xe3, 0x57, 0x3e, 0xad, 0x2e, 0xb9, 0x3b, 0xb5, 0x63,
    0x05, 0x3e, 0xd9, 0x9a, 0x75, 0xbd, 0xb4, 0x51, 0xbf, 0x3c,
    0x13, 0xb5, 0x16, 0xbc, 0xb6, 0x88, 0x19, 0x3e, 0x67, 0xfe,
    0x69, 0x3e, 0x96, 0xfc, 0x41, 0xbd, 0xd7, 0x8f, 0xc6, 0xbd,
    0x32, 0xb0, 0x9a, 0x3d, 0x74, 0x92, 0xcc, 0xbd, 0x35, 0x7c,
    0x78, 0x3e, 0x91, 0xd9, 0x8b, 0x3d, 0x5a, 0x78, 0xe3, 0xbc,
    0xcb, 0x94, 0x27, 0xbe, 0x25, 0x94, 0x8e, 0x3e, 0x88, 0x31,
    0x53, 0xbe, 0xf9, 0xd3, 0x80, 0x3e, 0x4b, 0xea, 0x6b, 0x3e,
    0x2d, 0x8e, 0x09, 0x3e, 0x04, 0xe6, 0xec, 0xbb, 0xc3, 0x5b,
    0x26, 0xbe, 0x69, 0x4d, 0x00, 0xba, 0xf2, 0x32, 0x2b, 0x3d,
    0xfc, 0xaa, 0xd8, 0x3c, 0xa8, 0x4a, 0x18, 0x3d, 0xe4, 0xfd,
    0x1b, 0x3d, 0x01, 0x3e, 0x3d, 0x3a, 0xf6, 0xd1, 0x37, 0xbc,
    0x6b, 0xc2, 0xeb, 0x3c, 0x7a, 0xb3, 0x11, 0xbe, 0x39, 0x5c,
    0x62, 0xbe, 0xfe, 0xef, 0x04, 0x3e, 0x64, 0x0d, 0x31, 0xbd,
    0x85, 0x0c, 0xba, 0xbd, 0x09, 0x0c, 0xcd, 0x3d, 0xf6, 0xb2,
    0x13, 0xbd, 0x16, 0x61, 0x04, 0x3e, 0xd8, 0x7a, 0xed, 0xbd,
    0x6f, 0x0b, 0x19, 0x3e, 0xb4, 0x06, 0x51, 0x3d, 0x5c, 0xa9,
    0x07, 0x3e, 0x07, 0xc3, 0x3e, 0x3d, 0x50, 0x23, 0x79, 0xbe,
    0xeb, 0xcb, 0x2a, 0xbe, 0x00, 0x1f, 0x79, 0x3c, 0x1c, 0xb4,
    0x09, 0x3e, 0xed, 0x9d, 0xaf, 0x3d, 0xdc, 0xc8, 0xa5, 0xbd,
    0x2d, 0x5a, 0xce, 0x3c, 0x07, 0xf4, 0x3a, 0xbe, 0xbd, 0xb6,
    0x63, 0xbe, 0x0b, 0x18, 0x0f, 0x3c, 0x15, 0x09, 0x28, 0x3e,
    0x81, 0xaf, 0x2b, 0xbe, 0x2a, 0xac, 0xeb, 0xbb, 0x39, 0xd4,
    0x15, 0x3e, 0x70, 0x79, 0x1a, 0x3e, 0xd9, 0xc8, 0xe8, 0x3c,
    0x39, 0x00, 0x26, 0x3e, 0xcf, 0x28, 0xaa, 0x3d, 0x92, 0xf7,
    0xb3, 0x3d, 0xee, 0xb3, 0x6c, 0xbd, 0x30, 0x50, 0xd3, 0x3d,
    0xcb, 0x92, 0xa4, 0xbd, 0xbb, 0x54, 0x5b, 0x3e, 0xe3, 0x0c,
    0x51, 0xbc, 0x68, 0x23, 0x18, 0xbe, 0x38, 0x0d, 0xa2, 0x3d,
    0x58, 0xdc, 0x4f, 0xbd, 0xeb, 0x22, 0xb7, 0xbd, 0xc3, 0xbb,
    0x8e, 0xbc, 0xb6, 0xb0, 0x09, 0x3b, 0x35, 0x6e, 0x93, 0x3d,
    0x16, 0x47, 0x06, 0xbe, 0x98, 0x1b, 0x8e, 0xbe, 0x3f, 0x2e,
    0x56, 0xbd, 0x2e, 0x3e, 0x30, 0xbc, 0x75, 0x96, 0x73, 0x3d,
    0xbf, 0x28, 0x0c, 0xbe, 0x24, 0x8c, 0x09, 0x3e, 0xd7, 0x2c,
    0xf3, 0x3d, 0x96, 0xf1, 0xf0, 0xbd, 0x6e, 0xc7, 0x06, 0x3e,
    0xd0, 0x8a, 0xf9, 0xbd, 0x0c, 0x61, 0xe9, 0x3c, 0x60, 0x09,
    0x67, 0xbc, 0xe3, 0x66, 0x8e, 0xbd, 0x16, 0xa0, 0x7d, 0xbc,
    0x5a, 0xd3, 0x57, 0x3d, 0x8c, 0xbb, 0x25, 0xbe, 0x37, 0xec,
    0x01, 0xbe, 0x1b, 0x2a, 0xd5, 0x3c, 0x6c, 0x84, 0x11, 0xbe,
    0xb4, 0x7f, 0x9b, 0xbd, 0x5f, 0x24, 0x1f, 0xbe, 0x0c, 0x65,
    0x27, 0x3d, 0xd9, 0xb7, 0x02, 0x3e, 0x33, 0x85, 0x82, 0xbe,
    0x42, 0x0c, 0x9b, 0xbe, 0xa1, 0xe0, 0xb7, 0x3d, 0x63, 0x57,
    0x2a, 0xbc, 0xd2, 0x8b, 0x02, 0xbe, 0x9a, 0x22, 0xa8, 0x3d,
    0x89, 0xd4, 0xa3, 0x3d, 0x36, 0xd2, 0xbd, 0x3d, 0x1d, 0x0f,
    0x90, 0xbd, 0xba, 0x26, 0xbd, 0x3d, 0xbd, 0x65, 0x72, 0x3d,
    0xa4, 0xa6, 0x8b, 0xbb, 0x57, 0xf6, 0x18, 0xbe, 0x25, 0x9c,
    0x2b, 0x3c, 0x26, 0x9e, 0xcc, 0x3d, 0x6c, 0x14, 0xc4, 0xbd,
    0x08, 0x93, 0x38, 0x3d, 0x66, 0xcd, 0x18, 0xbe, 0x38, 0x3b,
    0x97, 0xbc, 0xe0, 0x14, 0xb3, 0x3d, 0x3c, 0x79, 0xb9, 0xbd,
    0x3f, 0x41, 0x4c, 0x3e, 0x4d, 0x5c, 0x26, 0xbe, 0x20, 0x91,
    0xe8, 0x3d, 0x47, 0x53, 0x97, 0x3d, 0xe2, 0x1f, 0xd9, 0xbd,
    0x13, 0x4d, 0xcd, 0x3d, 0xa3, 0xfc, 0x77, 0x3d, 0xb1, 0xb7,
    0xec, 0x3d, 0x9a, 0xe3, 0xa2, 0x3d, 0x7b, 0x1f, 0x12, 0xbd,
    0x32, 0xa5, 0x9e, 0xbd, 0xf7, 0x19, 0xad, 0xbc, 0x07, 0x6d,
    0xf0, 0xbd, 0x9d, 0x62, 0x30, 0xbe, 0xed, 0x4c, 0xa2, 0x3d,
    0x83, 0x24, 0x8f, 0xbd, 0x19, 0x81, 0xb1, 0xbb, 0xd4, 0x96,
    0xb5, 0x3b, 0xc4, 0x44, 0x6a, 0xbd, 0x23, 0xdf, 0xaa, 0x3d,
    0xb8, 0xf0, 0x86, 0xbc, 0x1b, 0xbe, 0xae, 0x3d, 0x45, 0xdb,
    0xb3, 0x3d, 0xdd, 0x6f, 0xb9, 0x3d, 0xfa, 0xeb, 0x2c, 0x3d,
    0x8e, 0x82, 0x90, 0xbc, 0xae, 0xf8, 0x8f, 0x3d, 0x44, 0x8a,
    0x2f, 0xbe, 0xd8, 0x16, 0xa5, 0x3d, 0xfd, 0x43, 0xdc, 0xbc,
    0x32, 0x78, 0x84, 0x3d, 0xaa, 0x0f, 0xa3, 0xbd, 0x42, 0xdf,
    0x35, 0xbe, 0x8a, 0x8e, 0x2d, 0xbe, 0xf4, 0x39, 0x4f, 0xbc,
    0x82, 0x8d, 0xa9, 0x3d, 0x78, 0xe2, 0x38, 0xbe, 0x28, 0x9e,
    0xf2, 0xbb, 0x4c, 0x89, 0x07, 0xbe, 0x9f, 0xf8, 0xb0, 0xbd,
    0x44, 0x58, 0xb8, 0x3c, 0xac, 0xb1, 0x0a, 0x3e, 0x54, 0x32,
    0x95, 0xbd, 0xec, 0xc2, 0xfd, 0x3c, 0x59, 0x03, 0xd0, 0x3d,
    0x23, 0x3c, 0xaf, 0xbc, 0x52, 0x11, 0xc3, 0x3d, 0xf1, 0x39,
    0x36, 0xbe, 0xcb, 0x48, 0xdc, 0x3d, 0x64, 0xb2, 0xde, 0xbd,
    0x00, 0x47, 0xda, 0x3d, 0x91, 0x4a, 0x11, 0x3d, 0x93, 0x01,
    0xe9, 0x3a, 0xa5, 0x19, 0x17, 0xbe, 0xa1, 0x3e, 0x00, 0x3d,
    0x07, 0x9d, 0x52, 0xbd, 0x10, 0x46, 0x92, 0x3d, 0xa5, 0xf7,
    0x83, 0x3d, 0x42, 0x78, 0xd8, 0x3d, 0xbf, 0x2e, 0x0c, 0x3e,
    0xf9, 0x6d, 0x0e, 0x3e, 0xcf, 0x98, 0x85, 0x3b, 0x7c, 0x55,
    0x42, 0xbe, 0x85, 0x22, 0xb7, 0x3d, 0x6d, 0xae, 0xd4, 0x3d,
    0xa4, 0x24, 0xd1, 0xbd, 0xd9, 0x06, 0x7c, 0xbe, 0x91, 0xa0,
    0xe9, 0xbd, 0x61, 0x41, 0x1a, 0xbe, 0xb4, 0x9d, 0x05, 0x3d,
    0xaa, 0x70, 0xc8, 0xbd, 0x1c, 0x79, 0x04, 0x3e, 0x6d, 0x62,
    0x29, 0x3c, 0x1a, 0x20, 0x4b, 0x3d, 0x08, 0x0d, 0x02, 0xbd,
    0x9c, 0xce, 0xec, 0x39, 0x3d, 0xec, 0xb2, 0x3d, 0x1b, 0x68,
    0xe5, 0x3c, 0x22, 0xa0, 0x50, 0xbd, 0x87, 0x46, 0x07, 0x3e,
    0xcd, 0x63, 0x32, 0x3e, 0xde, 0x9c, 0xaf, 0xbd, 0xe8, 0x2c,
    0x5b, 0xbd, 0xa2, 0xbb, 0xaa, 0xbd, 0xbc, 0x52, 0x10, 0xbe,
    0x73, 0x62, 0xc4, 0xbc, 0x91, 0xf9, 0x82, 0xbe, 0x3b, 0x6d,
    0x24, 0xbd, 0xb8, 0x1f, 0xaa, 0x3d, 0xaf, 0x28, 0x3e, 0x3c,
    0x1b, 0x23, 0x02, 0xbe, 0x41, 0x1d, 0x51, 0x3d, 0x34, 0x73,
    0x39, 0xbe, 0x12, 0x81, 0xea, 0x3d, 0x3e, 0x62, 0x8b, 0x3d,
    0xe1, 0xdf, 0xa7, 0xbd, 0xd9, 0x5b, 0x21, 0xbe, 0x62, 0xce,
    0x64, 0xbd, 0x75, 0x19, 0xd0, 0xbd, 0x5b, 0x8f, 0x19, 0x3e,
    0x83, 0xeb, 0x76, 0x3e, 0x0e, 0x33, 0x18, 0x3d, 0x8e, 0xac,
    0xa5, 0xbd, 0xc8, 0x2e, 0xc9, 0xbc, 0x90, 0xe4, 0x68, 0x3d,
    0xc2, 0x90, 0xcc, 0x3c, 0xf5, 0x0c, 0x65, 0x3e, 0xf4, 0x58,
    0x28, 0x3e, 0x56, 0x99, 0xc1, 0xbd, 0xf0, 0x52, 0xbf, 0xbc,
    0xba, 0xee, 0x03, 0xbd, 0x06, 0xdf, 0xae, 0x3c, 0x59, 0xbb,
    0xe9, 0x3d, 0x3a, 0x10, 0xe0, 0xbd, 0x77, 0x15, 0x7d, 0x3c,
    0x64, 0x0b, 0x27, 0xbe, 0x8f, 0x11, 0xd7, 0xbc, 0x22, 0x54,
    0x00, 0x3e, 0x06, 0x5e, 0x15, 0x3e, 0x0e, 0x06, 0x50, 0xbc,
    0x7f, 0xaf, 0x21, 0x3e, 0xf9, 0x6d, 0x51, 0x3e, 0x8d, 0x5a,
    0xd1, 0xbd, 0xaa, 0xc5, 0xd8, 0xbc, 0x3c, 0xc0, 0x8d, 0xbd,
    0x16, 0x89, 0x0e, 0x3e, 0x78, 0x6c, 0x8c, 0x3d, 0x69, 0xe0,
    0x1a, 0x3e, 0x7f, 0xba, 0x3b, 0xbe, 0xb3, 0x31, 0x23, 0xbe,
    0xaf, 0x7b, 0xcd, 0x3d, 0x3b, 0xee, 0xa3, 0x3d, 0x25, 0xd3,
    0xdb, 0x3d, 0x22, 0xe1, 0xd7, 0xbd, 0x27, 0x61, 0x7e, 0xbd,
    0xee, 0x6a, 0xa5, 0xbd, 0x68, 0xb9, 0x7a, 0xbd, 0xba, 0x38,
    0x13, 0xbe, 0xa6, 0xab, 0x91, 0xbd, 0xa5, 0x82, 0x92, 0xbd,
    0xdd, 0xbb, 0x0c, 0xbd, 0xf6, 0x34, 0x48, 0xbd, 0xf2, 0x4a,
    0x3f, 0x3b, 0xb5, 0x2d, 0x2c, 0x3d, 0x37, 0x57, 0x1f, 0xbe,
    0xa0, 0x53, 0xd2, 0x3d, 0x72, 0x7a, 0x0b, 0x3e, 0x8b, 0xae,
    0x4b, 0x3e, 0x04, 0xf6, 0x08, 0x3c, 0x66, 0x9b, 0x59, 0x3a,
    0x0d, 0xe9, 0x32, 0xbe, 0xf0, 0xff, 0xb1, 0x3d, 0x53, 0x6c,
    0x90, 0x3b, 0x71, 0x1d, 0x16, 0x3e, 0x1c, 0x64, 0x52, 0x3c,
    0x9d, 0x7c, 0x4e, 0x3d, 0x00, 0x37, 0xb7, 0xbd, 0x2c, 0x75,
    0x97, 0x3d, 0x7a, 0x7e, 0x80, 0xbd, 0xe2, 0xea, 0x0f, 0xbe,
    0xbc, 0xa5, 0x3d, 0x3c, 0xf9, 0xb8, 0xf8, 0xbd, 0x3b, 0x57,
    0x28, 0xbe, 0x4e, 0x16, 0x3d, 0x3d, 0x71, 0x9d, 0xe8, 0xbd,
    0x24, 0xc9, 0xed, 0x3d, 0xce, 0xf4, 0xbe, 0xbd, 0x4d, 0xd1,
    0xfa, 0x3d, 0x8c, 0xac, 0xef, 0xbd, 0xaa, 0x5e, 0xc4, 0xbd,
    0x00, 0x62, 0x2d, 0x3e, 0x42, 0x0e, 0xd7, 0x3d, 0x71, 0xc3,
    0xe6, 0xbd, 0x95, 0xe3, 0x05, 0xbe, 0x5a, 0x5e, 0xfe, 0x3d,
    0x7e, 0x94, 0xaa, 0xbc, 0xd9, 0x7d, 0xe3, 0xbd, 0x1d, 0x94,
    0x37, 0x3e, 0x45, 0x7e, 0x69, 0xbd, 0x92, 0xb3, 0x7a, 0x3d,
    0xb7, 0xab, 0x1e, 0xbe, 0x59, 0x01, 0xf3, 0xbb, 0x17, 0x21,
    0xc6, 0x3d, 0x4d, 0xc2, 0x4f, 0xbd, 0x63, 0xd3, 0x1c, 0xbd,
    0x3e, 0x0f, 0x04, 0x3e, 0x78, 0x38, 0x21, 0x3d, 0x3c, 0x0e,
    0x47, 0xbd, 0x9c, 0x89, 0x17, 0x3d, 0x31, 0x3f, 0xdf, 0x3d,
    0x49, 0x4e, 0xac, 0x3d, 0xa5, 0x97, 0x50, 0x3d, 0x66, 0xfc,
    0xee, 0xbd, 0x57, 0xa7, 0x92, 0x3d, 0x8a, 0x98, 0x0c, 0x3e,
    0x00, 0xd5, 0x70, 0x3c, 0x10, 0xb5, 0x1b, 0x3e, 0x16, 0x33,
    0x01, 0x3e, 0x24, 0xe8, 0x1f, 0xbe, 0x2a, 0x6b, 0x60, 0x3e,
    0x4a, 0xb8, 0xa8, 0x3d, 0xc8, 0xcc, 0xda, 0xbd, 0xcf, 0xe8,
    0x50, 0xbc, 0xd2, 0x32, 0xfb, 0xbd, 0x9a, 0x1b, 0x44, 0x3d,
    0x1b, 0xb1, 0x75, 0x3d, 0x85, 0x0b, 0x98, 0x3d, 0x86, 0x44,
    0x2a, 0xbe, 0xe3, 0xca, 0x3a, 0xbc, 0x7d, 0xc4, 0xf9, 0x3d,
    0x53, 0xbf, 0xab, 0xbd, 0x6d, 0x9b, 0xd8, 0x3d, 0x51, 0xfe,
    0xc6, 0x3d, 0xae, 0x13, 0x03, 0x3e, 0xe7, 0x19, 0x86, 0xbc,
    0x92, 0x95, 0xbd, 0x3d, 0xaf, 0xca, 0xfd, 0x3d, 0x3c, 0xeb,
    0xce, 0xbc, 0x1b, 0x22, 0x96, 0x3d, 0x2d, 0x62, 0x17, 0x3d,
    0x27, 0x93, 0x32, 0x3e, 0x9d, 0xdc, 0x0b, 0xbe, 0x50, 0x29,
    0x29, 0x3e, 0x64, 0x3a, 0x34, 0x3e, 0xe8, 0x17, 0xd6, 0xbd,
    0x1e, 0x9e, 0xf7, 0xbc, 0x46, 0x35, 0x38, 0xbe, 0x0a, 0xd5,
    0xcd, 0xbd, 0x47, 0x98, 0x6a, 0x3d, 0x2a, 0x38, 0x37, 0xbe,
    0xf1, 0x3e, 0x57, 0xbe, 0x25, 0x0e, 0x9d, 0x3c, 0x77, 0xcd,
    0xfa, 0x3d, 0x28, 0x5c, 0x23, 0x3d, 0x7a, 0x94, 0xd9, 0x3c,
    0x9b, 0x4e, 0x83, 0x3d, 0xc3, 0x6f, 0xe7, 0x3d, 0x10, 0x08,
    0xbd, 0xbd, 0x04, 0x74, 0xbf, 0x3b, 0xbe, 0x03, 0x54, 0xbd,
    0xa0, 0xaf, 0x87, 0xbd, 0x7d, 0xcb, 0x92, 0xbd, 0x00, 0x96,
    0xeb, 0xbd, 0x70, 0x1e, 0x04, 0x3d, 0xff, 0x54, 0x32, 0x3e,
    0x2f, 0x0f, 0x2a, 0xbe, 0x39, 0xc3, 0x20, 0x3e, 0xd1, 0x31,
    0x5f, 0x3c, 0xa6, 0x9b, 0xdc, 0x3d, 0x30, 0xdd, 0x04, 0xbd,
    0x07, 0xd4, 0xbc, 0xbd, 0x56, 0x44, 0xd3, 0xbd, 0x41, 0xb4,
    0x18, 0xbe, 0xc9, 0x27, 0x1b, 0xbd, 0x68, 0xf5, 0xf2, 0x3b,
    0x30, 0xbc, 0x9d, 0xbd, 0xd7, 0xad, 0xea, 0x3c, 0x85, 0xb5,
    0x21, 0x3e, 0xf4, 0x98, 0x80, 0xbd, 0x3a, 0x7b, 0x4f, 0x3e,
    0x5f, 0x78, 0x84, 0xbd, 0x0b, 0xfa, 0xf8, 0xbd, 0x02, 0xb4,
    0xc1, 0x3d, 0xcf, 0x5c, 0x2d, 0x3e, 0xda, 0xd3, 0xab, 0x3d,
    0xb8, 0xea, 0xcf, 0x3d, 0xdf, 0xf2, 0x3c, 0xbe, 0x0a, 0x46,
    0x92, 0x3c, 0x7c, 0x03, 0xb7, 0xbd, 0xf5, 0x1f, 0xc7, 0x3c,
    0x9f, 0xe2, 0x02, 0x3d, 0xd8, 0xa5, 0x3c, 0x3e, 0xc0, 0x4a,
    0x9d, 0x3d, 0xf9, 0x97, 0x23, 0xbd, 0xb6, 0xcf, 0xf3, 0x3c,
    0x50, 0x82, 0x01, 0x3e, 0x08, 0x41, 0x7d, 0x3c, 0xd5, 0x47,
    0x0e, 0x3e, 0x18, 0xc8, 0xc0, 0x3c, 0x45, 0x09, 0xb6, 0x3d,
    0x36, 0x47, 0xa7, 0xbd, 0xe6, 0xec, 0x30, 0x3e, 0x6f, 0x65,
    0x16, 0x3e, 0x0f, 0x8d, 0x4e, 0xbd, 0xf6, 0x08, 0x3f, 0xbd,
    0xd1, 0x41, 0x01, 0xbe, 0x5c, 0x5e, 0x70, 0xbe, 0x06, 0x48,
    0x3c, 0xbd, 0x3a, 0xda, 0x94, 0x3d, 0xf4, 0x50, 0x15, 0x3e,
    0x6c, 0x70, 0x9a, 0x3c, 0x26, 0x0e, 0x06, 0x3e, 0xda, 0x26,
    0x94, 0xbd, 0x07, 0xe9, 0xa2, 0xbd, 0xef, 0x1a, 0xd8, 0x3d,
    0x3c, 0x13, 0x9f, 0xbd, 0xd6, 0x92, 0xc8, 0xbd, 0xf3, 0xb4,
    0xf2, 0xbb, 0x21, 0x31, 0xbb, 0xbd, 0x53, 0x01, 0x83, 0xbc,
    0x59, 0x6d, 0x2e, 0xbc, 0x05, 0x34, 0x08, 0x3e, 0x8a, 0xc1,
    0x58, 0x3d, 0x2c, 0x77, 0x73, 0x3d, 0x97, 0x82, 0x32, 0x3d,
    0x44, 0x54, 0x2b, 0x3e, 0x77, 0xe8, 0xb1, 0x3c, 0x2a, 0x5e,
    0x10, 0x3e, 0x01, 0x2b, 0x19, 0x3d, 0x0b, 0x48, 0x3b, 0xbc,
    0x56, 0x91, 0x58, 0xbd, 0x10, 0xe0, 0x9a, 0x3d, 0x8e, 0x03,
    0xce, 0x3d, 0x50, 0xac, 0xd3, 0xbd, 0xb4, 0x26, 0x84, 0xbd,
    0xf5, 0xe3, 0x3e, 0xbe, 0xa4, 0xb7, 0x3e, 0xbe, 0x88, 0x31,
    0xa7, 0x3d, 0xb2, 0x39, 0x82, 0xbd, 0xb9, 0x8e, 0xa1, 0x3d,
    0x38, 0x3e, 0x22, 0xbd, 0xd1, 0xf6, 0xa5, 0xbd, 0xbe, 0x0a,
    0xc5, 0x3d, 0xec, 0x84, 0x58, 0x3e, 0xf8, 0xd0, 0xc5, 0xbd,
    0x21, 0x8e, 0x9d, 0x3d, 0xe2, 0x03, 0x25, 0xbe, 0x2f, 0xb7,
    0x97, 0x3c, 0x19, 0xfe, 0xa8, 0x3c, 0x21, 0x9d, 0xfe, 0x3d,
    0x66, 0xcf, 0xa7, 0xbd, 0xf1, 0xf2, 0xa2, 0x3d, 0x2d, 0x05,
    0x3b, 0xbe, 0xd8, 0x38, 0x2d, 0xbe, 0x7a, 0xe1, 0xc1, 0xbd,
    0xe3, 0x17, 0x2e, 0x3e, 0x63, 0x54, 0x7a, 0xbd, 0xf9, 0x2a,
    0x8d, 0x3d, 0x5e, 0xeb, 0x45, 0xbe, 0x5f, 0xc4, 0x9d, 0xbd,
    0x8f, 0x05, 0xff, 0x3c, 0xa2, 0x4f, 0x0c, 0x3d, 0x97, 0x18,
    0xec, 0xbc, 0x36, 0x48, 0x15, 0xbd, 0xac, 0x42, 0x82, 0xbd,
    0x26, 0x1a, 0x8f, 0xbc, 0x72, 0x57, 0xf1, 0xbc, 0x8b, 0xeb,
    0x0c, 0xbe, 0xd7, 0x83, 0x2b, 0xbe, 0xa9, 0x01, 0x37, 0xbe,
    0x3f, 0xa3, 0x07, 0x3e, 0xd2, 0x86, 0xcf, 0x3d, 0x64, 0x57,
    0xe7, 0xbd, 0xcb, 0x60, 0x06, 0x3e, 0x93, 0x54, 0x47, 0xbe,
    0x6c, 0xe9, 0xb5, 0x3d, 0x34, 0x69, 0xd6, 0x3c, 0x01, 0xd5,
    0x04, 0xbd, 0x69, 0x9a, 0xd6, 0x3d, 0xd5, 0x00, 0x29, 0xbc,
    0x4c, 0x0f, 0x38, 0xbd, 0xd5, 0x61, 0x87, 0x3d, 0xdf, 0x9e,
    0xf6, 0x3d, 0xe2, 0xe9, 0x65, 0x3e, 0x8c, 0x85, 0x27, 0x3e,
    0xf5, 0x6d, 0x4a, 0x3e, 0xa8, 0x00, 0x2f, 0xbe, 0x81, 0x72,
    0x1e, 0x3d, 0x03, 0x92, 0x07, 0x3e, 0xf5, 0x4f, 0xb3, 0x3d,
    0xf9, 0x58, 0x10, 0xbe, 0x64, 0x03, 0x37, 0xbb, 0x39, 0xec,
    0x19, 0xbd, 0xea, 0xcc, 0x3e, 0xbe, 0xbd, 0x6f, 0xee, 0xbc,
    0xd2, 0xcc, 0x92, 0x3d, 0x10, 0xf2, 0x01, 0x3e, 0x5e, 0xf7,
    0xf6, 0xbd, 0xf3, 0x65, 0x90, 0x3d, 0x73, 0x9f, 0x96, 0x3d,
    0xe6, 0xee, 0xc2, 0xbd, 0x1c, 0x53, 0xaa, 0xbc, 0x5b, 0xec,
    0x97, 0x3d, 0xf9, 0x43, 0x26, 0x3d, 0xc1, 0x3e, 0xde, 0x3d,
    0x2f, 0xa8, 0x26, 0x3e, 0x0a, 0xb0, 0x06, 0xbd, 0x27, 0x49,
    0x04, 0x3d, 0x86, 0x85, 0x03, 0x3e, 0xfa, 0x51, 0xf8, 0x3d,
    0x47, 0x19, 0xa6, 0xbd, 0xcb, 0xe3, 0x5b, 0xbe, 0xe3, 0x3c,
    0xa4, 0x3d, 0x74, 0xda, 0xe3, 0xbd, 0x7b, 0x39, 0x02, 0x3e,
    0x64, 0xf5, 0x0a, 0xbe, 0x23, 0xae, 0x3c, 0xbe, 0xb8, 0x3c,
    0xbc, 0xbd, 0x1d, 0x3f, 0x94, 0x3c, 0x71, 0x07, 0x1a, 0x3e,
    0x39, 0xd8, 0xd9, 0x3d, 0x98, 0x51, 0x3b, 0x3a, 0x4d, 0x39,
    0x3d, 0xbd, 0x31, 0x40, 0x3a, 0xbd, 0x62, 0x64, 0x10, 0x3e,
    0xe9, 0x4f, 0xfb, 0xbd, 0x00, 0x8e, 0x12, 0xbd, 0x91, 0x8f,
    0x09, 0x3e, 0xff, 0x19, 0x06, 0xbe, 0x45, 0x0b, 0x0a, 0xbd,
    0xcf, 0x16, 0xb8, 0x3d, 0x99, 0xc6, 0x2e, 0xbc, 0xa7, 0xf9,
    0x02, 0x3e, 0x31, 0xdd, 0x3a, 0x3d, 0xaf, 0x34, 0xb9, 0x3a,
    0x0c, 0x9d, 0x8b, 0xbd, 0x3e, 0x54, 0xe0, 0x3d, 0x71, 0xae,
    0x92, 0xbd, 0xde, 0xb1, 0x50, 0x3d, 0x6c, 0xd8, 0x26, 0xbd,
    0x38, 0xf9, 0x2d, 0xbe, 0xfc, 0xa6, 0xa2, 0xba, 0x6e, 0x02,
    0x01, 0x3e, 0x98, 0xe9, 0x2f, 0xbe, 0x6b, 0x62, 0x09, 0xbd,
    0x3a, 0x32, 0x8f, 0x3c, 0xee, 0x58, 0xf6, 0xbd, 0x01, 0x82,
    0x83, 0x3c, 0x11, 0xda, 0x6c, 0xbe, 0x88, 0x0f, 0xe1, 0xbd,
    0x0b, 0xa0, 0xfd, 0xbb, 0xda, 0xa1, 0x00, 0xbd, 0xf8, 0xa8,
    0x2a, 0x3e, 0x88, 0x20, 0x5b, 0xbe, 0x30, 0xb7, 0x30, 0xbe,
    0x60, 0x21, 0xc8, 0xbd, 0x9a, 0xa0, 0x59, 0xbe, 0x2f, 0x25,
    0xc8, 0x3d, 0x41, 0x44, 0x00, 0x3e, 0x12, 0x9a, 0x75, 0x3d,
    0xe0, 0x6d, 0x54, 0x3d, 0x92, 0xe7, 0x2e, 0x3e, 0x37, 0x59,
    0x92, 0xbd, 0xc4, 0x4e, 0x37, 0xbe, 0x1b, 0x01, 0xb1, 0xbd,
    0x0e, 0x64, 0x93, 0x3b, 0x2c, 0x15, 0x38, 0xbd, 0xc9, 0x79,
    0x3e, 0x3d, 0x26, 0x52, 0x7d, 0xbd, 0x93, 0xdd, 0x7c, 0xbe,
    0xf0, 0xe0, 0x3e, 0xbc, 0x97, 0x52, 0x6a, 0xbd, 0x19, 0xeb,
    0x5a, 0xbe, 0x33, 0x8a, 0x86, 0x3d, 0xd2, 0x28, 0x9a, 0x3d,
    0x66, 0xd9, 0xa4, 0x3d, 0x0e, 0x32, 0xaa, 0x3d, 0xe1, 0xa4,
    0x73, 0xbd, 0x5c, 0x03, 0x85, 0xbe, 0xfe, 0x1c, 0x22, 0xbe,
    0xd4, 0x8e, 0x2f, 0x3a, 0x94, 0x30, 0x25, 0x3d, 0x05, 0xfe,
    0xea, 0x3d, 0xa9, 0xde, 0x5a, 0x3c, 0xab, 0x08, 0x93, 0xbd,
    0x2a, 0xfa, 0xa8, 0xbd, 0x4d, 0x27, 0xd1, 0x3d, 0x82, 0x91,
    0x05, 0xbe, 0xc5, 0x11, 0x19, 0xbe, 0x78, 0xc7, 0x55, 0xbd,
    0x77, 0xc8, 0xb2, 0xbd, 0x5a, 0xe8, 0x3e, 0xbd, 0xcf, 0xee,
    0x04, 0xbe, 0x8e, 0xaf, 0x0d, 0xbe, 0x47, 0x6f, 0x0e, 0xbd,
    0xe8, 0x38, 0x79, 0xbe, 0x03, 0xc0, 0x9d, 0xbd, 0xc8, 0x1e,
    0x1a, 0x3e, 0xfe, 0x22, 0x1a, 0x3e, 0x9b, 0x81, 0x7b, 0xbd,
    0x10, 0xfd, 0xbe, 0xbd, 0xc9, 0xfb, 0x5b, 0xbe, 0x1e, 0xf1,
    0x78, 0xbc, 0xe3, 0x9d, 0xc3, 0x3d, 0x2a, 0xa4, 0x25, 0xbe,
    0xb7, 0xae, 0xd3, 0xbd, 0x04, 0x2c, 0x00, 0x3e, 0xcc, 0xcf,
    0x1d, 0x3e, 0xc4, 0x4b, 0x23, 0x3e, 0xdf, 0x5c, 0x8b, 0x3d,
    0xc0, 0xe4, 0xcc, 0xbd, 0xbe, 0x06, 0x89, 0x3d, 0xb4, 0xed,
    0x1d, 0x3c, 0xb7, 0x47, 0xaa, 0x3d, 0x0b, 0x20, 0x87, 0xbe,
    0x7b, 0xad, 0x27, 0x3e, 0x2c, 0xed, 0x8e, 0xbd, 0xb5, 0x1c,
    0x2d, 0x3d, 0x4e, 0x30, 0x8d, 0xbd, 0xc6, 0xc5, 0xc7, 0x3d,
    0x8d, 0x5e, 0xe8, 0xbd, 0x95, 0xe6, 0x1a, 0xbe, 0xe0, 0x89,
    0x33, 0xbe, 0x01, 0x3c, 0x02, 0xbe, 0xb8, 0x97, 0x9e, 0x3d,
    0xa2, 0xac, 0x57, 0x3e, 0xd7, 0xbd, 0x5c, 0x3d, 0xdb, 0xc5,
    0xb4, 0xbd, 0xa5, 0x3b, 0x0b, 0x3e, 0x61, 0xa1, 0x23, 0x3e,
    0x1f, 0xd1, 0x41, 0x3e, 0xfd, 0x4c, 0xca, 0xbd, 0x2f, 0xc2,
    0x04, 0xbd, 0x39, 0x10, 0x9c, 0xbd, 0xec, 0xab, 0xad, 0x3d,
    0xeb, 0x7c, 0xf1, 0xbd, 0x20, 0x69, 0x38, 0x3d, 0x09, 0xde,
    0x63, 0x3d, 0xeb, 0x08, 0x81, 0xbd, 0x12, 0x6e, 0x16, 0x3e,
    0x4c, 0x2f, 0x49, 0x3e, 0xf0, 0xdd, 0x05, 0xbe, 0xe6, 0x23,
    0xb0, 0x3d, 0x88, 0xcd, 0x00, 0x3e, 0xa3, 0xf5, 0x4c, 0xbe,
    0xe3, 0xe9, 0x79, 0xbd, 0x46, 0xe4, 0x9b, 0xbd, 0xa5, 0xb2,
    0x6f, 0xbe, 0xce, 0xbd, 0xcd, 0xbd, 0x89, 0x5f, 0xec, 0x3b,
    0xe2, 0xac, 0xa3, 0x3d, 0x3e, 0xb7, 0xc3, 0x3b, 0xd8, 0xad,
    0x97, 0x3d, 0x30, 0x3f, 0xff, 0x3d, 0x3a, 0x80, 0xdc, 0xbd,
    0x68, 0x6e, 0x65, 0x3d, 0xc3, 0x9c, 0x13, 0xbd, 0xc4, 0x18,
    0xca, 0x3d, 0x00, 0xdb, 0x33, 0x3e, 0xc0, 0xd4, 0x41, 0xbd,
    0x3f, 0x29, 0x0b, 0x3e, 0x19, 0xa9, 0x1f, 0xbe, 0x04, 0x04,
    0x25, 0xbe, 0x2f, 0xf6, 0xcf, 0x3d, 0xb1, 0x3f, 0x88, 0x3d,
    0xa2, 0x2c, 0x2d, 0x3d, 0xc4, 0x45, 0x3a, 0x3d, 0x47, 0x51,
    0x8e, 0xbd, 0xf2, 0x04, 0x39, 0xbc, 0x5d, 0x1a, 0x49, 0xbe,
    0xde, 0xac, 0x27, 0xbe, 0xb2, 0x84, 0x05, 0xbd, 0x18, 0xb7,
    0x4d, 0x3e, 0x07, 0x07, 0x90, 0x3d, 0xbd, 0x90, 0xf9, 0xbd,
    0xa1, 0xca, 0xa4, 0xbd, 0x81, 0x86, 0x9f, 0xbd, 0x0f, 0xf3,
    0x06, 0x3d, 0x9e, 0x31, 0xa7, 0x3d, 0xec, 0x27, 0xe4, 0x3d,
    0x2b, 0xb2, 0x22, 0xbd, 0x63, 0x73, 0x1e, 0xbe, 0x1c, 0x14,
    0x46, 0xbe, 0xfd, 0xb3, 0x1f, 0x3e, 0x3f, 0xf7, 0x74, 0x3d,
    0xea, 0xee, 0xf8, 0xbc, 0xb0, 0xd0, 0xe8, 0xbd, 0xab, 0x99,
    0x9d, 0x3b, 0xf9, 0x40, 0x34, 0xbe, 0x42, 0x07, 0xbb, 0xbd,
    0x77, 0xf3, 0xe5, 0xbd, 0x95, 0xf4, 0x57, 0xbc, 0x2c, 0xf1,
    0x2e, 0xbd, 0x29, 0xf0, 0x52, 0x3d, 0xa5, 0x27, 0xdc, 0xbd,
    0x8a, 0xaf, 0x9e, 0x3d, 0x5f, 0xc4, 0xf5, 0xbd, 0x59, 0x02,
    0xf3, 0x3d, 0x40, 0xb4, 0x04, 0x3e, 0x22, 0x84, 0x51, 0x3d,
    0x16, 0x91, 0x04, 0x3d, 0x14, 0xd7, 0x27, 0xbd, 0x94, 0x92,
    0xd4, 0x3d, 0xc1, 0x75, 0xb7, 0xbd, 0x7f, 0x91, 0xbc, 0x3d,
    0x9d, 0x3b, 0x9d, 0x3d, 0x61, 0x46, 0x4a, 0xbe, 0x2a, 0xf0,
    0xff, 0x3c, 0x9f, 0x9b, 0xc7, 0x3d, 0x64, 0xac, 0xfa, 0x3d,
    0x84, 0xdd, 0x0e, 0x3d, 0xde, 0x72, 0x03, 0x3e, 0x20, 0x65,
    0x1b, 0x3e, 0x86, 0xd5, 0xa5, 0x3d, 0xd0, 0xcd, 0x1f, 0x3e,
    0x2e, 0x35, 0x41, 0x3e, 0x68, 0xb0, 0x7c, 0xbb, 0xb0, 0xc9,
    0xf9, 0xbd, 0x0f, 0xb7, 0x28, 0x3e, 0x9f, 0x4e, 0x00, 0xbe,
    0x32, 0x3c, 0x6a, 0xbc, 0xf5, 0xe1, 0xf2, 0xbd, 0x04, 0x63,
    0xe7, 0xbd, 0xd5, 0x90, 0xa9, 0x3d, 0xad, 0xe6, 0x77, 0x3d,
    0x60, 0xb8, 0x9e, 0xb8, 0x40, 0x6b, 0xf0, 0xbb, 0x5a, 0xe0,
    0x1b, 0x3d, 0x57, 0xca, 0xa2, 0xbd, 0xba, 0x57, 0xec, 0xbd,
    0x0e, 0xa7, 0xe3, 0xbd, 0xbe, 0x63, 0x87, 0xbc, 0xeb, 0xc9,
    0x48, 0x3c, 0x2f, 0xa9, 0x37, 0x3e, 0xf6, 0xc3, 0x7f, 0x3d,
    0xc9, 0x32, 0x90, 0xbd, 0xc5, 0x3d, 0x09, 0xbe, 0xbd, 0x17,
    0x4d, 0x3d, 0x29, 0x8d, 0x0d, 0x3e, 0x92, 0xc8, 0x5a, 0xbd,
    0x46, 0x7f, 0x7e, 0xbd, 0x78, 0xc3, 0xbe, 0x3d, 0x3d, 0x7b,
    0x89, 0xbd, 0x80, 0x46, 0x87, 0x3d, 0x90, 0x1c, 0x38, 0xbe,
    0x83, 0x85, 0xe5, 0xbd, 0x46, 0x21, 0x70, 0x3b, 0xa9, 0x85,
    0x30, 0xbe, 0x19, 0x1b, 0xae, 0x3c, 0x2c, 0x1e, 0x07, 0xbe,
    0x4f, 0xbe, 0x2d, 0xbd, 0x09, 0xba, 0x07, 0xbe, 0xf7, 0xac,
    0x0c, 0xbe, 0x06, 0x31, 0xa0, 0xbd, 0xd4, 0x8d, 0x87, 0x3d,
    0x91, 0xe9, 0xc8, 0xbd, 0xc6, 0x08, 0x53, 0x3e, 0x30, 0xf5,
    0xd8, 0xbd, 0xef, 0x09, 0xa1, 0x3d, 0x65, 0xae, 0x1a, 0x3e,
    0xc6, 0x75, 0x3f, 0xbe, 0x0d, 0xdd, 0x2a, 0xbe, 0x5b, 0xf8,
    0xf2, 0x3d, 0xae, 0xe9, 0x1e, 0xbd, 0x5e, 0xf8, 0xc6, 0x3d,
    0x57, 0x79, 0x15, 0xbe, 0x0b, 0xb9, 0x87, 0x3d, 0x45, 0x7d,
    0xb8, 0xbd, 0xd0, 0x9e, 0x8c, 0xbd, 0x26, 0x48, 0x93, 0xbd,
    0x18, 0x93, 0xd5, 0x3d, 0xe1, 0x78, 0x00, 0xbe, 0x6f, 0x55,
    0x11, 0x3c, 0x94, 0xce, 0x36, 0xbe, 0x32, 0x53, 0x56, 0x3d,
    0x22, 0xef, 0xa8, 0x3d, 0x57, 0x0e, 0x5d, 0xbe, 0xb1, 0x13,
    0x17, 0x3e, 0xa6, 0xb4, 0xb5, 0xbd, 0x52, 0xf0, 0xb3, 0xbd,
    0x6e, 0x05, 0x3c, 0x3e, 0xf3, 0x2c, 0x56, 0x3e, 0x3b, 0xd8,
    0x1b, 0x3e, 0xed, 0xfd, 0x59, 0x3d, 0xbe, 0x09, 0x9e, 0x3d,
    0x05, 0xd8, 0xfd, 0xbd, 0x40, 0x9e, 0x60, 0x3d, 0x1e, 0xc7,
    0xf7, 0x3d, 0x7a, 0x19, 0x3a, 0xbe, 0x87, 0xf3, 0xf1, 0xbb,
    0xa7, 0xc0, 0xec, 0xbc, 0x62, 0x08, 0x00, 0x3e, 0x44, 0x78,
    0xb3, 0x3c, 0x9e, 0x56, 0xd5, 0x3d, 0x3d, 0x1b, 0xb0, 0xbb,
    0xf3, 0xb4, 0x65, 0x3d, 0xb6, 0x60, 0x26, 0x3c, 0xc9, 0x28,
    0x9c, 0x3d, 0xa6, 0x39, 0x88, 0xbe, 0xc9, 0xba, 0xcc, 0xbb,
    0xca, 0x80, 0x4d, 0xbe, 0xb7, 0xfa, 0xdc, 0x3d, 0x1d, 0xfb,
    0xd1, 0x3c, 0x30, 0xd2, 0x20, 0xbe, 0x72, 0x2b, 0x20, 0x3e,
    0x06, 0xc9, 0xda, 0xbc, 0x57, 0x8c, 0x36, 0x3e, 0xa8, 0xb1,
    0x1f, 0x3e, 0x55, 0xbb, 0x11, 0xbe, 0x89, 0xb4, 0x16, 0xbe,
    0x36, 0xb7, 0x17, 0xbe, 0xe4, 0x43, 0xac, 0x3d, 0x90, 0x80,
    0xf1, 0xbd, 0xdd, 0xaa, 0x2d, 0x3d, 0xa9, 0x5c, 0xb9, 0xbd,
    0x98, 0xff, 0xdd, 0x3d, 0x06, 0xff, 0x02, 0xbe, 0x4c, 0xde,
    0x26, 0xbd, 0x65, 0xa2, 0x1d, 0x3e, 0xe5, 0x37, 0x33, 0x3e,
    0x3c, 0xda, 0x9e, 0x3c, 0xc1, 0x0f, 0x43, 0x3d, 0xce, 0x55,
    0x49, 0xbe, 0x02, 0x86, 0x55, 0x3d, 0x15, 0xd7, 0xc3, 0xbd,
    0x05, 0x56, 0x93, 0x3d, 0xc0, 0xaf, 0x8e, 0x3c, 0x71, 0x2d,
    0x31, 0x3d, 0x7a, 0xea, 0x09, 0x3e, 0x62, 0x4b, 0x78, 0x3d,
    0xfa, 0xcb, 0xad, 0x3c, 0xa7, 0x28, 0x14, 0x3e, 0x51, 0x35,
    0xc5, 0xbb, 0x2a, 0xd0, 0xf9, 0xbd, 0x2e, 0x4f, 0xb3, 0xbd,
    0xa0, 0xdc, 0xb0, 0xbc, 0x04, 0x6c, 0x8e, 0x3d, 0x49, 0x83,
    0x09, 0x3d, 0x94, 0x8e, 0x17, 0xbe, 0x57, 0xd0, 0x0d, 0xbe,
    0xe7, 0xb5, 0xd2, 0xbd, 0x53, 0x0d, 0x13, 0xbc, 0x6f, 0xf9,
    0xc2, 0xbc, 0x4f, 0x4c, 0x18, 0x3e, 0x56, 0xb0, 0xc1, 0x3d,
    0xb6, 0xaf, 0x1b, 0xbe, 0x07, 0xfe, 0x0b, 0xbe, 0x7c, 0xbb,
    0x29, 0x3e, 0x05, 0x1f, 0x06, 0xbc, 0x90, 0x01, 0x30, 0xbd,
    0x82, 0xce, 0x72, 0x3d, 0xbc, 0x2a, 0x67, 0xba, 0x22, 0x9b,
    0x0d, 0xbe, 0xa7, 0x71, 0x25, 0xbd, 0x30, 0x36, 0x0d, 0x3b,
    0x47, 0xbe, 0x92, 0x3d, 0x9e, 0x04, 0x92, 0xbd, 0x6c, 0xf5,
    0xd8, 0x3d, 0xf2, 0x08, 0x42, 0xbd, 0x39, 0x42, 0x14, 0xbd,
    0xa0, 0x7b, 0xc4, 0xbd, 0x9e, 0x5f, 0x15, 0xbe, 0x95, 0x60,
    0xab, 0xbd, 0xbe, 0x6a, 0xde, 0x3c, 0x13, 0xc6, 0xdd, 0x3d,
    0x94, 0x4c, 0xec, 0x3d, 0x5c, 0xe9, 0x95, 0xbb, 0xee, 0xff,
    0x19, 0x3d, 0x47, 0x34, 0x51, 0xbe, 0xd8, 0x8e, 0xc7, 0xbd,
    0x74, 0xb5, 0x78, 0xbd, 0x69, 0x49, 0x19, 0x3e, 0xb3, 0x15,
    0x50, 0xbe, 0x6a, 0xff, 0xe4, 0x3d, 0xb3, 0xab, 0xf0, 0x3d,
    0xed, 0xe8, 0xdb, 0x3d, 0xe1, 0x1d, 0xd8, 0xbd, 0x58, 0x9f,
    0x49, 0x3e, 0xdb, 0x58, 0x89, 0xbd, 0x5c, 0x0e, 0x32, 0x3e,
    0xac, 0xac, 0xeb, 0xbc, 0x37, 0xfb, 0xdf, 0xbd, 0x1f, 0x67,
    0xeb, 0xbd, 0x54, 0x0f, 0xf1, 0x3d, 0xf4, 0x4a, 0xb7, 0x3d,
    0xc0, 0x5f, 0xb9, 0xbd, 0x12, 0xad, 0xd5, 0x3d, 0xa0, 0x80,
    0x6e, 0xbd, 0xcf, 0x3c, 0x4c, 0xbd, 0xd9, 0x7c, 0x19, 0x3e,
    0xb1, 0x67, 0xb1, 0x3d, 0xdd, 0x30, 0x9e, 0xbd, 0xc3, 0xd2,
    0xd0, 0x3d, 0xdb, 0x66, 0x84, 0xbd, 0x29, 0x9b, 0xa5, 0x3d,
    0xa4, 0x6d, 0x81, 0xbd, 0x16, 0xcd, 0x6f, 0xbe, 0xa8, 0xa2,
    0x4b, 0xbe, 0xd3, 0x80, 0xe4, 0xbd, 0x6c, 0x65, 0xec, 0xbd,
    0x37, 0x91, 0x21, 0xbd, 0xec, 0x6f, 0x21, 0x3d, 0xad, 0x04,
    0xbf, 0x3d, 0xa7, 0x12, 0x8d, 0x3c, 0x30, 0x4d, 0x3d, 0xbd,
    0x4c, 0x19, 0x30, 0xbe, 0x6f, 0x65, 0xa8, 0xbd, 0x36, 0x91,
    0x50, 0xbe, 0x0c, 0x5b, 0x43, 0xbe, 0xd0, 0x81, 0xbd, 0xbd,
    0x1a, 0x86, 0x0b, 0x3e, 0xab, 0xe0, 0xd6, 0xbd, 0x80, 0xbc,
    0x74, 0x3a, 0x30, 0x6d, 0xd0, 0x3d, 0x76, 0x68, 0x03, 0xbd,
    0x4e, 0x2f, 0xad, 0x3d, 0x7b, 0xaa, 0x47, 0xbe, 0x41, 0x86,
    0x1c, 0x3e, 0xa5, 0xef, 0xb5, 0xbd, 0x8e, 0x75, 0x68, 0xbd,
    0x37, 0x2a, 0x04, 0xbd, 0xcf, 0x7b, 0x91, 0xbd, 0xfe, 0xc8,
    0x45, 0xbd, 0xcc, 0xfa, 0x1e, 0xbd, 0x24, 0x31, 0x16, 0x3c,
    0x3f, 0x2f, 0x95, 0x3d, 0xd0, 0xb8, 0xc7, 0x3d, 0x7b, 0x22,
    0x27, 0xbe, 0x90, 0x53, 0x63, 0xbe, 0xb1, 0x81, 0xb9, 0xbd,
    0x4f, 0xd7, 0x06, 0xbe, 0xd7, 0xab, 0xaa, 0x3d, 0x54, 0x28,
    0x7b, 0xbd, 0x7b, 0x1f, 0x7a, 0xbd, 0xc9, 0xb9, 0x8c, 0x3d,
    0x7a, 0x67, 0x1a, 0xbc, 0xe7, 0x41, 0xa1, 0x3d, 0x88, 0xf6,
    0xa6, 0x3b, 0xd4, 0xc8, 0xca, 0x3b, 0x42, 0x0e, 0xb7, 0xbc,
    0x7e, 0x01, 0x29, 0xbd, 0x91, 0x90, 0x2a, 0xbc, 0xec, 0x7e,
    0xd2, 0x3d, 0x1b, 0x22, 0x8a, 0xbe, 0x2e, 0x6e, 0x85, 0x3c,
    0xa9, 0x40, 0xfb, 0x3c, 0x62, 0xc6, 0x28, 0x3d, 0x7a, 0x2c,
    0xce, 0xbc, 0x57, 0x13, 0xab, 0x3d, 0x4a, 0xe5, 0x2f, 0x3d,
    0x10, 0x56, 0x0d, 0x3e, 0x7b, 0x91, 0xba, 0xbd, 0xce, 0x1d,
    0x45, 0xbb, 0x28, 0xa7, 0x06, 0xbe, 0xec, 0x58, 0x2f, 0xbe,
    0x89, 0x5d, 0x2a, 0xbd, 0xfc, 0x3d, 0xcd, 0xbb, 0x27, 0xc3,
    0x08, 0xbe, 0xd8, 0xca, 0x07, 0x3e, 0x50, 0xee, 0x0d, 0xbe,
    0x45, 0xa6, 0x76, 0x3d, 0xe6, 0x7b, 0x03, 0xbc, 0xce, 0x17,
    0xc8, 0x3d, 0x33, 0xdf, 0x9c, 0xbd, 0xa6, 0x94, 0x2f, 0xbe,
    0xe8, 0x59, 0xbd, 0x3c, 0x23, 0x81, 0x30, 0x3e, 0x2a, 0xf5,
    0x6a, 0xbd, 0xb0, 0xc8, 0xac, 0xbe, 0x6d, 0x36, 0xae, 0xbc,
    0x15, 0x27, 0x10, 0x3e, 0x56, 0xbe, 0xd6, 0xbd, 0x91, 0x35,
    0x1d, 0x3e, 0xcc, 0x93, 0x9d, 0x3d, 0xcc, 0x6d, 0x0b, 0xbd,
    0x52, 0xb2, 0x6e, 0x3d, 0xde, 0x5c, 0x99, 0xbd, 0x58, 0x0c,
    0xf7, 0xbd, 0x9a, 0x16, 0xef, 0x3d, 0xb4, 0x07, 0x19, 0xbd,
    0xb2, 0xac, 0xdf, 0x3c, 0xe1, 0x66, 0x0d, 0x3d, 0xe7, 0x44,
    0xd1, 0xbd, 0xca, 0x9e, 0xa7, 0x3d, 0xd5, 0x40, 0x52, 0xbe,
    0x9d, 0x86, 0x96, 0x3d, 0x01, 0x3a, 0x97, 0xbd, 0x73, 0xa7,
    0x95, 0x3d, 0x2b, 0x5a, 0xdb, 0x3d, 0x90, 0xd1, 0x60, 0xbe,
    0x91, 0x2b, 0x37, 0x3c, 0xe3, 0x80, 0x1b, 0x3e, 0x35, 0x81,
    0x84, 0xbe, 0x76, 0xc6, 0x2c, 0x3e, 0xd7, 0xaa, 0x86, 0x3d,
    0xfb, 0xa3, 0x8e, 0x3d, 0xb4, 0x3c, 0xdd, 0xbd, 0x30, 0x7a,
    0x57, 0x3d, 0xf7, 0xf2, 0x19, 0x3e, 0xc6, 0xae, 0x00, 0x3d,
    0x7e, 0x66, 0x09, 0xbe, 0xdc, 0xe7, 0x70, 0x3d, 0xd7, 0x67,
    0x56, 0x3d, 0x48, 0x5b, 0x35, 0xbe, 0xc8, 0xa1, 0x3c, 0xbe,
    0xb9, 0x50, 0x1d, 0xbe, 0x68, 0x25, 0xd8, 0x3c, 0xd4, 0x9a,
    0x8a, 0x3d, 0x63, 0xeb, 0x54, 0xbe, 0xaa, 0xaf, 0x51, 0x3d,
    0xf0, 0x19, 0x2e, 0x3d, 0x48, 0x5c, 0x13, 0x3e, 0x3b, 0x3f,
    0xd1, 0x3d, 0x23, 0x92, 0x75, 0xbd, 0xe5, 0x34, 0x23, 0xbe,
    0x20, 0xd6, 0xb7, 0x3c, 0x65, 0x46, 0x82, 0xbc, 0x9c, 0x9d,
    0xab, 0x3d, 0x86, 0xab, 0x30, 0xbe, 0x24, 0x01, 0x12, 0xbe,
    0xf4, 0xdc, 0xcc, 0xbd, 0xff, 0xed, 0x9b, 0x3d, 0xcc, 0x61,
    0xff, 0x3d, 0x81, 0x30, 0x65, 0xbc, 0x3e, 0x60, 0x01, 0x3d,
    0x3d, 0x77, 0x0b, 0x3d, 0x8c, 0xf1, 0x15, 0x3e, 0xea, 0xfd,
    0xdd, 0x3d, 0xac, 0x98, 0x0f, 0x3d, 0x16, 0x0b, 0x4f, 0xbe,
    0xcf, 0xa9, 0x06, 0xbb, 0x5f, 0x8a, 0x87, 0x3d, 0xa4, 0xf8,
    0x11, 0xbe, 0xc7, 0x6e, 0xa4, 0x3d, 0xf7, 0x48, 0xd8, 0x3d,
    0xe2, 0x42, 0x93, 0x3d, 0x68, 0x28, 0x93, 0xbd, 0x54, 0xcd,
    0xb9, 0xbd, 0xee, 0xd8, 0x23, 0x3d, 0xb4, 0x8c, 0x29, 0x3e,
    0xc2, 0x18, 0xdf, 0xbc, 0x71, 0xe3, 0xca, 0x3c, 0x2f, 0x59,
    0x0e, 0xbc, 0x65, 0xff, 0xd4, 0xbd, 0xd5, 0xeb, 0xc0, 0x3c,
    0xc9, 0x9f, 0x01, 0x3e, 0xe3, 0x5a, 0x59, 0xbd, 0x1b, 0x67,
    0xa6, 0xbd, 0xfc, 0x30, 0x96, 0x3d, 0xd0, 0xd1, 0x8d, 0xbd,
    0x54, 0x55, 0x24, 0xbc, 0x3b, 0x7f, 0xdd, 0x3c, 0x95, 0xbe,
    0x08, 0xbe, 0xd5, 0x81, 0x87, 0x3d, 0x8f, 0xe8, 0x0e, 0xbe,
    0xf7, 0x91, 0x24, 0xbe, 0xd8, 0x59, 0x40, 0xbe, 0x81, 0x5f,
    0x30, 0xbd, 0x7e, 0xc9, 0x93, 0x3b, 0x2c, 0x13, 0x89, 0xbd,
    0x89, 0xb9, 0x95, 0xbd, 0xe6, 0xa0, 0xf7, 0xbc, 0xe1, 0x3b,
    0xd4, 0x3d, 0x2d, 0x99, 0x24, 0x3e, 0x67, 0xf1, 0xcf, 0xbd,
    0x30, 0xa9, 0xf6, 0xbd, 0x6f, 0x7f, 0x57, 0x3d, 0x56, 0x2f,
    0x97, 0xbd, 0xaa, 0xfc, 0x22, 0x3d, 0x9c, 0x66, 0xd6, 0xbd,
    0xaa, 0xbd, 0x15, 0x3d, 0x67, 0x1f, 0x92, 0xbd, 0x93, 0x7b,
    0x10, 0x3e, 0x8b, 0xf4, 0x53, 0xbd, 0xbd, 0x76, 0x18, 0x3e,
    0x17, 0x38, 0x6b, 0xbd, 0x13, 0x28, 0x92, 0xbd, 0xb7, 0xab,
    0x4c, 0x3e, 0xf3, 0x51, 0xc4, 0xbd, 0xac, 0x3c, 0xd7, 0x3d,
    0x56, 0x7a, 0x42, 0x3d, 0xda, 0xed, 0xdc, 0xbd, 0x9a, 0xfb,
    0xfe, 0xbd, 0xf7, 0xa3, 0xc7, 0xbb, 0xe8, 0x12, 0xaf, 0xbc,
    0xc4, 0xc5, 0x0c, 0xbc, 0x13, 0x42, 0x11, 0xbe, 0x05, 0x76,
    0x4d, 0x3e, 0x30, 0x3b, 0x45, 0x3e, 0x93, 0x0d, 0xea, 0xbd,
    0x79, 0x23, 0x2d, 0xbe, 0x50, 0xde, 0xe6, 0xbd, 0x24, 0x9b,
    0x4f, 0x3c, 0x3e, 0x4e, 0xfb, 0x3d, 0x48, 0x58, 0xaa, 0xbd,
    0x23, 0xf3, 0xbb, 0xbd, 0xb8, 0x9f, 0x0f, 0x3e, 0xbc, 0x32,
    0x9e, 0xbc, 0xb1, 0xf2, 0x23, 0x3e, 0xa0, 0x83, 0x5d, 0xbd,
    0xb8, 0x24, 0x30, 0x3e, 0x00, 0x99, 0xd8, 0xbc, 0x2a, 0x48,
    0x9b, 0x3d, 0xf3, 0x55, 0x84, 0xbd, 0x29, 0x5c, 0x17, 0x3e,
    0x6d, 0x67, 0x30, 0xbe, 0x01, 0x5d, 0xd7, 0xbd, 0x76, 0xa4,
    0x4d, 0x3e, 0x8f, 0x33, 0x3a, 0x3e, 0x05, 0xad, 0x3f, 0x3e,
    0x69, 0xcc, 0x04, 0xbd, 0x51, 0x04, 0x08, 0x3e, 0x4d, 0x1e,
    0xd7, 0xbd, 0x3a, 0x16, 0xaf, 0x3d, 0x65, 0xb0, 0x2a, 0xbe,
    0x19, 0xbe, 0xe8, 0xbd, 0x36, 0x49, 0x68, 0xbc, 0xbd, 0xc3,
    0xba, 0xbd, 0x78, 0x04, 0xe1, 0xbd, 0xe0, 0xf4, 0x7f, 0xbd,
    0x06, 0xae, 0xf7, 0x3b, 0xf5, 0xf7, 0x08, 0x3a, 0x5d, 0xc6,
    0x8d, 0xbd, 0x85, 0x99, 0x53, 0x3e, 0xfc, 0x38, 0xd0, 0xbd,
    0x78, 0x4c, 0x0c, 0xbd, 0xfd, 0x2c, 0x43, 0x3d, 0xd4, 0x3b,
    0x82, 0x3d, 0x98, 0x06, 0x35, 0xbe, 0xc3, 0xa5, 0x0d, 0xbd,
    0x76, 0x23, 0xcc, 0x3d, 0xfc, 0xdb, 0xfb, 0x3c, 0x68, 0xc4,
    0xea, 0xbd, 0x67, 0x2e, 0x87, 0xbd, 0xe5, 0x74, 0xbf, 0xbd,
    0x4b, 0x3e, 0x0a, 0x3d, 0xb7, 0x0c, 0xc3, 0xbc, 0x1d, 0x7b,
    0x1c, 0xbe, 0x76, 0x88, 0x1d, 0xbd, 0x81, 0xd7, 0xbf, 0x3d,
    0xed, 0x48, 0x1d, 0xbe, 0x68, 0x56, 0x5b, 0x3d, 0x92, 0xa9,
    0xe1, 0x3d, 0xc3, 0x53, 0x1c, 0xbe, 0xa0, 0x9c, 0x8d, 0x3d,
    0x5e, 0x7d, 0xa3, 0x3d, 0x63, 0x06, 0x1d, 0xbd, 0x38, 0xd8,
    0x68, 0x3e, 0x31, 0xc6, 0xbf, 0xbb, 0xab, 0x06, 0x55, 0x3e,
    0x0e, 0x3f, 0x34, 0xbc, 0xaf, 0x46, 0xd6, 0xbd, 0x5a, 0x52,
    0xa2, 0xbd, 0xd0, 0xed, 0x1e, 0x3c, 0x1b, 0xcf, 0x69, 0x3d,
    0x3c, 0x1d, 0x27, 0xbc, 0xe9, 0x76, 0x98, 0x3d, 0xe6, 0xd8,
    0x3f, 0x3e, 0x00, 0xe6, 0xf1, 0x3d, 0xe9, 0x5c, 0x4b, 0x3d,
    0x09, 0x0b, 0xd0, 0xbc, 0x76, 0x5f, 0x37, 0xbe, 0x9a, 0xfa,
    0x71, 0x3d, 0x01, 0xa0, 0x07, 0xbe, 0xae, 0x5c, 0x12, 0xbe,
    0x42, 0xd9, 0xc3, 0x3d, 0xb1, 0xc1, 0xe2, 0x3c, 0x51, 0x35,
    0x12, 0xbe, 0xe9, 0xb9, 0x96, 0x3d, 0x61, 0x11, 0x20, 0x3e,
    0x24, 0x90, 0x38, 0xbd, 0xdc, 0x04, 0xde, 0x3d, 0xfc, 0xb2,
    0x89, 0xbd, 0xe3, 0xac, 0x0e, 0x3e, 0x58, 0x93, 0xed, 0xbc,
    0xbe, 0x82, 0xaa, 0xbd, 0x8a, 0x8e, 0xa5, 0x3d, 0xbc, 0x05,
    0xc1, 0xbd, 0x34, 0x33, 0x51, 0x3d, 0x8b, 0xdd, 0x33, 0xbc,
    0xd9, 0x3d, 0xc3, 0xbd, 0xed, 0xff, 0xa6, 0xbd, 0x1d, 0x55,
    0x74, 0xbd, 0x8b, 0xd6, 0xb0, 0x3c, 0x33, 0x4c, 0x8c, 0xbc,
    0x67, 0x11, 0xbc, 0xbc, 0x84, 0xbb, 0x1d, 0xbd, 0x8c, 0x02,
    0x25, 0xbd, 0x8c, 0x52, 0xc9, 0xbc, 0xa6, 0x00, 0xbd, 0xbc,
    0x05, 0x56, 0x43, 0xbb, 0x05, 0x12, 0xff, 0x3c, 0xf6, 0x8e,
    0x81, 0xba, 0xf1, 0xbb, 0x97, 0xbd, 0xe0, 0xce, 0x2f, 0x3d,
    0xb5, 0x56, 0xb6, 0x3c, 0x8c, 0x2a, 0x34, 0x3b, 0x0d, 0x56,
    0x91, 0xbb, 0xc4, 0x34, 0x79, 0x3d, 0xb8, 0x8f, 0x59, 0x72,
    0x79, 0xac, 0x7e, 0x63, 0x9d, 0xad, 0x85, 0x7a, 0xa6, 0xb5,
    0xcd, 0x83, 0xca, 0x7e, 0x7f, 0x88, 0x6f, 0xc8, 0xcc, 0x6a,
    0xa7, 0x69, 0xd5, 0xaa, 0x97, 0xbc, 0x97, 0x6e, 0xca, 0xc9,
    0xa6, 0x95, 0xc3, 0xd6, 0xa1, 0xc6, 0x81, 0xaf, 0x69, 0xcc,
    0xaa, 0x8a, 0xa5, 0x80, 0xd1, 0x69, 0x67, 0xa4, 0x79, 0x7e,
    0xc5, 0x3e, 0x9c, 0xb1, 0x64, 0x96, 0x73, 0xb6, 0xbd, 0x8e,
    0x89, 0x93, 0xae, 0xb8, 0x6c, 0xb2, 0x91, 0x5f, 0xc8, 0x65,
    0x66, 0x9f, 0x6b, 0x78, 0xad, 0x96, 0xa7, 0xc3, 0x8e, 0x8e,
    0x7e, 0xd1, 0x7b, 0x95, 0xba, 0x8a, 0xb4, 0xcc, 0xb9, 0xa6,
    0x96, 0xcc, 0x73, 0x8c, 0x75, 0x83, 0x8b, 0x98, 0xa7, 0x61,
    0x9b, 0x89, 0xba, 0x8d, 0x89, 0x6b, 0x80, 0x82, 0x5a, 0xb1,
    0x81, 0xbe, 0x93, 0x79, 0xc1, 0x9f, 0xc7, 0x88, 0x84, 0x5d,
    0x87, 0x57, 0x6d, 0xb6, 0xae, 0xce, 0xb2, 0xb0, 0xc8, 0xb1,
    0x77, 0xd3, 0x8f, 0x9c, 0x71, 0x78, 0xb4, 0x72, 0x87, 0xc9,
    0xbb, 0x7d, 0x4c, 0x7c, 0x8a, 0xb8, 0x77, 0xb6, 0xa5, 0xe6,
    0x92, 0xa8, 0xe6, 0x82, 0x61, 0x73, 0x59, 0x8e, 0x94, 0x94,
    0x79, 0x69, 0x9f, 0x91, 0x75, 0xb8, 0x97, 0x6b, 0x6d, 0x70,
    0xd9, 0xbc, 0xd8, 0x97, 0xb0, 0x97, 0xb4, 0xc7, 0x4c, 0xdd,
    0xd6, 0xd8, 0x55, 0xc4, 0xc4, 0x87, 0x83, 0x6a, 0x60, 0x64,
    0x35, 0xc6, 0x72, 0x6a, 0x86, 0x81, 0xb2, 0xac, 0x8b, 0xa0,
    0xb5, 0x95, 0x64, 0xca, 0xba, 0xb4, 0xa8, 0x8e, 0xc1, 0x9d,
    0xb9, 0x5a, 0x82, 0xae, 0x9f, 0xb2, 0x99, 0x83, 0x87, 0xc6,
    0x9e, 0xbe, 0x82, 0x70, 0xa5, 0xc7, 0x9a, 0xce, 0xc6, 0xdb,
    0x7f, 0x95, 0xca, 0x7a, 0xca, 0xdb, 0xb8, 0x96, 0x29, 0x8c,
    0x77, 0x84, 0xb5, 0x72, 0xb8, 0xc6, 0x64, 0x90, 0xbe, 0xbb,
    0x98, 0x97, 0x9a, 0x83, 0xc6, 0xd9, 0xa5, 0x63, 0xa8, 0x97,
    0xae, 0xb8, 0xab, 0x82, 0x9e, 0x85, 0xbc, 0x6f, 0xe6, 0x86,
    0x7c, 0x9a, 0xd9, 0xd7, 0x64, 0x8c, 0x96, 0x90, 0xa3, 0xc5,
    0xb0, 0x83, 0x89, 0xc5, 0xaa, 0x35, 0x3b, 0xb8, 0x3c, 0xb5,
    0x76, 0x90, 0x72, 0x74, 0xce, 0xa3, 0xa0, 0xdc, 0x92, 0x95,
    0xa9, 0xaa, 0x9f, 0x7c, 0x4b, 0xb8, 0x6d, 0xb2, 0xdb, 0x5a,
    0xb0, 0x9d, 0x72, 0xdf, 0x9d, 0x40, 0xa6, 0xb3, 0x8d, 0x79,
    0x84, 0x50, 0x8a, 0xb2, 0x81, 0x7d, 0xa9, 0x4f, 0xa6, 0xb6,
    0x92, 0x73, 0x91, 0x60, 0x4c, 0xb7, 0x5f, 0x70, 0x62, 0x57,
    0x91, 0x67, 0xc1, 0x7c, 0x49, 0xda, 0x7c, 0x76, 0xac, 0x69,
    0xad, 0x95, 0xa2, 0xdf, 0x55, 0xa3, 0xdd, 0x6f, 0x3a, 0xe5,
    0x54, 0xb6, 0xc2, 0x89, 0xc1, 0x74, 0xa1, 0x8d, 0x99, 0x68,
    0xe9, 0x95, 0xb8, 0x84, 0x7f, 0x90, 0xb5, 0xb6, 0x38, 0xb8,
    0xce, 0x2c, 0x2c, 0xb2, 0x17, 0xb2, 0x38, 0x6f, 0x77, 0xa8,
    0xc9, 0xdb, 0x77, 0x9e, 0x85, 0x62, 0x97, 0xae, 0x70, 0x74,
    0x9c, 0xea, 0x53, 0xbb, 0xec, 0x9b, 0x55, 0x91, 0x88, 0x91,
    0x77, 0x44, 0x49, 0x90, 0xcd, 0x68, 0xbd, 0x5c, 0x83, 0x8a,
    0x8b, 0x86, 0x7c, 0x44, 0xb1, 0x8e, 0x41, 0x73, 0xdb, 0x33,
    0x0c, 0xc7, 0x4a, 0xe1, 0x66, 0x2f, 0xcc, 0x54, 0xbc, 0xd7,
    0x38, 0xc7, 0x92, 0x8e, 0x85, 0x6a, 0xb1, 0x6b, 0x56, 0xcc,
    0x6d, 0x93, 0x91, 0x6f, 0x07, 0xc4, 0x51, 0x6b, 0xbd, 0x0f,
    0x64, 0x78, 0x85, 0x7e, 0x63, 0x99, 0xb4, 0xc5, 0x86, 0x54,
    0x8e, 0x6d, 0xc3, 0x66, 0x86, 0x7e, 0xb7, 0x39, 0x6b, 0xcb,
    0x5e, 0x83, 0x95, 0x26, 0x97, 0x4d, 0xb5, 0x8d, 0x65, 0xe0,
    0x78, 0x73, 0xde, 0xa4, 0x8b, 0x94, 0x6f, 0x8d, 0x4f, 0xbb,
    0xa0, 0x1d, 0x68, 0xc3, 0x99, 0x67, 0x90, 0x25, 0x6d, 0xa7,
    0x6c, 0xa9, 0x67, 0x62, 0x80, 0xcb, 0x40, 0x7a, 0xc9, 0x15,
    0x94, 0x62, 0xa1, 0xa9, 0xc5, 0x50, 0x40, 0x9a, 0x4e, 0x7a,
    0x59, 0x45, 0xbf, 0x5e, 0x99, 0xc1, 0x2b, 0xbf, 0x6e, 0x52,
    0xcd, 0x7e, 0xbb, 0x52, 0x86, 0xaf, 0x7e, 0x7e, 0xca, 0x39,
    0x4c, 0x9e, 0x51, 0xa3, 0xc4, 0x20, 0xad, 0xb6, 0xb3, 0x88,
    0x59, 0x7f, 0xd3, 0x8e, 0x72, 0x9b, 0x92, 0x57, 0xab, 0x45,
    0x64, 0x97, 0x7b, 0xbf, 0xb8, 0x9a, 0x7b, 0x82, 0x98, 0x53,
    0x14, 0xb5, 0xb0, 0xd1, 0xb5, 0xdc, 0x6b, 0xbf, 0xb0, 0x37,
    0x58, 0x93, 0x79, 0x9e, 0xba, 0x72, 0xab, 0x7b, 0x7c, 0xbd,
    0x3b, 0xe9, 0x58, 0x65, 0x77, 0x66, 0x43, 0xc1, 0xab, 0x8c,
    0xfa, 0x12, 0xd8, 0xa3, 0xa9, 0x91, 0x12, 0xd0, 0x64, 0xa0,
    0x6a, 0xc4, 0x88, 0xc7, 0x88, 0xa6, 0x68, 0xcf, 0x36, 0xbf,
    0x96, 0xdd, 0xa1, 0x94, 0xa5, 0x9d, 0x9e, 0x89, 0x99, 0x92,
    0x7b, 0xd2, 0x6e, 0x2c, 0x92, 0xbf, 0x6b, 0xdd, 0x8c, 0xbb,
    0x80, 0x74, 0xc0, 0x98, 0x5f, 0x8d, 0x6c, 0xa5, 0xd1, 0x3d,
    0xce, 0x89, 0x94, 0xd0, 0x6f, 0xbb, 0x9f, 0xaa, 0x5d, 0x7e,
    0x9e, 0x9a, 0x74, 0x9c, 0xb0, 0x6a, 0x69, 0x97, 0xf4, 0x8d,
    0xa8, 0xa5, 0xaf, 0xbe, 0xdf, 0x5b, 0xb9, 0xd9, 0xa3, 0xb8,
    0x59, 0x62, 0x92, 0xe2, 0x63, 0x9f, 0x6d, 0xb9, 0x69, 0xc0,
    0xae, 0x83, 0x9c, 0xe6, 0x71, 0xcc, 0xdb, 0x85, 0x8b, 0x58,
    0xaf, 0xcd, 0x6f, 0xb7, 0x3a, 0x58, 0x7b, 0x79, 0x79, 0x9f,
    0x9c, 0x88, 0x62, 0xa2, 0x78, 0xc9, 0xd7, 0x8d, 0x99, 0xa8,
    0x97, 0x69, 0xbb, 0x62, 0x5a, 0x83, 0x6c, 0xb7, 0x8c, 0xa2,
    0xd6, 0xad, 0x6b, 0xb7, 0x86, 0xcf, 0x5f, 0xb1, 0xac, 0x78,
    0x5f, 0xdc, 0x82, 0xb0, 0x9e, 0x5e, 0x74, 0x50, 0x82, 0x7e,
    0x6a, 0xc1, 0xa2, 0xb7, 0x6e, 0x88, 0x7d, 0xbf, 0x93, 0xb6,
    0x90, 0xac, 0x5b, 0x8a, 0xca, 0xb5, 0x61, 0xd0, 0x79, 0xa1,
    0xd4, 0xa1, 0x91, 0x9f, 0x86, 0xec, 0x52, 0x75, 0xa9, 0x99,
    0x95, 0x89, 0x71, 0x9e, 0x86, 0x7d, 0xd2, 0x4e, 0x82, 0xd5,
    0xa7, 0x99, 0x8c, 0x36, 0xe9, 0x4f, 0x69, 0x8c, 0x6d, 0x78,
    0x36, 0x87, 0x93, 0xba, 0x5c, 0xb6, 0x93, 0x9a, 0x74, 0x80,
    0x38, 0x7a, 0xa3, 0xdd, 0x6a, 0xdb, 0xc4, 0xc8, 0x86, 0x3c,
    0xaa, 0xa2, 0x62, 0xf2, 0xa5, 0x16, 0x8b, 0x83, 0xb2, 0x94,
    0x62, 0xde, 0x9c, 0x79, 0xd1, 0x6a, 0x50, 0xc7, 0x64, 0xd2,
    0xff, 0x00, 0x8d, 0x9d, 0x92, 0xd4, 0x21, 0xc7, 0x75, 0x62,
    0xbf, 0xc0, 0xa2, 0x76, 0x85, 0xd7, 0x62, 0x89, 0xb6, 0x86,
    0x4f, 0x75, 0x81, 0xb3, 0x96, 0x0a, 0x10, 0x83, 0x76, 0x91,
    0xdb, 0x3f, 0xda, 0xb3, 0x23, 0x8e, 0xeb, 0x8e, 0xbb, 0x5a,
    0x7e, 0xb0, 0x67, 0x4d, 0xe2, 0x8c, 0x7e, 0xcc, 0x42, 0x2e,
    0x71, 0xcd, 0x91, 0xa3, 0x4c, 0xaf, 0xa7, 0x9d, 0x9b, 0x6e,
    0xb8, 0x70, 0x99, 0x94, 0x92, 0xd2, 0xb9, 0x71, 0x4b, 0x59,
    0x5f, 0x9e, 0x4b, 0x40, 0x44, 0xad, 0x8f, 0x7f, 0xb8, 0x87,
    0xa1, 0x7a, 0x78, 0xa3, 0xcb, 0xab, 0xa7, 0x72, 0x99, 0x7f,
    0x97, 0x5c, 0x9f, 0xab, 0x89, 0xe7, 0xa3, 0x35, 0x71, 0xcf,
    0xa1, 0x91, 0x3a, 0x9e, 0x92, 0x9b, 0xd9, 0x8f, 0xc0, 0x82,
    0x95, 0xc7, 0x82, 0x88, 0xbf, 0x48, 0x4c, 0x7e, 0x3c, 0xc8,
    0x6c, 0x33, 0x3e, 0xab, 0x8b, 0xde, 0xe4, 0x6a, 0xd7, 0x9e,
    0x55, 0x88, 0xb8, 0x7c, 0x9b, 0x79, 0xa8, 0x6f, 0x80, 0x8e,
    0x83, 0x8c, 0xa7, 0xaa, 0x82, 0x72, 0xd5, 0xca, 0xb3, 0xc8,
    0x6a, 0xb4, 0xa7, 0x9c, 0xa8, 0x95, 0xc2, 0x7e, 0x54, 0xcd,
    0x27, 0x9d, 0xcb, 0x76, 0x5d, 0x66, 0x41, 0x97, 0x63, 0x16,
    0x41, 0x89, 0xb4, 0xad, 0xc6, 0xa2, 0xb9, 0xbd, 0x46, 0x50,
    0xc8, 0x84, 0xa9, 0x91, 0x7f, 0xc1, 0x60, 0x4d, 0xad, 0xc9,
    0xb7, 0xce, 0x8f, 0x53, 0xe1, 0xcd, 0x4e, 0x94, 0x35, 0x72,
    0xd6, 0x7f, 0xa2, 0x5d, 0xb2, 0x94, 0xa6, 0xb2, 0x81, 0xd7,
    0xd0, 0x5b, 0x31, 0x7b, 0x62, 0x89, 0xb9, 0x52, 0x77, 0x7a,
    0x6b, 0xc3, 0xd4, 0x98, 0xa6, 0x8d, 0x39, 0x96, 0xcf, 0x91,
    0x76, 0x6a, 0x5c, 0x93, 0x73, 0x63, 0xbf, 0x69, 0xb1, 0xd0,
    0x49, 0x7e, 0xca, 0xc3, 0xac, 0xaf, 0x3b, 0x83, 0xbb, 0x7e,
    0xd3, 0xb0, 0x95, 0xbd, 0x60, 0xa5, 0x77, 0x8a, 0xa6, 0x5a,
    0x55, 0xb1, 0x45, 0xb6, 0xb0, 0x12, 0x26, 0xb2, 0xb3, 0xc1,
    0xe9, 0x6d, 0xba, 0xc4, 0x72, 0xa8, 0x9d, 0x83, 0x6f, 0x7d,
    0x9c, 0xc1, 0x71, 0x6f, 0x75, 0x9d, 0x6a, 0xea, 0x39, 0x26,
    0x98, 0x8e, 0xbf, 0x91, 0x8f, 0x98, 0xbd, 0x64, 0x93, 0x93,
    0xbd, 0xa7, 0xa5, 0x85, 0x87, 0xd5, 0x9c, 0x7e, 0x82, 0x2e,
    0xcc, 0x83, 0x5d, 0x65, 0xd9, 0xd2, 0xa0, 0x5e, 0x99, 0x72,
    0x85, 0xab, 0x66, 0x85, 0x6f, 0x34, 0xda, 0x2c, 0xc5, 0x7d,
    0x23, 0x8b, 0x0d, 0x7b, 0x87, 0x62, 0x81, 0xd1, 0x33, 0x90,
    0xb0, 0x74, 0xdb, 0xd0, 0x68, 0xa6, 0xa2, 0xac, 0xb5, 0xa6,
    0xc4, 0x5b, 0x6a, 0xc2, 0x90, 0x72, 0x21, 0x60, 0xc9, 0x7c,
    0x6e, 0x67, 0xc3, 0xb9, 0xab, 0x1c, 0x7f, 0x65, 0xac, 0xad,
    0xad, 0x9e, 0xa6, 0x6d, 0x9d, 0x28, 0x6a, 0xb5, 0x46, 0x98,
    0x2f, 0x6d, 0xa5, 0x3a, 0xc4, 0xa7, 0x37, 0xa3, 0xe7, 0x7c,
    0xc6, 0x69, 0x5e, 0x8f, 0xac, 0xdc, 0x79, 0x60, 0x96, 0x6d,
    0xb1, 0xc0, 0x84, 0x96, 0x9c, 0x3a, 0x90, 0x5a, 0x76, 0x7a,
    0x96, 0x94, 0xc1, 0x2b, 0x9c, 0x5b, 0x61, 0xb3, 0xac, 0x4c,
    0x66, 0x4e, 0x9b, 0x88, 0x7e, 0xb5, 0x39, 0xc2, 0x4e, 0x9b,
    0x5e, 0xb1, 0xc6, 0xb4, 0x33, 0xa7, 0xb1, 0x4d, 0xa0, 0xcc,
    0xa4, 0x79, 0x69, 0x9a, 0xab, 0x85, 0xce, 0x5e, 0x95, 0x9a,
    0x68, 0x83, 0x67, 0x38, 0xe4, 0x45, 0x51, 0x8b, 0x80, 0xb5,
    0x6e, 0x5f, 0x7c, 0x7f, 0x74, 0xce, 0x88, 0x98, 0x71, 0x4d,
    0x94, 0x72, 0x92, 0x77, 0x61, 0x9f, 0x82, 0xd2, 0x81, 0x3b,
    0x97, 0xd7, 0x58, 0x6d, 0xa7, 0xa1, 0x90, 0xc8, 0x67, 0xb4,
    0x85, 0x9b, 0xd6, 0x68, 0x8f, 0x7f, 0xce, 0xbf, 0x98, 0x8d,
    0x79, 0x5f, 0xd1, 0x8d, 0x77, 0x9d, 0x83, 0x8a, 0x65, 0x34,
    0x6c, 0xbc, 0x66, 0xc5, 0x88, 0x7b, 0x58, 0xa8, 0x96, 0x29,
    0x9a, 0x5f, 0x4c, 0xbc, 0xac, 0xb9, 0x69, 0x7f, 0x8f, 0xa3,
    0x9e, 0x78, 0xca, 0xa2, 0xc2, 0xc8, 0x63, 0xbc, 0x66, 0xb9,
    0xd0, 0xa7, 0xa4, 0x69, 0xa7, 0xea, 0xb8, 0x84, 0x70, 0x3d,
    0xd7, 0x40, 0x8c, 0x4e, 0x9c, 0xda, 0x7f, 0x47, 0xa0, 0xa1,
    0x73, 0xd9, 0x5a, 0x5a, 0x71, 0x7a, 0xd0, 0x3c, 0xab, 0xb0,
    0x63, 0x97, 0x39, 0xc6, 0xd1, 0x8c, 0x8f, 0x8a, 0x9b, 0x57,
    0xc3, 0x97, 0xaf, 0xb9, 0x63, 0x80, 0x82, 0xcb, 0x96, 0xbe,
    0xe9, 0x9e, 0xcb, 0x90, 0xcf, 0xa1, 0x4d, 0xb8, 0xa0, 0x93,
    0xaa, 0xd0, 0x8b, 0x94, 0x82, 0x9a, 0x6e, 0x3f, 0x35, 0xaf,
    0x7f, 0x96, 0x83, 0x28, 0xc6, 0x85, 0xaf, 0xe5, 0x45, 0xc1,
    0x46, 0x9f, 0xa5, 0x7c, 0x82, 0xba, 0x7a, 0x89, 0x8d, 0x28,
    0xd6, 0x37, 0x77, 0x6e, 0x55, 0x9c, 0xf0, 0xcb, 0xdf, 0x61,
    0xb5, 0xcd, 0xef, 0xbe, 0x78, 0x87, 0x59, 0x9d, 0xc8, 0xd7,
    0x4c, 0xbb, 0x8f, 0xd7, 0xb7, 0x3c, 0xa1, 0x68, 0x9f, 0x7d,
    0x9c, 0xb6, 0xa0, 0xa8, 0xb7, 0x9e, 0x88, 0x79, 0x56, 0x6f,
    0xae, 0x9b, 0xac, 0x73, 0x5c, 0xb2, 0xae, 0x86, 0xb0, 0x8c,
    0xa2, 0x73, 0x59, 0xd1, 0xaa, 0x7b, 0xa9, 0x8b, 0xaf, 0x75,
    0xb1, 0x73, 0x90, 0xc7, 0x8f, 0x84, 0x86, 0xa4, 0x48, 0x80,
    0x9c, 0x8e, 0x7e, 0x48, 0x45, 0xb9, 0x88, 0xe6, 0x6b, 0xbf,
    0x9c, 0xaf, 0x80, 0xe5, 0x5b, 0xc1, 0x60, 0x33, 0x97, 0x68,
    0x9d, 0xa4, 0x3d, 0x51, 0x67, 0x50, 0x8f, 0x71, 0xc7, 0x66,
    0x58, 0x86, 0xe4, 0xc7, 0xbc, 0xad, 0xbe, 0xc0, 0xc9, 0xa0,
    0x37, 0x88, 0x77, 0x33, 0xdd, 0xaf, 0x80, 0x9f, 0x9b, 0x62,
    0x97, 0x58, 0x88, 0xb1, 0x4c, 0x89, 0xad, 0x69, 0xa2, 0x81,
    0x67, 0x94, 0x5d, 0x8f, 0xcc, 0x91, 0xca, 0x62, 0x68, 0xcc,
    0x7c, 0x68, 0x7c, 0x47, 0x84, 0x72, 0x50, 0x75, 0x36, 0x98,
    0xd6, 0xba, 0xaa, 0x5c, 0xcb, 0x6a, 0xd1, 0x70, 0x82, 0x9d,
    0x5d, 0x76, 0xec, 0x96, 0xad, 0x9b, 0x7a, 0x9c, 0x70, 0x65,
    0x7c, 0x7c, 0x74, 0xbc, 0xc2, 0x4f, 0xaf, 0x94, 0x7f, 0xe0,
    0xa6, 0xaf, 0x69, 0x60, 0xc1, 0x82, 0x5e, 0x9c, 0x3a, 0x86,
    0x82, 0x38, 0xb2, 0x75, 0x7b, 0x69, 0x63, 0xab, 0xd1, 0xa7,
    0xd7, 0x99, 0xd1, 0x8c, 0xd2, 0x79, 0x53, 0xa2, 0x7f, 0x59,
    0x7d, 0xee, 0x96, 0x9a, 0x95, 0xc5, 0x89, 0x53, 0x6b, 0x81,
    0x42, 0x70, 0x99, 0x91, 0x9a, 0x4e, 0x66, 0xd0, 0x58, 0xd2,
    0x80, 0xa9, 0x7c, 0x41, 0xbf, 0xb5, 0x35, 0x7e, 0x7d, 0x2f,
    0xc0, 0x75, 0xa8, 0x53, 0x66, 0x94, 0xb2, 0xbe, 0xf7, 0x6a,
    0xb1, 0xbe, 0x88, 0x41, 0xb0, 0xbe, 0x18, 0x18, 0xaf, 0xbe,
    0xa9, 0xee, 0xad, 0xbe, 0x3a, 0xc5, 0xac, 0xbe, 0xcb, 0x9b,
    0xab, 0xbe, 0xce, 0x14, 0xaa, 0xbe, 0xed, 0x48, 0xa9, 0xbe,
    0x7d, 0x1f, 0xa8, 0xbe, 0xf1, 0xcf, 0xa6, 0xbe, 0x9f, 0xcc,
    0xa5, 0xbe, 0xf8, 0x27, 0xa5, 0xbe, 0x01, 0x65, 0xa3, 0xbe,
    0x51, 0x50, 0xa2, 0xbe, 0xd3, 0xb6, 0xa1, 0xbe, 0x9f, 0xf2,
    0x9f, 0xbe, 0x04, 0xd4, 0x9e, 0xbe, 0x07, 0x7e, 0x9d, 0xbe,
    0x26, 0x81, 0x9c, 0xbe, 0x92, 0x59, 0x9b, 0xbe, 0x0b, 0xb2,
    0x99, 0xbe, 0xd6, 0xcc, 0x98, 0xbe, 0xb8, 0xbe, 0x97, 0xbe,
    0xfa, 0xb1, 0x96, 0xbe, 0x8a, 0x88, 0x95, 0xbe, 0x1b, 0x5f,
    0x94, 0xbe, 0xac, 0x35, 0x93, 0xbe, 0x26, 0x2f, 0x92, 0xbe,
    0xeb, 0xa1, 0x90, 0xbe, 0x5f, 0xb9, 0x8f, 0xbe, 0xef, 0x8f,
    0x8e, 0xbe, 0xb6, 0xc3, 0x8d, 0xbe, 0xe3, 0x68, 0x8c, 0xbe,
    0xa2, 0x13, 0x8b, 0xbe, 0xc5, 0xf1, 0x89, 0xbe, 0xc3, 0xc0,
    0x88, 0xbe, 0x14, 0x55, 0x87, 0xbe, 0xb5, 0x75, 0x86, 0xbe,
    0x7b, 0x6b, 0x85, 0xbe, 0xd1, 0x10, 0x84, 0xbe, 0xcb, 0x70,
    0x82, 0xbe, 0x28, 0xc8, 0x81, 0xbe, 0x56, 0x01, 0x80, 0xbe,
    0x8e, 0x97, 0x7e, 0xbe, 0xb6, 0x97, 0x7c, 0xbe, 0x22, 0xb2,
    0x79, 0xbe, 0x23, 0xca, 0x77, 0xbe, 0x1a, 0x9f, 0x75, 0xbe,
    0x43, 0x5a, 0x72, 0xbe, 0x5e, 0xf9, 0x70, 0xbe, 0xd0, 0xf1,
    0x6e, 0xbe, 0xea, 0x63, 0x6d, 0xbe, 0x6b, 0x00, 0x6a, 0xbe,
    0x28, 0x09, 0x68, 0xbe, 0x06, 0x10, 0x66, 0xbe, 0xc1, 0x7c,
    0x63, 0xbe, 0xc8, 0x21, 0x60, 0xbe, 0xa4, 0x0c, 0x5e, 0xbe,
    0xd3, 0x97, 0x5b, 0xbe, 0x6d, 0x59, 0x59, 0xbe, 0xb8, 0x8f,
    0x57, 0xbe, 0x24, 0x80, 0x54, 0xbe, 0x26, 0x95, 0x51, 0xbe,
    0x53, 0x89, 0x50, 0xbe, 0x6b, 0x64, 0x4e, 0xbe, 0x0a, 0xf8,
    0x4c, 0xbe, 0xc8, 0x87, 0x49, 0xbe, 0xdd, 0xd0, 0x46, 0xbe,
    0xad, 0x2c, 0x44, 0xbe, 0x0d, 0x08, 0x43, 0xbe, 0xce, 0xcb,
    0x3f, 0xbe, 0x18, 0x0a, 0x3d, 0xbe, 0x3f, 0x06, 0x3b, 0xbe,
    0xf0, 0x4e, 0x3a, 0xbe, 0x99, 0xd6, 0x37, 0xbe, 0x36, 0xbc,
    0x34, 0xbe, 0xa3, 0x9f, 0x31, 0xbe, 0x37, 0x8f, 0x2f, 0xbe,
    0xa6, 0x8b, 0x2d, 0xbe, 0x11, 0x36, 0x2b, 0xbe, 0xfb, 0x4c,
    0x29, 0xbe, 0x33, 0x6a, 0x27, 0xbe, 0x4f, 0xa9, 0x23, 0xbe,
    0x4e, 0xfb, 0x21, 0xbe, 0xa1, 0x90, 0x1f, 0xbe, 0x2c, 0xd5,
    0x1c, 0xbe, 0x30, 0xe0, 0x1a, 0xbe, 0x2a, 0xdb, 0x18, 0xbe,
    0x85, 0xd3, 0x16, 0xbe, 0x4b, 0x26, 0x14, 0xbe, 0x0f, 0x5a,
    0x11, 0xbe, 0x15, 0x9a, 0x0e, 0xbe, 0xe7, 0xd1, 0x0c, 0xbe,
    0xcf, 0xb3, 0x0a, 0xbe, 0x5c, 0xc5, 0x08, 0xbe, 0x6e, 0x93,
    0x06, 0xbe, 0xa1, 0xa4, 0x03, 0xbe, 0xbf, 0xb6, 0x01, 0xbe,
    0x0d, 0xab, 0xfe, 0xbd, 0x5e, 0x76, 0xfa, 0xbd, 0x51, 0x9a,
    0xf5, 0xbd, 0x0f, 0x2f, 0xf0, 0xbd, 0xca, 0x86, 0xeb, 0xbd,
    0x57, 0x08, 0xe8, 0xbd, 0xe5, 0x32, 0xe2, 0xbd, 0x19, 0xfa,
    0xdc, 0xbd, 0x94, 0xad, 0xd8, 0xbd, 0x33, 0xc2, 0xd3, 0xbd,
    0x12, 0x55, 0xd0, 0xbd, 0xcf, 0x0c, 0xcb, 0xbd, 0x89, 0x49,
    0xc6, 0xbd, 0xeb, 0xf7, 0xc1, 0xbd, 0x11, 0x35, 0xbd, 0xbd,
    0x27, 0xcd, 0xb8, 0xbd, 0x6a, 0xfe, 0xb2, 0xbd, 0x4d, 0x49,
    0xae, 0xbd, 0x7a, 0x0a, 0xab, 0xbd, 0xb8, 0xda, 0xa5, 0xbd,
    0xfe, 0x12, 0xa1, 0xbd, 0x32, 0x72, 0x9c, 0xbd, 0xfc, 0xe4,
    0x98, 0xbd, 0x12, 0x46, 0x92, 0xbd, 0x5a, 0x80, 0x8e, 0xbd,
    0x10, 0x48, 0x8b, 0xbd, 0xda, 0xe0, 0x85, 0xbd, 0x80, 0xc9,
    0x80, 0xbd, 0x53, 0x15, 0x78, 0xbd, 0x57, 0xb7, 0x6f, 0xbd,
    0xad, 0xe1, 0x66, 0xbd, 0x18, 0xfb, 0x5b, 0xbd, 0x0a, 0x2b,
    0x53, 0xbd, 0xbe, 0x53, 0x49, 0xbd, 0xfc, 0xaf, 0x40, 0xbd,
    0xea, 0x54, 0x38, 0xbd, 0xd7, 0x01, 0x2d, 0xbd, 0xf7, 0x04,
    0x25, 0xbd, 0x57, 0xa2, 0x1b, 0xbd, 0x3d, 0xc3, 0x13, 0xbd,
    0x36, 0x44, 0x0a, 0xbd, 0xbd, 0xaf, 0x01, 0xbd, 0x5a, 0x0b,
    0xed, 0xbc, 0x2f, 0xc7, 0xdf, 0xbc, 0xf0, 0x61, 0xcd, 0xbc,
    0x7f, 0x30, 0xb5, 0xbc, 0xb8, 0x4b, 0xa3, 0xbc, 0x19, 0x9f,
    0x91, 0xbc, 0x27, 0x71, 0x71, 0xbc, 0x10, 0x8c, 0x57, 0xbc,
    0x11, 0x45, 0x32, 0xbc, 0x88, 0x54, 0x09, 0xbc, 0x44, 0x18,
    0xbe, 0xbb, 0x87, 0xf6, 0x8f, 0xbb, 0x69, 0x11, 0x14, 0xbb,
    0xf1, 0x3a, 0x5e, 0x39, 0xe2, 0x0d, 0x3b, 0x3b, 0x62, 0xb7,
    0xa6, 0x3b, 0x13, 0xc4, 0xf2, 0x3b, 0xfc, 0x5b, 0x22, 0x3c,
    0xe2, 0xd3, 0x48, 0x3c, 0x62, 0x56, 0x6f, 0x3c, 0x03, 0xc9,
    0x8b, 0x3c, 0x42, 0xdb, 0x9b, 0x3c, 0x88, 0x37, 0xaa, 0x3c,
    0xe0, 0x53, 0xbc, 0x3c, 0x38, 0xc5, 0xce, 0x3c, 0x2c, 0x1a,
    0xdf, 0x3c, 0xe9, 0xc0, 0xf6, 0x3c, 0x85, 0x56, 0x04, 0x3d,
    0x7d, 0xe9, 0x0d, 0x3d, 0x32, 0xb9, 0x17, 0x3d, 0x2f, 0x91,
    0x1f, 0x3d, 0x2f, 0x9e, 0x2a, 0x3d, 0xe0, 0x63, 0x33, 0x3d,
    0xbb, 0x4e, 0x3c, 0x3d, 0xb0, 0x11, 0x46, 0x3d, 0xd5, 0x1e,
    0x50, 0x3d, 0x9e, 0x01, 0x58, 0x3d, 0xe3, 0x43, 0x64, 0x3d,
    0x2e, 0xbf, 0x6d, 0x3d, 0xe7, 0x6e, 0x75, 0x3d, 0x70, 0x99,
    0x7e, 0x3d, 0xa0, 0x36, 0x83, 0x3d, 0xec, 0xfa, 0x87, 0x3d,
    0x36, 0x10, 0x8d, 0x3d, 0x32, 0xc2, 0x91, 0x3d, 0xb8, 0x68,
    0x97, 0x3d, 0xbe, 0x09, 0x9b, 0x3d, 0x02, 0x06, 0x9e, 0x3d,
    0xef, 0xb8, 0xa3, 0x3d, 0x40, 0xae, 0xa8, 0x3d, 0x2a, 0x95,
    0xad, 0x3d, 0xb0, 0x77, 0xb1, 0x3d, 0x60, 0xc7, 0xb6, 0x3d,
    0x9f, 0x44, 0xbb, 0x3d, 0xc9, 0x6d, 0xc0, 0x3d, 0x2c, 0x1a,
    0xc4, 0x3d, 0xc7, 0xb7, 0xcb, 0x3d, 0xaa, 0x56, 0xce, 0x3d,
    0x27, 0x09, 0xd2, 0x3d, 0xe6, 0xe9, 0xd6, 0x3d, 0xc2, 0x22,
    0xdc, 0x3d, 0x8c, 0x65, 0xe0, 0x3d, 0x92, 0xbe, 0xe4, 0x3d,
    0x99, 0x6c, 0xe9, 0x3d, 0x89, 0x52, 0xef, 0x3d, 0xbb, 0xe7,
    0xf2, 0x3d, 0xed, 0x63, 0xf5, 0x3d, 0x0e, 0xce, 0xfb, 0x3d,
    0xef, 0xad, 0x00, 0x3e, 0xfb, 0xa8, 0x02, 0x3e, 0xeb, 0x6a,
    0x05, 0x3e, 0xaf, 0x46, 0x07, 0x3e, 0xbf, 0xb9, 0x09, 0x3e,
    0x91, 0x03, 0x0c, 0x3e, 0x39, 0xb3, 0x0d, 0x3e, 0x53, 0x0e,
    0x11, 0x3e, 0x07, 0x38, 0x13, 0x3e, 0x4e, 0xe5, 0x14, 0x3e,
    0x9e, 0x36, 0x17, 0x3e, 0xf4, 0x04, 0x1a, 0x3e, 0x69, 0xcf,
    0x1c, 0x3e, 0x08, 0xd8, 0x1e, 0x3e, 0x0a, 0xf7, 0x20, 0x3e,
    0x75, 0xbd, 0x23, 0x3e, 0x88, 0x69, 0x25, 0x3e, 0xf7, 0xe7,
    0x26, 0x3e, 0x61, 0x52, 0x2a, 0x3e, 0xcb, 0x11, 0x2d, 0x3e,
    0xf0, 0x5e, 0x2f, 0x3e, 0x4e, 0x30, 0x31, 0x3e, 0x42, 0xb4,
    0x34, 0x3e, 0xb9, 0xf0, 0x35, 0x3e, 0xf7, 0xa7, 0x37, 0x3e,
    0x30, 0x0c, 0x39, 0x3e, 0x83, 0x4c, 0x3c, 0x3e, 0xa5, 0xdb,
    0x3f, 0x3e, 0x10, 0x8f, 0x41, 0x3e, 0x1e, 0xaf, 0x43, 0x3e,
    0xff, 0x5c, 0x46, 0x3e, 0xef, 0x45, 0x48, 0x3e, 0x8a, 0xda,
    0x4a, 0x3e, 0xe2, 0x24, 0x4d, 0x3e, 0x47, 0x80, 0x4f, 0x3e,
    0xf2, 0xaf, 0x50, 0x3e, 0x03, 0x26, 0x54, 0x3e, 0xe2,
    0x78, 0x56, 0x3e, 0xc0, 0xcb, 0x58, 0x3e, 0x9e, 0x1e,
    0x5b, 0x3e, 0x7d, 0x71, 0x5d, 0x3e, 0xf6, 0x6c, 0x60,
    0x3e, 0x3a, 0x17, 0x62, 0x3e, 0x18, 0x6a, 0x64, 0x3e,
    0xf6, 0xbc, 0x66, 0x3e, 0xd5, 0x0f, 0x69, 0x3e, 0xb3,
    0x62, 0x6b, 0x3e, 0x1a, 0xa0, 0x0f, 0x3d, 0x8b, 0xf3,
    0x36, 0xbc, 0x1e, 0xab, 0xa4, 0xbb, 0xed, 0x5b, 0x9f,
    0xbd, 0x17, 0x8f, 0x68, 0x3c, 0x1f, 0x68, 0x5f, 0x3c
  };

  return AI_HANDLE_PTR(s_network_weights);
}

