#include "network_data.h"

ai_handle ai_network_data_weights_get(void)
{

  AI_ALIGNED(4)
  static const ai_u8 s_network_weights[ 10428 ] = {
    0x76, 0x27, 0x5c, 0xbe, 0x11, 0xba, 0x13, 0xbf, 0xb1, 0x48,
    0x2a, 0xbe, 0x19, 0x1d, 0x1e, 0xbd, 0x59, 0x4a, 0x0c, 0xbf,
    0x7c, 0x98, 0x07, 0xbf, 0x75, 0x26, 0x87, 0xbd, 0xa6, 0x58,
    0x15, 0xbe, 0x87, 0xa1, 0x08, 0xbe, 0xe2, 0x6b, 0xa4, 0xbc,
    0x6d, 0xb7, 0xfb, 0x3e, 0x02, 0x5f, 0xb4, 0xbd, 0x2a, 0xfc,
    0x72, 0x3e, 0x1b, 0xd3, 0x00, 0x3c, 0xe3, 0x81, 0xf8, 0x3d,
    0x90, 0xe1, 0x68, 0x3e, 0x8f, 0xcd, 0x06, 0x3f, 0x66, 0x00,
    0xfa, 0x3e, 0xa9, 0x86, 0x22, 0xbf, 0x91, 0x95, 0x36, 0xbc,
    0xfd, 0x65, 0x8d, 0xbe, 0xc8, 0xf6, 0x2d, 0xbf, 0xb4, 0x92,
    0x2c, 0xbe, 0x0a, 0x72, 0x8e, 0xbe, 0x56, 0x1a, 0x32, 0xbe,
    0xec, 0x71, 0x49, 0xbe, 0x73, 0x11, 0xb2, 0x3d, 0xb6, 0x98,
    0xa0, 0xbe, 0x1f, 0xb9, 0x79, 0xbe, 0x82, 0x99, 0xce, 0x3e,
    0x94, 0xad, 0x95, 0xbe, 0x86, 0x1f, 0xdc, 0xbd, 0x84, 0x4a,
    0xef, 0x3c, 0x71, 0xf3, 0xb2, 0xbe, 0x74, 0xf0, 0x9f, 0xbe,
    0xbe, 0xd2, 0x11, 0x3f, 0x55, 0x2e, 0x30, 0x3e, 0xf9, 0x8a,
    0x26, 0x3e, 0x69, 0xa7, 0x79, 0x3e, 0xba, 0xcb, 0x1b, 0x3e,
    0x22, 0x46, 0x8a, 0xbe, 0xa3, 0xb6, 0x9b, 0x3e, 0xc4, 0xaf,
    0xbb, 0xbe, 0x25, 0x5c, 0x90, 0xbe, 0x22, 0xca, 0x97, 0xbd,
    0x99, 0xeb, 0xde, 0x3c, 0x67, 0xb8, 0x4b, 0x3e, 0x11, 0xde,
    0x7d, 0xbe, 0x62, 0xc9, 0xad, 0xbd, 0xf2, 0x6a, 0x00, 0xbd,
    0x73, 0x8d, 0x49, 0x3d, 0x26, 0x2f, 0xfd, 0x3d, 0x3b, 0x9e,
    0xc0, 0xbe, 0xdb, 0xcc, 0x2d, 0x3e, 0x9e, 0x09, 0xbd, 0x3c,
    0x1f, 0xa2, 0x5b, 0xbe, 0xae, 0x81, 0x65, 0xbe, 0x61, 0x65,
    0xc7, 0x3d, 0xd4, 0x9a, 0x64, 0xbe, 0x9f, 0x26, 0xa3, 0xbe,
    0xd4, 0x0e, 0xb6, 0xbd, 0xf8, 0xd8, 0x45, 0x3e, 0x89, 0xb5,
    0x20, 0x3e, 0x8a, 0xb6, 0x79, 0x3e, 0xcc, 0x10, 0x2c, 0x3d,
    0xfe, 0x09, 0x3a, 0x3e, 0xbd, 0x9f, 0xc3, 0xbd, 0x95, 0x84,
    0xe8, 0xbe, 0x6f, 0xcd, 0x27, 0xbd, 0xbe, 0x05, 0xd5, 0xbd,
    0x79, 0x9e, 0x96, 0x3b, 0x86, 0xf5, 0xc6, 0x3c, 0x1c, 0xee,
    0x2c, 0x3d, 0x53, 0x72, 0x17, 0xbe, 0x9c, 0x55, 0x4d, 0xbb,
    0x68, 0x99, 0x3d, 0x3e, 0x0e, 0xf8, 0xdc, 0xbd, 0x56, 0xd2,
    0x96, 0xbd, 0x02, 0x12, 0xbb, 0xbd, 0xda, 0x04, 0x94, 0x3c,
    0x81, 0x25, 0x34, 0x3e, 0xea, 0x6c, 0xac, 0xbd, 0x4b, 0x87,
    0xa3, 0x3e, 0x1b, 0x38, 0xb1, 0xbd, 0x6d, 0xe9, 0x8f, 0x3e,
    0x4f, 0x42, 0x89, 0x3d, 0xf7, 0x07, 0x33, 0xbd, 0x7f, 0xf5,
    0x27, 0x3e, 0xf5, 0x72, 0x9d, 0x3e, 0x0a, 0x5f, 0x38, 0xbc,
    0x87, 0xe3, 0x54, 0x3c, 0x19, 0xac, 0x15, 0xbd, 0x74, 0x44,
    0x73, 0x3e, 0x99, 0xcf, 0x10, 0x3e, 0xfa, 0xf1, 0xd8, 0xbd,
    0x51, 0x5a, 0x4e, 0x3d, 0x90, 0x24, 0x8b, 0x3e, 0x1c, 0x48,
    0x88, 0x3d, 0xb2, 0x03, 0x29, 0x3e, 0x45, 0x49, 0x28, 0xbe,
    0x72, 0x70, 0x9e, 0xbd, 0x0a, 0x1c, 0xdc, 0x3d, 0x60, 0x88,
    0x2e, 0x3e, 0xe7, 0xd7, 0x3f, 0x3e, 0x35, 0x22, 0x9c, 0x3e,
    0xb3, 0xd4, 0x25, 0x3d, 0x4d, 0x6e, 0x36, 0x3e, 0x6e, 0xd7,
    0x0e, 0xbd, 0xf0, 0x75, 0x62, 0x3c, 0x56, 0x34, 0x42, 0x3d,
    0xd8, 0x70, 0x91, 0x3e, 0xa0, 0x5a, 0x11, 0x3a, 0x12, 0x9e,
    0x02, 0xbd, 0xc8, 0x02, 0x5e, 0x3e, 0x7f, 0xde, 0xee, 0xbd,
    0xb1, 0x58, 0x9f, 0x3c, 0x13, 0xde, 0x09, 0x3e, 0x3f, 0x32,
    0xa9, 0x3d, 0xcf, 0xaa, 0x9b, 0xbd, 0x20, 0x08, 0x8c, 0xbe,
    0x14, 0x5e, 0x94, 0x3e, 0x9a, 0xaf, 0x30, 0xbd, 0x14, 0xbd,
    0x1b, 0x3e, 0x7b, 0x66, 0xad, 0xbc, 0xef, 0xa8, 0x7e, 0xbe,
    0x72, 0xcc, 0x3f, 0xbe, 0xf0, 0x21, 0xae, 0x3d, 0x12, 0xa1,
    0x84, 0xbe, 0xb3, 0x47, 0x4c, 0x3e, 0x00, 0x5d, 0x60, 0x3e,
    0x01, 0xb1, 0xd8, 0x3d, 0xc2, 0x80, 0xb7, 0xbe, 0x50, 0x1e,
    0xdf, 0x3d, 0x36, 0xbd, 0x59, 0xbe, 0xba, 0xf9, 0xd3, 0x3d,
    0x49, 0x4b, 0x29, 0x3e, 0xcb, 0x43, 0x0e, 0xbe, 0xcf, 0x22,
    0x34, 0x3e, 0x5e, 0xab, 0x6d, 0x3e, 0xc0, 0xd0, 0x0c, 0x3e,
    0x66, 0xf0, 0x12, 0x3e, 0xc9, 0xb2, 0x9a, 0xbb, 0x05, 0xc8,
    0x04, 0xbe, 0x24, 0xfe, 0xb5, 0xbe, 0x58, 0x5d, 0x8f, 0x3e,
    0x83, 0x8c, 0xae, 0x3c, 0x05, 0x4b, 0xa7, 0xbd, 0x8b, 0xa7,
    0xa0, 0x3e, 0xce, 0xd5, 0x6b, 0x3e, 0x7e, 0x4c, 0x6e, 0x3e,
    0x8c, 0xab, 0x37, 0xbe, 0x0f, 0x0d, 0x10, 0xbd, 0xd6, 0xe7,
    0x26, 0xbe, 0x95, 0xd9, 0xb0, 0xbc, 0xff, 0xd7, 0x1d, 0xbd,
    0xd2, 0x8f, 0x6a, 0x3d, 0x7e, 0xe5, 0x5a, 0x3e, 0x3c, 0xa4,
    0x96, 0x3e, 0x06, 0x06, 0x1e, 0x3d, 0x19, 0xd8, 0x74, 0xbe,
    0x99, 0xa4, 0xf4, 0xbd, 0x1c, 0xea, 0x4b, 0x3e, 0x88, 0xd6,
    0xda, 0x3c, 0x58, 0x57, 0xdd, 0xba, 0x07, 0x07, 0x1c, 0x3e,
    0x89, 0xe4, 0x27, 0x3d, 0xfe, 0x14, 0x4d, 0x3e, 0xc9, 0x99,
    0xb5, 0xbd, 0x32, 0x4f, 0x04, 0xbe, 0xee, 0x14, 0x67, 0xbd,
    0x9d, 0x7e, 0xd6, 0xbd, 0xeb, 0xc9, 0x9b, 0xbe, 0xda, 0xc6,
    0x0a, 0xbe, 0x31, 0x31, 0x09, 0xbe, 0x0b, 0x84, 0x9b, 0xbc,
    0xf3, 0xea, 0x53, 0xbe, 0x93, 0xde, 0x84, 0x3d, 0xfd, 0x27,
    0xa0, 0x3e, 0xb7, 0x4c, 0x74, 0x3e, 0x64, 0x6c, 0x67, 0xbc,
    0x81, 0x28, 0x27, 0x3e, 0x96, 0x49, 0xa1, 0x3e, 0xa6, 0x41,
    0x1a, 0xbe, 0x0b, 0x81, 0x86, 0xbd, 0x3a, 0x43, 0xd3, 0xbd,
    0x30, 0xef, 0xdf, 0xbd, 0xa8, 0x1f, 0xfe, 0xbd, 0x48, 0xb9,
    0x3b, 0xbc, 0x97, 0xb2, 0xa6, 0x3e, 0x20, 0x17, 0x04, 0x3e,
    0xbe, 0xaa, 0xa6, 0x3e, 0xcc, 0x67, 0x19, 0xbd, 0xc8, 0x84,
    0x8f, 0xbd, 0x14, 0xfe, 0x58, 0x3d, 0xae, 0xe4, 0x2b, 0x3e,
    0x8e, 0x14, 0x1f, 0xbd, 0x8e, 0xc2, 0x99, 0x3e, 0x5e, 0xf8,
    0xcc, 0x3c, 0x33, 0x99, 0x8e, 0xbc, 0x11, 0x0f, 0xa9, 0x3d,
    0xd6, 0xd8, 0x80, 0x3e, 0x4e, 0xd2, 0x6e, 0xbe, 0xe1, 0x33,
    0x22, 0x3e, 0x6b, 0x8b, 0x6d, 0x3e, 0x88, 0xaa, 0xb6, 0xbd,
    0x36, 0x73, 0x0f, 0x3e, 0xdc, 0x1f, 0x24, 0x3b, 0x34, 0x8a,
    0x7b, 0x3e, 0x7f, 0x81, 0xe0, 0x3d, 0xbc, 0xb7, 0x70, 0x3e,
    0x85, 0x21, 0x23, 0xbe, 0x92, 0xfa, 0x93, 0x3e, 0xd3, 0xac,
    0x77, 0x3d, 0xc6, 0x4b, 0x93, 0xbc, 0xbc, 0x8a, 0x5b, 0x3e,
    0xad, 0x17, 0x45, 0x3d, 0x64, 0x01, 0xd8, 0xbc, 0x1f, 0x32,
    0x07, 0x3e, 0x6b, 0x74, 0x8d, 0x3d, 0x21, 0x57, 0x90, 0x3e,
    0x8b, 0x4d, 0x75, 0x3e, 0x2b, 0x3e, 0x5f, 0xbd, 0x19, 0x69,
    0x57, 0x3e, 0x4a, 0x01, 0x32, 0xbd, 0x6b, 0x4b, 0x11, 0x3e,
    0x47, 0x34, 0x4c, 0x3d, 0x90, 0x4d, 0x8e, 0xbd, 0x61, 0xe0,
    0x34, 0x3b, 0x7c, 0xdf, 0xd6, 0x3d, 0xde, 0x0f, 0x0f, 0x3e,
    0x31, 0x30, 0x13, 0x3e, 0x7b, 0x09, 0xb4, 0xbd, 0xf5, 0xd6,
    0x88, 0x3e, 0x7d, 0x3b, 0x74, 0x3d, 0xe2, 0x85, 0x29, 0xbd,
    0xa2, 0x5c, 0x6d, 0x3b, 0x7b, 0x24, 0x89, 0xbc, 0x45, 0x42,
    0x44, 0xbd, 0x58, 0x33, 0xd8, 0x3d, 0x3e, 0x18, 0xd6, 0x3c,
    0xef, 0x52, 0x9f, 0x3d, 0x14, 0x4b, 0x98, 0x3e, 0xa0, 0x09,
    0x66, 0x3e, 0x2c, 0x15, 0xb8, 0xbb, 0x44, 0xb6, 0xd2, 0x3d,
    0x5a, 0x8d, 0x8b, 0xbe, 0x9c, 0xa9, 0x7b, 0xbd, 0x47, 0x73,
    0x42, 0xbe, 0xf8, 0xe4, 0x45, 0x3e, 0xf5, 0xa5, 0x72, 0xbe,
    0x48, 0x1d, 0x83, 0xbd, 0xd8, 0x81, 0x67, 0x3e, 0xeb, 0x61,
    0x6e, 0x3d, 0x9a, 0x4e, 0x8c, 0x3e, 0x01, 0x40, 0x6b, 0x3d,
    0xaa, 0x71, 0x15, 0xbe, 0xfa, 0xa1, 0xa8, 0x3c, 0x98, 0x12,
    0x40, 0xbe, 0x6b, 0x00, 0xd1, 0xbd, 0x9d, 0x77, 0x79, 0x3e,
    0x9e, 0x5d, 0x35, 0x3e, 0x22, 0x8c, 0x16, 0x3e, 0xb8, 0xa6,
    0x23, 0x3e, 0x4e, 0x85, 0x80, 0x3d, 0xf6, 0x7a, 0xa0, 0x3e,
    0x59, 0x62, 0x2d, 0xbe, 0x0a, 0x76, 0x46, 0x3e, 0x21, 0x2d,
    0x15, 0x3e, 0xdd, 0x0d, 0x6c, 0xbe, 0xe0, 0xc4, 0xa7, 0x3d,
    0xf7, 0xbd, 0x8e, 0x3e, 0xe2, 0x77, 0xf5, 0xbc, 0xe6, 0x60,
    0x0d, 0x3e, 0x15, 0x5b, 0x5d, 0x3d, 0xb0, 0xee, 0x55, 0xbe,
    0xf3, 0x17, 0x88, 0xbe, 0x7e, 0x32, 0x49, 0x3b, 0x2f, 0xa1,
    0x01, 0xbd, 0x65, 0x01, 0x9b, 0x3c, 0x13, 0xfe, 0x45, 0xbe,
    0x7b, 0xbf, 0xe7, 0xbd, 0x20, 0x6b, 0x68, 0x3e, 0xf1, 0x67,
    0x3c, 0x3e, 0x18, 0x83, 0x8e, 0x3e, 0x88, 0x6d, 0x79, 0xbe,
    0x69, 0x01, 0x42, 0xbe, 0x1e, 0x64, 0x00, 0xbe, 0xaf, 0xef,
    0xb3, 0xbe, 0xa2, 0x8a, 0xa4, 0x3e, 0xc9, 0xa4, 0xaa, 0xbe,
    0x2c, 0xdd, 0x22, 0x3e, 0xfe, 0xaf, 0x0b, 0x3e, 0x95, 0x63,
    0x53, 0x3d, 0x4a, 0x1c, 0xe6, 0x3c, 0x60, 0x55, 0x04, 0xbd,
    0x01, 0xa3, 0xc6, 0x3c, 0x74, 0xc2, 0x1f, 0xbe, 0x8b, 0x19,
    0x6b, 0x3e, 0x3a, 0x6f, 0x84, 0x3e, 0xc7, 0x16, 0x22, 0x3e,
    0xe1, 0x6b, 0x14, 0xbe, 0xf1, 0x31, 0x8c, 0x3e, 0x4f, 0x99,
    0xcb, 0x3d, 0x60, 0x42, 0x47, 0xbd, 0x47, 0x45, 0x9b, 0x3c,
    0xc5, 0xf8, 0x0b, 0xbe, 0x8d, 0xed, 0x52, 0x3d, 0x86, 0x6c,
    0x0e, 0xbd, 0x70, 0x82, 0x47, 0x3e, 0x69, 0xc0, 0xc3, 0x3d,
    0x0f, 0xb6, 0xf6, 0x3d, 0x36, 0x8b, 0x02, 0x3d, 0x7a, 0x5c,
    0x21, 0xbe, 0xc0, 0xde, 0x3d, 0x3c, 0x19, 0xb3, 0x59, 0xbe,
    0xf8, 0xf1, 0xd8, 0xbd, 0x65, 0xbe, 0x8e, 0xbd, 0xb5, 0x9d,
    0xa0, 0x3d, 0x36, 0x9a, 0x74, 0x3d, 0x5f, 0x9e, 0xdc, 0xbd,
    0x7f, 0x1c, 0x12, 0x3e, 0x7c, 0x36, 0xa4, 0x3c, 0xbf, 0x48,
    0xc0, 0x3d, 0xeb, 0x95, 0x9e, 0x3e, 0xab, 0xe9, 0xe0, 0xbd,
    0x0c, 0xdb, 0xcf, 0xbd, 0xbe, 0xce, 0x0a, 0xbe, 0xb5, 0x88,
    0xaf, 0x3b, 0x49, 0x37, 0x93, 0x3d, 0x30, 0x27, 0xa7, 0x3d,
    0xe2, 0xff, 0xad, 0x3c, 0xe5, 0x63, 0xef, 0x3d, 0xc6, 0xce,
    0x11, 0x3d, 0x17, 0x89, 0xa9, 0xbc, 0x14, 0xd1, 0x9a, 0x3c,
    0x1f, 0x0b, 0x65, 0x3d, 0xa3, 0x1d, 0x1e, 0xbb, 0x0e, 0x34,
    0xee, 0x3d, 0x7f, 0x42, 0x55, 0x3e, 0x39, 0x60, 0xd4, 0x3d,
    0x14, 0xce, 0x16, 0x3c, 0xe6, 0x17, 0x75, 0x3d, 0x84, 0x03,
    0x6c, 0xbd, 0xb7, 0x37, 0x2a, 0x3d, 0x2c, 0x63, 0xb6, 0xbd,
    0x9f, 0xee, 0x17, 0xbe, 0xc4, 0xa7, 0xa6, 0x3d, 0xe5, 0x79,
    0xf0, 0xbd, 0x86, 0x5d, 0x9a, 0x39, 0xae, 0x07, 0x06, 0xbe,
    0xfe, 0x45, 0x6b, 0xbd, 0xd6, 0x67, 0xc8, 0x3d, 0xfa, 0x58,
    0xe2, 0x3b, 0x8f, 0x97, 0x24, 0xbc, 0xf6, 0x6f, 0x0f, 0x3e,
    0x01, 0xe3, 0xa9, 0xbd, 0xfb, 0xc4, 0xbc, 0xbd, 0x49, 0x18,
    0x8d, 0x3c, 0x7d, 0x14, 0xd4, 0x3d, 0x0d, 0xa7, 0x0a, 0x3e,
    0x76, 0xc6, 0x9a, 0x3d, 0x38, 0x7c, 0x9d, 0xbd, 0x8e, 0x7e,
    0xb5, 0xbc, 0x86, 0x15, 0x16, 0xbe, 0x37, 0xb5, 0xe4, 0xbc,
    0xb0, 0x7d, 0x9b, 0x3d, 0x84, 0xaf, 0x16, 0x3c, 0x1b, 0xd6,
    0x31, 0x3d, 0x72, 0xac, 0x22, 0xbe, 0xa3, 0x63, 0x86, 0x3d,
    0x21, 0x5d, 0xd8, 0xbd, 0xe3, 0xc1, 0x92, 0xbd, 0x02, 0x37,
    0x94, 0xbd, 0xaf, 0x8b, 0x2a, 0x3d, 0xcc, 0x84, 0x26, 0xbe,
    0x36, 0x8b, 0xe0, 0x3d, 0x91, 0x9c, 0x08, 0xbe, 0x0e, 0x1b,
    0xcd, 0x3d, 0x98, 0x1e, 0xd3, 0xbb, 0xa8, 0x35, 0x1a, 0x3e,
    0x4c, 0x22, 0x64, 0xbd, 0x3c, 0x9c, 0x21, 0xbe, 0xea, 0xb5,
    0x6a, 0x3e, 0xd2, 0xf6, 0xab, 0xbc, 0x3c, 0x0a, 0x6c, 0x3d,
    0xfe, 0xdc, 0x5e, 0xbd, 0xcc, 0x5d, 0x0f, 0xbd, 0x5c, 0xa4,
    0x11, 0x3c, 0xd9, 0x1d, 0xd1, 0xbc, 0x17, 0xc4, 0x34, 0xbd,
    0x51, 0x06, 0x6c, 0x3d, 0x80, 0x1b, 0x01, 0xbe, 0x70, 0xd2,
    0x59, 0xbd, 0x4d, 0x85, 0x5b, 0x3c, 0xaa, 0x7a, 0x62, 0xbe,
    0xb4, 0x47, 0x89, 0x3c, 0xae, 0x93, 0x47, 0x3e, 0xc6, 0x19,
    0x97, 0xbd, 0xc8, 0xe8, 0x6d, 0x3c, 0x99, 0xa1, 0x05, 0x3b,
    0x3d, 0x38, 0x16, 0xbe, 0xb8, 0x95, 0x4f, 0xbd, 0xd3, 0x90,
    0x23, 0x3e, 0x72, 0x5d, 0x12, 0xbd, 0x75, 0x82, 0x51, 0x3d,
    0xc7, 0xb3, 0x97, 0xbd, 0x48, 0x2a, 0x25, 0x3e, 0xdc, 0x62,
    0x2b, 0x3e, 0xd8, 0xb8, 0x26, 0x3e, 0x23, 0x8a, 0xd2, 0xbd,
    0xec, 0x91, 0x94, 0x3d, 0x09, 0x3e, 0xd6, 0x3c, 0xd0, 0xd8,
    0xc0, 0x3b, 0x1f, 0xd0, 0x0e, 0x3d, 0x4e, 0x71, 0xdb, 0xbc,
    0xe9, 0xfe, 0xf0, 0xbc, 0xc5, 0x8d, 0xee, 0xbd, 0xcf, 0xc7,
    0xfd, 0x3c, 0xf5, 0xae, 0x59, 0x3d, 0x32, 0x02, 0x87, 0x3c,
    0x11, 0x1d, 0x4a, 0xbe, 0x10, 0xd5, 0xd8, 0x3d, 0x91, 0x5f,
    0x6a, 0x3d, 0x72, 0xe1, 0xd5, 0x3d, 0xe9, 0x2c, 0xa8, 0xbd,
    0xb3, 0x6c, 0x01, 0x3e, 0x2d, 0x33, 0x31, 0x3e, 0xea, 0xe8,
    0x97, 0xbd, 0x75, 0x97, 0x12, 0xbc, 0x7f, 0xdc, 0x47, 0x3e,
    0xbd, 0xff, 0x10, 0xbe, 0xba, 0x4f, 0xe9, 0xbd, 0x44, 0xf0,
    0x25, 0xbc, 0xc2, 0x30, 0xe1, 0x3c, 0x52, 0x19, 0x03, 0xbe,
    0x16, 0xf8, 0x97, 0x3c, 0x3e, 0x72, 0xc7, 0xbd, 0x02, 0x05,
    0xf1, 0x3d, 0xa2, 0xc9, 0x52, 0xbd, 0xa5, 0x3f, 0x9b, 0xbd,
    0x91, 0xb1, 0x53, 0x3d, 0x99, 0xa7, 0xb3, 0x3d, 0x4c, 0x7e,
    0xbc, 0x3d, 0xca, 0xf0, 0xda, 0x3d, 0x62, 0xbb, 0x31, 0x3d,
    0xab, 0x72, 0xe8, 0x3d, 0xf7, 0x07, 0x62, 0x3d, 0x8a, 0x07,
    0xfc, 0xbd, 0x57, 0x7a, 0x9c, 0x3d, 0xa3, 0xdb, 0x04, 0xbe,
    0x00, 0xae, 0xdf, 0xbc, 0x34, 0xad, 0x82, 0x3d, 0x19, 0x82,
    0xea, 0x3c, 0xd2, 0x66, 0x35, 0x3e, 0xf0, 0xf9, 0xdf, 0xbc,
    0x71, 0xfb, 0xea, 0x3d, 0x70, 0xd2, 0x3a, 0xbd, 0x2c, 0xeb,
    0xf2, 0xbd, 0x00, 0x2c, 0x8f, 0xbc, 0x35, 0x65, 0xb7, 0x3d,
    0x33, 0xed, 0x03, 0xbe, 0x8d, 0x48, 0x12, 0x3e, 0x8b, 0xc8,
    0x5d, 0x3c, 0xa1, 0xf6, 0xc5, 0x3d, 0x86, 0x01, 0x35, 0xbe,
    0x82, 0x9d, 0x0c, 0xbe, 0x46, 0x1a, 0xe2, 0x3d, 0x5a, 0x8c,
    0x0f, 0xbd, 0xe5, 0x52, 0x72, 0xbe, 0x5c, 0xb0, 0xa0, 0xbd,
    0x73, 0x23, 0x0e, 0xbe, 0x0d, 0x16, 0x7c, 0x3d, 0x8c, 0x80,
    0x64, 0xbd, 0xe2, 0x3b, 0x68, 0x3d, 0xed, 0x08, 0x11, 0x3d,
    0x21, 0xed, 0x10, 0xbe, 0x25, 0x76, 0x43, 0xbc, 0x79, 0x4c,
    0xe2, 0x3d, 0xe1, 0x0a, 0x0c, 0xbe, 0x07, 0x9c, 0x8e, 0x3b,
    0x5d, 0x4b, 0x09, 0xbd, 0xc3, 0xc5, 0xf2, 0x3c, 0xa1, 0xbb,
    0x20, 0x3e, 0x99, 0xc5, 0x1c, 0x3e, 0x24, 0x89, 0x23, 0xbe,
    0x7b, 0xea, 0xfd, 0x3d, 0x0e, 0x19, 0x40, 0xbd, 0x9a, 0x69,
    0x93, 0x3d, 0xaa, 0xac, 0xeb, 0xbc, 0x79, 0xce, 0xf3, 0x3d,
    0x4d, 0x8c, 0x9a, 0x3d, 0x5a, 0xaa, 0xd7, 0x3d, 0x01, 0xd6,
    0x28, 0xbe, 0xfc, 0x41, 0xe2, 0xbd, 0x58, 0x49, 0xef, 0xbd,
    0xbd, 0x5a, 0x0f, 0x3e, 0xb2, 0x97, 0xd9, 0xbd, 0x24, 0x7f,
    0x0f, 0x3d, 0x86, 0x38, 0x97, 0xbd, 0x24, 0x25, 0x43, 0x3d,
    0xed, 0xb4, 0x1d, 0xbe, 0xdf, 0x83, 0x87, 0xbc, 0x8f, 0x8d,
    0xe3, 0x3d, 0xee, 0x19, 0xa2, 0x3d, 0xa9, 0x27, 0x17, 0x3d,
    0x8d, 0x8a, 0x0e, 0xbe, 0xcd, 0x88, 0x25, 0x3e, 0x0d, 0x7a,
    0xec, 0xbc, 0xbb, 0x5a, 0xe8, 0x3c, 0xb9, 0x02, 0x4f, 0x3e,
    0x9b, 0x14, 0x80, 0x3d, 0x0e, 0x21, 0x01, 0x3e, 0xda, 0x74,
    0x0c, 0x3e, 0x0b, 0x2f, 0xb4, 0x3d, 0x71, 0x9b, 0x67, 0x3c,
    0x8e, 0x9c, 0x7a, 0x3d, 0x17, 0xc1, 0x0c, 0xbe, 0x30, 0x27,
    0x03, 0xbe, 0xbb, 0x3b, 0x1c, 0xbd, 0x48, 0xac, 0xc1, 0xbd,
    0xb1, 0x4a, 0x7b, 0xbd, 0x38, 0xb3, 0x84, 0x3d, 0xf4, 0x88,
    0xc7, 0xbc, 0x9a, 0x31, 0x1a, 0xbb, 0xb3, 0x21, 0x21, 0xbd,
    0x6e, 0x8a, 0xd3, 0x3d, 0x9a, 0xfc, 0xb3, 0x3d, 0x2e, 0x76,
    0x5f, 0xbd, 0xeb, 0xa0, 0xe3, 0x3c, 0xc9, 0xb5, 0x07, 0xbe,
    0x8e, 0xa7, 0x85, 0xbd, 0xea, 0xbd, 0x06, 0xbe, 0x37, 0x68,
    0xa4, 0xbd, 0x2e, 0x5b, 0x8f, 0x3b, 0xe3, 0x0b, 0x44, 0xbd,
    0xc3, 0xed, 0xb5, 0xbd, 0xed, 0x41, 0x1c, 0x3e, 0x8c, 0x3c,
    0xe7, 0x3d, 0xc3, 0xbd, 0x8f, 0xbb, 0x0d, 0x96, 0x4e, 0x3e,
    0x38, 0xf7, 0x2b, 0xbe, 0x76, 0x4f, 0x48, 0xbd, 0xe0, 0x86,
    0x42, 0x3d, 0x17, 0x29, 0x8b, 0xbb, 0x47, 0x18, 0x6c, 0x3d,
    0xd9, 0x98, 0xa9, 0x3d, 0x86, 0xdb, 0x74, 0x3d, 0x29, 0x68,
    0x47, 0x3d, 0xf4, 0xb9, 0x2e, 0xbd, 0xf4, 0x35, 0x20, 0xbe,
    0xe2, 0x76, 0x89, 0xbd, 0xbf, 0x88, 0x25, 0xbe, 0xaa, 0x07,
    0xa2, 0xbe, 0xd6, 0x40, 0x00, 0x3e, 0xbc, 0x95, 0x50, 0x3d,
    0x7a, 0x83, 0x5a, 0x3d, 0xad, 0x71, 0xa1, 0x3d, 0x30, 0xcc,
    0x54, 0x3e, 0xe6, 0x6b, 0xc8, 0x3d, 0xee, 0xfc, 0x24, 0x3e,
    0xcc, 0x0b, 0x95, 0xbc, 0x13, 0xfc, 0x45, 0x3d, 0xdf, 0xa6,
    0xbf, 0x3d, 0x23, 0x53, 0xdb, 0x3d, 0xff, 0x34, 0xd7, 0xbd,
    0x45, 0x52, 0xc5, 0xbd, 0xf7, 0x8a, 0x9f, 0xbd, 0x24, 0x39,
    0x17, 0xbe, 0x1a, 0x37, 0x28, 0xbe, 0x33, 0x1f, 0x06, 0xbe,
    0xc5, 0x2f, 0x85, 0x3d, 0xb4, 0xa0, 0x86, 0x3d, 0xd3, 0x37,
    0x38, 0xbe, 0xd2, 0x50, 0x9a, 0x3d, 0x05, 0x8a, 0x07, 0xbd,
    0x42, 0x32, 0x26, 0x3e, 0x7b, 0xad, 0x19, 0xbe, 0x42, 0x46,
    0x19, 0xbe, 0x1e, 0x4c, 0x8c, 0xbe, 0x5b, 0xe1, 0x0c, 0x3e,
    0x63, 0xc0, 0x65, 0x3d, 0x61, 0x1c, 0x3d, 0x3c, 0xd7, 0x5e,
    0x4d, 0x3d, 0x0a, 0xad, 0x24, 0xbd, 0x89, 0x00, 0x1c, 0x3e,
    0xc4, 0x0b, 0xa7, 0xbc, 0xe7, 0x98, 0x1f, 0xbe, 0x09, 0x26,
    0xba, 0xbd, 0xe0, 0x26, 0x0d, 0x3e, 0x7d, 0x63, 0x9c, 0xbd,
    0xbd, 0x8e, 0x0e, 0xbe, 0x7e, 0xb4, 0x20, 0x3e, 0x73, 0xe0,
    0x1e, 0xbe, 0xeb, 0xc9, 0x02, 0xbe, 0x4b, 0x27, 0x0d, 0xbe,
    0xe1, 0xf4, 0x9e, 0xbd, 0xba, 0x18, 0x02, 0xbe, 0x9b, 0x29,
    0x2c, 0x3d, 0x6c, 0x0f, 0x03, 0xbe, 0x89, 0xcf, 0xe6, 0x3c,
    0xc8, 0x47, 0x55, 0xbe, 0xba, 0x55, 0x23, 0x3d, 0xee, 0x92,
    0x78, 0xbe, 0x8f, 0x1f, 0x89, 0x3b, 0x5a, 0x51, 0x4f, 0x3c,
    0x0a, 0xf6, 0x01, 0x3e, 0xa3, 0x1a, 0xd8, 0x3d, 0x64, 0xa0,
    0xf0, 0xbc, 0xd6, 0xe8, 0xb3, 0xbd, 0x61, 0xb4, 0x13, 0x3e,
    0xc5, 0x1d, 0x4b, 0xbd, 0x95, 0xf2, 0xaf, 0x3c, 0x16, 0x05,
    0xab, 0x3d, 0xf2, 0x4f, 0x2e, 0xbd, 0xe9, 0x7f, 0x1f, 0xbe,
    0x65, 0x26, 0x06, 0xbe, 0x42, 0x18, 0x14, 0x3e, 0x42, 0x4b,
    0xe7, 0xbb, 0x5d, 0x50, 0x3a, 0x3d, 0x98, 0x07, 0x39, 0x3e,
    0x05, 0xe4, 0x86, 0x3d, 0x02, 0x30, 0xdb, 0x3d, 0xfb, 0xcf,
    0x05, 0xbe, 0x2a, 0x6b, 0x34, 0x3e, 0x62, 0xc9, 0x84, 0xba,
    0xb5, 0x4a, 0x87, 0xbd, 0x41, 0x4e, 0x80, 0x3e, 0x3a, 0xc6,
    0x1f, 0x3e, 0x03, 0x26, 0x85, 0xbd, 0x91, 0x23, 0xcd, 0x3d,
    0x63, 0x21, 0xd8, 0x3d, 0x28, 0x82, 0x32, 0xbe, 0x0c, 0x9f,
    0x14, 0x3d, 0x95, 0xcd, 0x12, 0x3e, 0x4a, 0x80, 0x1d, 0xbe,
    0x4d, 0xad, 0x93, 0xbd, 0x98, 0x71, 0x4b, 0xbd, 0x2e, 0x25,
    0xa6, 0x3c, 0x9a, 0xbf, 0x90, 0x3d, 0xdf, 0xff, 0x3c, 0x3e,
    0xeb, 0xcf, 0xc6, 0x3c, 0xee, 0xfd, 0xe2, 0xbd, 0x2d, 0xe5,
    0x99, 0xbd, 0xe0, 0x2a, 0xc1, 0x3d, 0x83, 0x6b, 0xdb, 0x3d,
    0x89, 0xf0, 0x5f, 0x3d, 0xe7, 0x63, 0x53, 0xbd, 0xc2, 0x59,
    0xaf, 0x3d, 0x34, 0x82, 0xfd, 0x3d, 0xb5, 0xe2, 0x0e, 0xbe,
    0x5d, 0xa8, 0x72, 0x3d, 0x48, 0x54, 0x24, 0xbd, 0xd8, 0xa1,
    0x1f, 0xbd, 0x38, 0x44, 0x10, 0xbd, 0x52, 0x00, 0x07, 0x3e,
    0x38, 0x87, 0x39, 0x3b, 0x46, 0xc9, 0x41, 0xbe, 0xf4, 0xa8,
    0xcc, 0xbd, 0xfa, 0x9a, 0xec, 0x3b, 0xbe, 0xc0, 0x99, 0xbb,
    0x82, 0x4d, 0x9c, 0xbd, 0xa4, 0x31, 0x12, 0x3e, 0x21, 0x28,
    0xed, 0xbd, 0x19, 0x10, 0x9d, 0x3d, 0x6b, 0xe1, 0x1a, 0x3e,
    0xb5, 0x4b, 0x10, 0xbe, 0x63, 0xe5, 0x03, 0xbe, 0xd0, 0x95,
    0x0c, 0xbc, 0xf7, 0x74, 0x0f, 0xbe, 0xed, 0x8d, 0x23, 0xbe,
    0x78, 0x2b, 0xa6, 0xbd, 0x86, 0x30, 0x7e, 0x3d, 0xc8, 0x4e,
    0x7e, 0xbc, 0x91, 0x75, 0xc4, 0xbd, 0x60, 0x90, 0x78, 0x3e,
    0x99, 0xcf, 0x33, 0x3d, 0x8a, 0x53, 0x06, 0x3e, 0x0d, 0x29,
    0xa6, 0xbb, 0x83, 0x7d, 0x70, 0x3e, 0x23, 0x2e, 0x21, 0xbd,
    0x55, 0x60, 0x5b, 0x3c, 0x8d, 0x4c, 0xe4, 0x3d, 0x5c, 0x00,
    0x49, 0xbd, 0xc4, 0x97, 0xbe, 0xbd, 0x71, 0x9d, 0x1d, 0x3e,
    0xfe, 0xfe, 0x98, 0x3d, 0xbb, 0x31, 0xb5, 0xbd, 0xea, 0xc9,
    0x40, 0xbc, 0x76, 0x95, 0xe0, 0x3c, 0x3a, 0xb2, 0xbd, 0x3c,
    0x38, 0xe2, 0x99, 0xbd, 0xf0, 0x38, 0x6b, 0x39, 0xe8, 0xb4,
    0xe3, 0xbd, 0xa0, 0x78, 0xbc, 0xbd, 0x9f, 0x02, 0x60, 0xbc,
    0xae, 0xd5, 0xd5, 0xbd, 0x45, 0x9e, 0xb0, 0xbd, 0x02, 0x82,
    0xf4, 0x3d, 0x1f, 0x1b, 0x0b, 0xbe, 0x5a, 0xc7, 0xb3, 0x3b,
    0x43, 0x39, 0x37, 0xbe, 0x54, 0xd6, 0x3a, 0x3e, 0xd5, 0x52,
    0x61, 0x3d, 0x13, 0x44, 0x10, 0x3e, 0x80, 0x23, 0x37, 0x3e,
    0x1b, 0x0a, 0x10, 0xbd, 0x59, 0x7c, 0x15, 0x3e, 0xb1, 0xa8,
    0x13, 0x3d, 0x5c, 0x05, 0x50, 0xbb, 0x96, 0x7e, 0x54, 0xbd,
    0x4c, 0xb6, 0x8f, 0x3c, 0x76, 0x1a, 0x25, 0x3e, 0x38, 0xf9,
    0x3a, 0xbe, 0xb4, 0x8b, 0xc2, 0xbb, 0x3a, 0x32, 0xe0, 0xbd,
    0xd8, 0x4d, 0x1c, 0xbe, 0x70, 0xb3, 0xd2, 0xbd, 0xd3, 0xbb,
    0x9f, 0xbb, 0x89, 0xc3, 0xc3, 0x3c, 0xab, 0xa3, 0x4f, 0xbe,
    0xe7, 0xad, 0x8b, 0x3b, 0x55, 0x6a, 0xcc, 0xbd, 0x4e, 0xbc,
    0xe1, 0x3c, 0x65, 0xe7, 0xb9, 0x3d, 0x96, 0xe9, 0x3e, 0xbe,
    0xb8, 0x73, 0xdd, 0xbd, 0x90, 0x2d, 0xb5, 0x3d, 0xfb, 0x51,
    0x8e, 0xbd, 0x4e, 0xe1, 0x7a, 0x3d, 0x35, 0xdf, 0x1e, 0x3e,
    0x0c, 0xb1, 0x00, 0xbd, 0x1b, 0xd9, 0x4d, 0xbd, 0x04, 0x0b,
    0xe2, 0xbd, 0xa5, 0xc3, 0x2b, 0xbe, 0x84, 0x55, 0x0c, 0xbd,
    0xb2, 0x9b, 0x0b, 0xbe, 0x51, 0x5d, 0xa6, 0x3d, 0xcf, 0xca,
    0x08, 0x3e, 0xe0, 0x24, 0xe7, 0x3d, 0x5b, 0x1c, 0x60, 0xbe,
    0x13, 0xda, 0x60, 0xbd, 0xa0, 0x5e, 0x03, 0xbd, 0x9b, 0x5d,
    0x05, 0xbd, 0x8d, 0x5c, 0x99, 0xbd, 0x8d, 0x98, 0x83, 0xbd,
    0x5e, 0x86, 0x33, 0xbd, 0x63, 0xb5, 0x13, 0xbd, 0x52, 0x90,
    0xa4, 0x3d, 0x60, 0x0c, 0x39, 0x3d, 0x93, 0x14, 0x0f, 0xbc,
    0x04, 0x39, 0xd2, 0x3d, 0x1e, 0x35, 0x08, 0x3e, 0xd2, 0x96,
    0xed, 0x3d, 0x10, 0xc0, 0xf9, 0x3d, 0xe1, 0xb8, 0x00, 0xbe,
    0x8a, 0x1b, 0xf2, 0x3d, 0xf6, 0x0f, 0xed, 0x3d, 0x07, 0x3e,
    0xdc, 0xbc, 0x64, 0xe4, 0xa4, 0xbd, 0xf4, 0xde, 0x80, 0x3d,
    0x5a, 0xe7, 0x0c, 0xbd, 0xfd, 0x9b, 0x87, 0x3d, 0x31, 0x72,
    0xc5, 0x3d, 0x0c, 0xa2, 0xe2, 0xbb, 0x5c, 0x09, 0x5a, 0x3d,
    0x6f, 0x73, 0x02, 0x3d, 0x50, 0x37, 0x05, 0x3e, 0xfa, 0x2c,
    0x3d, 0xbe, 0xb7, 0x9c, 0x2d, 0xbe, 0x67, 0x52, 0xcd, 0x3d,
    0xba, 0x6a, 0x3b, 0xbd, 0x54, 0x3a, 0xd4, 0xbd, 0x10, 0xbf,
    0x8b, 0xbd, 0x0c, 0x18, 0x00, 0x3e, 0xbe, 0x28, 0x4c, 0xbc,
    0xc5, 0x65, 0x00, 0x3e, 0x71, 0xe9, 0x97, 0xbd, 0xa9, 0xc2,
    0xf4, 0xbd, 0x15, 0xb2, 0x2e, 0xbd, 0xc7, 0xf4, 0x82, 0xbd,
    0x63, 0xea, 0x02, 0x3e, 0xd5, 0x47, 0x19, 0xbe, 0xab, 0x32,
    0x94, 0x3d, 0x37, 0x0a, 0x2b, 0x3e, 0xff, 0x15, 0xa1, 0x3d,
    0xe3, 0x6d, 0x91, 0xbd, 0xbe, 0x8f, 0x46, 0x3e, 0x32, 0xf7,
    0xfd, 0x3a, 0xee, 0x6c, 0x47, 0xbe, 0xdc, 0x30, 0x22, 0xbe,
    0x0c, 0xf6, 0xdb, 0x3d, 0x0a, 0x1d, 0xc1, 0x3b, 0x67, 0xbf,
    0x86, 0xbe, 0xad, 0x61, 0xa6, 0xbd, 0xac, 0x24, 0xb4, 0xbd,
    0x4b, 0x1f, 0x3c, 0x3c, 0x66, 0x39, 0x21, 0xbd, 0x52, 0x06,
    0xe6, 0x3d, 0x9d, 0x72, 0xb5, 0x3c, 0xf3, 0x74, 0x8a, 0xbc,
    0xde, 0xe0, 0xb5, 0xbd, 0x2d, 0xb7, 0xad, 0x3c, 0xba, 0x6f,
    0xab, 0x3d, 0x3f, 0xcb, 0x0a, 0x3e, 0xe2, 0x83, 0x84, 0xbb,
    0x4b, 0xc6, 0xab, 0xbd, 0x9c, 0x6e, 0x91, 0x3d, 0xd6, 0x0c,
    0x9e, 0x3a, 0xb3, 0x0a, 0x8d, 0xbd, 0x3d, 0x4b, 0x3d, 0xbe,
    0x16, 0xeb, 0x78, 0xb9, 0x84, 0x93, 0x84, 0x3c, 0x94, 0x3c,
    0xe2, 0x3d, 0x46, 0xd7, 0x1c, 0x3c, 0xd7, 0xbd, 0x2b, 0x3e,
    0x55, 0x96, 0xa3, 0x3d, 0x9e, 0xfc, 0xa0, 0xbe, 0xcf, 0xdb,
    0x38, 0x3d, 0xbc, 0x74, 0x6b, 0xbe, 0x24, 0x2c, 0x8c, 0xbd,
    0xc5, 0xcc, 0x1d, 0x3e, 0x90, 0x86, 0x2d, 0xbd, 0xc8, 0x02,
    0xc5, 0x3d, 0x10, 0xab, 0x00, 0xbe, 0xda, 0x2b, 0x07, 0xbd,
    0xf3, 0xda, 0x11, 0x3b, 0x6f, 0x8f, 0x35, 0x3d, 0xe8, 0x68,
    0xa7, 0x3d, 0xcc, 0xd2, 0x23, 0x3e, 0x2a, 0x9b, 0xa4, 0xbd,
    0x24, 0x87, 0x03, 0xbd, 0x43, 0xfe, 0xdc, 0x3d, 0xf6, 0xab,
    0xb7, 0x3d, 0x15, 0xa1, 0xeb, 0xbd, 0x7b, 0x80, 0x2f, 0x3e,
    0x2b, 0xa5, 0x26, 0x3e, 0xd3, 0x92, 0x85, 0x3d, 0xfb, 0x22,
    0xfd, 0x3d, 0x20, 0x1c, 0xa0, 0x3c, 0x15, 0x8d, 0x52, 0xbc,
    0x67, 0x65, 0x34, 0xbe, 0x5f, 0xdf, 0xc2, 0xbd, 0x8f, 0xea,
    0x9f, 0x3d, 0xb2, 0x52, 0x63, 0x3d, 0x1c, 0x15, 0x84, 0xbd,
    0xcf, 0x97, 0x06, 0x3d, 0x78, 0x61, 0xb3, 0xbd, 0x62, 0xc1,
    0x0d, 0x3e, 0x64, 0xf2, 0xc3, 0x3d, 0xf3, 0x51, 0x99, 0xbd,
    0xa8, 0x11, 0x33, 0x3e, 0x15, 0x1e, 0xbe, 0x3d, 0x6f, 0x12,
    0x27, 0xbe, 0x60, 0xf5, 0xa1, 0x3d, 0x6d, 0x2d, 0x97, 0x3d,
    0x47, 0x9c, 0x08, 0xbd, 0x80, 0x6d, 0x0b, 0xbe, 0x44, 0xd7,
    0x8f, 0xbd, 0xe3, 0x3e, 0x3d, 0xbd, 0x15, 0x85, 0x46, 0xbe,
    0x00, 0xa1, 0x4b, 0x3e, 0xed, 0x5f, 0xda, 0x3c, 0xc0, 0x97,
    0xb2, 0x3d, 0xba, 0xcd, 0xbd, 0xba, 0x04, 0x55, 0xed, 0x3c,
    0xf3, 0x1f, 0xf5, 0xbc, 0x31, 0x9c, 0x1e, 0x3e, 0xb6, 0xb0,
    0xbc, 0xbd, 0x8e, 0x2b, 0x24, 0xbd, 0x10, 0xb9, 0x50, 0xbd,
    0xa4, 0x06, 0x13, 0x3e, 0xf3, 0xa5, 0x0b, 0xbe, 0x51, 0xe0,
    0x21, 0x3d, 0x42, 0x51, 0x8c, 0x3d, 0xef, 0x26, 0xdf, 0x3d,
    0x54, 0x5d, 0x9c, 0x3d, 0xff, 0x23, 0xdd, 0xbd, 0x13, 0xb3,
    0x3f, 0xbc, 0xdb, 0xef, 0x2c, 0x3e, 0xdc, 0xfc, 0xea, 0x3c,
    0xa6, 0x92, 0x46, 0x3d, 0x22, 0xe6, 0x08, 0x3e, 0xf4, 0x15,
    0xd8, 0xbb, 0xf4, 0x6e, 0x84, 0x3d, 0xdf, 0x7a, 0xeb, 0x3d,
    0xd4, 0xa8, 0xf1, 0x3b, 0x2e, 0x43, 0x51, 0xbe, 0xd1, 0x31,
    0x01, 0xbd, 0x2b, 0x3d, 0xe5, 0xbd, 0x6d, 0x13, 0xa6, 0xbd,
    0x82, 0x7e, 0x8b, 0x3d, 0x6f, 0x82, 0x56, 0x3d, 0x69, 0xa4,
    0x2a, 0xbe, 0x44, 0xe7, 0x80, 0xbd, 0xb9, 0xaf, 0xab, 0x3d,
    0x70, 0x96, 0x95, 0x3d, 0x1c, 0x10, 0xd5, 0x3d, 0x52, 0x93,
    0x16, 0x3d, 0xb4, 0x5f, 0x92, 0x3c, 0x7c, 0x9b, 0x20, 0xbe,
    0x13, 0xea, 0x3e, 0xbe, 0xf9, 0xc3, 0x94, 0x3d, 0x25, 0x3b,
    0xf0, 0xbd, 0x0e, 0x64, 0x6d, 0x3d, 0x62, 0x55, 0x95, 0x3d,
    0x79, 0xf6, 0x34, 0x3d, 0x06, 0x49, 0xa5, 0x3d, 0x09, 0x95,
    0x58, 0x3d, 0x3d, 0xd6, 0x58, 0x3d, 0xb4, 0xd7, 0x1e, 0xbe,
    0xc9, 0xca, 0x12, 0xbe, 0xc0, 0x09, 0x25, 0xbe, 0xfe, 0x42,
    0x9f, 0x3d, 0x84, 0x1f, 0xbe, 0x3d, 0x8a, 0x85, 0x00, 0x3d,
    0x8a, 0xff, 0x01, 0xbe, 0xed, 0xa3, 0x2b, 0x3e, 0xe8, 0xe6,
    0xad, 0x3c, 0xa2, 0x44, 0x12, 0xbe, 0x79, 0xf2, 0x44, 0xbe,
    0xa3, 0x97, 0x5a, 0xbe, 0x34, 0xa8, 0xd5, 0x3d, 0xc6, 0xf2,
    0x86, 0xbe, 0x6f, 0xea, 0xe0, 0x3d, 0xe1, 0x23, 0xc9, 0xbc,
    0xb8, 0xe7, 0x56, 0x3d, 0x5a, 0x5c, 0xe9, 0xbd, 0xbc, 0xa4,
    0x20, 0xbe, 0x97, 0x1c, 0xa4, 0xbd, 0x47, 0xa0, 0xea, 0x3d,
    0xf7, 0xbe, 0x2a, 0xbc, 0x71, 0x04, 0x5d, 0xbe, 0x71, 0xa1,
    0xef, 0xbc, 0x07, 0x9f, 0xa2, 0xbd, 0xd2, 0x02, 0xbd, 0x3d,
    0x12, 0xa2, 0x3c, 0xbe, 0x46, 0x11, 0x5f, 0xbc, 0x50, 0x4a,
    0x47, 0x3d, 0xb7, 0xf7, 0x47, 0xbd, 0xd9, 0x90, 0x14, 0x3d,
    0x7e, 0xc5, 0x9f, 0x3d, 0x6a, 0x2e, 0xd6, 0x3d, 0x08, 0xf6,
    0x83, 0xbd, 0xc5, 0x63, 0xd1, 0xbd, 0x70, 0xae, 0x99, 0xbd,
    0x6b, 0x2a, 0x6e, 0xbd, 0x54, 0x60, 0xc6, 0xbd, 0xec, 0xac,
    0x8b, 0x3b, 0xa4, 0xf5, 0xb6, 0x3d, 0x5d, 0xec, 0xb0, 0x3d,
    0x72, 0xd1, 0x77, 0x3d, 0xd1, 0xbc, 0x5a, 0xbd, 0xa4, 0x49,
    0xc3, 0x3d, 0x91, 0x43, 0xf0, 0x3d, 0xee, 0x24, 0x06, 0xbe,
    0x00, 0x52, 0x02, 0xbe, 0x12, 0xa7, 0xc2, 0x3d, 0x7b, 0xcf,
    0xc6, 0x3d, 0xe8, 0x43, 0xdb, 0xbd, 0xe5, 0xac, 0x45, 0xbe,
    0x20, 0xb6, 0x8b, 0x3d, 0x07, 0xeb, 0x09, 0xbd, 0xcf, 0x62,
    0xe5, 0x3d, 0x3c, 0x58, 0x48, 0xbd, 0x3a, 0x79, 0xf5, 0xbd,
    0x1a, 0xd1, 0xf4, 0x3d, 0xc4, 0xa5, 0xf6, 0x3d, 0x73, 0x9e,
    0xd2, 0xbd, 0xa1, 0xb6, 0x8d, 0x3d, 0xbe, 0x48, 0xc5, 0x3d,
    0x7c, 0x19, 0x32, 0x3c, 0xcb, 0xb8, 0x9c, 0x3d, 0x15, 0x09,
    0xb1, 0x3d, 0x60, 0xed, 0xe7, 0xbc, 0x57, 0x52, 0xec, 0x3d,
    0xc3, 0x68, 0x5a, 0xbe, 0x78, 0xee, 0xe8, 0x3c, 0x7a, 0xc8,
    0xce, 0xbd, 0x41, 0x2c, 0x2b, 0x3e, 0x69, 0xfa, 0x29, 0xbe,
    0x43, 0x01, 0xde, 0xbd, 0xe6, 0x3b, 0x27, 0xbe, 0x94, 0x04,
    0xb9, 0xbd, 0x51, 0x6f, 0xc1, 0xbd, 0xb6, 0xe7, 0x92, 0xbe,
    0x0f, 0x0a, 0xb5, 0xbd, 0x03, 0x4b, 0x63, 0x3d, 0x20, 0xc4,
    0x0e, 0xbe, 0x30, 0x8f, 0x43, 0x3e, 0x51, 0x7f, 0xbe, 0x3d,
    0x48, 0x92, 0x5f, 0x3d, 0xcb, 0x37, 0x6f, 0x3d, 0x61, 0x39,
    0xd7, 0x3d, 0x7d, 0xe0, 0x97, 0x3d, 0x45, 0xc9, 0xab, 0xbd,
    0xff, 0x93, 0x17, 0x3e, 0xa7, 0x98, 0x32, 0xbe, 0x42, 0x1e,
    0xb2, 0x3c, 0xf9, 0xca, 0xad, 0x3d, 0x46, 0xcb, 0x9c, 0x3d,
    0xcf, 0xb0, 0xa2, 0x3d, 0xc1, 0x47, 0x1f, 0x3e, 0xf4, 0x55,
    0x8a, 0x3c, 0x07, 0x36, 0xfa, 0xbc, 0x97, 0x81, 0x28, 0xbd,
    0x1a, 0x55, 0xae, 0xbd, 0x65, 0x42, 0x35, 0xbc, 0xd1, 0xd5,
    0x30, 0x3e, 0x6d, 0xbc, 0x2d, 0xbe, 0x0f, 0x8e, 0xfa, 0x3c,
    0x15, 0x99, 0x49, 0xbe, 0x3c, 0x70, 0xe6, 0x3c, 0xf5, 0x79,
    0x12, 0xbe, 0x67, 0x33, 0x1f, 0xbd, 0xcd, 0xaa, 0x56, 0x3b,
    0x47, 0xed, 0xbe, 0xbd, 0x5d, 0x94, 0xd1, 0xbd, 0xae, 0x4f,
    0x14, 0x3d, 0xde, 0x06, 0x07, 0xbe, 0xe4, 0x79, 0x39, 0x3e,
    0x2e, 0x88, 0x61, 0xbe, 0x02, 0x0e, 0x60, 0xbe, 0xa5, 0x62,
    0x34, 0xbe, 0xb3, 0x9e, 0x44, 0x3e, 0x25, 0xac, 0xf8, 0x3d,
    0x86, 0x6c, 0x55, 0xbd, 0x5f, 0x56, 0x0d, 0x3e, 0x43, 0x89,
    0xdf, 0x3c, 0xd8, 0xdd, 0x86, 0x3c, 0xa3, 0x1b, 0x74, 0xbc,
    0xab, 0x19, 0x6c, 0xbd, 0x7e, 0x24, 0x00, 0xbd, 0x98, 0xaf,
    0xd0, 0x3c, 0x1e, 0x37, 0x44, 0x3c, 0x8f, 0x41, 0x30, 0x3d,
    0x60, 0xdd, 0x28, 0x3e, 0x4f, 0x2d, 0xe1, 0xbb, 0x5c, 0xa8,
    0x90, 0xbd, 0x70, 0xbf, 0x5e, 0xbc, 0x1f, 0x3f, 0x7d, 0xbd,
    0x91, 0xeb, 0x8b, 0xbd, 0x56, 0x9b, 0xe1, 0xbc, 0x00, 0xb2,
    0x0f, 0x3e, 0x87, 0xac, 0x6d, 0x3e, 0x8a, 0xa8, 0xf9, 0xba,
    0x2d, 0xd7, 0x2a, 0xbe, 0xc6, 0xfb, 0xb2, 0x3d, 0x13, 0x32,
    0x3e, 0x3d, 0xce, 0x96, 0x5f, 0x3c, 0x37, 0xfe, 0x2c, 0xbd,
    0x42, 0x75, 0x3f, 0x3d, 0x6c, 0x0c, 0x62, 0x3e, 0xd3, 0x63,
    0x74, 0x3d, 0x81, 0x04, 0x18, 0x3d, 0x8d, 0x13, 0x34, 0xbe,
    0xa3, 0x5b, 0x2c, 0xbb, 0x0b, 0x3c, 0x6d, 0x3e, 0xcb, 0x51,
    0x0f, 0x3e, 0x20, 0x2e, 0x02, 0x3e, 0x9a, 0x74, 0x06, 0x3e,
    0x20, 0xb1, 0x36, 0xbd, 0x8d, 0x28, 0x41, 0xbe, 0x3d, 0xf2,
    0x36, 0x3d, 0x26, 0xe3, 0x0c, 0x3d, 0xf3, 0x20, 0x59, 0x3c,
    0xb5, 0xdc, 0x06, 0xbe, 0xd6, 0x42, 0xa6, 0xbc, 0xe5, 0x02,
    0x11, 0x3e, 0x47, 0x71, 0x9c, 0xbc, 0xd0, 0xf5, 0xbb, 0x3c,
    0x25, 0x18, 0x0f, 0xbe, 0x73, 0x1a, 0x85, 0x3b, 0x6b, 0x86,
    0x73, 0x3d, 0x28, 0xeb, 0xc6, 0x3d, 0x58, 0x7c, 0xe7, 0x3d,
    0x60, 0xef, 0x75, 0xbd, 0x64, 0x8b, 0xa2, 0xbd, 0xa9, 0xde,
    0xbe, 0x3d, 0x6c, 0xf1, 0x38, 0xbe, 0x0b, 0xba, 0x15, 0xbd,
    0xb0, 0xcb, 0xeb, 0x3d, 0x60, 0x5b, 0xae, 0xbd, 0x22, 0xa2,
    0xc5, 0xbd, 0x04, 0x3f, 0xfa, 0x3d, 0x21, 0x0b, 0x1f, 0xbe,
    0x5f, 0x54, 0xe5, 0xbd, 0xdc, 0x5b, 0x2d, 0xbd, 0x5a, 0x7f,
    0xb9, 0xbd, 0x87, 0x18, 0xbf, 0xbd, 0x07, 0xd6, 0xf9, 0x3d,
    0x7e, 0x0e, 0xf0, 0xbd, 0x56, 0x4a, 0x3e, 0x3e, 0x22, 0x45,
    0xc6, 0x3d, 0x14, 0x9c, 0xc4, 0xbd, 0x70, 0x35, 0xa6, 0x3d,
    0xce, 0x2f, 0x32, 0x3e, 0x54, 0x1e, 0x18, 0xbe, 0x3e, 0xbb,
    0x79, 0x3d, 0xc3, 0x9c, 0x2a, 0xbc, 0x52, 0x57, 0x36, 0x3e,
    0x3e, 0x66, 0x3e, 0xbe, 0x57, 0x2b, 0xa0, 0x3d, 0x59, 0xeb,
    0x03, 0x3d, 0x16, 0x1d, 0x8b, 0xbd, 0x8e, 0xfd, 0x65, 0x3e,
    0x90, 0xdc, 0x45, 0xbd, 0xf7, 0x84, 0xaa, 0x3d, 0x29, 0x79,
    0x20, 0x3e, 0x33, 0x21, 0xe8, 0xbd, 0x8d, 0x6c, 0xdc, 0x3d,
    0x99, 0x07, 0x42, 0x3e, 0x96, 0x8f, 0x38, 0xbd, 0xea, 0xeb,
    0x07, 0xbb, 0x86, 0xa4, 0xf1, 0x3d, 0xcc, 0xc9, 0xd4, 0x3c,
    0x31, 0xe5, 0xd7, 0xbd, 0x12, 0xc3, 0x1d, 0xbe, 0x7e, 0x4b,
    0xb0, 0x3c, 0x62, 0x8a, 0x0a, 0xbe, 0xd3, 0x50, 0xc1, 0x3c,
    0x04, 0x65, 0x17, 0x3e, 0x99, 0xa4, 0x2c, 0xbe, 0x75, 0xe2,
    0x00, 0x3e, 0x2b, 0x04, 0x83, 0xbd, 0x37, 0xb6, 0x0e, 0xbe,
    0x39, 0xed, 0x57, 0x3d, 0x7a, 0x5a, 0xae, 0xbc, 0x91, 0x41,
    0x1e, 0xbc, 0xa0, 0xb3, 0xfb, 0xbd, 0x39, 0x22, 0x6a, 0xbd,
    0x52, 0x80, 0xa4, 0xbc, 0x5b, 0x31, 0x07, 0xbe, 0xd3, 0x6e,
    0x00, 0xbd, 0x0b, 0xc0, 0xf1, 0x3d, 0x12, 0xd3, 0xa1, 0x3d,
    0x23, 0x92, 0xcb, 0xbd, 0x66, 0x4b, 0x88, 0x3c, 0x6c, 0x11,
    0xb3, 0xbd, 0x88, 0x81, 0x18, 0xbe, 0xc4, 0x5a, 0xe2, 0xbc,
    0x40, 0xb2, 0xbf, 0xbd, 0x16, 0x86, 0x01, 0x3e, 0x5e, 0xdf,
    0x60, 0x3d, 0xdc, 0x04, 0xb8, 0x3c, 0xee, 0xd1, 0xb0, 0xbd,
    0x2d, 0x03, 0xf2, 0x3c, 0x2d, 0xf8, 0x26, 0xbd, 0x3e, 0x41,
    0x00, 0x3d, 0xa1, 0xd0, 0x1b, 0xbe, 0x54, 0xf1, 0xd0, 0xbc,
    0x0d, 0x8d, 0x31, 0xbd, 0xce, 0xa9, 0x2f, 0x3c, 0x34, 0x00,
    0xbc, 0xbd, 0x1c, 0xf2, 0x1c, 0xbe, 0x59, 0x0f, 0xc7, 0x3d,
    0xec, 0x45, 0xad, 0xbc, 0xbf, 0x21, 0xe1, 0xbd, 0x00, 0xdd,
    0xb3, 0xbd, 0x28, 0xa2, 0xbd, 0x3c, 0xe0, 0x72, 0x3b, 0xbd,
    0x0e, 0xfa, 0x06, 0x3e, 0x84, 0xdd, 0x62, 0xbd, 0x28, 0x08,
    0x14, 0x3e, 0xc9, 0xcd, 0x9f, 0x3d, 0x20, 0xfe, 0x11, 0xbe,
    0xa2, 0xc6, 0xaf, 0x3d, 0x91, 0xef, 0xc9, 0xbd, 0x89, 0x80,
    0xbf, 0xbc, 0x78, 0x1b, 0x14, 0xbd, 0xdb, 0x44, 0x92, 0xbd,
    0xb2, 0x70, 0xcc, 0x3c, 0x1b, 0x01, 0xf6, 0xbd, 0x4e, 0x1d,
    0x40, 0x3d, 0xcc, 0xe6, 0xfa, 0xbd, 0x0a, 0x7c, 0x09, 0xbe,
    0x17, 0x4b, 0x1d, 0xbe, 0x8f, 0xd6, 0xfb, 0xbc, 0xcc, 0xde,
    0xc1, 0x3d, 0xf6, 0x00, 0xe6, 0xbd, 0x06, 0xef, 0x85, 0xbd,
    0xb6, 0x26, 0xcf, 0xbd, 0xe6, 0xf9, 0xa2, 0x3c, 0xb9, 0x8d,
    0x11, 0xbe, 0x60, 0xaf, 0xd5, 0x3d, 0xaf, 0x9f, 0x0d, 0xbe,
    0x94, 0xfc, 0xc8, 0xbc, 0x12, 0x7e, 0x79, 0xbd, 0x8c, 0x50,
    0xa2, 0xbd, 0x62, 0xb6, 0xdb, 0xbc, 0xfa, 0xdf, 0x1f, 0x3e,
    0x3d, 0x1d, 0xb6, 0xbd, 0x8f, 0x10, 0xc3, 0x3d, 0xce, 0x1e,
    0xf7, 0xbd, 0xe6, 0x1a, 0x28, 0xbe, 0x41, 0x14, 0xae, 0xbd,
    0x75, 0xbd, 0x18, 0xbe, 0x4e, 0x36, 0x99, 0xbd, 0x99, 0x4d,
    0xa6, 0x3d, 0x4d, 0xca, 0xb3, 0x3d, 0x62, 0xf7, 0x9b, 0xbd,
    0x58, 0x5b, 0x08, 0xbe, 0x9c, 0x6d, 0xec, 0x3c, 0x43, 0x8b,
    0x33, 0x3d, 0xd7, 0xb0, 0xd6, 0x3c, 0x40, 0x8d, 0x9e, 0x38,
    0xce, 0xe6, 0x15, 0xbe, 0x61, 0xdc, 0x09, 0xbe, 0x01, 0xa9,
    0x1f, 0xbe, 0x26, 0xef, 0xc3, 0xba, 0x7c, 0x72, 0x01, 0x3e,
    0x9c, 0xe5, 0x14, 0xbd, 0x6d, 0x64, 0x70, 0x3d, 0x07, 0x75,
    0x63, 0x3b, 0x49, 0x8e, 0x15, 0xbe, 0x3f, 0x4a, 0xe7, 0x3d,
    0x11, 0xad, 0x72, 0xbe, 0x1c, 0x42, 0x36, 0x3e, 0xd6, 0xa2,
    0xf0, 0x3d, 0xb4, 0x47, 0x09, 0xbd, 0x0a, 0x7c, 0x96, 0x3d,
    0xc9, 0x4b, 0x6f, 0x3d, 0x41, 0x6a, 0x7a, 0xbd, 0x7f, 0xe8,
    0xba, 0x3d, 0x4a, 0xf4, 0x6b, 0x3d, 0x38, 0x5a, 0x92, 0x3d,
    0x05, 0xb1, 0x56, 0x3d, 0x14, 0x63, 0xac, 0xbd, 0x72, 0xf6,
    0xeb, 0xbd, 0xe5, 0x31, 0x14, 0x3e, 0xdf, 0x9e, 0x10, 0x3c,
    0x0b, 0x6c, 0xa9, 0xbd, 0xa2, 0x9f, 0x92, 0x3d, 0xb8, 0x0f,
    0xcd, 0x3c, 0xe1, 0x26, 0x0e, 0x3e, 0x70, 0x11, 0x05, 0xbb,
    0xeb, 0xf8, 0x6d, 0xbd, 0x3b, 0x41, 0x3b, 0xbe, 0x2e, 0x9b,
    0x0d, 0x3e, 0x69, 0x0f, 0xa2, 0x3d, 0x4e, 0xaf, 0xb4, 0x3c,
    0xb6, 0x67, 0x0d, 0x3e, 0xb3, 0xb2, 0x30, 0x3d, 0x82, 0x60,
    0x80, 0x3c, 0x71, 0xfa, 0x57, 0x3d, 0x7a, 0x79, 0x57, 0x3d,
    0x64, 0xa2, 0xff, 0xbc, 0xb2, 0xa1, 0xa0, 0xbd, 0x10, 0x36,
    0xdb, 0xbc, 0x3d, 0xdb, 0xfe, 0xbd, 0x00, 0xf9, 0xa7, 0xbd,
    0x5d, 0x69, 0x49, 0xbe, 0xfa, 0x1b, 0x67, 0xbe, 0xdc, 0x6d,
    0x34, 0xbd, 0x4c, 0xe7, 0x17, 0xbd, 0x41, 0x30, 0x24, 0x3c,
    0xf3, 0x2e, 0x44, 0xbe, 0x06, 0x22, 0x3f, 0xbe, 0x70, 0x9b,
    0x9d, 0xbc, 0xd2, 0x5a, 0xb6, 0xbd, 0x34, 0x12, 0x52, 0xbe,
    0xfc, 0x1e, 0x29, 0xbe, 0xe4, 0xa9, 0x4b, 0xbb, 0x9c, 0x5c,
    0x8e, 0x3d, 0xdb, 0xe6, 0x4f, 0xbe, 0x3c, 0xd1, 0xb3, 0xbc,
    0xa4, 0x57, 0xc1, 0x3d, 0x68, 0x5a, 0x94, 0x3c, 0x5a, 0x81,
    0x45, 0xbd, 0xd1, 0x27, 0x37, 0x3e, 0xb5, 0xe0, 0x09, 0x3e,
    0xab, 0x80, 0x1c, 0xbd, 0x8f, 0xd9, 0xd7, 0xbd, 0xaa, 0x94,
    0xdf, 0x3c, 0x52, 0xbe, 0xfa, 0x3c, 0x79, 0x3e, 0x13, 0x3e,
    0x2c, 0x0e, 0x33, 0xbe, 0x72, 0x98, 0x10, 0x3e, 0x79, 0x94,
    0xa3, 0x3d, 0x34, 0x32, 0x02, 0x3e, 0x5d, 0x0e, 0x01, 0x3e,
    0x8f, 0xec, 0x53, 0xbe, 0x21, 0xd5, 0x6e, 0xbe, 0x26, 0xdf,
    0xbc, 0xbd, 0x48, 0xfc, 0x90, 0xbd, 0x98, 0x82, 0x88, 0xbd,
    0x13, 0xda, 0x58, 0xba, 0xd9, 0xea, 0x6c, 0x3d, 0x22, 0x57,
    0xb6, 0xbd, 0x66, 0x56, 0x07, 0xbc, 0xcc, 0x08, 0xcb, 0xbb,
    0x39, 0x3d, 0x07, 0xbe, 0x08, 0xe5, 0x02, 0xbe, 0xf2, 0x69,
    0x3f, 0x3d, 0x73, 0x25, 0x95, 0x3d, 0x5a, 0xd8, 0x1e, 0xbd,
    0x15, 0xdd, 0x47, 0xbe, 0xbb, 0x88, 0x5d, 0x3e, 0x5e, 0x24,
    0xaa, 0x3d, 0x92, 0x1d, 0x0b, 0x3e, 0x6d, 0x33, 0x7f, 0xbd,
    0x48, 0x55, 0x06, 0xbd, 0xf4, 0x82, 0x1e, 0x3e, 0x46, 0x79,
    0x2c, 0xbd, 0xab, 0x7f, 0x5c, 0x3b, 0x42, 0x81, 0x88, 0x3d,
    0x31, 0x02, 0xcb, 0xbd, 0x83, 0xbb, 0x09, 0x3e, 0x21, 0x5d,
    0x72, 0x3d, 0x18, 0xfe, 0x79, 0x3d, 0xd3, 0x0d, 0xb3, 0x3d,
    0xd0, 0x35, 0xed, 0xbd, 0x5f, 0x8a, 0x16, 0xbe, 0xe6, 0x06,
    0xc4, 0x3d, 0xcf, 0xc0, 0xf2, 0xbd, 0xd0, 0x4a, 0x09, 0xbd,
    0x6a, 0x58, 0x18, 0xbe, 0x0a, 0xe2, 0x60, 0x3d, 0xb3, 0x29,
    0x91, 0x3d, 0xa1, 0xa5, 0x02, 0xbe, 0x4b, 0xa0, 0xc4, 0xbc,
    0x8d, 0xdb, 0x53, 0x3e, 0x61, 0xb3, 0x04, 0xbd, 0x82, 0x6a,
    0x4c, 0x3e, 0x3f, 0xe9, 0x4b, 0xbe, 0x7b, 0xf4, 0xe9, 0x3c,
    0xa3, 0x2c, 0x9f, 0xbd, 0x76, 0xc6, 0x22, 0x3e, 0x9f, 0xfc,
    0x55, 0x3e, 0x2f, 0x89, 0x91, 0x3d, 0xa9, 0xd9, 0x03, 0xbc,
    0x45, 0xc1, 0x4a, 0x3e, 0xb2, 0xd2, 0xdc, 0x3d, 0xce, 0xa0,
    0x33, 0xbe, 0xce, 0x18, 0x89, 0xbc, 0x3d, 0x23, 0x1d, 0xbe,
    0xa5, 0xa9, 0x15, 0xbd, 0xee, 0xbf, 0x07, 0xbc, 0x86, 0x5d,
    0x8d, 0xbc, 0x02, 0x33, 0x10, 0xbe, 0x4a, 0x7e, 0x8d, 0xbe,
    0x6a, 0x83, 0x5b, 0x3d, 0xb7, 0xeb, 0x02, 0x3d, 0x57, 0xdd,
    0x7f, 0x3d, 0x9b, 0x2b, 0xc9, 0x3c, 0xb7, 0x8a, 0xbf, 0xbd,
    0x4b, 0x54, 0x28, 0xbe, 0x7d, 0x0e, 0x8c, 0x3d, 0x9e, 0x2b,
    0x93, 0xbd, 0x5e, 0x36, 0xfe, 0x3d, 0xf2, 0x39, 0xc1, 0xbd,
    0xd5, 0x5e, 0x96, 0xbd, 0x26, 0x52, 0xd4, 0x3d, 0x2d, 0x04,
    0x63, 0xbd, 0xda, 0x95, 0xa5, 0xbd, 0x2f, 0xd2, 0x24, 0xbd,
    0x0b, 0x05, 0x08, 0xbd, 0x37, 0xae, 0x19, 0x3e, 0xae, 0xbe,
    0xe5, 0x3c, 0xb6, 0xce, 0x14, 0xbe, 0x6c, 0xb2, 0xb7, 0x3d,
    0x27, 0x03, 0x3d, 0xbd, 0xee, 0xf7, 0xb1, 0xbd, 0x2e, 0xec,
    0xc2, 0xbd, 0x50, 0x7e, 0x0f, 0xbe, 0x13, 0xe9, 0x1d, 0x3e,
    0xb2, 0xb2, 0x40, 0xbe, 0x73, 0x95, 0x52, 0xbd, 0x50, 0x93,
    0x0d, 0xbc, 0x8d, 0xa2, 0x04, 0x3e, 0x86, 0xf5, 0x83, 0xba,
    0xdc, 0xd8, 0x47, 0x3e, 0x14, 0xd0, 0x90, 0x3d, 0xfd, 0x98,
    0xeb, 0xbd, 0x5f, 0x0e, 0x62, 0x3d, 0x76, 0x0b, 0x45, 0x3e,
    0x34, 0xfa, 0x8e, 0x3d, 0xcc, 0xca, 0x0b, 0x3e, 0x18, 0x72,
    0x09, 0xbe, 0x6f, 0xd1, 0x86, 0xbb, 0xa3, 0x2e, 0x2e, 0x3d,
    0x22, 0xe5, 0x7e, 0x3d, 0x2b, 0xa4, 0x0b, 0xbe, 0x90, 0x03,
    0x66, 0xbd, 0x92, 0xee, 0x3a, 0x3e, 0x78, 0x64, 0x83, 0x3d,
    0x65, 0xf3, 0xe1, 0xbd, 0xf7, 0xff, 0x88, 0xbc, 0x0d, 0xeb,
    0x0f, 0xbe, 0x42, 0xbe, 0x8d, 0x3d, 0x5b, 0x5e, 0x1d, 0xbe,
    0x94, 0x09, 0x0a, 0xbc, 0xf3, 0x7f, 0xd6, 0xbd, 0x72, 0xc0,
    0xb4, 0x3c, 0x64, 0x0b, 0x1a, 0xbd, 0xe4, 0x2e, 0x77, 0xbd,
    0x33, 0x85, 0xb0, 0xbd, 0x55, 0xfe, 0xc7, 0xbc, 0xec, 0x1b,
    0x03, 0xbe, 0x01, 0x56, 0xfb, 0x3d, 0x25, 0xed, 0x9f, 0x3d,
    0xfb, 0xaf, 0x2b, 0x3e, 0xa1, 0xd5, 0x7b, 0x3d, 0xf2, 0xf6,
    0xdc, 0x3d, 0x03, 0x73, 0x2c, 0x3e, 0x58, 0x92, 0x25, 0x3e,
    0x8b, 0x49, 0xbe, 0x3d, 0xe5, 0x4e, 0xd3, 0x3d, 0x29, 0xda,
    0xd8, 0x3d, 0xb7, 0x58, 0x2f, 0xbe, 0xc9, 0x0c, 0x98, 0xbd,
    0x55, 0x0a, 0xa7, 0x3d, 0xa6, 0x84, 0x30, 0xbe, 0x20, 0x1f,
    0xa0, 0xbc, 0x2d, 0x62, 0xad, 0x3d, 0x21, 0xa3, 0xa4, 0x3d,
    0xc1, 0x0c, 0x73, 0x3c, 0x5b, 0x57, 0x73, 0x3d, 0x2d, 0x94,
    0xcf, 0x3d, 0x95, 0x5a, 0x8a, 0x3b, 0x32, 0x90, 0x92, 0xb9,
    0xb9, 0x8d, 0x93, 0xbd, 0xe5, 0xd7, 0xdc, 0xbd, 0xc3, 0xca,
    0x23, 0x3d, 0xba, 0x4f, 0x4e, 0x3c, 0xdc, 0xfa, 0x78, 0xbc,
    0xb4, 0xec, 0xb0, 0x3d, 0x37, 0x2a, 0x13, 0x3e, 0x56, 0xbe,
    0xb9, 0x3d, 0xa2, 0x3c, 0x38, 0x3d, 0x15, 0x60, 0x33, 0xbd,
    0x51, 0xfd, 0xd3, 0x3c, 0x5d, 0x1e, 0x0d, 0x3e, 0xed, 0x92,
    0x93, 0xbd, 0x31, 0xb4, 0x3e, 0xbe, 0x68, 0xeb, 0xa7, 0xbc,
    0x43, 0xb1, 0xcf, 0x3c, 0x56, 0xe8, 0x60, 0xbd, 0x11, 0x47,
    0xd3, 0xbc, 0x5e, 0xa3, 0x18, 0xbe, 0x79, 0x1b, 0x47, 0x3e,
    0x02, 0xe5, 0x67, 0x3e, 0x13, 0xde, 0x05, 0x3e, 0xbf, 0x40,
    0x2b, 0x3e, 0x4b, 0x91, 0x90, 0xbd, 0x5e, 0x57, 0x8a, 0xbb,
    0xc4, 0xa7, 0x72, 0x3c, 0x77, 0xad, 0x81, 0xbd, 0xc0, 0x3e,
    0xb8, 0x3c, 0x6f, 0x75, 0x4a, 0xbc, 0xde, 0xae, 0x84, 0x3d,
    0x2a, 0x88, 0xd0, 0xbc, 0x4a, 0x61, 0xc2, 0xbd, 0x1d, 0x95,
    0x16, 0xbe, 0x36, 0x2b, 0x24, 0x3e, 0x95, 0x71, 0x51, 0x3e,
    0xdb, 0x54, 0xd0, 0xbd, 0x8c, 0x1a, 0x77, 0x3d, 0x4b, 0x5c,
    0x09, 0xbd, 0x41, 0x58, 0xe7, 0xbd, 0xb9, 0xdd, 0x47, 0xbd,
    0x86, 0x31, 0x20, 0x3e, 0xdb, 0x81, 0x62, 0xbd, 0x36, 0xb9,
    0xd0, 0x3d, 0x30, 0x71, 0x91, 0xbd, 0x65, 0x5f, 0x88, 0x3e,
    0x9c, 0xfa, 0xd0, 0xbd, 0x3c, 0xd2, 0xd6, 0xbd, 0x5c, 0x9c,
    0x28, 0x3e, 0xcd, 0xa0, 0xc8, 0xbc, 0x55, 0xcf, 0xa0, 0x3d,
    0x4b, 0xdf, 0x1f, 0xbd, 0x60, 0xc5, 0xd5, 0xbd, 0xf9, 0x8e,
    0xfc, 0xbd, 0x33, 0x14, 0x38, 0x3d, 0x8a, 0xc0, 0xa9, 0x3d,
    0xc4, 0xef, 0x3e, 0xbd, 0xf0, 0x54, 0x40, 0xbd, 0x35, 0x4f,
    0xbb, 0xbc, 0xb8, 0x82, 0x08, 0x3e, 0x34, 0xd6, 0x76, 0xbd,
    0xde, 0x29, 0x6f, 0xbd, 0x1d, 0xf3, 0xbe, 0xbd, 0x23, 0x78,
    0x79, 0xbe, 0x3b, 0x35, 0x15, 0xbd, 0xd9, 0x7e, 0xa8, 0x3d,
    0x58, 0xd5, 0x3d, 0xbd, 0x26, 0x80, 0x23, 0xbe, 0xef, 0xa3,
    0xbe, 0xbd, 0x42, 0x1b, 0x58, 0x3c, 0x56, 0x69, 0xec, 0xbc,
    0xa7, 0xdd, 0x47, 0xbc, 0xa7, 0xd3, 0x13, 0x3c, 0xc8, 0x34,
    0x64, 0xbc, 0x2c, 0xea, 0x07, 0x3d, 0x4d, 0xae, 0xd5, 0xbc,
    0x9a, 0x48, 0xb0, 0xbc, 0xf4, 0x32, 0xa2, 0xbb, 0x14, 0x7f,
    0x06, 0x3d, 0x27, 0x31, 0xab, 0x3c, 0x65, 0x77, 0x98, 0xbb,
    0x9b, 0x2c, 0x4e, 0x3b, 0xca, 0x56, 0x96, 0xbd, 0x66, 0x09,
    0x88, 0x3b, 0xf4, 0xb6, 0xde, 0x3c, 0x9a, 0x9b, 0xba, 0x81,
    0xa6, 0xab, 0x9f, 0x72, 0x95, 0x92, 0xb0, 0xa9, 0x55, 0x8a,
    0x94, 0x8f, 0x88, 0xa1, 0xaf, 0xa2, 0x89, 0x7d, 0x7d, 0x81,
    0x74, 0x84, 0xab, 0xbd, 0xa7, 0x9f, 0xe2, 0x9f, 0x86, 0xa4,
    0x5a, 0x7c, 0x91, 0xab, 0x68, 0xad, 0xa6, 0x9b, 0x86, 0x8a,
    0xbe, 0x8a, 0x5d, 0x82, 0xb3, 0x64, 0xab, 0x60, 0xc1, 0x97,
    0x81, 0x93, 0x5b, 0xb7, 0x98, 0xa0, 0x7f, 0x9d, 0xac, 0x64,
    0xb7, 0xbf, 0xa3, 0x6b, 0xa9, 0x88, 0x90, 0x97, 0x93, 0x7c,
    0xbc, 0x73, 0x69, 0x75, 0x9c, 0x96, 0x79, 0x93, 0x65, 0x98,
    0x87, 0x9a, 0x81, 0xc7, 0x98, 0x82, 0x98, 0x7c, 0xa0, 0x7e,
    0xa1, 0x69, 0xad, 0x8d, 0xad, 0x82, 0xb0, 0xa3, 0xa6, 0x6c,
    0x85, 0x97, 0x84, 0xa4, 0x72, 0xb1, 0xa2, 0x6f, 0xa7, 0x9e,
    0x8d, 0x80, 0x90, 0xa0, 0x70, 0x9b, 0x91, 0x5f, 0xbb, 0x72,
    0x91, 0x99, 0x7b, 0xae, 0x57, 0xc4, 0x96, 0x75, 0x8d, 0xc1,
    0x9d, 0xc1, 0xa7, 0x82, 0x74, 0xbb, 0x99, 0x94, 0x88, 0x71,
    0xad, 0x5e, 0x85, 0x8c, 0xaf, 0xc1, 0x83, 0x70, 0x85, 0x95,
    0x87, 0x9b, 0x64, 0xa9, 0x5a, 0x90, 0x9d, 0x91, 0xa1, 0x64,
    0xa7, 0xae, 0x80, 0xb5, 0x8d, 0x8b, 0x88, 0xa0, 0xa2, 0x74,
    0xbb, 0xab, 0x68, 0xbb, 0x92, 0x85, 0x82, 0xbb, 0xb2, 0xc5,
    0x8c, 0x84, 0x67, 0xa0, 0xb2, 0x8d, 0x7b, 0xa1, 0x82, 0x4a,
    0xa6, 0x71, 0x96, 0xa9, 0x7b, 0x59, 0x8f, 0x9e, 0x7f, 0x75,
    0x8b, 0xbe, 0x88, 0x64, 0x89, 0xb3, 0x8f, 0x66, 0xc1, 0x7b,
    0x8e, 0x95, 0x78, 0x96, 0x89, 0x9b, 0x77, 0x7e, 0x9a, 0x87,
    0x82, 0xdf, 0x65, 0x72, 0x87, 0xc3, 0xae, 0xaf, 0x81, 0xa9,
    0x96, 0x9d, 0xa8, 0x9a, 0x9c, 0x81, 0x88, 0x75, 0xbf, 0x7d,
    0xaa, 0x98, 0x92, 0x52, 0x8d, 0x7f, 0x89, 0x7a, 0x83, 0xc0,
    0x6a, 0x97, 0x94, 0x8a, 0xae, 0xac, 0xb6, 0xb6, 0x9d, 0xbe,
    0x6c, 0xc8, 0xc2, 0x92, 0x99, 0x95, 0xa6, 0x96, 0x7f, 0x95,
    0x72, 0x8e, 0x8c, 0xca, 0x9c, 0xb6, 0x75, 0xb7, 0x6a, 0x75,
    0x8b, 0x9b, 0xac, 0x78, 0x87, 0x70, 0x90, 0x65, 0x99, 0xab,
    0x99, 0x3c, 0xbf, 0xa7, 0x80, 0x8c, 0x99, 0xa9, 0x84, 0x5e,
    0x77, 0x9e, 0x86, 0x7b, 0xc8, 0x9a, 0x87, 0xb3, 0xa4, 0x86,
    0xa6, 0x8e, 0x8c, 0x7f, 0xa6, 0xb3, 0x6b, 0x93, 0x7d, 0x72,
    0x60, 0xc1, 0xa5, 0xc3, 0xaf, 0x9a, 0x7a, 0x8a, 0xa7, 0xa9,
    0x99, 0x57, 0xbc, 0x80, 0xa9, 0x7f, 0x95, 0x95, 0x8f, 0x99,
    0x9b, 0xaa, 0xa9, 0x9f, 0x80, 0x99, 0x79, 0x6f, 0xaa, 0x8f,
    0x8c, 0x82, 0xb6, 0xaf, 0x81, 0x85, 0xab, 0x84, 0x9e, 0xa5,
    0x95, 0xa8, 0xc8, 0xb0, 0x6f, 0xb8, 0xa3, 0xa7, 0x71, 0xa8,
    0x6b, 0xaf, 0x98, 0x96, 0xbf, 0x87, 0xbd, 0x82, 0x75, 0x82,
    0x91, 0x9a, 0xa7, 0x4d, 0x97, 0xaf, 0x65, 0x9d, 0x8b, 0x84,
    0x8a, 0x86, 0x99, 0x98, 0x9d, 0x6e, 0xaa, 0xbb, 0x91, 0xb0,
    0x8e, 0x9b, 0x78, 0xab, 0xa4, 0x9b, 0x93, 0x8f, 0x9c, 0x87,
    0x92, 0xb4, 0x6b, 0x9c, 0xb5, 0x97, 0x76, 0xbb, 0x8e, 0x94,
    0xbb, 0x6d, 0xb9, 0xa3, 0xc6, 0x98, 0x95, 0x5c, 0x9c, 0x7f,
    0xad, 0x3a, 0xa7, 0xad, 0x73, 0x8f, 0xaf, 0x7f, 0x85, 0x9f,
    0x90, 0x81, 0x86, 0x51, 0x5b, 0x9a, 0xc6, 0xaf, 0xad, 0x79,
    0x81, 0x9e, 0xa9, 0xba, 0xae, 0x9c, 0x8e, 0x92, 0x8f, 0xb9,
    0x87, 0xdc, 0x7e, 0x94, 0x60, 0xc5, 0x78, 0xb2, 0xb4, 0x7e,
    0xcf, 0xa3, 0xa7, 0x73, 0x4e, 0x49, 0x9c, 0x96, 0x8c, 0xe0,
    0x60, 0x5b, 0xb7, 0x6b, 0x8c, 0x90, 0xa0, 0x93, 0x80, 0x75,
    0x46, 0x35, 0x97, 0xbd, 0xb8, 0x93, 0x8c, 0x9c, 0x5e, 0x8c,
    0x8c, 0x98, 0xa5, 0x78, 0xac, 0x66, 0x9e, 0x5a, 0xab, 0x83,
    0x85, 0x73, 0x7a, 0x96, 0xab, 0xc2, 0xbb, 0x7a, 0xa0, 0x8f,
    0xa7, 0x9c, 0x71, 0xcd, 0xa5, 0x98, 0x88, 0xb0, 0x81, 0x7d,
    0xba, 0x8f, 0x43, 0xa8, 0x9b, 0x9d, 0x44, 0x41, 0x86, 0x7a,
    0xa7, 0xc7, 0xa2, 0xa2, 0xac, 0x90, 0x53, 0xb5, 0x37, 0xd3,
    0x9c, 0x76, 0x76, 0x6a, 0xbb, 0x55, 0xb0, 0xb3, 0x86, 0x96,
    0xa4, 0xcd, 0xa5, 0xd6, 0x82, 0x89, 0xbb, 0xbc, 0x98, 0x70,
    0xa8, 0xa7, 0x7c, 0x73, 0xc6, 0xc4, 0x7a, 0x69, 0xb3, 0x35,
    0x35, 0xa1, 0x9e, 0xb6, 0x4e, 0x87, 0x49, 0x77, 0xb4, 0xa4,
    0xa8, 0x48, 0x89, 0xa7, 0x50, 0x88, 0x72, 0xa4, 0xc8, 0xb6,
    0x7a, 0x6c, 0xaf, 0x6d, 0x9e, 0xb2, 0x99, 0x92, 0xa4, 0x89,
    0xa3, 0xaf, 0x94, 0x9b, 0xa3, 0xa3, 0xa8, 0x77, 0xaa, 0x85,
    0x7c, 0x61, 0x88, 0xd7, 0x8e, 0xa0, 0xae, 0x6b, 0x4e, 0xb5,
    0x85, 0x85, 0x57, 0x3d, 0x73, 0x59, 0xa5, 0x9b, 0xb8, 0x62,
    0x87, 0xa0, 0x10, 0x8a, 0x5f, 0xba, 0xa0, 0xa0, 0x89, 0x35,
    0x97, 0x67, 0xbb, 0xac, 0x63, 0x82, 0x67, 0xbb, 0xa6, 0xa4,
    0x7e, 0x5d, 0xa1, 0x91, 0xb6, 0x90, 0x90, 0x93, 0x97, 0xa2,
    0x8b, 0xba, 0x5d, 0x87, 0xaa, 0x74, 0x45, 0x9d, 0xa0, 0x85,
    0x26, 0x46, 0x73, 0x5a, 0x7b, 0x98, 0x88, 0x62, 0x64, 0x96,
    0x26, 0x86, 0x4d, 0x88, 0xae, 0x83, 0x88, 0x68, 0x91, 0x87,
    0x9c, 0x52, 0x91, 0x86, 0x69, 0xaf, 0x91, 0x7b, 0x87, 0x27,
    0x97, 0xc1, 0x90, 0x73, 0x7c, 0x81, 0x84, 0x8e, 0xa2, 0xba,
    0x69, 0x7e, 0xda, 0x74, 0x52, 0x89, 0x8f, 0x75, 0x46, 0x6c,
    0x61, 0x6c, 0xaa, 0xa1, 0xbf, 0x3b, 0x6e, 0xcd, 0x40, 0xb7,
    0x6c, 0xae, 0xc5, 0x69, 0x97, 0x97, 0x9e, 0x70, 0x5f, 0xb5,
    0x72, 0x81, 0x71, 0xab, 0x63, 0x84, 0x7f, 0x21, 0x51, 0xa4,
    0x81, 0xc0, 0x52, 0xb9, 0x71, 0x8d, 0x82, 0x99, 0x5b, 0x85,
    0xc7, 0x60, 0x23, 0xb7, 0x91, 0xab, 0x4c, 0x71, 0x6f, 0x5f,
    0xb0, 0xb4, 0xb6, 0x57, 0x9c, 0xa7, 0x2e, 0xa3, 0x49, 0xa4,
    0x9b, 0x77, 0x96, 0x3f, 0xb2, 0x69, 0x8f, 0xad, 0x73, 0x9a,
    0x63, 0xb0, 0x8b, 0x7d, 0xb3, 0x5a, 0x72, 0x81, 0x9b, 0x9a,
    0xa4, 0xce, 0xaf, 0x70, 0x90, 0xa1, 0x4e, 0x5d, 0xbb, 0x6e,
    0x46, 0xa3, 0xa8, 0xa8, 0x66, 0x72, 0xa1, 0x50, 0xb8, 0x9b,
    0xb5, 0x46, 0xa3, 0x99, 0x39, 0x91, 0x26, 0x9e, 0xbf, 0xa0,
    0x8e, 0x77, 0xa0, 0x63, 0x98, 0x7e, 0x5e, 0x5c, 0xa0, 0x8f,
    0x6e, 0x9b, 0x76, 0x56, 0x59, 0xc2, 0xa6, 0x8a, 0x57, 0xcb,
    0x81, 0x5f, 0xb8, 0xae, 0x38, 0x69, 0xa9, 0x5e, 0x62, 0x9b,
    0x92, 0x7c, 0x57, 0x8b, 0x69, 0x46, 0x9c, 0xb5, 0xb6, 0x34,
    0x5c, 0xae, 0x42, 0xa8, 0x58, 0xb0, 0xc8, 0xab, 0x8a, 0x6f,
    0xc6, 0x87, 0x9f, 0x88, 0xb1, 0x83, 0x9d, 0xa6, 0xa3, 0x74,
    0xb9, 0x4b, 0x8e, 0xa8, 0xa9, 0x91, 0x80, 0xa0, 0xa2, 0x58,
    0x84, 0xb2, 0x6c, 0x69, 0xbf, 0x8b, 0x59, 0x82, 0x9b, 0x83,
    0x81, 0x5a, 0x5a, 0x76, 0xac, 0x87, 0xc9, 0x6c, 0xb2, 0x9d,
    0x65, 0xb3, 0x49, 0xcd, 0xd4, 0x98, 0x89, 0x4d, 0x8e, 0x7b,
    0xca, 0xb4, 0xa1, 0xa5, 0xaf, 0xc7, 0x89, 0x80, 0x8d, 0x73,
    0x84, 0xbe, 0x81, 0x9e, 0x6e, 0xba, 0xab, 0x56, 0x7b, 0xca,
    0xaa, 0x68, 0x93, 0x8e, 0xac, 0x5a, 0x61, 0x6e, 0x84, 0xd8,
    0xa1, 0xe1, 0xc5, 0xb1, 0x72, 0x62, 0x57, 0xa9, 0xac, 0x79,
    0x8e, 0xcc, 0x88, 0x83, 0x61, 0x63, 0xc0, 0xa3, 0xfd, 0xa0,
    0xab, 0x73, 0xb5, 0xd5, 0x8e, 0xc0, 0x90, 0xb4, 0xc4, 0x91,
    0x92, 0x93, 0x80, 0x8c, 0xa8, 0x4b, 0x53, 0xab, 0xac, 0x7a,
    0xc1, 0x81, 0xaa, 0x7b, 0x5d, 0xb1, 0x7d, 0x9d, 0xbd, 0x97,
    0xac, 0x65, 0xa8, 0x54, 0x6c, 0xb2, 0xbe, 0x73, 0x79, 0xa5,
    0x8b, 0xba, 0x74, 0x5f, 0xb4, 0x7b, 0xab, 0x99, 0x89, 0x6d,
    0xc0, 0x9c, 0xa3, 0x74, 0x9e, 0xaa, 0xac, 0x71, 0x84, 0x70,
    0x61, 0x81, 0x7f, 0x84, 0x75, 0xa8, 0xba, 0x4d, 0xa3, 0x3d,
    0xa2, 0x7b, 0x6f, 0x87, 0x69, 0xc4, 0x9d, 0xd1, 0xd5, 0x66,
    0x9c, 0x91, 0x81, 0xac, 0x99, 0x82, 0x9c, 0xb8, 0x8a, 0xb7,
    0x93, 0x7a, 0x8f, 0xa9, 0x9e, 0xb4, 0xa8, 0xb4, 0xd5, 0xc1,
    0xa0, 0x78, 0x7c, 0xae, 0x7f, 0x67, 0x6a, 0x74, 0xa1, 0x59,
    0x96, 0x7f, 0x81, 0xa4, 0x97, 0x72, 0xa1, 0x98, 0x8e, 0xaa,
    0x41, 0x6b, 0x66, 0xb2, 0xb8, 0xa1, 0xd7, 0x88, 0xac, 0x97,
    0x53, 0x85, 0xac, 0x54, 0x5c, 0xad, 0x8c, 0x93, 0x7b, 0x70,
    0x8a, 0x83, 0xb2, 0x7b, 0x97, 0x7f, 0xc8, 0x75, 0x9b, 0xa6,
    0x8f, 0xc3, 0xcc, 0x68, 0x46, 0x91, 0xae, 0x7a, 0x91, 0x67,
    0x72, 0x9e, 0xbd, 0x79, 0x9b, 0x75, 0x83, 0x6e, 0x4f, 0xb9,
    0x59, 0x8d, 0xb3, 0xa8, 0xd1, 0x7e, 0x67, 0x79, 0x86, 0x78,
    0xad, 0x48, 0x85, 0xae, 0x84, 0x97, 0x6a, 0x97, 0x84, 0x8e,
    0xdf, 0x5f, 0x97, 0x80, 0x9d, 0x76, 0x97, 0x7c, 0x65, 0xaa,
    0x80, 0x79, 0x75, 0x9a, 0xa4, 0x71, 0x8e, 0x79, 0x6f, 0xca,
    0xb3, 0x54, 0xc2, 0x97, 0x8d, 0x86, 0x44, 0xb9, 0x73, 0x8d,
    0x95, 0xc0, 0xce, 0x77, 0x83, 0x64, 0xab, 0x63, 0xb9, 0xa7,
    0x84, 0xa7, 0x91, 0x83, 0x47, 0x8e, 0xa9, 0xb2, 0xa3, 0x93,
    0xb1, 0x9d, 0xa3, 0x8d, 0x90, 0xa9, 0xa8, 0xb2, 0xbf, 0x83,
    0x76, 0x9a, 0x80, 0x66, 0x7c, 0x90, 0x42, 0xae, 0xab, 0x53,
    0xa0, 0x68, 0xb0, 0x89, 0x79, 0xa4, 0x77, 0xb0, 0xaa, 0xaa,
    0xa7, 0xa7, 0x89, 0x7e, 0x79, 0xa0, 0xa1, 0x80, 0x71, 0xab,
    0xa9, 0x76, 0x60, 0x75, 0xa5, 0x82, 0xc9, 0x99, 0xa5, 0xab,
    0xbd, 0xba, 0x90, 0x98, 0x68, 0xbb, 0xb2, 0x67, 0x32, 0x89,
    0x6b, 0x84, 0x7f, 0x4c, 0x63, 0x9a, 0xc0, 0x60, 0xbb, 0x71,
    0x86, 0x69, 0x6a, 0x69, 0x66, 0x9b, 0xab, 0xc0, 0xb7, 0x70,
    0xc0, 0x76, 0x91, 0x70, 0xab, 0x88, 0x5b, 0x9d, 0x8a, 0x91,
    0x77, 0x75, 0x83, 0x74, 0xdd, 0x92, 0xab, 0x86, 0xc0, 0xa1,
    0x79, 0x89, 0x5c, 0xbc, 0xc4, 0x9c, 0x34, 0x94, 0x93, 0x5a,
    0x8a, 0x66, 0x7e, 0xbc, 0x98, 0x79, 0x8c, 0x99, 0x7f, 0xa3,
    0x6d, 0x7b, 0x4d, 0xb5, 0xb5, 0x9f, 0xd7, 0x6e, 0xc3, 0x9e,
    0x8c, 0x84, 0x99, 0x4a, 0x6e, 0xbe, 0x94, 0x68, 0x32, 0x57,
    0xc2, 0x71, 0xa8, 0x78, 0x8a, 0x9c, 0x97, 0xc0, 0x9d, 0x93,
    0x7a, 0x93, 0xad, 0x75, 0x82, 0x7c, 0xae, 0x93, 0x7c, 0x9d,
    0x9d, 0xe1, 0xbe, 0x3c, 0xa0, 0xaf, 0x6d, 0x82, 0x8a, 0x98,
    0x65, 0xaf, 0x9b, 0xb4, 0xe8, 0x84, 0xd1, 0x7b, 0x8e, 0x9d,
    0xb6, 0x48, 0x56, 0x9f, 0x92, 0x68, 0x4a, 0x53, 0xaf, 0x91,
    0xfc, 0xc9, 0xa3, 0xa4, 0xce, 0x6b, 0xa0, 0x9d, 0x47, 0xbb,
    0x9c, 0x83, 0x39, 0x76, 0xd5, 0x74, 0x89, 0xbe, 0xae, 0x6e,
    0x45, 0xbe, 0x73, 0xb9, 0x49, 0xab, 0x75, 0xae, 0x90, 0x25,
    0x96, 0x30, 0xa1, 0x7c, 0x2c, 0x8c, 0x7b, 0x9e, 0xd2, 0x87,
    0xb4, 0x4b, 0x60, 0x93, 0xa9, 0x98, 0x53, 0x84, 0xbb, 0x76,
    0x90, 0x8b, 0xa9, 0xc2, 0xa3, 0xa8, 0x9e, 0x6f, 0x5f, 0x9d,
    0x2f, 0xd0, 0xa7, 0x7f, 0x79, 0xaa, 0xc4, 0x86, 0x11, 0x98,
    0x81, 0xdf, 0x77, 0xc9, 0x91, 0xc2, 0xa6, 0x26, 0x85, 0x5a,
    0xa9, 0xc2, 0x2f, 0xc0, 0x86, 0x79, 0x9d, 0x80, 0xa3, 0x94,
    0x46, 0xa2, 0xba, 0x7e, 0x90, 0x82, 0xb7, 0x9f, 0xa4, 0x6c,
    0x9e, 0xc1, 0xae, 0xaf, 0x93, 0x7f, 0x82, 0x79, 0x3b, 0xa5,
    0xd7, 0xa2, 0x72, 0xd0, 0xbb, 0xa9, 0x4e, 0x8e, 0x98, 0x9b,
    0x60, 0xcc, 0x97, 0x8a, 0x8f, 0x50, 0x86, 0x6e, 0xa8, 0xb9,
    0x51, 0xbb, 0xa9, 0x76, 0x9e, 0x9b, 0xa3, 0x8a, 0x84, 0xbd,
    0x95, 0x67, 0x73, 0x98, 0xaa, 0x93, 0xb2, 0x89, 0x8a, 0x95,
    0xbb, 0xc3, 0x70, 0x72, 0x6f, 0x8f, 0x54, 0xa2, 0xd8, 0x85,
    0x72, 0x9b, 0x97, 0x75, 0x5d, 0xcc, 0x8c, 0xa3, 0x75, 0xa2,
    0x77, 0xa2, 0x99, 0x4e, 0xa7, 0x78, 0x8e, 0x7c, 0x65, 0x8f,
    0xc3, 0x7b, 0xba, 0x9c, 0xab, 0x8b, 0x61, 0xa6, 0x89, 0x96,
    0x9d, 0x88, 0x8a, 0xa8, 0xb8, 0x6f, 0xa6, 0x8f, 0xb3, 0xb3,
    0x71, 0xad, 0xaf, 0xb1, 0x48, 0xa4, 0xde, 0x6f, 0x8c, 0xac,
    0x82, 0x95, 0x42, 0xa6, 0x8e, 0xb5, 0x53, 0xa7, 0x72, 0x94,
    0xa2, 0x54, 0x6c, 0x2f, 0xb9, 0x9b, 0x80, 0xab, 0x9a, 0x4b,
    0xaf, 0x7f, 0x93, 0x68, 0x8d, 0xaa, 0x93, 0x7f, 0x75, 0xb4,
    0x85, 0x93, 0xb7, 0x6b, 0xa8, 0xac, 0x9e, 0x87, 0x92, 0xb0,
    0xa1, 0x7b, 0x7a, 0x88, 0xca, 0x9a, 0x93, 0xb1, 0xa3, 0x70,
    0x53, 0xb7, 0x9d, 0xc5, 0x3e, 0x9c, 0x7d, 0x88, 0x86, 0x3b,
    0x7e, 0x1f, 0xa3, 0x9c, 0x45, 0xc4, 0x94, 0x97, 0xb9, 0xb1,
    0xa4, 0x21, 0x6d, 0x9e, 0x8f, 0x97, 0x65, 0xa8, 0xa8, 0xaf,
    0xa1, 0x98, 0x84, 0xc7, 0x8c, 0xb6, 0x5b, 0x85, 0xaf, 0xc3,
    0x44, 0xba, 0xb3, 0x79, 0x92, 0x97, 0x94, 0x83, 0x60, 0x91,
    0x78, 0x9a, 0x53, 0xc3, 0x73, 0xb5, 0xa8, 0x5d, 0x5c, 0x37,
    0xab, 0xbd, 0x5c, 0x93, 0xad, 0x68, 0xc9, 0x88, 0xab, 0x61,
    0x59, 0x94, 0x97, 0x91, 0x5a, 0x87, 0xbe, 0x71, 0xa7, 0x61,
    0x67, 0xaa, 0xb2, 0x97, 0x85, 0x86, 0x88, 0x6d, 0x4e, 0xb2,
    0xcf, 0x68, 0x76, 0xbd, 0x90, 0x97, 0x58, 0x87, 0xad, 0xc7,
    0x52, 0xaa, 0x8c, 0x97, 0x94, 0x2b, 0x93, 0x7a, 0x94, 0xa0,
    0x85, 0x88, 0xa6, 0x7b, 0xb6, 0xa4, 0x9d, 0x5b, 0x7f, 0x81,
    0x98, 0x8a, 0x8a, 0x81, 0x8c, 0x9a, 0x71, 0x76, 0x96, 0xb6,
    0x82, 0xcc, 0x78, 0x68, 0x7d, 0x7b, 0x8e, 0xb0, 0xae, 0x97,
    0xa8, 0x97, 0x98, 0x77, 0x6e, 0xa6, 0x8b, 0xb3, 0x22, 0xb9,
    0x75, 0xb6, 0xac, 0x4f, 0x78, 0x37, 0xd0, 0xbc, 0x82, 0xac,
    0xbf, 0x82, 0x9d, 0xb7, 0xa6, 0x66, 0x50, 0xc0, 0xb4, 0x8e,
    0xa5, 0x87, 0xb7, 0x69, 0x97, 0x66, 0x92, 0xd1, 0x90, 0xa7,
    0x9e, 0x72, 0x8b, 0xa5, 0x7d, 0x8d, 0xe1, 0xaa, 0xb1, 0xb3,
    0xa1, 0x7a, 0x20, 0xad, 0xbb, 0xcf, 0x3a, 0xb4, 0x74, 0x84,
    0x9a, 0x69, 0x83, 0x61, 0xa9, 0x90, 0x67, 0x77, 0x84, 0x6a,
    0xa1, 0xa7, 0x9d, 0x4e, 0x61, 0x90, 0x7d, 0x77, 0x91, 0x80,
    0xad, 0x62, 0x9b, 0x5f, 0x8b, 0xbd, 0x9d, 0xb9, 0x6c, 0x69,
    0x67, 0xbc, 0x75, 0x88, 0xb6, 0x7f, 0xaa, 0xb4, 0x99, 0x3e,
    0x6c, 0x9e, 0x70, 0x7d, 0x74, 0x8d, 0x99, 0x8c, 0x99, 0x3e,
    0x96, 0x80, 0x29, 0x89, 0x58, 0x84, 0x6d, 0x86, 0x4d, 0x7f,
    0xa0, 0x54, 0x52, 0x6b, 0xaf, 0xbe, 0x67, 0x72, 0x61, 0x4c,
    0x26, 0x8c, 0x93, 0x01, 0xb3, 0x09, 0xbb, 0x68, 0x31, 0x96,
    0x6c, 0xc7, 0x47, 0x8a, 0x93, 0xa6, 0xa4, 0x3b, 0xa4, 0x8e,
    0x6a, 0xaf, 0x89, 0x62, 0xa8, 0x85, 0xa6, 0x4d, 0x97, 0xc1,
    0x35, 0xc1, 0x8f, 0x97, 0x73, 0xa5, 0x37, 0x90, 0x98, 0x60,
    0x3a, 0x75, 0x91, 0xa2, 0x44, 0x9a, 0x6a, 0x34, 0x0c, 0x9a,
    0x6f, 0x50, 0x8c, 0x36, 0xbd, 0x43, 0x37, 0x86, 0x7d, 0xa7,
    0x5a, 0xcd, 0xb7, 0xa9, 0x69, 0x2a, 0xac, 0x80, 0x51, 0x92,
    0x89, 0x60, 0xad, 0x90, 0xab, 0x28, 0x8b, 0xb8, 0x22, 0xb8,
    0x5e, 0x74, 0x9f, 0x76, 0x48, 0x87, 0x85, 0x40, 0x26, 0x97,
    0xb9, 0xa6, 0x78, 0x80, 0x54, 0x53, 0x67, 0xc3, 0x8c, 0x17,
    0xb9, 0x25, 0xbf, 0x49, 0x58, 0xb3, 0x73, 0xa9, 0x5a, 0xb0,
    0xc1, 0x85, 0x9a, 0x2f, 0x96, 0xa1, 0x67, 0x92, 0xaf, 0x85,
    0xbb, 0x82, 0xc8, 0x3d, 0x85, 0xc7, 0x56, 0xa5, 0x7a, 0x6a,
    0x84, 0x7f, 0x3a, 0xaf, 0x9a, 0x9b, 0x5b, 0xa8, 0xa0, 0xa8,
    0x65, 0x82, 0x67, 0x3c, 0x63, 0x9c, 0x87, 0x36, 0xad, 0x4b,
    0xae, 0x5e, 0x42, 0x95, 0xa2, 0x80, 0x99, 0xb9, 0xaa, 0xa8,
    0x99, 0x44, 0x81, 0x84, 0x65, 0xaf, 0x7b, 0x5b, 0x9b, 0x70,
    0xa3, 0x37, 0x94, 0x93, 0x47, 0xc5, 0xa0, 0xa6, 0x7f, 0x73,
    0x6c, 0xb2, 0xab, 0x8a, 0x58, 0x70, 0x94, 0xb5, 0x4b, 0x94,
    0x57, 0x5e, 0x99, 0x9d, 0x7c, 0x6a, 0xc1, 0x62, 0xa8, 0x73,
    0xad, 0x97, 0x81, 0x9a, 0x59, 0x84, 0x9c, 0xae, 0x94, 0x21,
    0x75, 0xb1, 0x33, 0xb0, 0x84, 0x75, 0xae, 0xb5, 0x9c, 0x5a,
    0xb4, 0xc0, 0x65, 0xb7, 0x53, 0x8a, 0x6e, 0xb8, 0x5c, 0xa3,
    0x8c, 0x74, 0x89, 0xa1, 0x95, 0xab, 0x5e, 0xab, 0x46, 0xb3,
    0x65, 0xbb, 0x78, 0x10, 0x8a, 0x83, 0xa8, 0x7b, 0x5c, 0x9f,
    0x5d, 0xa0, 0x68, 0xa9, 0xaf, 0x8c, 0x7a, 0x49, 0xba, 0xb3,
    0x4b, 0x8e, 0xb7, 0x8e, 0xb5, 0xb3, 0xb4, 0x3a, 0x98, 0xb5,
    0x40, 0x9a, 0x4f, 0x85, 0x8c, 0xa0, 0x5f, 0x7c, 0x9d, 0x43,
    0x25, 0xb2, 0x92, 0xc8, 0x62, 0x8a, 0x8c, 0x59, 0x46, 0xaf,
    0x92, 0x14, 0xbb, 0x30, 0xa1, 0x77, 0x44, 0xb2, 0x69, 0xa8,
    0x66, 0x9b, 0xa7, 0x99, 0x7c, 0x30, 0xb6, 0x88, 0x53, 0x9e,
    0xbb, 0x8e, 0xa4, 0xa2, 0xa9, 0x61, 0x71, 0xb1, 0x2e, 0x8b,
    0x6c, 0x7d, 0x7c, 0x88, 0x62, 0xa4, 0xa8, 0x56, 0x62, 0xaa,
    0x9d, 0xb7, 0x63, 0xa4, 0x29, 0x33, 0x63, 0xc0, 0x78, 0x06,
    0x99, 0x3e, 0xad, 0x33, 0x55, 0xa7, 0x66, 0x8d, 0x5f, 0xd0,
    0xc6, 0x85, 0x86, 0x68, 0x81, 0xb1, 0x65, 0xa8, 0x9f, 0x6b,
    0xa8, 0xad, 0xc7, 0x58, 0x9e, 0x84, 0x70, 0x76, 0x78, 0x76,
    0x88, 0xb6, 0x53, 0xa5, 0xb0, 0x36, 0x67, 0x75, 0xaf, 0x98,
    0x88, 0x80, 0x79, 0x34, 0x12, 0x9f, 0x90, 0x3b, 0x8e, 0x4b,
    0xc0, 0x4d, 0x61, 0x7b, 0x78, 0x86, 0x3a, 0xc1, 0xac, 0xa1,
    0x70, 0x2f, 0x9c, 0xb4, 0x33, 0xb4, 0x7f, 0x81, 0xc0, 0xa8,
    0xad, 0x4d, 0x88, 0x7c, 0x0b, 0xb5, 0x42, 0x83, 0x9b, 0x91,
    0x35, 0xa6, 0x9d, 0x7e, 0x4c, 0xb4, 0xa9, 0xd0, 0x71, 0x76,
    0x45, 0x4f, 0x41, 0xbc, 0x98, 0x41, 0xb8, 0x61, 0xae, 0x71,
    0x59, 0x89, 0x96, 0xae, 0x4a, 0x8a, 0x93, 0x97, 0xaf, 0x30,
    0xb5, 0xa8, 0x39, 0x98, 0xc3, 0x8a, 0x92, 0xba, 0x7b, 0xfc,
    0x9b, 0xb6, 0x9f, 0x43, 0x3d, 0x68, 0x5c, 0xa1, 0x92, 0x88,
    0xc2, 0x3b, 0x85, 0x6d, 0xb7, 0x90, 0x92, 0x44, 0x8b, 0x69,
    0x12, 0x5d, 0xb5, 0x66, 0x72, 0x7f, 0x9d, 0x33, 0x4e, 0xbc,
    0xb3, 0x98, 0x82, 0xa1, 0x9a, 0x87, 0x8e, 0x2e, 0xae, 0xa0,
    0x0e, 0xbe, 0x93, 0x6c, 0x94, 0x74, 0x86, 0xe6, 0xbe, 0x99,
    0xa2, 0x88, 0x35, 0x45, 0x71, 0x8a, 0xac, 0x79, 0x97, 0x73,
    0x7f, 0xab, 0x90, 0xa7, 0x85, 0x85, 0x6a, 0x75, 0x55, 0x4e,
    0x7f, 0x99, 0x67, 0xa2, 0xb9, 0x34, 0x7d, 0x7e, 0xc8, 0xa0,
    0x60, 0x72, 0x6a, 0xa4, 0x8c, 0x65, 0xaf, 0x9c, 0x43, 0x92,
    0xad, 0x89, 0x97, 0x83, 0xb1, 0xc8, 0xbe, 0xb2, 0x86, 0x4c,
    0x81, 0x41, 0x40, 0x80, 0x9a, 0x9b, 0x9c, 0x68, 0x7b, 0xb1,
    0xb5, 0x7b, 0x50, 0x55, 0x5a, 0xa6, 0x62, 0x80, 0x8e, 0x67,
    0x86, 0xbd, 0xa9, 0x1b, 0x4c, 0xb6, 0xbf, 0xa9, 0x9a, 0x89,
    0x9b, 0x84, 0x9b, 0x47, 0xa7, 0xab, 0x2f, 0xae, 0x8d, 0x8c,
    0x8f, 0xad, 0xb5, 0xa3, 0x97, 0xbd, 0xaf, 0x5e, 0x3a, 0x94,
    0x71, 0x82, 0x95, 0x86, 0x96, 0x8b, 0x37, 0x8c, 0x7e, 0x66,
    0x84, 0x6a, 0x86, 0x8e, 0x73, 0x60, 0xb1, 0x6e, 0x67, 0x90,
    0x95, 0x16, 0x8b, 0x78, 0xe5, 0x7d, 0x5b, 0x94, 0x88, 0xc1,
    0x91, 0x4a, 0xaa, 0xb1, 0x35, 0xb2, 0x78, 0x6f, 0x84, 0xa2,
    0x99, 0xc1, 0x9a, 0xb7, 0xcd, 0x6d, 0x89, 0x2e, 0x4a, 0x7a,
    0xb4, 0x92, 0xaf, 0x5f, 0x67, 0xad, 0x91, 0x70, 0x72, 0x5b,
    0x91, 0x63, 0x6a, 0x72, 0x8a, 0x7a, 0x98, 0xb5, 0xae, 0x23,
    0x2f, 0x77, 0xc9, 0xb4, 0x74, 0x73, 0x88, 0xbf, 0xa8, 0x30,
    0xa3, 0xab, 0x50, 0xc1, 0xbb, 0x70, 0xb7, 0xa2, 0x88, 0xc3,
    0xa1, 0xaa, 0xc2, 0x73, 0x37, 0x6e, 0x40, 0xa4, 0x99, 0x96,
    0xb4, 0x74, 0x4d, 0x99, 0xae, 0x6a, 0x74, 0x45, 0x88, 0x5d,
    0x13, 0x7d, 0x9c, 0x4f, 0x6d, 0x70, 0x94, 0x43, 0x41, 0x88,
    0xca, 0xba, 0x91, 0xa0, 0x9e, 0x7e, 0x88, 0x1f, 0xab, 0xb5,
    0x0c, 0xc1, 0xaf, 0x7b, 0xa9, 0x8b, 0x86, 0xd9, 0xd4, 0xa0,
    0xbe, 0x5a, 0x59, 0x2e, 0x40, 0x95, 0xc8, 0x72, 0xb6, 0x31,
    0x4a, 0x7d, 0x88, 0x8c, 0x63, 0x72, 0x7b, 0x6f, 0x35, 0x67,
    0x76, 0x93, 0x62, 0xc6, 0xa8, 0x36, 0x15, 0xc0, 0xac, 0x8f,
    0x81, 0xc4, 0x6a, 0xba, 0xad, 0x12, 0x7a, 0x88, 0x4e, 0xaa,
    0xa8, 0x98, 0x9a, 0x92, 0x9d, 0xff, 0xa1, 0xc8, 0xb6, 0x42,
    0x6b, 0x3b, 0x5c, 0x9c, 0x9f, 0x7c, 0xbe, 0x3d, 0x57, 0x7c,
    0xb0, 0x6b, 0x8d, 0x67, 0x86, 0x63, 0x47, 0x93, 0x9a, 0x97,
    0x99, 0xc6, 0xb9, 0x68, 0x68, 0x74, 0xd2, 0x84, 0x9c, 0xb6,
    0x99, 0xcc, 0xb0, 0x20, 0x89, 0x8a, 0x1d, 0xd1, 0xa7, 0x8b,
    0x9f, 0x96, 0xa6, 0xc8, 0xb4, 0xa9, 0xa1, 0x63, 0x63, 0x50,
    0x33, 0x82, 0xbc, 0x70, 0xb3, 0x50, 0x53, 0x7e, 0x9e, 0x78,
    0x44, 0x63, 0x7c, 0xa7, 0x21, 0x69, 0xae, 0x88, 0x8c, 0xad,
    0xb3, 0x51, 0x48, 0xa2, 0xc1, 0x98, 0x65, 0x97, 0x8f, 0x93,
    0x7a, 0x31, 0x8f, 0xc0, 0x00, 0xcd, 0x9f, 0x6a, 0xa9, 0x71,
    0x86, 0xb2, 0xc8, 0xc1, 0x83, 0x67, 0x5e, 0x7d, 0x5b, 0x9b,
    0x95, 0x82, 0xab, 0x36, 0x30, 0x6b, 0x93, 0x63, 0x5c, 0x3f,
    0x84, 0x58, 0x71, 0x8a, 0xaa, 0x54, 0x85, 0xb5, 0x96, 0x85,
    0x6a, 0xaf, 0xc1, 0x80, 0x9b, 0xa4, 0x6c, 0x99, 0x37, 0x71,
    0x7d, 0x70, 0x8d, 0x76, 0xa1, 0x7c, 0x37, 0x6b, 0xcb, 0x9e,
    0x92, 0x85, 0x3d, 0x7a, 0x5e, 0xd1, 0xa7, 0x48, 0x9a, 0x47,
    0xb1, 0xa5, 0x84, 0xa6, 0x69, 0xe2, 0x81, 0xba, 0x8b, 0x6f,
    0x8b, 0xc8, 0x9d, 0x6b, 0x9d, 0x82, 0xa1, 0xa2, 0x92, 0x81,
    0x59, 0x69, 0x93, 0x76, 0x4c, 0x69, 0x5a, 0x66, 0x6d, 0x6e,
    0x92, 0x87, 0xb5, 0x56, 0x47, 0xb8, 0xdf, 0x76, 0x6b, 0x90,
    0x60, 0x66, 0x7f, 0xa0, 0xab, 0x33, 0x8f, 0x69, 0xa5, 0xa6,
    0xa1, 0x77, 0x71, 0x9d, 0x81, 0x78, 0x85, 0xc7, 0x96, 0x93,
    0xa7, 0x7e, 0x9e, 0x5a, 0xa1, 0xc7, 0xa6, 0xb7, 0x35, 0x4f,
    0x85, 0x52, 0x44, 0x89, 0x9c, 0x83, 0x94, 0x61, 0x78, 0x82,
    0xad, 0x9c, 0x58, 0x9f, 0xbf, 0xa4, 0x46, 0x91, 0x7e, 0xa0,
    0x76, 0xa4, 0xa1, 0x17, 0x96, 0x61, 0xab, 0x80, 0x6b, 0xbe,
    0x5d, 0xb1, 0x76, 0x90, 0x5d, 0xb9, 0x84, 0xcd, 0xaa, 0x4e,
    0x83, 0x5b, 0x61, 0xb8, 0x91, 0xb9, 0x6f, 0x8c, 0x8a, 0x56,
    0x87, 0x66, 0x89, 0x93, 0x89, 0x85, 0xab, 0x90, 0x9c, 0x69,
    0x6c, 0xaa, 0xb4, 0x85, 0x79, 0x76, 0x4a, 0x8c, 0x63, 0xa1,
    0xc2, 0x99, 0x91, 0x51, 0xc4, 0x94, 0x8c, 0x89, 0x99, 0xc2,
    0x62, 0xc1, 0xb6, 0x6d, 0xbc, 0xb6, 0x93, 0x60, 0xaf, 0x3d,
    0x92, 0xa9, 0x8d, 0xa9, 0x49, 0x89, 0x42, 0xa1, 0x78, 0x80,
    0x47, 0x92, 0x85, 0x62, 0xb2, 0x61, 0x9e, 0x8b, 0x86, 0xc2,
    0xc0, 0x7e, 0x7f, 0x8d, 0x58, 0x6a, 0x8b, 0xc6, 0xbf, 0x90,
    0x7a, 0x75, 0x9f, 0xb3, 0xa0, 0xac, 0x87, 0xba, 0x85, 0x8d,
    0xa1, 0x76, 0x87, 0xaf, 0x6f, 0x55, 0xab, 0x7d, 0x81, 0xbf,
    0xa3, 0x67, 0x29, 0xa3, 0x72, 0xa6, 0x8b, 0x92, 0x58, 0xc4,
    0x87, 0x62, 0x86, 0x8a, 0x7b, 0xa7, 0x85, 0x85, 0xab, 0x70,
    0x97, 0x7e, 0x71, 0xbe, 0xa2, 0xb2, 0x9e, 0xa7, 0x88, 0x67,
    0x87, 0xb7, 0xbe, 0x70, 0x60, 0xaf, 0x75, 0x93, 0x97, 0x72,
    0x8e, 0x99, 0x99, 0x67, 0x85, 0x3b, 0x4e, 0x9b, 0xcb, 0x7c,
    0x28, 0x86, 0x6d, 0xb4, 0x61, 0x86, 0x5a, 0x9b, 0xa0, 0x9f,
    0x7e, 0x75, 0xa0, 0x91, 0x6f, 0x79, 0xc8, 0x86, 0x90, 0x93,
    0x6f, 0x66, 0xac, 0xca, 0x96, 0x9e, 0x9a, 0x4f, 0xba, 0x91,
    0x96, 0x8e, 0x8b, 0xb7, 0xa0, 0xba, 0xc7, 0xac, 0xbd, 0xa1,
    0xa1, 0x7d, 0x82, 0x69, 0x61, 0xa0, 0xaf, 0xa9, 0x45, 0x81,
    0x89, 0x9b, 0x66, 0x6e, 0x5f, 0x75, 0x83, 0x8f, 0xa6, 0x7d,
    0x87, 0xa2, 0x7a, 0x7f, 0xc1, 0x79, 0x67, 0x8a, 0x5b, 0x8c,
    0xb0, 0xba, 0xbc, 0x81, 0x84, 0x75, 0x92, 0x9d, 0x6f, 0x7f,
    0x7c, 0x97, 0x74, 0xa0, 0x83, 0x5a, 0xa5, 0xb5, 0xad, 0x3e,
    0x90, 0x75, 0x48, 0xaa, 0xa9, 0x96, 0x49, 0x99, 0x9d, 0x9b,
    0x70, 0x72, 0x7e, 0xb1, 0x58, 0x74, 0x6e, 0x6d, 0x77, 0x97,
    0x4d, 0x6d, 0xa9, 0xa3, 0x9b, 0x88, 0x7b, 0x54, 0x6b, 0xd4,
    0xbb, 0x8e, 0x91, 0x4f, 0xae, 0x5c, 0x72, 0xad, 0x98, 0xb6,
    0x87, 0xcb, 0xa1, 0x8d, 0x8e, 0xaf, 0x9f, 0x37, 0xb5, 0x37,
    0x87, 0x96, 0xc7, 0x9a, 0x36, 0x51, 0x86, 0xa4, 0x81, 0x95,
    0x4d, 0xa7, 0x55, 0x8a, 0xa4, 0x68, 0x84, 0x75, 0x6c, 0x6d,
    0xb2, 0x9b, 0x6c, 0x57, 0x0f, 0x4e, 0x62, 0xbf, 0x98, 0x89,
    0xa1, 0x69, 0xc0, 0x63, 0x4c, 0xb8, 0xa0, 0xd5, 0x8f, 0xb1,
    0x84, 0x8b, 0x61, 0xc5, 0x9b, 0x60, 0xa6, 0x42, 0x85, 0xb7,
    0x7b, 0xa1, 0x62, 0x6f, 0x53, 0x86, 0xd6, 0x69, 0xba, 0xbe,
    0x5e, 0xc4, 0xb9, 0xbe, 0x07, 0xec, 0xb7, 0xbe, 0x20, 0xad,
    0xb6, 0xbe, 0x38, 0x6e, 0xb5, 0xbe, 0x51, 0x2f, 0xb4, 0xbe,
    0xeb, 0x17, 0xb3, 0xbe, 0x82, 0xb1, 0xb1, 0xbe, 0x9a, 0x72,
    0xb0, 0xbe, 0xf2, 0x84, 0xaf, 0xbe, 0xcc, 0xf4, 0xad, 0xbe,
    0xb4, 0x28, 0xad, 0xbe, 0xad, 0xf1, 0xab, 0xbe, 0x15, 0x38,
    0xaa, 0xbe, 0x1c, 0xa3, 0xa8, 0xbe, 0x27, 0x39, 0xa7, 0xbe,
    0xe6, 0xc5, 0xa6, 0xbe, 0x2b, 0xd7, 0xa4, 0xbe, 0x93, 0xe7,
    0xa3, 0xbe, 0x08, 0x52, 0xa2, 0xbe, 0x06, 0x93, 0xa1, 0xbe,
    0x8a, 0xd1, 0x9f, 0xbe, 0x18, 0x45, 0x9f, 0xbe, 0xb0, 0x79,
    0x9d, 0xbe, 0x23, 0x84, 0x9c, 0xbe, 0x3c, 0x45, 0x9b, 0xbe,
    0x55, 0x06, 0x9a, 0xbe, 0x22, 0x0e, 0x99, 0xbe, 0x86, 0x88,
    0x97, 0xbe, 0xe9, 0xf9, 0x95, 0xbe, 0xb7, 0x0a, 0x95, 0xbe,
    0x88, 0xec, 0x93, 0xbe, 0x2c, 0x6a, 0x92, 0xbe, 0x23, 0xd0,
    0x90, 0xbe, 0x26, 0xac, 0x8f, 0xbe, 0x17, 0xb4, 0x8e, 0xbe,
    0x4a, 0x91, 0x8d, 0xbe, 0x87, 0x77, 0x8c, 0xbe, 0x8d, 0xfd,
    0x8a, 0xbe, 0x5a, 0xb1, 0x89, 0xbe, 0x80, 0x04, 0x88, 0xbe,
    0x93, 0x3c, 0x87, 0xbe, 0x20, 0x57, 0x86, 0xbe, 0x6a, 0xc8,
    0x84, 0xbe, 0xcf, 0x3f, 0x83, 0xbe, 0x27, 0x5b, 0x82, 0xbe,
    0xe3, 0x1c, 0x81, 0xbe, 0x31, 0x7a, 0x7f, 0xbe, 0xe5, 0x6f,
    0x7d, 0xbe, 0x5d, 0x2a, 0x7b, 0xbe, 0x5e, 0x14, 0x78, 0xbe,
    0x11, 0x84, 0x75, 0xbe, 0x8d, 0x9c, 0x73, 0xbe, 0xe8, 0xc8,
    0x70, 0xbe, 0x83, 0x0d, 0x6e, 0xbe, 0xaf, 0xaa, 0x6b, 0xbe,
    0xea, 0x25, 0x69, 0xbe, 0x7b, 0xbf, 0x66, 0xbe, 0xc2, 0x69,
    0x64, 0xbe, 0x45, 0xe8, 0x61, 0xbe, 0xdb, 0xdb, 0x5e, 0xbe,
    0x95, 0xe9, 0x5c, 0xbe, 0x22, 0x67, 0x5a, 0xbe, 0xf6, 0xc8,
    0x57, 0xbe, 0x39, 0x88, 0x55, 0xbe, 0x3d, 0xbb, 0x52, 0xbe,
    0x80, 0xa7, 0x4f, 0xbe, 0xd4, 0xbf, 0x4d, 0xbe, 0x70, 0x3f,
    0x4b, 0xbe, 0x7e, 0x28, 0x49, 0xbe, 0x26, 0x6c, 0x46, 0xbe,
    0x10, 0xb9, 0x43, 0xbe, 0x96, 0xb8, 0x41, 0xbe, 0xc1, 0xe0,
    0x3e, 0xbe, 0x97, 0xcb, 0x3c, 0xbe, 0x4d, 0x52, 0x3a, 0xbe,
    0xd2, 0x3f, 0x38, 0xbe, 0x5b, 0x6f, 0x35, 0xbe, 0x16, 0xc0,
    0x32, 0xbe, 0xc2, 0xe0, 0x2f, 0xbe, 0x29, 0x9b, 0x2d, 0xbe,
    0x7a, 0xd8, 0x2a, 0xbe, 0x72, 0x87, 0x28, 0xbe, 0x50, 0x00,
    0x26, 0xbe, 0xc2, 0x7e, 0x22, 0xbe, 0xb3, 0x9e, 0x20, 0xbe,
    0xf0, 0xef, 0x1e, 0xbe, 0xbf, 0x4b, 0x1c, 0xbe, 0xc9, 0xdc,
    0x19, 0xbe, 0x04, 0xdd, 0x17, 0xbe, 0x66, 0x03, 0x15, 0xbe,
    0x6e, 0x16, 0x12, 0xbe, 0xcc, 0xa7, 0x0f, 0xbe, 0x38, 0xd6,
    0x0d, 0xbe, 0xb1, 0x1b, 0x0b, 0xbe, 0xab, 0x22, 0x08, 0xbe,
    0xe1, 0x19, 0x06, 0xbe, 0xf7, 0x0d, 0x03, 0xbe, 0x0d, 0x63,
    0x00, 0xbe, 0x1d, 0x74, 0xfc, 0xbd, 0x7a, 0x6a, 0xf8, 0xbd,
    0xda, 0x32, 0xf4, 0xbd, 0x40, 0xcd, 0xed, 0xbd, 0xcc, 0x8b,
    0xe7, 0xbd, 0xb1, 0x58, 0xe2, 0xbd, 0x64, 0x69, 0xdc, 0xbd,
    0x05, 0xf7, 0xd8, 0xbd, 0xe3, 0x5d, 0xd4, 0xbd, 0x09, 0x8e,
    0xcf, 0xbd, 0xe4, 0xf2, 0xca, 0xbd, 0xdc, 0xd4, 0xc6, 0xbd,
    0xb1, 0x89, 0xc1, 0xbd, 0x05, 0x23, 0xbc, 0xbd, 0x18, 0x91,
    0xb7, 0xbd, 0xc7, 0x53, 0xb2, 0xbd, 0x0c, 0x00, 0xad, 0xbd,
    0xfd, 0xef, 0xa7, 0xbd, 0x25, 0x90, 0xa2, 0xbd, 0xee, 0xc4,
    0x9d, 0xbd, 0xfc, 0x1a, 0x98, 0xbd, 0xbf, 0x3f, 0x93, 0xbd,
    0x9c, 0x30, 0x8f, 0xbd, 0x78, 0x63, 0x8a, 0xbd, 0x42, 0xce,
    0x84, 0xbd, 0x61, 0x6d, 0x7e, 0xbd, 0x3a, 0xb2, 0x74, 0xbd,
    0xb6, 0xa8, 0x6c, 0xbd, 0x97, 0xdb, 0x61, 0xbd, 0xc1, 0x7d,
    0x58, 0xbd, 0xc8, 0xb2, 0x4c, 0xbd, 0x1e, 0x17, 0x43, 0xbd,
    0x67, 0x33, 0x3a, 0xbd, 0x6c, 0xab, 0x2f, 0xbd, 0x07, 0xf0,
    0x25, 0xbd, 0xc7, 0x73, 0x19, 0xbd, 0xc0, 0x93, 0x0f, 0xbd,
    0x30, 0x0c, 0x07, 0xbd, 0x26, 0x08, 0xf8, 0xbc, 0xbb, 0x92,
    0xe3, 0xbc, 0x77, 0xe0, 0xd0, 0xbc, 0x02, 0x3f, 0xbc, 0xbc,
    0x8d, 0xed, 0xab, 0xbc, 0xb3, 0xb5, 0x9a, 0xbc, 0xb9, 0xf5,
    0x85, 0xbc, 0x53, 0x39, 0x64, 0xbc, 0x70, 0x02, 0x3e, 0xbc,
    0x5e, 0xee, 0x0c, 0xbc, 0x2d, 0xa7, 0xc9, 0xbb, 0xae, 0x74,
    0x7c, 0xbb, 0xc6, 0xef, 0xcf, 0xba, 0x76, 0x0f, 0x4c, 0x3a,
    0x3c, 0x1b, 0x4d, 0x3b, 0x72, 0x45, 0xc0, 0x3b, 0xad, 0xd6,
    0x0b, 0x3c, 0xba, 0x52, 0x30, 0x3c, 0x7a, 0x24, 0x5e, 0x3c,
    0x47, 0x1d, 0x84, 0x3c, 0xea, 0x7f, 0x97, 0x3c, 0x55, 0xbe,
    0xaa, 0x3c, 0xbf, 0x2c, 0xbc, 0x3c, 0xfb, 0x30, 0xd1, 0x3c,
    0x53, 0xe6, 0xe6, 0x3c, 0x2c, 0x4a, 0xf7, 0x3c, 0x6a, 0x01,
    0x05, 0x3d, 0xa9, 0xce, 0x10, 0x3d, 0x83, 0xfc, 0x1a, 0x3d,
    0x3f, 0xb2, 0x22, 0x3d, 0x00, 0x2f, 0x2b, 0x3d, 0x09, 0x45,
    0x34, 0x3d, 0x1e, 0xea, 0x3e, 0x3d, 0xa9, 0x1d, 0x49, 0x3d,
    0xb9, 0xef, 0x53, 0x3d, 0xc5, 0x5d, 0x5e, 0x3d, 0xc4, 0x31,
    0x68, 0x3d, 0x32, 0x6e, 0x73, 0x3d, 0xbb, 0x6d, 0x7e, 0x3d,
    0x23, 0x5a, 0x84, 0x3d, 0x1c, 0xc2, 0x88, 0x3d, 0xb9, 0xdd,
    0x8c, 0x3d, 0x82, 0xa4, 0x91, 0x3d, 0x0e, 0x29, 0x96, 0x3d,
    0x15, 0x97, 0x9b, 0x3d, 0x3f, 0xbc, 0xa1, 0x3d, 0x89, 0xba,
    0xa6, 0x3d, 0x62, 0x47, 0xab, 0x3d, 0x4c, 0x86, 0xaf, 0x3d,
    0xfb, 0x10, 0xb5, 0x3d, 0x28, 0x2d, 0xba, 0x3d, 0xa8, 0x0b,
    0xbf, 0x3d, 0x4d, 0xa2, 0xc3, 0x3d, 0x5f, 0x9e, 0xc7, 0x3d,
    0x7f, 0x4c, 0xcc, 0x3d, 0x62, 0x1d, 0xd1, 0x3d, 0x3f, 0x97,
    0xd7, 0x3d, 0x2a, 0x42, 0xde, 0x3d, 0xd4, 0x84, 0xe2, 0x3d,
    0x72, 0x99, 0xe7, 0x3d, 0x1e, 0x81, 0xec, 0x3d, 0x94, 0xf0,
    0xf0, 0x3d, 0x01, 0xb3, 0xf4, 0x3d, 0xa1, 0x09, 0xfb, 0x3d,
    0xfc, 0xf6, 0xff, 0x3d, 0xf6, 0x5f, 0x02, 0x3e, 0x7e, 0x16,
    0x05, 0x3e, 0x5b, 0x66, 0x07, 0x3e, 0x01, 0x3c, 0x0a, 0x3e,
    0x27, 0xbb, 0x0c, 0x3e, 0x99, 0xa3, 0x0e, 0x3e, 0xf5, 0x84,
    0x11, 0x3e, 0x2c, 0x13, 0x14, 0x3e, 0x16, 0xaf, 0x16, 0x3e,
    0x5e, 0xb9, 0x18, 0x3e, 0x06, 0x15, 0x1b, 0x3e, 0xe0, 0xf1,
    0x1d, 0x3e, 0xd8, 0xaf, 0x20, 0x3e, 0x54, 0x3c, 0x23, 0x3e,
    0x6e, 0xd0, 0x25, 0x3e, 0x8c, 0x0c, 0x28, 0x3e, 0x40, 0x1d,
    0x2b, 0x3e, 0x4e, 0xcc, 0x2c, 0x3e, 0xa6, 0x90, 0x2e, 0x3e,
    0xe0, 0xab, 0x32, 0x3e, 0xe9, 0x14, 0x33, 0x3e, 0xc0, 0x3c,
    0x36, 0x3e, 0xcb, 0x49, 0x38, 0x3e, 0x49, 0x5d, 0x3c, 0x3e,
    0x64, 0x81, 0x3e, 0x3e, 0xc5, 0xba, 0x40, 0x3e, 0x94, 0x38,
    0x43, 0x3e, 0x8d, 0x0c, 0x46, 0x3e, 0xa9, 0x9a, 0x47, 0x3e,
    0x01, 0xb2, 0x4a, 0x3e, 0xb0, 0x5f, 0x4c, 0x3e, 0x9f, 0xad,
    0x4f, 0x3e, 0x6e, 0x2b, 0x52, 0x3e, 0x3c, 0xa9, 0x54, 0x3e,
    0x0b, 0x27, 0x57, 0x3e, 0xda, 0xa4, 0x59, 0x3e, 0xa9, 0x22,
    0x5c, 0x3e, 0x78, 0xa0, 0x5e, 0x3e, 0x47, 0x1e, 0x61, 0x3e,
    0x16, 0x9c, 0x63, 0x3e, 0xe5, 0x19, 0x66, 0x3e, 0xb3, 0x97,
    0x68, 0x3e, 0x82, 0x15, 0x6b, 0x3e, 0x51, 0x93, 0x6d, 0x3e,
    0x20, 0x11, 0x70, 0x3e, 0xef, 0x8e, 0x72, 0x3e, 0xbe, 0x0c,
    0x75, 0x3e, 0x8d, 0x8a, 0x77, 0x3e, 0x5c, 0x08, 0x7a, 0x3e,
    0x2a, 0x86, 0x7c, 0x3e, 0x6f, 0x0d, 0x7e, 0x3e, 0x7e, 0x18,
    0x80, 0x3e, 0xcc, 0xff, 0x81, 0x3e, 0xb3, 0x3e, 0x83, 0x3e,
    0x36, 0x34, 0xf3, 0x3c, 0xbd, 0xd5, 0x66, 0xbc, 0x7e, 0x1d,
    0x46, 0x3b, 0xde, 0x2c, 0x89, 0xbd, 0x76, 0x59, 0x0c,
    0x3c, 0x21, 0xe4, 0x01, 0x3d, 0xdd, 0x3a, 0xbb, 0xbb
  };

  return AI_HANDLE_PTR(s_network_weights);
}

